<unk>	0
<s>	0
</s>	0
▁,	-3.2885
▁.	-3.4417
d	-4.02673
▁	-4.11199
t	-4.15534
▁on	-4.16577
▁ja	-4.27638
s	-4.2954
i	-4.41364
e	-4.46427
l	-4.52792
b	-4.58172
▁ei	-4.59532
a	-4.63009
▁et	-4.69845
▁:	-4.70905
st	-4.72109
ga	-4.92561
le	-4.94924
ks	-4.96844
n	-4.98877
▁ka	-5.01732
▁kui	-5.09708
da	-5.1257
lt	-5.14744
▁see	-5.23549
▁siis	-5.23667
id	-5.2708
▁?	-5.3044
ne	-5.33648
gi	-5.34506
ma	-5.48635
vad	-5.5253
u	-5.56713
nud	-5.57477
▁aga	-5.61799
▁"	-5.6238
▁ma	-5.64459
▁nii	-5.73315
▁oli	-5.81151
ta	-5.81218
▁!	-5.81975
▁või	-5.8219
te	-5.83289
-	-5.84122
▁mis	-5.84931
▁...	-5.88296
▁seda	-5.90684
▁oma	-5.90865
▁selle	-5.94158
tud	-5.97757
m	-5.98781
▁pole	-5.9884
▁-	-6.05507
▁)	-6.08037
▁ole	-6.08126
▁(	-6.118
ki	-6.13504
▁sa	-6.13798
es	-6.19601
me	-6.20326
▁ta	-6.22917
k	-6.2476
▁ikka	-6.25486
h	-6.26457
▁ise	-6.26762
▁kes	-6.26876
.	-6.30753
ti	-6.3139
is	-6.32391
se	-6.32689
r	-6.3323
▁n	-6.33402
▁ju	-6.34884
na	-6.35587
sin	-6.35879
▁ära	-6.42594
o	-6.43686
▁mitte	-6.46762
▁oleks	-6.47081
▁veel	-6.48179
▁saa	-6.49059
mine	-6.51166
p	-6.51492
▁välja	-6.51781
sti	-6.52035
▁jub	-6.52465
ja	-6.53614
▁mingi	-6.54022
▁Kui	-6.5457
▁kõik	-6.54857
▁seal	-6.55519
▁nagu	-6.55702
de	-6.56525
ega	-6.56534
▁kas	-6.57864
▁midagi	-6.58825
us	-6.59108
▁Ja	-6.60491
▁aasta	-6.60637
in	-6.61859
▁mida	-6.62853
▁küll	-6.64755
ka	-6.64769
sid	-6.65298
▁saab	-6.67512
▁väga	-6.70034
▁Ma	-6.7186
ri	-6.74561
▁@	-6.7792
▁palju	-6.79392
y	-6.79486
▁pea	-6.79723
ku	-6.80023
▁p	-6.8012
▁neid	-6.81993
sse	-6.82107
▁See	-6.82144
▁olen	-6.82666
▁na	-6.8282
ke	-6.83014
▁mul	-6.83029
▁need	-6.83879
▁tuleb	-6.84494
▁lihtsa	-6.85106
v	-6.86026
▁võib	-6.86743
▁k	-6.87156
▁üks	-6.8849
▁tea	-6.88573
sest	-6.90574
▁teha	-6.90945
▁peale	-6.91395
▁Aga	-6.93808
▁sama	-6.95037
▁A	-6.95745
▁enam	-6.96023
▁keegi	-6.96067
▁üle	-6.96446
as	-6.9652
ning	-6.96968
▁auto	-6.97084
ud	-6.979
▁minu	-6.9811
▁iga	-6.9874
▁P	-6.9944
▁kus	-7.00301
ni	-7.00406
üüd	-7.0075
▁vaja	-7.00902
▁E	-7.01554
▁ainul	-7.01881
re	-7.03497
2	-7.04257
takse	-7.05273
▁vaid	-7.05838
el	-7.06199
ist	-7.0653
▁a	-7.07192
▁asi	-7.08035
ge	-7.08343
va	-7.08588
▁tagasi	-7.08808
▁..	-7.11089
▁olla	-7.13032
▁aru	-7.14234
▁Kas	-7.14345
des	-7.15456
▁rohkem	-7.17043
▁siin	-7.17116
er	-7.18133
▁T	-7.18409
ed	-7.19105
si	-7.19829
ra	-7.20014
▁peaks	-7.20214
▁K	-7.20947
▁nende	-7.22025
mise	-7.23374
▁jää	-7.23621
▁s	-7.2423
g	-7.25151
▁me	-7.26208
▁saada	-7.26292
▁hea	-7.26499
▁olema	-7.29027
▁mina	-7.30214
▁osa	-7.30293
▁kasuta	-7.31015
▁enne	-7.31451
▁teema	-7.32309
ar	-7.32493
est	-7.3309
▁tule	-7.33843
▁all	-7.34927
▁S	-7.35043
line	-7.35421
'	-7.35672
ini	-7.35861
▁meie	-7.35862
use	-7.35888
▁tee	-7.36406
ju	-7.3708
▁jah	-7.37235
al	-7.37778
▁te	-7.3955
▁just	-7.3997
▁olnud	-7.40421
▁Ei	-7.41179
6	-7.41351
▁pärast	-7.42678
gu	-7.42802
▁enda	-7.43306
tu	-7.4488
▁sellise	-7.45097
▁ühe	-7.45281
em	-7.4539
selt	-7.47889
▁kohta	-7.48534
▁suht	-7.48591
ad	-7.49261
▁to	-7.49711
▁vastu	-7.4976
▁käi	-7.49772
▁M	-7.50069
▁2	-7.50112
▁läbi	-7.50138
x	-7.50294
an	-7.50362
▁kuid	-7.50459
eid	-7.50803
sed	-7.51065
▁kuna	-7.51541
▁N	-7.52086
▁jne	-7.5216
▁asja	-7.52623
▁10	-7.53516
▁kohe	-7.53962
▁osta	-7.54259
▁ajal	-7.54493
pa	-7.54962
▁ülds	-7.55368
▁kogu	-7.55454
▁sai	-7.5583
mist	-7.55909
▁3	-7.5595
▁inimese	-7.55992
pi	-7.56026
▁tema	-7.56075
▁la	-7.56435
▁l	-7.56873
▁usu	-7.57298
▁õige	-7.57364
▁kõige	-7.57368
▁taha	-7.5809
▁võiks	-7.5914
▁maha	-7.5939
▁arva	-7.59762
▁hakka	-7.59862
▁ko	-7.5996
▁v	-7.60757
▁ehk	-7.60989
ve	-7.61449
▁aastat	-7.61499
ast	-7.61792
ust	-7.6245
▁inime	-7.62495
ik	-7.62989
miseks	-7.6305
▁päris	-7.63169
▁läheb	-7.63601
▁kah	-7.64143
▁muidugi	-7.65068
test	-7.65131
▁korda	-7.65146
▁L	-7.65299
▁eest	-7.65441
▁praegu	-7.65725
▁/	-7.66212
▁alla	-7.66212
tus	-7.66758
▁kindla	-7.66947
▁näite	-7.67134
▁ilmsel	-7.672
▁peab	-7.67321
▁oled	-7.67583
▁mille	-7.67831
il	-7.67896
▁saanud	-7.68176
▁Ka	-7.68336
kuidas	-7.6857
vi	-7.70079
▁vähema	-7.70359
▁R	-7.70411
▁elu	-7.7049
▁mu	-7.70809
▁%	-7.70976
▁raha	-7.71093
ü	-7.71093
▁ette	-7.71285
miks	-7.71364
õ	-7.71614
▁koos	-7.71889
li	-7.72104
nda	-7.72372
▁tead	-7.72751
▁tuli	-7.73459
▁pa	-7.74341
▁tu	-7.74424
▁I	-7.74636
▁töö	-7.74682
▁lisa	-7.75413
▁Eesti	-7.75767
kse	-7.75851
▁kunagi	-7.75894
▁selli	-7.75966
▁m	-7.75969
▁selles	-7.75986
▁aega	-7.76017
▁meil	-7.76223
▁suur	-7.76344
▁sin	-7.76754
▁päeva	-7.7721
sa	-7.77342
▁no	-7.77743
ing	-7.78797
▁alat	-7.78929
▁uue	-7.79782
▁minna	-7.79891
▁vist	-7.80227
olla	-7.80369
di	-7.80799
▁ütle	-7.80842
ha	-7.81383
7	-7.82299
▁1	-7.82933
▁Mul	-7.8321
ide	-7.83416
0	-7.83767
▁poole	-7.83798
▁Sa	-7.83805
/	-7.8424
▁se	-7.8439
▁räägi	-7.84483
▁kokku	-7.84522
▁H	-7.84561
▁ilma	-7.84647
▁nime	-7.84706
▁vähe	-7.84763
▁teine	-7.84826
et	-7.8515
▁läks	-7.85297
mi	-7.85441
▁Mis	-7.86044
▁sul	-7.86263
ele	-7.86893
du	-7.86961
▁erit	-7.87245
▁küsi	-7.87309
▁muud	-7.87332
▁var	-7.8737
▁vana	-7.87416
▁saaks	-7.87619
▁võimalik	-7.88574
▁oska	-7.88719
▁natuke	-7.89418
▁juurde	-7.89418
▁Nee	-7.89475
▁pi	-7.90101
ru	-7.90235
▁Mi	-7.90451
▁aeg	-7.90696
▁koha	-7.90859
▁pane	-7.91363
▁sinu	-7.9144
▁No	-7.9164
▁umb	-7.91993
▁Saku	-7.92107
▁suuda	-7.92144
▁aju	-7.92161
▁olemas	-7.9227
▁panna	-7.92315
▁Selle	-7.92519
▁Nii	-7.9252
D	-7.92884
▁ha	-7.93081
▁puudu	-7.93515
▁rahul	-7.93542
▁nei	-7.93592
▁öelda	-7.93901
▁V	-7.93923
▁jaoks	-7.94658
▁edasi	-7.94705
aja	-7.94723
tada	-7.94788
▁sellist	-7.94801
▁'	-7.94912
▁F	-7.94927
▁hetke	-7.95216
▁kooli	-7.9531
c	-7.9548
▁kirjuta	-7.95711
▁pe	-7.96567
▁muutu	-7.97284
▁järgi	-7.97321
▁tõesti	-7.97385
▁lahti	-7.974
▁tunne	-7.97742
▁e	-7.98141
▁eks	-7.98597
▁su	-7.98866
atud	-7.98878
ult	-7.98994
▁parem	-7.99016
del	-8.00293
▁viiruse	-8.00321
▁näe	-8.0044
▁lähe	-8.00444
▁liiga	-8.00525
▁liigu	-8.00587
▁täna	-8.01144
▁teise	-8.018
R	-8.02465
▁kuu	-8.02504
tel	-8.02882
ä	-8.03222
▁loo	-8.03322
mas	-8.03333
▁teada	-8.03411
▁võta	-8.03551
▁tegeliku	-8.03618
▁t	-8.03658
5	-8.03674
▁tundu	-8.04105
▁u	-8.04742
lise	-8.05439
▁too	-8.0554
dega	-8.05566
▁ku	-8.05746
▁j	-8.06194
▁jutt	-8.06993
on	-8.07445
▁maa	-8.07767
▁end	-8.0783
lik	-8.07974
▁suure	-8.08885
3	-8.09954
▁vale	-8.1046
▁peal	-8.10683
tes	-8.10782
▁Kuid	-8.1093
▁Sii	-8.10946
▁pu	-8.10965
▁siia	-8.11065
mata	-8.11207
▁proovi	-8.11636
▁Ta	-8.12093
▁aita	-8.12141
▁mööda	-8.12182
▁anna	-8.12248
▁puhu	-8.12375
▁Mina	-8.12493
▁kuni	-8.12687
▁O	-8.13057
▁vaata	-8.13061
▁aja	-8.13356
▁an	-8.13546
▁paar	-8.13664
▁üles	-8.14082
▁kord	-8.14149
▁head	-8.14341
▁100	-8.1437
1	-8.15125
▁raske	-8.15275
▁ütles	-8.15343
▁kuidagi	-8.15346
S	-8.1538
▁mind	-8.15643
▁pani	-8.15674
▁juhtu	-8.157
▁re	-8.15899
▁täpse	-8.16055
▁kinni	-8.1622
▁mingit	-8.16898
▁Jumal	-8.17061
igem	-8.17116
▁sel	-8.17661
▁levi	-8.18112
▁Le	-8.18402
▁ajas	-8.18441
▁jäl	-8.18546
▁julge	-8.18619
▁Seda	-8.18625
▁enn	-8.18732
▁hästi	-8.18843
muti	-8.1889
▁Ise	-8.18918
▁võtta	-8.19068
▁ra	-8.19404
▁nt	-8.19419
▁5	-8.20168
▁va	-8.20675
▁Sama	-8.214
▁äkki	-8.22056
▁arvamus	-8.22332
▁mõne	-8.22865
▁vee	-8.23127
▁näi	-8.23128
ol	-8.23181
ro	-8.23893
▁saad	-8.23947
mood	-8.23971
pärast	-8.23985
▁Või	-8.24262
▁....	-8.24567
▁inimes	-8.24579
val	-8.24698
ssi	-8.24713
or	-8.24771
▁Ko	-8.25062
▁tahaks	-8.25409
▁õlu	-8.25627
▁asju	-8.25634
▁toimu	-8.25642
▁vms	-8.25644
▁sisse	-8.25705
eks	-8.25914
▁Olen	-8.26043
▁saan	-8.26425
▁4	-8.26894
ine	-8.26966
▁hoid	-8.27457
▁luge	-8.275
▁taga	-8.27683
▁ees	-8.27757
▁teed	-8.27921
z	-8.28149
▁teeb	-8.28248
at	-8.28536
▁o	-8.28679
▁valguse	-8.28873
▁muu	-8.29307
▁tegema	-8.29334
▁hilj	-8.29341
▁abi	-8.29433
vat	-8.29547
▁hinna	-8.29753
tab	-8.30027
▁mõtle	-8.30424
kord	-8.30906
X	-8.31442
▁neil	-8.31561
kki	-8.32311
mm	-8.3263
▁ro	-8.32761
alt	-8.32915
▁hoopis	-8.33176
▁Vii	-8.33194
▁mõni	-8.33208
▁15	-8.33232
lus	-8.33303
▁näha	-8.33345
▁asjad	-8.33375
▁Eestis	-8.33503
▁tulnu	-8.33578
▁linna	-8.33651
▁ringi	-8.33878
he	-8.34247
▁kiirem	-8.34333
dest	-8.34563
▁G	-8.34575
eeri	-8.3469
mp	-8.35169
▁näita	-8.35223
▁20	-8.35495
▁sõit	-8.35945
▁terve	-8.36397
▁sure	-8.3662
▁sõna	-8.36801
▁istu	-8.36995
ava	-8.37008
kas	-8.37078
▁ümber	-8.37176
▁keha	-8.37182
▁küsimus	-8.37221
etakse	-8.37343
▁vii	-8.37382
▁meele	-8.37431
pp	-8.37634
E	-8.37792
▁tekita	-8.38086
▁nakatunu	-8.38203
I	-8.38308
▁päev	-8.38451
▁tei	-8.38718
su	-8.39212
misel	-8.39219
▁vahel	-8.39221
▁soovita	-8.39254
jate	-8.39328
▁Si	-8.3941
▁probleem	-8.3989
M	-8.39963
▁miski	-8.40145
▁täit	-8.40211
▁müü	-8.40516
,	-8.40519
▁r	-8.40577
ksin	-8.40621
▁Pa	-8.40831
▁teiste	-8.41256
▁mõtte	-8.41286
▁meeldi	-8.41343
▁maitse	-8.41562
▁täis	-8.41638
▁käes	-8.41907
▁talle	-8.41914
▁On	-8.42255
uri	-8.42377
▁kasvata	-8.4249
▁19	-8.43428
▁hakkab	-8.43721
maks	-8.43813
ko	-8.43928
▁kuul	-8.43936
▁oh	-8.44134
▁hakkas	-8.4425
▁soovi	-8.44291
▁tulemus	-8.44361
▁mees	-8.4438
Mur	-8.44586
▁ela	-8.44599
obi	-8.44816
▁muidu	-8.45212
▁koroona	-8.45689
▁läinud	-8.45693
▁juures	-8.45725
▁Minu	-8.45893
▁pool	-8.45953
▁rääkida	-8.46024
▁jooksu	-8.46132
▁:)	-8.46218
▁so	-8.4631
G	-8.46685
▁sõita	-8.46799
▁punkti	-8.46938
f	-8.46985
▁jäi	-8.47437
või	-8.4793
▁Mei	-8.48015
▁sina	-8.48049
jad	-8.48477
udu	-8.48646
▁kuskil	-8.48755
▁vali	-8.48917
▁teki	-8.49138
juhul	-8.4931
▁kaasa	-8.49812
ndus	-8.49854
▁vä	-8.50101
▁Coq	-8.50236
▁Kõik	-8.50237
▁tegelt	-8.50238
▁toidu	-8.50244
▁haige	-8.50249
▁jõud	-8.50313
▁mo	-8.50427
▁tegu	-8.50431
▁kodus	-8.50493
▁arvan	-8.51058
A	-8.51064
▁paha	-8.5116
▁nõu	-8.51543
nii	-8.51573
▁hakata	-8.51657
kk	-8.51735
ub	-8.51858
▁poolt	-8.51868
▁huvitav	-8.52089
▁alg	-8.52207
▁korra	-8.5246
tele	-8.52647
▁tuleks	-8.52945
▁kerge	-8.53049
▁Ä	-8.53302
▁samas	-8.53387
8	-8.53407
mis	-8.53737
ur	-8.54761
▁Mu	-8.54905
▁sõida	-8.55009
▁täiesti	-8.5508
▁vaba	-8.55089
▁kaks	-8.5516
▁arvuti	-8.55171
▁D	-8.55484
▁asu	-8.55501
▁loe	-8.55598
▁jms	-8.55627
▁info	-8.55829
▁Kes	-8.55894
▁saku	-8.56313
▁mõned	-8.57461
sel	-8.57584
▁erineva	-8.57779
▁eri	-8.57924
▁uuri	-8.57977
▁eesti	-8.58043
V	-8.58106
är	-8.58137
▁teised	-8.58218
=	-8.5829
▁uus	-8.58385
mad	-8.58594
▁suurema	-8.58758
▁võimalus	-8.58854
tav	-8.59053
maa	-8.59129
▁Va	-8.59358
um	-8.5937
ala	-8.59411
▁jõua	-8.59673
▁inimeste	-8.59734
▁tank	-8.5982
▁Tartu	-8.60002
▁Üks	-8.60204
▁tehtud	-8.60214
lane	-8.60302
▁C	-8.60361
▁leviku	-8.6051
▁autot	-8.60909
sama	-8.60942
▁mõtet	-8.61379
▁jama	-8.61647
▁viirus	-8.61871
▁kasva	-8.6247
tsi	-8.62867
▁liht	-8.63029
rit	-8.63145
▁taime	-8.6329
▁igal	-8.6362
▁6	-8.63807
ent	-8.64454
▁kätte	-8.6526
▁polnud	-8.65266
▁minge	-8.65299
▁minema	-8.6548
▁probleemi	-8.65561
▁kogemus	-8.65577
inna	-8.65643
am	-8.65888
▁B	-8.65889
▁vahe	-8.66196
▁huvita	-8.66546
▁vähem	-8.6669
▁kannata	-8.66794
▁pida	-8.67076
ani	-8.67177
▁Te	-8.67432
▁alguses	-8.67616
▁z	-8.67699
vend	-8.67979
4	-8.68225
▁tänu	-8.68302
▁vaadata	-8.68424
▁tõ	-8.68427
ab	-8.68575
▁kr	-8.6867
esse	-8.68837
▁tööd	-8.68847
▁Iga	-8.69005
▁telefoni	-8.69204
▁tulevik	-8.69302
▁seemne	-8.69538
▁kõike	-8.69644
▁tanki	-8.69972
▁maailma	-8.70037
▁söö	-8.70221
9	-8.70293
▁tuua	-8.70844
xz	-8.70903
▁sobi	-8.70961
ärtel	-8.70963
▁asemel	-8.70965
▁tähenda	-8.70992
▁kontrolli	-8.71191
▁kuulnud	-8.71342
▁mõista	-8.71432
▁U	-8.71514
▁noh	-8.71647
▁mi	-8.71855
▁kasu	-8.71974
ran	-8.72076
akse	-8.72218
▁Mida	-8.72312
▁elus	-8.72421
ev	-8.7253
▁inimest	-8.7256
▁paljud	-8.72656
▁and	-8.72829
▁kuskilt	-8.729
▁kelle	-8.72991
▁milles	-8.73163
▁seis	-8.73237
▁viga	-8.73396
iselt	-8.73488
olu	-8.73536
▁nädala	-8.73639
▁olevat	-8.73707
▁lasta	-8.73776
▁tavali	-8.73881
ida	-8.73985
▁jumal	-8.74156
tama	-8.743
▁käib	-8.74403
▁koolis	-8.74423
▁valitsus	-8.74786
▁kiire	-8.74791
▁korraliku	-8.74872
viroloog	-8.74927
:	-8.75064
▁ala	-8.75168
▁Enn	-8.75483
▁kõrval	-8.75502
lli	-8.75613
ahes	-8.75895
elda	-8.76209
▁hä	-8.764
▁klassi	-8.76574
tavad	-8.76611
▁Im	-8.76638
▁euro	-8.767
▁tohi	-8.76713
▁Kahjuks	-8.76766
▁pere	-8.76808
▁kahe	-8.76808
▁otsi	-8.7682
▁lahenda	-8.76825
▁palun	-8.76842
▁Kee	-8.76842
pu	-8.76861
▁lõpuks	-8.77021
valt	-8.77109
▁kellegi	-8.77214
▁ühte	-8.77278
▁mehe	-8.77319
▁esimese	-8.7737
▁joo	-8.77494
ima	-8.77739
▁vast	-8.77761
matu	-8.78005
▁öeld	-8.78338
▁taht	-8.78432
▁Võib	-8.78492
iku	-8.78561
ksid	-8.78726
seks	-8.79039
▁teh	-8.79051
▁si	-8.79111
▁jutu	-8.79149
asi	-8.79167
ama	-8.792
▁kao	-8.79446
▁karantiini	-8.79581
▁oleme	-8.79832
hk	-8.8008
▁kirja	-8.80128
usi	-8.80579
000	-8.80718
▁saavad	-8.8085
ate	-8.80865
▁kuula	-8.80928
▁tal	-8.81036
▁Vasur	-8.81152
▁8	-8.81256
▁huvi	-8.8134
no	-8.81383
tor	-8.81578
▁po	-8.81853
ssu	-8.81943
▁puu	-8.81989
pea	-8.82022
▁suurem	-8.82069
▁luba	-8.82084
lised	-8.82138
▁f	-8.82219
▁7	-8.825
N	-8.82513
▁maks	-8.82651
▁füüsika	-8.82944
▁ammu	-8.8295
▁tegele	-8.82952
▁miljoni	-8.82953
▁mõlema	-8.82955
▁50	-8.82971
▁ooda	-8.82977
▁pandud	-8.82999
▁telli	-8.83022
▁turu	-8.83075
▁vahet	-8.83081
▁selge	-8.83146
▁naine	-8.83216
aegu	-8.83248
▁Nüüd	-8.83297
▁riigi	-8.83441
▁vi	-8.83625
▁ost	-8.83764
▁lähen	-8.83834
▁valiku	-8.83908
▁tavalise	-8.84025
▁inglise	-8.84035
▁Hiina	-8.84121
pidi	-8.84195
▁90	-8.84322
▁maailmas	-8.84359
▁käe	-8.84489
uda	-8.84542
idest	-8.84831
kui	-8.84979
▁loll	-8.85118
kka	-8.85289
▁pidi	-8.85402
its	-8.85526
▁maksa	-8.85678
vu	-8.86119
elt	-8.86247
▁erinevate	-8.86359
▁sõnu	-8.86534
▁uudis	-8.86745
▁endal	-8.87285
ut	-8.87378
▁rahva	-8.87717
▁põhi	-8.87791
likult	-8.87925
▁las	-8.87998
tis	-8.88248
▁kuulutuse	-8.88337
▁kalli	-8.88878
▁täht	-8.8895
▁odava	-8.89018
▁poleks	-8.89082
▁9	-8.89429
kese	-8.89468
▁Täna	-8.89523
tavasti	-8.8956
q	-8.89611
▁Praegu	-8.89616
▁kindel	-8.89616
▁üsna	-8.89618
▁Muidu	-8.8962
▁tulla	-8.89639
▁Rock	-8.89644
▁lugu	-8.89652
▁ürita	-8.89666
ul	-8.89725
▁hullu	-8.89779
▁piisaval	-8.89792
▁veidi	-8.89794
▁tehnika	-8.89914
▁lausa	-8.89926
ho	-8.89993
▁paku	-8.89994
▁nimi	-8.90044
▁kõigil	-8.90123
eeni	-8.90146
▁tööta	-8.90148
misest	-8.90209
▁katki	-8.90214
▁eelmise	-8.90541
ant	-8.91309
nik	-8.91358
▁hääl	-8.91506
▁tõe	-8.91516
pool	-8.91568
▁viimase	-8.91702
▁teist	-8.91901
▁700	-8.92072
▁.....	-8.92302
▁kaitse	-8.92413
▁Kr	-8.92441
▁jumala	-8.92667
▁leia	-8.92872
L	-8.92897
▁võ	-8.92901
ades	-8.92956
▁Eh	-8.93034
▁parim	-8.93388
▁ve	-8.93406
▁Me	-8.93408
▁vasta	-8.93527
▁sees	-8.93536
vaid	-8.93588
päev	-8.93613
▁korras	-8.94131
eb	-8.94389
▁viima	-8.94436
▁y	-8.94697
oni	-8.94701
salt	-8.9489
▁Õ	-8.94895
ndada	-8.95028
▁väike	-8.95067
kku	-8.95148
T	-8.95203
▁prügi	-8.95246
▁be	-8.95269
▁koo	-8.95302
▁tean	-8.95308
▁tundus	-8.95748
▁võtt	-8.95957
▁Pea	-8.96185
▁viitsi	-8.96378
ots	-8.9638
▁looda	-8.96453
▁viirust	-8.96467
▁kol	-8.96517
▁homm	-8.96742
▁metsmaasika	-8.96759
▁Küll	-8.96759
▁mitme	-8.96764
▁metsa	-8.96769
▁lange	-8.96782
▁mujal	-8.96802
▁c	-8.96819
▁mitu	-8.96849
▁kulu	-8.96856
▁eelmine	-8.96876
▁lehe	-8.96896
▁ainuke	-8.9694
▁masina	-8.96952
▁kiiresti	-8.96965
▁vanad	-8.97061
▁müüja	-8.97074
▁mõtlesin	-8.97189
▁vene	-8.97309
▁firma	-8.97333
end	-8.97403
▁sä	-8.97806
▁pideva	-8.97832
õu	-8.9791
▁viimasel	-8.97963
▁leida	-8.98121
ngu	-8.98122
▁tah	-8.98182
vast	-8.98188
▁+	-8.98228
vate	-8.98248
▁jõuab	-8.98328
▁ca	-8.9833
to	-8.98389
▁Siin	-8.98716
▁valgus	-8.98775
ite	-8.98824
▁lapse	-8.98995
▁lai	-8.99018
tra	-8.99019
▁ajast	-8.99217
▁tarbi	-8.99318
▁arve	-8.99322
▁kevade	-8.99417
usega	-8.9966
▁Po	-8.99806
▁anda	-8.99994
B	-9.00231
▁ime	-9.00661
peal	-9.0089
liku	-9.01528
õr	-9.01564
▁kahju	-9.01569
▁parema	-9.01737
)	-9.01866
▁vaada	-9.01946
K	-9.02288
ch	-9.02373
usest	-9.02392
▁h	-9.02439
▁enese	-9.02442
tanud	-9.02485
▁Vä	-9.02531
▁surnu	-9.0256
▁tark	-9.02583
▁nädalat	-9.02648
▁sellel	-9.0266
kond	-9.02688
|	-9.02749
▁järgmi	-9.0282
sõna	-9.02906
ile	-9.02955
▁õpeta	-9.02987
auto	-9.03014
▁Hiinas	-9.03071
▁reisi	-9.03797
▁tasu	-9.03973
▁õppi	-9.0399
▁tulemuse	-9.04045
kat	-9.04051
tse	-9.0408
▁kodu	-9.04414
▁unusta	-9.04452
▁mäleta	-9.04453
▁BMW	-9.04453
▁kutsu	-9.04454
▁Milja	-9.04457
▁Kuu	-9.04459
▁Saaremaa	-9.0446
▁arene	-9.04463
▁mõnda	-9.04487
▁Hea	-9.04529
▁hobuse	-9.04604
▁suve	-9.0462
▁teooria	-9.04662
▁uut	-9.04683
▁mask	-9.04718
▁Üle	-9.04802
▁järel	-9.04812
▁kedagi	-9.04832
▁tore	-9.04923
▁*	-9.04947
▁vaeva	-9.05172
▁aeda	-9.05198
▁Pole	-9.05233
55	-9.05261
seid	-9.05319
▁mulla	-9.05464
▁nu	-9.05644
liste	-9.05703
▁lolli	-9.0576
▁para	-9.05945
▁tilli	-9.06011
▁200	-9.06115
▁12	-9.06173
▁|	-9.06184
▁kõrvale	-9.06267
▁kiri	-9.06287
aalne	-9.06451
▁Ha	-9.06629
▁Y	-9.06744
▁Kus	-9.06923
▁La	-9.07077
▁laste	-9.07277
▁selliste	-9.07393
itse	-9.07464
▁tankide	-9.0757
▁muut	-9.07619
▁tulemust	-9.07683
▁eestis	-9.07705
▁nn	-9.07842
▁tap	-9.08072
U	-9.08105
uks	-9.08114
▁kü	-9.08472
▁rääki	-9.08628
j	-9.08685
▁Mille	-9.08692
▁leid	-9.09225
▁valmis	-9.09252
▁ri	-9.09341
omad	-9.09376
lased	-9.09502
▁huvitava	-9.09543
▁mõte	-9.09592
▁w	-9.10076
▁sea	-9.10142
xi	-9.10204
mini	-9.10575
▁põ	-9.10747
+	-9.11087
▁enamus	-9.11255
▁van	-9.11372
▁kur	-9.11694
kke	-9.1182
▁eba	-9.11917
▁tava	-9.12023
jah	-9.12025
niku	-9.12122
po	-9.12135
▁kõigi	-9.12152
▁kuhu	-9.12255
tamine	-9.12437
ps	-9.12609
▁lõi	-9.12638
▁kehtesta	-9.12784
–	-9.12785
▁lõuna	-9.12785
▁õlle	-9.12785
▁professor	-9.12787
▁rumal	-9.12791
▁paastu	-9.12793
iigikogu	-9.12796
▁pakku	-9.1284
▁Tegelikul	-9.12865
▁sü	-9.12875
co	-9.12887
▁28	-9.12901
lad	-9.1292
▁Euroopa	-9.13016
▁valla	-9.13164
▁Teine	-9.13245
▁kutse	-9.13255
▁tegin	-9.13312
rite	-9.1339
▁tun	-9.13407
▁Ra	-9.13412
▁de	-9.13415
▁Z	-9.13459
▁kon	-9.13632
ugu	-9.13647
▁istuta	-9.13693
ppe	-9.1372
▁ain	-9.13728
▁ülikooli	-9.13749
▁surma	-9.13878
▁ainu	-9.13963
yy	-9.13987
▁Saa	-9.14008
▁Sul	-9.14256
▁must	-9.1431
▁naela	-9.14387
▁mõelda	-9.14522
▁hävita	-9.14608
▁järgmise	-9.14812
▁30	-9.15055
idega	-9.15056
▁km	-9.15073
▁Itaalia	-9.15155
▁tulevikus	-9.1525
▁Lä	-9.15334
▁ema	-9.15346
▁tekki	-9.15377
▁õpetaja	-9.15431
▁pildi	-9.15446
▁sii	-9.15573
▁18	-9.15612
tasin	-9.15615
▁seisu	-9.15622
▁polegi	-9.15629
▁=	-9.15749
▁haiguse	-9.15849
▁teksti	-9.15866
▁mõjuta	-9.15867
▁rääkis	-9.15929
▁kolm	-9.15964
▁Tu	-9.16355
▁vastuse	-9.16708
▁Et	-9.1723
▁nägi	-9.1728
▁teen	-9.1729
▁praeguse	-9.17791
▁haigus	-9.18149
▁hoia	-9.18463
▁lamelli	-9.18724
▁igat	-9.18751
last	-9.18849
▁viisi	-9.18874
▁nä	-9.18876
▁mõju	-9.19062
▁koht	-9.19489
duse	-9.19822
▁esime	-9.19931
▁klaas	-9.20223
▁hirmu	-9.20362
paha	-9.20436
▁kust	-9.2045
▁tähe	-9.20456
▁katse	-9.20473
▁vanema	-9.20484
▁40	-9.2056
▁tä	-9.20625
juttu	-9.20716
▁olukord	-9.20733
▁jõu	-9.20804
▁kohal	-9.21009
▁aus	-9.21159
▁otsa	-9.21189
▁väl	-9.21415
▁ken	-9.21576
▁tele	-9.21667
▁lood	-9.21713
▁ilusa	-9.21842
_	-9.21875
▁Aitäh	-9.21875
ight	-9.21876
▁millal	-9.21877
▁maasika	-9.21878
▁reaalsus	-9.21878
▁õie	-9.21878
▁Kuna	-9.21881
▁pritsi	-9.21884
▁sõltu	-9.21891
▁mängi	-9.21892
▁ice	-9.21892
▁nalja	-9.21896
▁bussi	-9.21902
▁nakkus	-9.21904
▁Ice	-9.21913
▁leiuta	-9.21936
▁Nagu	-9.21936
▁liikud	-9.21944
▁kurvi	-9.21949
▁ravi	-9.21969
▁loodud	-9.21993
▁inimestel	-9.22018
aasta	-9.22023
umi	-9.22062
▁aatomi	-9.22097
▁rääkimata	-9.22115
▁põhja	-9.22127
▁muide	-9.22132
▁kujune	-9.22157
▁suhteli	-9.22193
▁naise	-9.22275
hh	-9.22278
▁palga	-9.22332
▁Jä	-9.22354
▁poe	-9.22399
▁artikli	-9.22438
▁väit	-9.22482
▁Näite	-9.22547
▁kaua	-9.22548
▁reaalse	-9.22783
▁tõttu	-9.22954
▁11	-9.22973
▁mõtlema	-9.22981
▁lä	-9.22989
▁Oleks	-9.23007
▁kasvama	-9.2308
▁ütlesin	-9.23104
▁müügi	-9.23106
▁süüa	-9.23202
▁testi	-9.23325
▁keele	-9.23375
erda	-9.23381
▁lugeda	-9.23528
▁oota	-9.23577
▁mõtlen	-9.23653
▁kristlas	-9.23781
▁kasvab	-9.23854
▁jätt	-9.23917
▁paik	-9.24071
12	-9.24172
▁surnud	-9.24177
▁hind	-9.24199
▁maski	-9.24224
▁arvu	-9.24277
▁vanuse	-9.24277
▁imelik	-9.24278
▁000	-9.24493
▁maini	-9.24635
▁suurt	-9.24678
▁mass	-9.24782
▁we	-9.24829
▁suut	-9.24854
▁ostma	-9.24878
▁eksam	-9.24886
▁eel	-9.24911
▁Aja	-9.24927
▁aine	-9.24952
koor	-9.25263
▁osas	-9.25281
▁rahu	-9.25433
▁numbri	-9.25617
osa	-9.25817
▁lamell	-9.25901
▁vara	-9.26
aeg	-9.26003
▁kuulu	-9.26123
▁koroonaviiruse	-9.26176
mmi	-9.26184
▁Be	-9.26273
▁kaugel	-9.26394
▁Ar	-9.26872
▁gravitatsioon	-9.26921
rra	-9.26962
konna	-9.27097
▁juhu	-9.27267
nis	-9.27343
▁Tea	-9.27733
hv	-9.27778
▁tugev	-9.27819
koha	-9.2799
▁Ju	-9.28203
▁tervis	-9.28305
▁musta	-9.28482
▁teata	-9.28492
▁eksami	-9.28629
▁otse	-9.29225
▁arvata	-9.2927
▁lii	-9.29275
▁viie	-9.29546
õhu	-9.29758
imo	-9.29779
▁otsusta	-9.29845
laste	-9.29888
▁joon	-9.30047
▁lõpp	-9.30073
▁soo	-9.30106
H	-9.30202
(	-9.30235
je	-9.30377
▁Tallinn	-9.30766
▁Na	-9.30833
▁tr	-9.30893
▁vo	-9.31139
oot	-9.31206
malt	-9.31373
ise	-9.31392
▁käitu	-9.31519
▁kuud	-9.31574
▁keda	-9.31598
hoo	-9.31689
▁pär	-9.3184
▁moslem	-9.31843
▁60	-9.31859
▁islami	-9.31875
▁gripi	-9.31876
▁kusagil	-9.3189
▁muretse	-9.31892
▁Hilj	-9.31892
▁asenda	-9.31893
▁Seal	-9.31898
▁pärit	-9.31898
▁teoreetili	-9.31902
▁tegutse	-9.31913
▁paista	-9.31914
▁Sinu	-9.31916
▁olgu	-9.31918
▁avasta	-9.31928
▁lenda	-9.31945
▁aimu	-9.31961
▁vär	-9.31966
▁karda	-9.31968
▁talve	-9.31984
▁seleta	-9.32013
▁mõttetu	-9.32041
▁eduka	-9.32069
▁isiku	-9.3208
▁puutu	-9.32108
▁kasvuhoones	-9.32113
▁piht	-9.32124
▁lihtsam	-9.32127
ärsku	-9.32208
▁mure	-9.32262
▁W	-9.32363
äri	-9.32388
▁kristlaste	-9.32587
▁madala	-9.32714
▁Tema	-9.32769
▁pika	-9.32795
▁kahjuks	-9.32879
▁korral	-9.32925
▁Pil	-9.33104
67	-9.33144
▁Mõni	-9.33181
juht	-9.33219
ark	-9.33228
▁De	-9.33247
▁tro	-9.33293
▁otsas	-9.33302
▁kõrge	-9.33306
▁universumi	-9.33369
▁alt	-9.33497
▁kena	-9.33627
▁soovitus	-9.33708
ilu	-9.33915
▁kiirus	-9.33937
▁kart	-9.33977
▁oluli	-9.34144
sime	-9.34325
▁kirjutada	-9.34389
▁ruumi	-9.34469
▁Di	-9.34853
▁millise	-9.34958
▁põe	-9.35184
▁näid	-9.35309
▁mõ	-9.35409
▁Ost	-9.35424
▁Teise	-9.35515
▁keel	-9.35637
▁J	-9.35771
▁noor	-9.35817
▁Tee	-9.36045
▁võet	-9.36055
▁ilust	-9.36057
▁tugeva	-9.36117
▁muude	-9.36479
w	-9.36584
▁autode	-9.36714
▁tagu	-9.36728
▁läheks	-9.36765
▁lei	-9.36822
▁Jumala	-9.36844
▁lause	-9.36974
▁Ter	-9.37005
▁õitse	-9.37041
▁hin	-9.37068
▁mood	-9.37086
▁rahvas	-9.37139
endi	-9.37848
▁Tei	-9.37921
▁kand	-9.37933
ooni	-9.38112
▁jät	-9.38235
▁kanna	-9.38318
▁välis	-9.38453
▁Post	-9.38514
▁era	-9.38547
▁algu	-9.38762
▁nõus	-9.39067
▁maja	-9.39321
mete	-9.39463
▁Eks	-9.39487
▁tõsi	-9.39601
▁külg	-9.39707
▁suu	-9.39757
▁ü	-9.39764
▁mulda	-9.40016
▁noore	-9.40068
tegemist	-9.40138
▁Pu	-9.40141
▁Ol	-9.40407
▁ostja	-9.40458
umise	-9.40477
▁esi	-9.40788
eli	-9.40866
▁igasugu	-9.41027
koht	-9.41253
af	-9.41306
palju	-9.41316
▁oot	-9.41347
▁korralik	-9.41503
▁väikse	-9.41633
▁andme	-9.42018
aadi	-9.42094
▁märk	-9.42214
▁arvate	-9.42217
▁vald	-9.42302
▁ennusta	-9.42376
jõu	-9.425
ndis	-9.4254
▁nimeta	-9.42553
▁St	-9.42765
▁arst	-9.42908
▁meelde	-9.42986
://	-9.42986
▁http	-9.42986
Q	-9.42987
▁;)	-9.42987
▁Leelotaja	-9.42987
▁Premium	-9.42987
▁desinfitseeri	-9.42987
▁gripp	-9.42987
▁löö	-9.42987
▁meditsiini	-9.42987
▁mootori	-9.42987
▁prognoosi	-9.42987
▁Ülikooli	-9.42987
▁kõlba	-9.42987
▁tihti	-9.42987
▁Ilmsel	-9.42987
▁ellu	-9.42988
www	-9.42988
▁Huvitav	-9.42992
▁külje	-9.42996
▁Suvatüü	-9.42999
▁sügise	-9.43
▁männi	-9.43002
▁krooni	-9.43006
▁penn	-9.43008
▁rikka	-9.43013
▁hommiku	-9.43016
▁rock	-9.43017
▁koopia	-9.43022
▁tagant	-9.43024
▁hulk	-9.43025
▁Auto	-9.43028
▁riik	-9.43029
▁Bur	-9.43035
▁sort	-9.43052
▁kahtle	-9.43061
▁väida	-9.43078
▁teisi	-9.43081
▁miljardit	-9.43106
▁soeta	-9.43107
▁Arva	-9.4311
▁Ainu	-9.43116
▁MI	-9.43128
▁halva	-9.43136
▁sooja	-9.43157
▁alust	-9.43158
▁valik	-9.43218
nore	-9.43221
▁ohtu	-9.43224
▁serva	-9.4324
▁jõulude	-9.43299
▁kaamera	-9.43301
▁aprilli	-9.43321
▁sattu	-9.43404
▁päästa	-9.43417
▁sisulis	-9.43423
▁libeda	-9.43444
▁kaalu	-9.43462
▁käsi	-9.43489
▁elame	-9.43565
▁püsi	-9.43589
▁vabadus	-9.43615
▁külva	-9.43619
▁võimatu	-9.43634
imees	-9.43661
▁kile	-9.43672
▁seni	-9.43773
▁Mingi	-9.43821
▁teil	-9.43822
▁Noh	-9.43888
▁tänapäeva	-9.43954
▁usku	-9.4418
ock	-9.44183
▁tume	-9.44187
▁Peale	-9.44209
sugune	-9.44215
eleo	-9.4427
▁häda	-9.44297
▁kõva	-9.44503
kand	-9.44575
▁Oma	-9.44596
ce	-9.4471
▁jälgi	-9.44769
▁Jub	-9.4478
▁Max	-9.44943
▁vastupidi	-9.45494
▁tegemi	-9.45516
▁normaalse	-9.45612
▁tooda	-9.45617
▁plaani	-9.45718
▁arvutuse	-9.45801
▁astu	-9.45881
▁tervise	-9.45897
▁tasemel	-9.46021
▁piir	-9.46047
66	-9.4609
seeria	-9.46141
ige	-9.46324
▁tegi	-9.46397
▁probleeme	-9.46439
▁arv	-9.46585
▁luua	-9.46598
▁põhjust	-9.46615
▁jäävad	-9.46906
▁peenras	-9.47147
her	-9.47177
▁üksi	-9.4731
▁Är	-9.47519
▁foorumi	-9.47666
▁Maa	-9.47817
▁vahele	-9.48188
▁õnnestu	-9.48244
▁millel	-9.48421
▁mõistus	-9.48497
▁lase	-9.4855
▁ilus	-9.4881
▁Su	-9.48858
▁asjade	-9.49087
▁viis	-9.49333
▁jääks	-9.49516
▁Do	-9.49641
konnas	-9.49703
▁karantiin	-9.49757
▁koroonaviirus	-9.49788
▁mil	-9.49895
kool	-9.50044
▁investeeri	-9.50266
lisi	-9.50381
▁käia	-9.50396
▁80	-9.50534
eerida	-9.50946
unud	-9.51059
▁Igal	-9.51107
▁g	-9.51186
▁teie	-9.51334
▁kaota	-9.5135
igu	-9.5144
▁vaatama	-9.51477
atsiooni	-9.51625
▁tööl	-9.51629
▁Re	-9.51644
▁suuli	-9.51814
▁punkt	-9.51842
▁kül	-9.52137
O	-9.52181
▁ava	-9.52287
▁luu	-9.52358
▁300	-9.5247
▁kir	-9.52562
▁alguse	-9.52802
imu	-9.52808
KS	-9.52809
▁täie	-9.52815
▁oste	-9.52977
▁lõpus	-9.52992
emad	-9.52999
gud	-9.53052
likud	-9.53091
▁Selli	-9.53109
ääst	-9.5312
▁tänaval	-9.5328
▁val	-9.53379
▁sise	-9.53665
▁kel	-9.53776
F	-9.53821
P	-9.53841
pärase	-9.53896
vaks	-9.54047
▁eemal	-9.54232
▁olukorra	-9.54311
▁energia	-9.54367
▁toit	-9.54389
tõenäolise	-9.54456
▁Kar	-9.5465
▁silma	-9.54685
▁70	-9.54722
▁jm	-9.54946
▁tähelepan	-9.55127
rju	-9.55139
ood	-9.55199
▁mür	-9.55401
ò	-9.55468
▁paanika	-9.55477
▁x	-9.55483
`	-9.55486
ooksuja	-9.55487
“	-9.55487
▁Leopard	-9.55487
▁foto	-9.55487
▁põhjenda	-9.55487
▁sisalda	-9.55487
▁Mihkel	-9.55487
▁Liht	-9.55487
▁tõmba	-9.55487
▁saaremaa	-9.55487
▁sõbrad	-9.55488
▁Tavalise	-9.5549
▁julgus	-9.5549
▁Nende	-9.55492
▁toimi	-9.55501
▁ülejäänu	-9.55502
▁raputa	-9.55502
▁range	-9.55506
▁0,	-9.55507
▁väärtus	-9.55507
▁Ühe	-9.55509
▁ülesande	-9.5551
zone	-9.55513
▁toime	-9.55515
▁Vaata	-9.55519
▁tipp	-9.55521
▁raamatu	-9.55534
▁lähi	-9.55534
▁pead	-9.5554
▁halb	-9.55547
▁tõsta	-9.55568
DA	-9.55596
▁seotu	-9.55615
▁võõra	-9.5562
ata	-9.55753
▁25	-9.55763
▁harv	-9.5577
▁mõistlik	-9.55773
▁liig	-9.55823
▁number	-9.55845
▁sibula	-9.55845
▁pähe	-9.55845
▁euroopa	-9.55845
▁pro	-9.55925
▁karm	-9.55991
▁sulge	-9.55993
▁Dr	-9.56014
▁lõpeta	-9.56049
▁tegevus	-9.56059
▁meedia	-9.56079
▁sõb	-9.56124
▁pinnase	-9.56252
▁Tallinnas	-9.56302
õbi	-9.56312
▁Kura	-9.56363
ajal	-9.56493
▁massi	-9.56522
▁näeme	-9.56525
▁õigus	-9.56649
▁mõnus	-9.5668
▁kohtades	-9.56731
▁rohelise	-9.56839
▁Too	-9.56889
▁kiiruse	-9.56904
▁suurte	-9.56909
▁pidu	-9.56953
▁juure	-9.57067
▁yle	-9.5713
▁lõpu	-9.572
▁raud	-9.57215
gem	-9.57269
▁isa	-9.5731
▁peamise	-9.57463
▁tunda	-9.57664
okey	-9.5773
▁veebruari	-9.57778
▁taba	-9.57793
▁Eri	-9.57824
▁vastava	-9.57838
▁jookse	-9.57876
▁naast	-9.5794
▁surmade	-9.58004
▁Mo	-9.58031
▁masinat	-9.58068
▁tü	-9.58092
▁enamast	-9.58107
▁Inimese	-9.58223
▁kellele	-9.5844
▁kuulutus	-9.58586
▁katseta	-9.58888
▁odavama	-9.59092
illa	-9.59151
▁Vasuri	-9.59305
▁õp	-9.5931
ette	-9.5934
misi	-9.5936
▁suurus	-9.59491
▁kesk	-9.596
▁pand	-9.59622
▁kartuli	-9.5992
▁Oli	-9.60043
▁seadus	-9.60203
▁suulise	-9.60937
▁tõsise	-9.60987
▁lo	-9.61096
00	-9.61275
▁naa	-9.61277
▁meist	-9.61317
▁korralda	-9.61322
▁tänase	-9.61575
▁X	-9.61612
▁Vee	-9.6162
▁seisa	-9.61706
lla	-9.61747
▁millele	-9.62006
▁masin	-9.62053
juures	-9.6225
▁ree	-9.62263
▁mineviku	-9.62391
▁Mõne	-9.62604
vaat	-9.62742
▁arvuta	-9.62954
▁Ah	-9.63005
▁paari	-9.63048
▁kellel	-9.63095
tused	-9.63148
▁Venemaa	-9.63177
▁lollus	-9.63426
▁nelja	-9.63818
▁arvesta	-9.6382
▁aadressi	-9.63876
tun	-9.64032
▁tund	-9.64183
▁süsteem	-9.64287
zi	-9.64414
19	-9.64431
▁soovid	-9.6449
▁mustad	-9.64517
▁fa	-9.64595
▁fi	-9.6462
▁märts	-9.6468
his	-9.648
▁TE	-9.64863
▁kohas	-9.65043
iseene	-9.65093
▁kolme	-9.6534
rpi	-9.65379
▁tekkis	-9.65668
▁nädal	-9.65877
oog	-9.65938
▁Min	-9.6595
▁närvi	-9.66047
▁haka	-9.66122
ond	-9.66185
ker	-9.66253
▁hulga	-9.66282
▁teeni	-9.66513
▁Selles	-9.66664
01	-9.66664
3-	-9.66711
▁puhas	-9.66993
▁tekst	-9.67041
▁olulise	-9.67042
▁vaktsiin	-9.67064
▁ok	-9.67091
ngid	-9.67114
ldse	-9.67231
▁kee	-9.67241
loo	-9.67266
▁pla	-9.67347
likku	-9.67561
▁29	-9.67571
▁Inime	-9.6765
▁näida	-9.67709
▁Mõ	-9.67732
▁usk	-9.67748
C	-9.678
▁pii	-9.67871
▁ring	-9.67894
▁hoog	-9.67943
tõttu	-9.68058
ruumi	-9.6817
▁mine	-9.68179
▁mõel	-9.6824
▁ple	-9.68319
▁tunduva	-9.68351
▁suh	-9.68378
▁Soovi	-9.68436
ür	-9.68516
▁maailm	-9.6856
▁võrreld	-9.6869
▁põhjusta	-9.68734
kesi	-9.68818
teema	-9.68828
▁foorumis	-9.69142
uba	-9.6919
rr	-9.69253
OU	-9.69614
nonüüm	-9.69651
▁taas	-9.6966
äiesti	-9.69711
▁inimesel	-9.6975
▁vaimu	-9.69756
▁Tom	-9.69767
▁õppejõud	-9.6977
à	-9.69772
&	-9.69772
▁Motorex	-9.69772
▁Rammstein	-9.69772
▁artikk	-9.69772
▁objekt	-9.69772
▁originaal	-9.69772
▁ämmvei	-9.69772
▁eksperdi	-9.69772
▁järjest	-9.69772
▁matemaatika	-9.69772
▁popipäev	-9.69772
▁Kangro	-9.69772
▁USA	-9.69772
▁planeeri	-9.69773
▁Hetke	-9.69773
▁püha	-9.69773
▁Elvis	-9.69773
▁Kirjuta	-9.69773
▁variant	-9.69774
▁ometi	-9.69774
▁absint	-9.69775
▁kodanik	-9.69775
▁!!!	-9.69775
▁Palju	-9.69776
▁häiri	-9.69776
oyota	-9.69779
▁point	-9.69779
2020	-9.69781
▁avalda	-9.69785
▁kümne	-9.69786
▁üldiselt	-9.69788
▁fakt	-9.69788
▁twi	-9.69791
▁Lisa	-9.69793
▁teisiti	-9.69793
▁pääse	-9.69793
▁rikku	-9.69804
▁vahendaja	-9.69804
▁majandus	-9.69805
monstr	-9.69807
▁vahepeal	-9.69809
▁Tänu	-9.69811
▁Toidu	-9.69814
▁loengu	-9.69815
▁harju	-9.69816
▁pandeemia	-9.69817
▁kuradi	-9.69824
▁loomulik	-9.69826
▁oleksid	-9.69831
▁vihka	-9.69834
▁hmm	-9.69842
▁rä	-9.69853
▁kla	-9.69855
▁huu	-9.69857
▁keera	-9.69858
▁14	-9.69892
▁täide	-9.69908
▁hingamis	-9.69926
▁rullnokk	-9.69928
▁Vahe	-9.69933
▁jätku	-9.69936
▁negatiivse	-9.69937
▁tõesta	-9.69949
▁aida	-9.69953
▁andur	-9.69962
▁imesta	-9.69975
▁NI	-9.69986
▁suru	-9.70022
▁lun	-9.70052
▁koge	-9.70086
▁1000	-9.70143
mängu	-9.70169
▁Vene	-9.70179
▁augu	-9.70196
▁varju	-9.70228
▁tüüpi	-9.7024
▁tõde	-9.70241
▁rääkima	-9.70268
▁sini	-9.70278
▁aia	-9.70285
▁sõja	-9.70295
▁viha	-9.70329
▁kellelgi	-9.70339
▁hinge	-9.70366
▁Ela	-9.70392
▁viina	-9.7053
▁taimede	-9.70565
▁TT	-9.70632
▁sõidu	-9.70697
▁Sest	-9.70697
▁varja	-9.70748
▁saavuta	-9.70754
gor	-9.70771
▁tahtnud	-9.70796
tükki	-9.7083
▁parane	-9.70844
▁erilis	-9.70854
▁juua	-9.70867
opika	-9.70879
▁My	-9.70882
▁ühel	-9.70937
▁vett	-9.70947
▁puud	-9.70969
▁maantee	-9.71048
▁õppida	-9.71059
▁eelda	-9.71062
▁Soovita	-9.71127
▁tuul	-9.71174
▁üht	-9.71178
▁sõitnud	-9.71346
▁tehis	-9.71353
▁saama	-9.71405
▁Tead	-9.71473
▁2.	-9.716
ara	-9.71675
▁tegemise	-9.71677
▁veda	-9.71757
▁energiat	-9.71776
▁eelista	-9.71834
kett	-9.71892
▁toodangu	-9.72008
▁korraks	-9.72188
▁uurima	-9.72208
▁Mang	-9.72254
▁500	-9.72392
▁vaktsiini	-9.72555
▁ootama	-9.72642
okk	-9.72652
▁nael	-9.72671
▁pikema	-9.72673
▁hi	-9.72788
▁eestlase	-9.72866
▁lähed	-9.72923
▁he	-9.72971
▁reegli	-9.72981
puu	-9.73063
MA	-9.73083
▁Var	-9.73277
▁auk	-9.7333
▁väikese	-9.73386
▁kirjas	-9.73448
fi	-9.7362
vä	-9.73708
▁millegi	-9.73718
▁koosne	-9.73761
asja	-9.7382
poolest	-9.73833
oori	-9.73845
▁põle	-9.73858
▁han	-9.7387
▁120	-9.73945
▁viroloog	-9.73961
tüki	-9.74046
▁külma	-9.74087
osit	-9.74171
▁müüa	-9.74171
▁milli	-9.74507
▁pilti	-9.74514
jää	-9.74589
▁kallima	-9.74596
▁platsi	-9.74599
▁Universumi	-9.74611
▁silmad	-9.74669
▁201	-9.74774
▁jäta	-9.74806
▁valitsusel	-9.7483
poole	-9.74844
rast	-9.74918
väär	-9.74952
ikult	-9.75012
▁puhasta	-9.75166
tic	-9.75173
▁kiirust	-9.75335
▁mõtles	-9.75362
▁üli	-9.75475
▁rehv	-9.75535
▁rs	-9.75638
tikas	-9.75841
▁oi	-9.75869
▁piiri	-9.75872
küm	-9.76163
▁kiirusel	-9.76272
cy	-9.76639
itte	-9.76652
ikud	-9.76656
▁Mä	-9.76721
▁Lood	-9.76779
▁rahuliku	-9.77042
▁riikide	-9.77067
▁parima	-9.77069
▁varu	-9.77098
vesi	-9.77119
11	-9.77451
▁sisemis	-9.77454
tuses	-9.77676
▁amet	-9.77741
▁Nei	-9.77872
▁tunde	-9.77923
järg	-9.77925
▁toodet	-9.77977
▁õitsemis	-9.78116
▁kommentaar	-9.78368
▁võeta	-9.785
▁panema	-9.78737
seeri	-9.78785
▁südame	-9.78928
▁Vo	-9.78952
▁saate	-9.79027
▁üh	-9.79129
▁püüd	-9.79345
▁päeval	-9.79431
out	-9.79942
ekt	-9.80144
▁laial	-9.80295
▁Ba	-9.80454
▁sipelga	-9.80528
▁kinnita	-9.80856
akad	-9.80897
▁ehita	-9.80904
▁keelt	-9.80907
▁õpi	-9.81133
▁laps	-9.81409
▁levik	-9.81466
▁Je	-9.81478
▁vahetad	-9.81732
▁kristla	-9.81842
▁0	-9.82295
▁hääli	-9.82373
▁tavalisel	-9.82401
uti	-9.82467
▁viia	-9.82803
▁silm	-9.82849
▁ah	-9.83066
üüa	-9.8321
aastase	-9.83288
▁kehv	-9.83342
▁Mill	-9.83467
▁sugu	-9.8365
▁hullem	-9.8372
▁vajalik	-9.83809
▁poes	-9.83824
▁jooks	-9.83869
▁rahvast	-9.8407
▁komp	-9.84077
▁lennuki	-9.84219
▁valgust	-9.8425
▁piirangu	-9.84322
▁kuju	-9.84369
▁taim	-9.84444
!	-9.84448
▁loodus	-9.84531
itsa	-9.84616
Õ	-9.84714
vaba	-9.84931
hane	-9.85197
vahe	-9.85223
▁inim	-9.8527
▁tom	-9.85305
tunne	-9.85522
▁nägem	-9.85639
▁Ü	-9.85687
▁libe	-9.85743
hä	-9.85784
▁Tor	-9.8582
kiir	-9.85971
ärss	-9.85984
▁pilt	-9.8604
isk	-9.86145
suguse	-9.86162
▁lennu	-9.86193
rühm	-9.86328
▁tühi	-9.86383
▁vastas	-9.86395
▁Kõige	-9.8642
▁öö	-9.86438
akadeemia	-9.86439
€	-9.86439
▁Angel	-9.86439
▁NATO	-9.86439
▁Originaal	-9.86439
▁Papiniidu	-9.86439
▁Pärnu	-9.86439
▁Põhjus	-9.86439
▁itaalia	-9.86439
▁kvaliteet	-9.86439
▁laboratooriumis	-9.86439
▁nartsiss	-9.86439
▁paanikahäire	-9.86439
▁politsei	-9.86439
▁pöördu	-9.86439
▁reguleeri	-9.86439
▁statistika	-9.86439
▁tuumajaam	-9.86439
▁öelnud	-9.86439
▁kommenteeri	-9.86439
▁tõrje	-9.86439
▁Lennu	-9.86439
▁hukka	-9.86439
▁komposti	-9.86439
▁olevikus	-9.86439
▁Covid	-9.86439
▁määra	-9.86439
▁korista	-9.8644
▁super	-9.8644
▁sündi	-9.8644
kokkuvõt	-9.8644
▁tuhande	-9.86441
▁hoovi	-9.86441
-72	-9.86441
▁Loe	-9.86441
▁pensioni	-9.86441
▁Ants	-9.86442
▁mikrobioloogia	-9.86442
▁Päris	-9.86442
▁programmi	-9.86442
▁irw	-9.86442
▁direktor	-9.86442
▁loogika	-9.86443
▁targem	-9.86444
▁sääste	-9.86444
▁protesti	-9.86446
▁haigestunu	-9.86446
▁säili	-9.86446
▁report	-9.86448
▁õpetus	-9.86449
▁kättesaadav	-9.86449
▁eelneva	-9.86449
▁kasvu	-9.86449
▁ekspert	-9.8645
▁lahku	-9.8645
▁pimeda	-9.8645
▁kvantarvuti	-9.86451
▁liha	-9.86453
▁naabri	-9.86456
▁käsitle	-9.86458
▁lahingu	-9.8646
▁saatana	-9.86461
▁Palu	-9.86465
▁CO	-9.86467
▁mõninga	-9.86471
▁sauna	-9.86474
▁Viimase	-9.8648
▁süüdi	-9.86487
▁Kuld	-9.86506
▁õhtul	-9.86511
ustest	-9.86529
▁Usu	-9.86534
▁eriala	-9.86535
▁Oot	-9.86538
▁niiske	-9.86548
▁IT	-9.86556
▁kraadi	-9.86567
▁Ajamasin	-9.86569
▁nakata	-9.86587
▁mingisuguse	-9.86597
ID	-9.86608
▁rullnoka	-9.86612
▁positiivse	-9.86622
▁haigla	-9.86622
▁tegela	-9.86623
rman	-9.86627
▁elaniku	-9.86634
▁juhti	-9.86644
▁EU	-9.8665
▁euri	-9.86706
hinna	-9.86734
▁lõika	-9.86789
▁ettevõtte	-9.86793
▁35	-9.86797
▁esma	-9.86803
▁laul	-9.86814
▁Osa	-9.86819
▁aidata	-9.8684
▁ru	-9.86869
▁Vaba	-9.86879
▁tomat	-9.86887
▁postitus	-9.86897
tpa	-9.86922
▁paksu	-9.86927
▁külvata	-9.86958
raamat	-9.87058
▁märga	-9.87062
▁samasuguse	-9.87064
IK	-9.87091
▁krii	-9.87096
▁suunas	-9.87123
▁vilj	-9.8716
▁täielik	-9.87167
▁asfalt	-9.87194
▁kaevat	-9.87197
▁sünnipäev	-9.87208
▁tudengi	-9.87226
▁igaü	-9.87281
▁karmi	-9.87328
▁ausalt	-9.87346
▁saksa	-9.87352
mor	-9.87375
▁absoluutsel	-9.87423
▁viitsinud	-9.87463
▁ol	-9.87469
▁hele	-9.87528
OO	-9.87552
odanikuportaalis	-9.87566
▁isiklikul	-9.87659
▁liikuva	-9.87688
▁Uus	-9.87698
bane	-9.87707
▁usklikud	-9.87722
▁paraja	-9.87774
õli	-9.87803
▁pidanud	-9.87848
▁üld	-9.87861
▁tähele	-9.87952
▁Tahaks	-9.88023
▁juhid	-9.88115
▁põhjus	-9.88152
▁eemale	-9.88175
▁ehitus	-9.88178
▁toitu	-9.88193
bert	-9.88229
▁konkreetse	-9.88278
ovi	-9.88355
eldri	-9.88548
▁paki	-9.88558
▁automaatse	-9.88595
▁yks	-9.88605
▁esimest	-9.88643
▁välista	-9.88744
▁andmete	-9.88747
geli	-9.88774
▁lol	-9.88947
▁märgi	-9.8897
tuna	-9.89072
▁kustuta	-9.89079
TA	-9.8911
komplek	-9.89145
pida	-9.89237
▁paranda	-9.8925
uskilt	-9.89326
▁elan	-9.89347
▁käin	-9.8935
▁näo	-9.89545
▁suremus	-9.89595
▁lõppe	-9.89625
maani	-9.89767
oon	-9.8978
nder	-9.898
sch	-9.89818
▁toeta	-9.89827
naal	-9.89911
▁hoogu	-9.89977
lol	-9.90008
▁lamellid	-9.9008
tädi	-9.90219
▁kuld	-9.90234
▁au	-9.9036
▁vanemate	-9.90373
▁keskmise	-9.90481
▁keeles	-9.90532
joo	-9.90577
▁vanu	-9.90653
▁hirmus	-9.90683
laine	-9.90691
▁vea	-9.90721
ppa	-9.90822
▁seos	-9.90911
lase	-9.90947
▁ajaks	-9.90959
▁Har	-9.91028
uurija	-9.91106
min	-9.9114
vo	-9.91198
▁Ole	-9.91217
▁otsus	-9.91221
▁kris	-9.91605
▁rau	-9.91605
sõbranna	-9.9162
▁filmi	-9.9173
▁tõmma	-9.91763
LO	-9.91957
▁erili	-9.91992
▁Maal	-9.92049
▁min	-9.92085
▁paras	-9.92323
aps	-9.9243
▁Las	-9.92529
▁kasulik	-9.93054
▁kosmoses	-9.93072
rusma	-9.93087
▁Kau	-9.93097
▁hakkan	-9.93256
▁rehvi	-9.93452
▁uusi	-9.93638
▁vajaliku	-9.93656
▁ütleks	-9.93753
▁Juu	-9.93833
▁aadress	-9.93881
▁lask	-9.94064
▁:/	-9.94203
...	-9.9445
▁kõ	-9.94503
▁tartu	-9.94601
ande	-9.94785
▁suva	-9.94881
▁süsteemi	-9.94951
▁tüü	-9.95046
▁kõikide	-9.95282
▁gravitatsiooni	-9.95602
ium	-9.95846
▁minevik	-9.95927
▁kauge	-9.96052
ruta	-9.96177
▁pileti	-9.96264
▁bu	-9.96399
sut	-9.96476
▁looduse	-9.96601
▁Bo	-9.96795
▁nähtus	-9.96953
võr	-9.96994
▁õnnestunu	-9.97234
▁tundi	-9.9764
▁üksiku	-9.97708
▁hoi	-9.98103
80	-9.98149
▁piira	-9.98366
▁Loo	-9.98561
like	-9.98585
▁mõistuse	-9.98985
og	-9.99307
▁söögi	-9.99595
raadi	-9.99673
▁rehvid	-9.99884
likkuse	-9.99899
▁õhk	-10.0025
▁pildil	-10.0035
iisi	-10.0047
▁peenra	-10.0053
▁lamellide	-10.0053
▁Itaalias	-10.0064
ärk	-10.0099
▁lasi	-10.0109
▁ilm	-10.0131
▁nähtu	-10.0141
▁Ve	-10.0147
▁kuule	-10.0154
▁mõist	-10.0161
eter	-10.0179
klass	-10.0192
▁tulema	-10.0202
ikute	-10.0205
▁arvutus	-10.0206
▁hävi	-10.0212
▁tahtma	-10.0234
▁tuttav	-10.0241
▁pikem	-10.0246
▁samu	-10.0272
▁reisimi	-10.028
▁odav	-10.029
▁Esime	-10.0296
▁üritus	-10.0302
▁kaits	-10.0326
teede	-10.0329
pruul	-10.033
haiguste	-10.0346
▁Koroona	-10.0353
infot	-10.036
▁teadmise	-10.0362
▁kergem	-10.0378
▁tarvi	-10.0382
▁hirm	-10.0389
süsteemi	-10.0396
▁sõ	-10.0396
▁norm	-10.0399
▁normaal	-10.041
▁palve	-10.0441
▁mõnu	-10.0449
▁juhi	-10.0458
▁jura	-10.0471
Z	-10.0474
J	-10.0474
firma	-10.0475
▁tingimus	-10.0475
vähem	-10.0476
tööd	-10.0477
rahva	-10.0478
kõige	-10.0479
?	-10.048
▁gar	-10.0483
▁premium	-10.0505
riigi	-10.0515
▁nakatunute	-10.0515
Bo	-10.052
▁igapäeva	-10.0527
▁oke	-10.0547
▁sünni	-10.0552
▁keelat	-10.0553
▁tapp	-10.0585
nneks	-10.0588
▁hobu	-10.0592
kasvuhoone	-10.0594
näol	-10.0595
anek	-10.0614
▁miljard	-10.0621
▁esile	-10.0628
▁lahe	-10.0635
▁nõrg	-10.0638
▁järjekor	-10.0638
▁õnn	-10.0639
▁telkla	-10.0644
▁põhimõttel	-10.0644
▁üpris	-10.0644
▁Porsche	-10.0644
▁Prügi	-10.0644
▁SARS	-10.0644
▁Saksamaal	-10.0644
▁VIN	-10.0644
▁alternatiiv	-10.0644
▁epideemia	-10.0644
▁hooldekodu	-10.0644
▁kaubanduskeskus	-10.0644
▁möödu	-10.0644
▁simulaator	-10.0644
▁sügavkülm	-10.0644
▁tohutu	-10.0644
▁Täpse	-10.0644
▁hoolimat	-10.0644
▁kirjelda	-10.0644
▁müügikuulutus	-10.0644
▁planeedi	-10.0644
▁remondi	-10.0644
▁täpsusta	-10.0644
▁ülemaailm	-10.0644
▁Kindla	-10.0644
▁Natuke	-10.0644
▁SAA	-10.0644
▁mateeria	-10.0644
▁järgneva	-10.0644
▁lülita	-10.0644
▁pulbri	-10.0644
kultuur	-10.0644
geenius	-10.0644
▁automark	-10.0644
▁krõbin	-10.0644
▁eraldi	-10.0644
▁Flash	-10.0644
▁Larko	-10.0644
▁mõõt	-10.0644
▁kristlus	-10.0644
▁lammas	-10.0644
▁video	-10.0644
▁ratio	-10.0644
▁kolmanda	-10.0644
▁Enamuse	-10.0644
▁lääne	-10.0644
▁liikme	-10.0644
▁meetri	-10.0644
▁õppejõudude	-10.0644
▁korja	-10.0644
▁veendu	-10.0644
▁stress	-10.0644
▁proua	-10.0645
▁Ford	-10.0645
▁Raske	-10.0645
▁Üldi	-10.0645
▁tunnista	-10.0645
▁Käi	-10.0645
▁segadus	-10.0645
▁hiina	-10.0645
▁hääletus	-10.0645
▁akna	-10.0645
▁kriimu	-10.0645
▁nurga	-10.0645
▁viska	-10.0645
▁kuupäeva	-10.0645
▁sarnas	-10.0645
LAN	-10.0645
que	-10.0645
mikro	-10.0645
▁elanike	-10.0645
▁Ütle	-10.0645
▁üleüld	-10.0646
mehe	-10.0646
▁foori	-10.0646
▁lahendus	-10.0646
▁tundmatu	-10.0646
▁võitlus	-10.0647
▁ulme	-10.0648
kaitsevahend	-10.0648
▁õnneks	-10.0648
▁teadmiste	-10.0648
tehnoloogi	-10.0649
▁allika	-10.0649
▁---	-10.0649
▁kadunud	-10.0649
▁päikese	-10.065
iver	-10.065
▁kivi	-10.065
▁Põldo	-10.0651
▁moslemite	-10.0651
▁tibi	-10.0651
▁88	-10.0652
▁Võt	-10.0652
ktsioon	-10.0652
arve	-10.0652
▁margi	-10.0652
▁praktilise	-10.0652
▁Viirus	-10.0653
▁liikumis	-10.0653
▁hobi	-10.0653
▁massilise	-10.0654
▁Tund	-10.0654
▁sõidet	-10.0654
▁81	-10.0655
▁95	-10.0656
▁elektri	-10.0656
▁värvi	-10.0656
▁nõrgema	-10.0656
▁Küsi	-10.0657
34	-10.0657
▁lepp	-10.0659
NE	-10.0659
▁võtma	-10.0659
▁halli	-10.0659
▁hapu	-10.066
▁kohapeal	-10.066
▁uskuma	-10.0661
▁Vastu	-10.0661
wer	-10.0662
▁Tark	-10.0663
▁Esit	-10.0664
▁tõelise	-10.0664
▁ajamasin	-10.0664
▁yhe	-10.0665
▁rõõmu	-10.0667
▁transport	-10.0667
▁silla	-10.0667
▁muusika	-10.0667
▁sisesta	-10.0667
▁Muide	-10.0669
▁Hmm	-10.067
▁söödava	-10.0671
▁vajaduse	-10.0672
▁tre	-10.0673
▁ühendus	-10.0674
▁kallal	-10.0674
▁edu	-10.0677
lille	-10.0678
▁Jää	-10.0679
▁õue	-10.0682
▁the	-10.0685
▁õrn	-10.0688
▁väidetav	-10.0691
▁leebema	-10.0691
▁joodu	-10.0692
▁mõeld	-10.0693
summa	-10.0695
▁tuha	-10.0696
▁playlisti	-10.0699
▁Mark	-10.0699
▁kursi	-10.07
▁jurt	-10.0705
▁piisab	-10.0709
▁veere	-10.0709
eedik	-10.0709
▁Dell	-10.071
rohtu	-10.071
▁võtsi	-10.0711
▁sõda	-10.0714
▁haridus	-10.0716
iiv	-10.0716
▁ettevõt	-10.0716
▁uskumatu	-10.0717
ainete	-10.0717
▁kaupa	-10.0717
▁Krist	-10.0718
▁bal	-10.0718
▁töötu	-10.0718
▁kirjandi	-10.0719
▁pauk	-10.0721
▁ex	-10.0722
oomulik	-10.0724
▁Vana	-10.0734
▁mürgi	-10.0734
▁põde	-10.0734
▁ukse	-10.0737
ekre	-10.0738
ross	-10.0739
▁Terviseameti	-10.0744
▁lähedal	-10.0746
▁>	-10.0747
▁kannatus	-10.0747
▁Põ	-10.0748
▁hari	-10.0748
▁hoiusel	-10.0748
▁suudeta	-10.0749
alitsus	-10.0751
▁pidavat	-10.0757
aiandus	-10.0758
▁esine	-10.0758
▁kella	-10.0758
▁põhjusel	-10.076
▁korduv	-10.0765
▁külm	-10.077
▁22	-10.0774
ow	-10.0775
▁tegija	-10.0777
▁sügava	-10.0779
▁kuhugi	-10.0781
▁tuttava	-10.0783
▁standardi	-10.0787
▁And	-10.0787
lah	-10.0789
emon	-10.0791
▁poisi	-10.0793
▁mahu	-10.0796
ihu	-10.0797
▁sammu	-10.0803
▁hakataks	-10.0804
ff	-10.0806
▁võrrelda	-10.0808
▁käiku	-10.0809
▁kujuta	-10.0812
abas	-10.0813
▁peo	-10.082
tank	-10.0823
▁suri	-10.0825
▁1.	-10.083
▁ühis	-10.083
▁nõustu	-10.084
▁4-	-10.0842
▁olukorras	-10.0842
▁kä	-10.0843
▁Tuli	-10.0848
pealkirja	-10.086
▁põneva	-10.0862
▁elavad	-10.0869
ekkis	-10.0876
▁koguduse	-10.0878
▁kurja	-10.0878
▁lubada	-10.0882
gede	-10.0883
▁selja	-10.0887
ljas	-10.0889
▁ülima	-10.0891
EI	-10.0894
▁sipelgad	-10.0904
▁väiksema	-10.0905
▁mer	-10.0906
▁kolle	-10.0906
▁Suure	-10.0909
▁olukorda	-10.0915
▁hoiab	-10.0924
▁pudel	-10.0928
lasi	-10.0931
LE	-10.0942
▁proovinud	-10.0943
▁kohaliku	-10.0944
▁töödeld	-10.0946
TE	-10.0949
▁haiguste	-10.095
▁tasub	-10.0968
▁lennukis	-10.0976
▁lugeja	-10.0977
▁hunnik	-10.098
▁ülesanne	-10.0986
▁mõtete	-10.099
▁maskide	-10.0998
▁ürituse	-10.0998
▁võrr	-10.1
LI	-10.1025
▁hoiata	-10.1032
▁tekitada	-10.1038
▁kohustusliku	-10.1039
▁ohtlik	-10.104
▁kirjutamise	-10.104
▁kirjalik	-10.1057
▁klaasi	-10.1069
▁sugulas	-10.1073
▁13	-10.1077
▁Alg	-10.1083
ikad	-10.1085
▁toote	-10.1088
▁cor	-10.1091
▁äri	-10.1097
▁rep	-10.1102
▁piirkonnas	-10.1125
▁Enne	-10.1134
▁kaval	-10.114
▁sipelgate	-10.1143
▁võimaluse	-10.1154
▁kuri	-10.1158
juur	-10.1176
▁kirjutatu	-10.1187
oron	-10.1194
wa	-10.12
▁ostjate	-10.12
▁põhilise	-10.1218
pange	-10.1229
ingut	-10.1235
▁tarkus	-10.1236
▁jä	-10.1266
▁kaine	-10.1287
▁laus	-10.1333
▁3-	-10.1336
▁Jo	-10.139
▁kura	-10.1452
kera	-10.147
unu	-10.147
▁Suv	-10.1479
cer	-10.1485
arm	-10.1538
▁paanikahoo	-10.1545
arust	-10.1557
▁looma	-10.156
▁ostu	-10.1581
ään	-10.1587
ath	-10.159
▁pur	-10.1604
▁arvestad	-10.1608
▁Endal	-10.161
jõ	-10.1618
kasvatada	-10.162
▁südames	-10.1645
▁mudeli	-10.1673
▁organism	-10.1687
▁teadus	-10.17
loog	-10.1703
vett	-10.1752
ärge	-10.1758
▁meeste	-10.1771
hj	-10.1776
▁roni	-10.1779
▁levita	-10.1789
▁pilet	-10.1791
▁vill	-10.1792
form	-10.185
▁päevi	-10.1855
▁Mõned	-10.1869
10	-10.187
▁kergema	-10.188
▁tiheda	-10.1885
hutus	-10.1907
hul	-10.1955
▁riikides	-10.196
org	-10.1977
utada	-10.1978
▁viiruste	-10.2
atsioon	-10.2004
tulesid	-10.2065
bol	-10.2082
▁alus	-10.2108
▁põhjuse	-10.2116
rongi	-10.2121
▁Enda	-10.2153
looduslik	-10.2165
▁laia	-10.2188
▁kosmose	-10.2188
▁materjal	-10.2217
▁kevad	-10.2222
oppi	-10.2242
NA	-10.2247
▁näh	-10.2248
andis	-10.229
▁püü	-10.2297
musest	-10.2326
hakati	-10.2339
ange	-10.2355
▁tõmmata	-10.2365
▁Tim	-10.2378
▁paremat	-10.2411
ukku	-10.2418
tsiooni	-10.2421
▁käitumis	-10.2424
▁laen	-10.2455
▁tegelik	-10.2517
ong	-10.2522
▁seose	-10.2528
▁näidata	-10.2534
käigu	-10.2563
õpetajat	-10.2574
päeval	-10.2575
90	-10.26
▁koh	-10.2602
▁till	-10.2613
▁tõus	-10.2659
▁Koh	-10.2685
▁kell	-10.2689
maili	-10.2699
▁leviv	-10.2715
▁Järg	-10.2737
▁relva	-10.2742
▁toodang	-10.2747
▁kursus	-10.2747
elge	-10.2749
▁universum	-10.2779
▁süü	-10.278
aren	-10.2799
▁Kir	-10.28
▁äär	-10.2804
nce	-10.2813
jone	-10.2878
▁Suur	-10.2879
naadi	-10.2899
miku	-10.2901
▁pesa	-10.2912
iip	-10.2916
▁vää	-10.2923
▁erinev	-10.2933
▁aegade	-10.2939
üüri	-10.2946
▁uskliku	-10.295
▁EK	-10.2953
▁mä	-10.2956
*	-10.2961
sõidu	-10.2968
▁hooaja	-10.2969
nimi	-10.2978
kõik	-10.298
▁KO	-10.2991
masina	-10.2992
viisi	-10.2996
▁VA	-10.2996
▁areng	-10.3007
▁avaliku	-10.3011
AL	-10.3023
▁pildista	-10.3025
kaitse	-10.3027
▁valmi	-10.3029
kiirus	-10.3033
▁ref	-10.3039
▁maksta	-10.304
▁looduses	-10.3041
▁armast	-10.3044
usat	-10.3051
▁tihe	-10.3075
ratsiooni	-10.3077
noh	-10.3078
▁pääst	-10.3079
23	-10.3132
vahendi	-10.3135
innisvara	-10.3136
aegse	-10.3139
paigalda	-10.314
▁Raha	-10.3141
▁Toi	-10.3141
▁Homm	-10.3142
▁sümptom	-10.3142
ustöö	-10.3144
ž	-10.3144
▁Tše	-10.3144
laagrit	-10.3144
lexander	-10.3144
projekti	-10.3144
ravaonu	-10.3144
~	-10.3144
▁Blumat	-10.3144
▁Scoutspataljoni	-10.3144
▁Soome	-10.3144
▁Ukraina	-10.3144
▁arusaamatu	-10.3144
▁assembler	-10.3144
▁atmosfääri	-10.3144
▁dimensioon	-10.3144
▁eesmärgi	-10.3144
▁erasektori	-10.3144
▁hooldus	-10.3144
▁informatsioon	-10.3144
▁kaevandamis	-10.3144
▁kraavi	-10.3144
▁kuumaasika	-10.3144
▁kvaliteedi	-10.3144
▁köh	-10.3144
▁mügri	-10.3144
▁müsteerium	-10.3144
▁omavalitsustel	-10.3144
▁prügimäg	-10.3144
▁reklaam	-10.3144
▁religioon	-10.3144
▁sidruni	-10.3144
▁situatsiooni	-10.3144
▁stabiilse	-10.3144
▁sündmus	-10.3144
▁transpordi	-10.3144
▁treudenbauer	-10.3144
▁vöi	-10.3144
▁youtube	-10.3144
▁ärevus	-10.3144
▁Lõpu	-10.3144
▁alternatiivmark	-10.3144
▁elementaarosake	-10.3144
▁konflikti	-10.3144
▁kosmoselaev	-10.3144
▁kännu	-10.3144
▁libise	-10.3144
▁monoloog	-10.3144
▁moraali	-10.3144
▁pööra	-10.3144
▁remonti	-10.3144
▁sõpru	-10.3144
▁treeneri	-10.3144
▁kolmandik	-10.3144
▁vulkaan	-10.3144
lack	-10.3144
▁Isikliku	-10.3144
▁Machine	-10.3144
▁Tulemus	-10.3144
▁pilsner	-10.3144
▁autotootja	-10.3144
▁spets	-10.3144
▁taksojuh	-10.3144
▁Meenu	-10.3144
▁usalda	-10.3144
▁võrdle	-10.3144
▁ajareisi	-10.3144
▁helistama	-10.3144
▁klient	-10.3144
▁targuta	-10.3144
▁tähista	-10.3144
▁Pärast	-10.3144
juhataja	-10.3144
▁kvant	-10.3144
▁tühja	-10.3144
▁ümara	-10.3144
▁kraami	-10.3144
▁wtf	-10.3144
▁protsess	-10.3144
▁valguskiiruse	-10.3144
▁2-3	-10.3144
▁Sõna	-10.3144
▁raketi	-10.3144
▁Andres	-10.3144
elklaager	-10.3144
▁Tubli	-10.3144
▁ülal	-10.3144
▁kombe	-10.3144
▁klõbi	-10.3144
▁pakendi	-10.3144
▁kõrvad	-10.3144
▁võimalda	-10.3144
▁puhtal	-10.3144
▁kaitseväe	-10.3144
▁liikuma	-10.3144
▁eksisteeri	-10.3144
▁vedru	-10.3144
▁ullu	-10.3144
▁galak	-10.3144
▁enim	-10.3144
▁Nõus	-10.3144
põllu	-10.3144
▁rahakoti	-10.3144
▁vestlus	-10.3144
▁avarii	-10.3144
▁säästa	-10.3144
▁labor	-10.3144
▁omavahel	-10.3144
▁elektriarve	-10.3145
▁Poola	-10.3145
▁venna	-10.3145
▁naeruväär	-10.3145
▁toidupoe	-10.3145
▁osutu	-10.3145
▁Küsimus	-10.3145
▁pistmist	-10.3145
▁sunni	-10.3145
▁armee	-10.3145
ISA	-10.3145
yliti	-10.3145
▁niivõrd	-10.3145
▁pilgu	-10.3145
▁kastmissüsteemi	-10.3145
▁Põhi	-10.3145
▁juhtki	-10.3145
▁väravas	-10.3145
▁seisukohal	-10.3145
▁püks	-10.3145
▁pereringi	-10.3145
▁tootmise	-10.3145
▁eelmiste	-10.3145
▁seltskon	-10.3145
▁aeglasem	-10.3145
▁seletus	-10.3145
▁äge	-10.3145
▁kopeeri	-10.3145
▁täpsuse	-10.3145
▁Enthusias	-10.3146
▁piibli	-10.3146
▁moodusta	-10.3146
▁rooste	-10.3146
▁päikesesüsteem	-10.3146
▁päikesetuul	-10.3146
▁lehetäi	-10.3146
▁laiene	-10.3146
▁tingi	-10.3146
▁Mõtle	-10.3146
▁võtnud	-10.3147
▁ohtlikum	-10.3147
▁Tuleb	-10.3147
▁kipu	-10.3147
▁palka	-10.3147
▁tõlgi	-10.3147
▁põlve	-10.3147
moment	-10.3147
aliseeri	-10.3147
▁lõksu	-10.3147
▁kumb	-10.3147
▁leota	-10.3148
▁Uue	-10.3149
▁hüppa	-10.3149
▁silda	-10.3149
▁trolli	-10.3149
▁Mrt	-10.3149
▁koputa	-10.3149
BA	-10.315
▁kavatse	-10.315
▁TÜ	-10.315
▁SII	-10.315
▁VÕ	-10.315
▁häbi	-10.3151
▁vasur	-10.3151
▁kruvi	-10.3151
▁järjekordse	-10.3151
▁ajaloo	-10.3151
▁otsingu	-10.3151
▁2008	-10.3152
▁marki	-10.3152
▁79	-10.3152
▁poiste	-10.3153
▁panga	-10.3153
****	-10.3153
▁punase	-10.3153
▁taeva	-10.3154
▁nakkav	-10.3154
aradoks	-10.3154
▁süüdistad	-10.3154
▁sms	-10.3155
▁leht	-10.3155
▁perekonna	-10.3155
menteeri	-10.3155
▁Hei	-10.3155
▁tühista	-10.3155
▁telo	-10.3156
▁naeru	-10.3156
mendil	-10.3157
▁vahendit	-10.3157
▁pannud	-10.3157
▁Suuli	-10.3157
▁esialg	-10.3158
▁ON	-10.3158
▁for	-10.3159
buka	-10.3159
▁kirve	-10.3159
sekundi	-10.3159
▁esinda	-10.316
▁Terve	-10.316
▁risk	-10.3161
▁85	-10.3161
▁selgitus	-10.3161
▁raba	-10.3161
põlv	-10.3161
▁varise	-10.3163
▁terava	-10.3163
▁kohutav	-10.3163
▁tööpäev	-10.3163
ähku	-10.3163
▁of	-10.3164
▁murd	-10.3164
▁autu	-10.3166
Korea	-10.3168
▁prof	-10.3168
▁Joh	-10.3169
▁gra	-10.3169
▁ligi	-10.3169
▁lõputu	-10.317
▁liiva	-10.317
▁Cat	-10.317
▁inka	-10.317
▁fänn	-10.317
▁vabasta	-10.3172
▁Cha	-10.3173
▁avatu	-10.3174
33	-10.3176
▁nina	-10.3176
▁Saare	-10.3177
▁muretu	-10.3177
▁vormi	-10.3177
▁link	-10.3177
cia	-10.3178
▁tähtsus	-10.3179
▁mulje	-10.3179
▁õppe	-10.318
▁pesu	-10.318
▁Tasu	-10.318
▁samm	-10.318
▁herne	-10.3181
▁Tänapäeva	-10.3183
▁mingisugune	-10.3183
artei	-10.3184
.00	-10.3186
▁jätka	-10.3187
▁msn	-10.3187
▁vaate	-10.319
▁kütus	-10.319
▁KV	-10.3192
▁Kogu	-10.3196
▁!!	-10.3197
▁tüli	-10.3198
▁pleki	-10.3199
▁paljudes	-10.32
▁Reaalse	-10.3203
▁elamis	-10.3203
▁Juh	-10.3204
peade	-10.3204
▁Tank	-10.3205
▁testa	-10.3207
▁rakend	-10.3208
▁pagan	-10.3208
▁jääv	-10.3211
appi	-10.3212
▁netis	-10.3214
▁Ingli	-10.3219
▁kosta	-10.322
▁risti	-10.3221
▁maali	-10.3222
▁tähtajalisel	-10.3224
▁suuteli	-10.3225
▁kollase	-10.3225
▁kyll	-10.3226
▁’	-10.3226
▁pask	-10.3226
▁varese	-10.3228
▁aed	-10.3229
▁metal	-10.323
▁valimis	-10.3231
▁ekraani	-10.3231
▁lume	-10.3234
▁PS	-10.3234
▁inimelu	-10.3239
▁vanuri	-10.3239
▁kriisi	-10.3245
▁sõbralik	-10.3245
▁armastuse	-10.3246
▁rooli	-10.3247
▁puudumise	-10.3248
▁Edas	-10.3248
kuul	-10.3253
▁Vasta	-10.3253
viroloogia	-10.3254
▁hoius	-10.3257
▁idee	-10.3259
▁kustu	-10.3261
▁puha	-10.3265
▁tundeid	-10.3266
▁Hii	-10.3267
▁salli	-10.3268
▁Ette	-10.327
▁äärmus	-10.3271
▁avane	-10.3278
peenras	-10.3278
▁<	-10.328
▁arengu	-10.3283
▁kilo	-10.3286
▁lõhu	-10.3288
▁Mac	-10.3289
▁alusel	-10.3289
▁nakatumis	-10.3289
▁nälg	-10.329
▁kauba	-10.3292
▁Sina	-10.3292
▁kristliku	-10.3292
▁õhus	-10.3294
▁õnnetus	-10.3294
stamis	-10.3296
▁7-	-10.3297
▁tüdruku	-10.3298
▁valmistu	-10.3299
▁põmm	-10.3301
▁sitt	-10.3302
▁arg	-10.3307
▁hirmuta	-10.331
gro	-10.3311
▁pood	-10.3311
▁Tallinna	-10.3313
oolis	-10.3314
▁raja	-10.3321
▁premiumi	-10.3324
▁kõrgusel	-10.3325
▁puude	-10.3334
osk	-10.3335
tunde	-10.3336
▁Paside	-10.3338
▁Pidi	-10.3338
▁pinna	-10.3339
▁märkas	-10.3344
▁napi	-10.3347
▁Ker	-10.3351
meele	-10.3354
▁töötavad	-10.3357
▁roh	-10.3363
▁poja	-10.3368
▁soomus	-10.3369
▁Sain	-10.3382
▁masinaid	-10.3385
▁kannatuste	-10.3397
▁ir	-10.3398
▁veid	-10.34
▁toiduainete	-10.3401
▁kg	-10.3403
ister	-10.3403
▁tõuse	-10.3404
9.	-10.3409
▁pilk	-10.3412
▁Lii	-10.3413
▁keskmis	-10.3419
▁jõudu	-10.3424
ajastu	-10.3429
▁Aed	-10.3457
▁suust	-10.3469
▁rida	-10.347
▁aktiivse	-10.3484
▁vaen	-10.3489
▁Koha	-10.349
rasva	-10.3496
eeru	-10.35
▁tuttavat	-10.3506
▁saatus	-10.351
▁anti	-10.3517
iili	-10.3524
▁kahtlase	-10.3529
▁heki	-10.3531
▁kiriku	-10.3536
▁lambi	-10.3551
▁õpetama	-10.3553
luu	-10.3563
▁intress	-10.3565
▁igapäevasel	-10.3566
arde	-10.3569
▁kursuse	-10.3569
vic	-10.357
liidu	-10.3572
inal	-10.3577
▁maksu	-10.3585
▁suvalise	-10.3587
▁saba	-10.3587
▁hullema	-10.3591
▁Järgmise	-10.3594
▁täielikul	-10.3631
▁heit	-10.3637
▁Esimese	-10.3637
▁sõrme	-10.3641
▁kehva	-10.365
pär	-10.3652
▁Kall	-10.3654
▁mutt	-10.3656
vool	-10.3664
▁Selg	-10.3666
TSE	-10.3669
▁tuntu	-10.3685
▁kru	-10.3694
▁jaksa	-10.3696
▁Sellise	-10.3699
▁fro	-10.3703
▁minn	-10.3704
▁suurepära	-10.3706
▁palu	-10.3712
liidi	-10.372
▁hoiatus	-10.3724
▁liikluse	-10.373
▁avalikus	-10.373
▁prügive	-10.3746
▁minek	-10.3748
▁Valguse	-10.3794
otsas	-10.3802
▁värsket	-10.381
pli	-10.381
▁kõrgus	-10.3817
mw	-10.382
iivse	-10.3826
lisa	-10.3826
▁töökoh	-10.383
▁footoni	-10.3837
▁kasutamise	-10.3852
▁valv	-10.3858
▁Meri	-10.3865
▁kolis	-10.3869
▁vahend	-10.3874
▁madal	-10.3895
▁seemnete	-10.3907
▁sig	-10.391
▁postituse	-10.3919
▁otsese	-10.3919
▁hing	-10.3935
▁peakes	-10.3954
hulgas	-10.3956
▁hõ	-10.396
peded	-10.3972
▁mehi	-10.3976
▁vanaema	-10.4008
▁tänava	-10.4009
▁Läl	-10.4038
▁arvude	-10.4062
▁sõnade	-10.407
▁log	-10.4072
cr	-10.4094
LA	-10.4102
▁esita	-10.4135
▁kohtu	-10.415
▁ohu	-10.4157
▁Õige	-10.416
▁märtsi	-10.4163
▁Sc	-10.4223
▁Ots	-10.4224
võsa	-10.4312
edit	-10.4341
tõe	-10.4373
GU	-10.4382
▁telefonide	-10.4461
com	-10.4464
7.	-10.4485
▁Venemaal	-10.4496
sõnumi	-10.4525
▁füüsili	-10.4568
▁pop	-10.4582
rom	-10.464
▁Th	-10.4671
taimed	-10.4675
▁käitumise	-10.469
▁Du	-10.4691
▁Br	-10.4694
▁ametlik	-10.4747
laenu	-10.4815
omadus	-10.4837
▁ronis	-10.4862
▁toodeta	-10.489
uter	-10.4899
▁tartus	-10.4901
ER	-10.493
▁leidu	-10.4956
soome	-10.4972
▁kokk	-10.4989
▁kurk	-10.4991
US	-10.5035
▁paanikahoog	-10.5051
▁mudel	-10.5058
▁numbr	-10.5058
saadav	-10.5091
puta	-10.5136
kassa	-10.5176
▁foorum	-10.5189
▁tarbimis	-10.5213
▁seaduse	-10.5225
▁vastse	-10.5225
▁põleva	-10.5254
▁vigade	-10.5266
▁bo	-10.5281
▁kartul	-10.5296
kindla	-10.5308
hoiu	-10.5309
▁surmav	-10.5317
▁Universum	-10.533
taguse	-10.533
▁ajastu	-10.5429
lehel	-10.5443
pä	-10.5477
kordse	-10.5482
EE	-10.5502
▁Yo	-10.5571
▁kõrg	-10.5573
▁nakatu	-10.5576
▁footon	-10.5586
▁plats	-10.5616
▁film	-10.5618
▁Valgus	-10.5638
▁värske	-10.5642
▁vih	-10.5663
NN	-10.5712
MB	-10.5723
▁pohh	-10.5726
▁hetk	-10.5746
▁liiklus	-10.5754
EK	-10.5757
▁väli	-10.5759
▁naudi	-10.576
W	-10.5815
▁sõrm	-10.5826
▁veebruar	-10.5827
vedu	-10.5827
▁kohustuslik	-10.5828
▁edas	-10.5875
▁Aeg	-10.5879
▁5000	-10.5893
▁telefon	-10.59
hunniku	-10.5904
▁torm	-10.5912
▁intressi	-10.592
▁samasugu	-10.5929
bos	-10.5935
▁pidev	-10.5944
keela	-10.5963
▁kahtlus	-10.5994
▁juhtude	-10.6002
▁eelist	-10.6014
▁kirikus	-10.6021
pudeli	-10.6042
▁õig	-10.6047
apla	-10.606
▁pann	-10.6061
▁linn	-10.6064
▁lõpe	-10.6075
▁kahtla	-10.6078
▁konkreet	-10.6088
▁rohelis	-10.6088
▁soodust	-10.6102
stajate	-10.6104
▁kogudus	-10.6108
ülvan	-10.6118
▁põnev	-10.6123
▁toiduaine	-10.6135
▁vastav	-10.6167
▁igapäev	-10.6176
▁vaev	-10.6205
▁Taha	-10.6214
▁korru	-10.6233
98	-10.6254
▁kaup	-10.6256
▁otsust	-10.6258
kogemuse	-10.6284
▁piisa	-10.6286
Ü	-10.6291
<	-10.6291
▁täp	-10.6293
>	-10.6297
filmi	-10.63
piiri	-10.6301
▁Terviseamet	-10.6301
▁Kur	-10.6301
meedia	-10.6304
energia	-10.6304
keeles	-10.6304
ausalt	-10.6304
õigus	-10.6306
Y	-10.6307
mõju	-10.6307
järel	-10.6308
tehnika	-10.6309
teadus	-10.6309
TT	-10.6311
nimeta	-10.6311
mööda	-10.6312
@	-10.6314
välja	-10.6314
heit	-10.6316
sõit	-10.6319
▁asjalik	-10.632
mahu	-10.6322
▁tallinn	-10.6324
▁rohke	-10.6327
inimese	-10.6328
kaua	-10.633
palga	-10.633
tegija	-10.6336
ringi	-10.6338
pood	-10.6346
▁äs	-10.635
ristus	-10.6352
poisi	-10.6353
hästi	-10.6354
neutr	-10.636
vanema	-10.6367
▁sisu	-10.637
▁tähtajali	-10.637
peni	-10.6375
▁jõulu	-10.6378
limus	-10.6383
kutse	-10.6391
▁suuna	-10.6404
▁inf	-10.6406
dioodid	-10.6406
ST	-10.6419
mäng	-10.6422
keskuse	-10.6424
▁raam	-10.6431
▁hüp	-10.6446
ülit	-10.6458
oopia	-10.6466
▁tasakaalu	-10.6467
▁Tegel	-10.6471
▁efekt	-10.6471
roovi	-10.6473
▁impuls	-10.6474
▁Päikese	-10.6475
▁Huvi	-10.6476
raha	-10.6476
▁poliit	-10.6477
▁Tüü	-10.6477
ology	-10.6477
üüslaugu	-10.6477
▁Põhimõt	-10.6477
▁evangeel	-10.6477
▁äriloeng	-10.6477
kommunist	-10.6477
ommunism	-10.6477
pataljon	-10.6477
rünnaku	-10.6477
struktuuri	-10.6477
temperatuur	-10.6477
„	-10.6477
▁..........	-10.6477
▁BTR	-10.6477
▁Brauer	-10.6477
▁Buratino	-10.6477
▁Füüsik	-10.6477
▁Jehoova	-10.6477
▁Kopeerin	-10.6477
▁Kuumaasika	-10.6477
▁Piibli	-10.6477
▁Wuhani	-10.6477
▁aitäh	-10.6477
▁antikehad	-10.6477
▁apteek	-10.6477
▁asjatundja	-10.6477
▁banaalsus	-10.6477
▁detsemb	-10.6477
▁ebamugav	-10.6477
▁elanikkonna	-10.6477
▁energeetika	-10.6477
▁erandit	-10.6477
▁folderis	-10.6477
▁füüsikaseadus	-10.6477
▁graafiku	-10.6477
▁intensiiv	-10.6477
▁järjekindl	-10.6477
▁kaitseliitlas	-10.6477
▁kiidulaul	-10.6477
▁konkureeri	-10.6477
▁konsentratsioon	-10.6477
▁konsultatsiooni	-10.6477
▁kopsukatku	-10.6477
▁kõrvut	-10.6477
▁köögi	-10.6477
▁lehekülje	-10.6477
▁luuletust	-10.6477
▁missioonitunde	-10.6477
▁märtrite	-10.6477
▁mõtlemisvõime	-10.6477
▁novemb	-10.6477
▁nõmeda	-10.6477
▁oktoobri	-10.6477
▁organiseeri	-10.6477
▁otsekohe	-10.6477
▁pedofiilid	-10.6477
▁perioodi	-10.6477
▁porsche	-10.6477
▁prohvet	-10.6477
▁pruugi	-10.6477
▁põlevkivi	-10.6477
▁ravimtaim	-10.6477
▁retsepti	-10.6477
▁rosmariin	-10.6477
▁rullnox	-10.6477
▁sajandi	-10.6477
▁sissetuleku	-10.6477
▁stabilisaatori	-10.6477
▁territoorium	-10.6477
▁vaktsineeri	-10.6477
▁vastuvõtmise	-10.6477
▁veoautode	-10.6477
▁võrdlus	-10.6477
▁öko	-10.6477
ideoloogia	-10.6477
▁Kalevipo	-10.6477
▁Kõigil	-10.6477
▁Tsehhi	-10.6477
▁arooniahek	-10.6477
▁ebaõnnestu	-10.6477
▁eriskummali	-10.6477
▁jaanipäeva	-10.6477
▁kanarbik	-10.6477
▁lõhna	-10.6477
▁moodustumise	-10.6477
▁palavik	-10.6477
▁reageeri	-10.6477
▁rõõmsa	-10.6477
▁septembri	-10.6477
▁spekul	-10.6477
▁tööriista	-10.6477
võttu	-10.6477
▁Enamik	-10.6477
▁Teleport	-10.6477
▁banaan	-10.6477
▁dieedi	-10.6477
▁grilli	-10.6477
▁isoleeri	-10.6477
▁jorss	-10.6477
▁kliendi	-10.6477
▁kummalise	-10.6477
▁muinasjutu	-10.6477
▁puhtaks	-10.6477
▁tiineka	-10.6477
▁tsiteeri	-10.6477
▁ulatu	-10.6477
▁Linnu	-10.6477
▁Normaal	-10.6477
▁kalendri	-10.6477
▁kitsekarj	-10.6477
▁käitumismust	-10.6477
▁populaar	-10.6477
▁rahvus	-10.6477
▁sarnane	-10.6477
▁traditsiooni	-10.6477
▁tärkamis	-10.6477
▁Võsa	-10.6477
▁köögivilj	-10.6477
▁porche	-10.6477
▁smth	-10.6477
▁muuseumi	-10.6477
▁püstol	-10.6477
▁õitsva	-10.6477
▁meenuta	-10.6477
intervjuu	-10.6477
▁idioot	-10.6477
▁vooliku	-10.6477
▁Arvuti	-10.6477
▁ajukeeni	-10.6477
▁halvem	-10.6477
▁luksus	-10.6477
▁Püha	-10.6477
▁valitseva	-10.6477
sioonidel	-10.6477
▁eeskuju	-10.6477
▁kõrise	-10.6477
▁tagavara	-10.6477
▁Chris	-10.6477
▁reosta	-10.6477
aubamajade	-10.6477
▁muteeru	-10.6477
▁Dimmu	-10.6477
▁eetika	-10.6477
▁coq	-10.6477
▁lammuta	-10.6477
▁tsuna	-10.6477
▁Lugemi	-10.6477
▁kurjuse	-10.6477
▁üksteisel	-10.6477
▁maksimum	-10.6477
▁paberi	-10.6477
▁sirmik	-10.6477
▁öömaja	-10.6477
▁einstein	-10.6477
▁sordi	-10.6477
▁surve	-10.6477
▁delfi	-10.6477
▁lüka	-10.6477
▁offe	-10.6477
▁trenni	-10.6477
▁täisnime	-10.6477
▁helistas	-10.6477
▁kallaku	-10.6477
▁26.	-10.6478
▁unista	-10.6478
▁taandu	-10.6478
ksootika	-10.6478
IGA	-10.6478
▁Rahva	-10.6478
▁naaber	-10.6478
▁paiguta	-10.6478
▁prag	-10.6478
▁turva	-10.6478
UVA	-10.6478
RIS	-10.6478
▁parkimi	-10.6478
▁unistus	-10.6478
keskkoolis	-10.6478
▁nuneh	-10.6478
▁poliitikute	-10.6478
▁võrdu	-10.6478
ISE	-10.6478
uaalse	-10.6478
▁Kellel	-10.6478
▁Hooli	-10.6478
metsistu	-10.6478
▁leiutis	-10.6478
▁mugula	-10.6478
▁Loll	-10.6478
eelarvest	-10.6478
▁lenna	-10.6478
mütsi	-10.6478
▁paiska	-10.6478
▁KÕIK	-10.6478
kunstnik	-10.6478
▁õite	-10.6478
rantsus	-10.6478
▁Nalja	-10.6478
▁kõnele	-10.6478
▁kõrin	-10.6478
▁kannus	-10.6478
▁alumise	-10.6478
▁Maasika	-10.6478
▁Jõud	-10.6478
▁spordi	-10.6479
▁takistus	-10.6479
▁Marsi	-10.6479
▁boson	-10.6479
▁tüved	-10.6479
▁katkesta	-10.6479
▁:-)	-10.6479
▁pimedus	-10.6479
▁lagunem	-10.6479
▁sotsiaal	-10.6479
▁vägev	-10.6479
▁roomikute	-10.6479
▁ülekande	-10.6479
▁neetid	-10.6479
▁tiba	-10.6479
▁meelita	-10.6479
▁inetu	-10.6479
▁purje	-10.6479
▁perse	-10.6479
▁igaühel	-10.6479
▁mahla	-10.6479
▁Mõlema	-10.6479
▁meeskonnal	-10.6479
▁variandi	-10.648
eebo	-10.648
▁kasvukoha	-10.648
▁kavandat	-10.648
▁Chi	-10.648
▁kangem	-10.648
▁lehtede	-10.648
ontine	-10.648
▁ühiskond	-10.648
▁avastus	-10.648
▁sümptomite	-10.648
▁tüdinu	-10.648
ratsme	-10.648
▁peremees	-10.648
▁stiili	-10.648
▁hädalda	-10.648
Gripi	-10.648
▁EKV	-10.648
▁lootust	-10.6481
▁avalike	-10.6481
▁külasta	-10.6481
patarei	-10.6481
▁tähelepanek	-10.6481
▁taskus	-10.6481
▁Artik	-10.6481
▁isiksus	-10.6481
▁hoone	-10.6481
▁Kõigepeal	-10.6481
▁ilge	-10.6481
▁tõhus	-10.6481
▁ületamatu	-10.6481
▁enesekindlus	-10.6481
▁armu	-10.6482
▁avita	-10.6482
meelsus	-10.6482
▁Samsungi	-10.6482
▁gener	-10.6482
▁ühistranspor	-10.6482
▁nõuande	-10.6482
▁närvitse	-10.6482
▁nähtamatu	-10.6482
▁üldjuhul	-10.6483
▁Telklaagri	-10.6483
egula	-10.6483
▁naatide	-10.6483
▁Ihu	-10.6483
▁tubli	-10.6483
▁Kuula	-10.6483
▁Anti	-10.6484
▁laiba	-10.6484
▁Anna	-10.6484
▁nujah	-10.6484
▁ubade	-10.6484
▁Nime	-10.6484
▁juurevõsu	-10.6484
▁Bolti	-10.6484
pisik	-10.6484
▁naastude	-10.6484
▁sorr	-10.6485
▁teadvus	-10.6485
▁Nato	-10.6485
▁Suht	-10.6485
▁isiklik	-10.6485
▁õis	-10.6485
▁Täit	-10.6485
▁India	-10.6485
▁lühike	-10.6486
▁null	-10.6486
▁faasi	-10.6486
▁MIT	-10.6486
▁rulli	-10.6486
▁iseenda	-10.6486
▁professorite	-10.6486
▁Kahtl	-10.6486
UL	-10.6486
▁pensionär	-10.6487
▁metsik	-10.6487
▁tausta	-10.6487
▁terviku	-10.6487
▁praktiku	-10.6487
▁Ilma	-10.6487
SO	-10.6488
▁Parem	-10.6488
landi	-10.6488
aator	-10.6488
▁seina	-10.6488
▁loetle	-10.6488
▁Tehn	-10.6488
▁komme	-10.6488
▁näpu	-10.6488
listlik	-10.6489
▁Kinnisvara	-10.649
▁lemmik	-10.649
▁droo	-10.649
▁Alat	-10.649
▁nuput	-10.649
▁1.6	-10.649
ugupidamise	-10.649
▁veidra	-10.649
erver	-10.6491
ntsu	-10.6491
▁targa	-10.6491
▁Niipalju	-10.6492
IL	-10.6492
▁kirjand	-10.6492
▁vitsa	-10.6492
ogitud	-10.6493
▁Pisik	-10.6493
▁Kokku	-10.6493
▁ülearu	-10.6493
distsi	-10.6493
▁ilmumis	-10.6493
▁Langev	-10.6494
▁siuk	-10.6494
▁jabur	-10.6494
atiivi	-10.6494
▁hobuste	-10.6495
▁Ehhe	-10.6495
▁Ind	-10.6495
▁surra	-10.6495
▁tilguti	-10.6496
▁Fla	-10.6496
▁hoor	-10.6496
▁millistes	-10.6497
▁rolli	-10.6497
RE	-10.6497
▁orga	-10.6498
▁voha	-10.6498
▁järk	-10.6499
▁ravimi	-10.6499
▁koige	-10.6499
puhkus	-10.6499
▁Mart	-10.65
rakkude	-10.65
UD	-10.6501
▁rühma	-10.6501
▁Till	-10.6502
▁eestlaste	-10.6502
▁Monolo	-10.6502
▁visata	-10.6503
hüppe	-10.6503
▁maapeal	-10.6503
▁Musta	-10.6504
saste	-10.6504
▁valju	-10.6504
▁kisu	-10.6504
▁kolmapäev	-10.6505
▁ütel	-10.6506
▁jee	-10.6507
▁gaasi	-10.6507
▁AC	-10.6507
▁65	-10.6507
▁kisa	-10.6508
▁anonüüm	-10.6508
▁õel	-10.6509
ressid	-10.6509
marjad	-10.651
ärts	-10.651
▁Hinna	-10.6511
▁SU	-10.6513
▁audi	-10.6513
▁müstilise	-10.6514
▁valge	-10.6515
▁heli	-10.6515
▁kius	-10.6516
▁nädalavahetusel	-10.6517
▁ramm	-10.6517
▁Teha	-10.6518
▁kostu	-10.6518
aavu	-10.6518
meelse	-10.6519
▁asjaolu	-10.6521
▁eestlane	-10.6521
▁matsid	-10.6522
rivaat	-10.6523
OC	-10.6523
▁Gen	-10.6524
nglis	-10.6525
▁24	-10.6525
RO	-10.6526
▁ebakindl	-10.6527
▁füüsikaõpetaja	-10.6531
▁0.	-10.6534
▁92	-10.6535
▁Holl	-10.6536
▁risu	-10.6538
▁seletasid	-10.6539
▁car	-10.654
▁kitse	-10.654
ushi	-10.654
▁Välj	-10.6542
▁tootja	-10.6542
▁cra	-10.6545
piirkondades	-10.6546
▁Roundup	-10.6546
▁seksi	-10.6546
▁osakese	-10.6547
▁panus	-10.6547
▁külvasin	-10.6547
▁taina	-10.6548
▁Car	-10.6549
▁viimaste	-10.655
▁Rä	-10.655
▁Vir	-10.6552
▁veidike	-10.6553
▁tuuliku	-10.6553
▁põhili	-10.6555
▁Mnja	-10.6555
▁hüü	-10.6557
▁21	-10.6559
▁EV	-10.6561
▁võimu	-10.6562
▁muru	-10.6562
▁kogemused	-10.6563
▁lima	-10.6564
▁Kile	-10.6564
torni	-10.6564
▁kuivata	-10.6568
iaal	-10.6568
pic	-10.6568
▁riku	-10.6572
õdu	-10.6573
▁külmuta	-10.6574
ändi	-10.6575
▁piina	-10.6575
unema	-10.6577
▁meelt	-10.6581
rbon	-10.6582
▁lugedes	-10.6582
▁tähelepanelik	-10.6582
▁klassiku	-10.6583
woo	-10.6592
▁käep	-10.6594
▁poh	-10.6596
▁sportlas	-10.6596
▁populatsioonis	-10.6597
helbekeste	-10.6598
▁papp	-10.6598
▁kaela	-10.6599
▁nipp	-10.6601
▁kasutuse	-10.6602
▁teoree	-10.6609
▁toksi	-10.6613
oodetavasti	-10.6623
Hoo	-10.6624
tsip	-10.6626
▁Hä	-10.663
▁ohutu	-10.6633
▁vabanemi	-10.6634
▁värvat	-10.6634
▁tallinnas	-10.6638
▁soni	-10.6645
▁süsi	-10.6646
VAS	-10.6646
▁meeletu	-10.6647
▁kiid	-10.6649
▁miis	-10.6652
▁koosseisu	-10.6656
▁keeru	-10.6661
▁Ajakirjan	-10.6671
vedelik	-10.6672
▁sõim	-10.6674
▁inimliku	-10.6678
▁pildistama	-10.668
▁kadaka	-10.6682
erc	-10.6686
▁loodusliku	-10.6687
▁viirushaigus	-10.6688
seisva	-10.6688
yla	-10.6693
▁ennustaja	-10.6693
▁kuuldu	-10.67
▁ühenda	-10.6701
▁teaduslikk	-10.6706
▁tagumise	-10.6712
▁arstide	-10.6713
▁nats	-10.6728
▁väidet	-10.6732
▁91	-10.6734
▁Toris	-10.6737
eenus	-10.6745
84	-10.6746
74	-10.6757
aela	-10.6764
▁boor	-10.6765
jutt	-10.6772
änni	-10.6776
llion	-10.679
korr	-10.6792
▁ääres	-10.6793
▁ameeriklas	-10.6796
▁2003	-10.6811
toodu	-10.6822
tegevus	-10.6826
oste	-10.683
JA	-10.6843
▁palvetami	-10.6851
ngade	-10.6861
▁tervisliku	-10.6886
▁pomm	-10.6897
▁tähtsam	-10.6898
▁tingimuste	-10.6901
varuosad	-10.6908
▁hig	-10.6915
oloog	-10.692
play	-10.692
krõ	-10.6921
rikas	-10.6939
hhh	-10.6945
▁füüsilise	-10.6957
▁tarvita	-10.6964
▁naastrehv	-10.6971
▁suurim	-10.6982
lahusega	-10.6988
▁kirju	-10.6995
▁katk	-10.7004
▁edasta	-10.7012
▁Ok	-10.7018
▁kuulamise	-10.7019
▁Jutu	-10.7021
▁Pir	-10.7034
▁relvade	-10.7068
▁sõidukit	-10.707
▁piirangute	-10.7072
rofessor	-10.7073
▁keskkon	-10.708
▁kun	-10.7086
▁asjaliku	-10.7097
▁liial	-10.7099
▁koondu	-10.7099
eerimis	-10.7101
▁lohut	-10.7115
▁põleta	-10.713
▁tankitõrj	-10.7139
ritan	-10.7145
eritu	-10.7177
palli	-10.7185
▁igasuguse	-10.7191
II	-10.7205
▁Kirik	-10.7231
0000000	-10.7257
ahjus	-10.7257
▁korraldaja	-10.7277
valla	-10.7279
▁tervenda	-10.7289
▁Kasuta	-10.729
kõlari	-10.7342
rez	-10.7345
folderites	-10.7364
▁üllata	-10.7398
pääs	-10.7427
õimalik	-10.743
rakas	-10.7473
vihma	-10.7486
ntide	-10.7497
▁enesekind	-10.753
▁reisimise	-10.7554
kott	-10.758
lauri	-10.762
oskamatu	-10.7644
külalis	-10.7655
uttu	-10.7679
rändamise	-10.7698
▁ehitamise	-10.7799
▁mõnedel	-10.7825
▁hek	-10.7846
▁kahjulik	-10.7852
etaja	-10.7907
äide	-10.7956
kaeva	-10.7966
nstruktor	-10.8066
▁alustad	-10.8106
▁katsetus	-10.8135
ljandi	-10.8195
▁füüsi	-10.8198
▁investeerimis	-10.82
Heli	-10.8345
▁kõht	-10.8345
▁töötaja	-10.8345
▁matuse	-10.8348
▁andek	-10.8377
▁tür	-10.8384
rehvide	-10.8434
tundliku	-10.8463
nants	-10.848
kommentaarid	-10.8496
▁lehek	-10.8575
▁Pasi	-10.8579
▁tihedam	-10.8663
rassi	-10.8685
refor	-10.8748
keelset	-10.8757
merel	-10.8883
ägin	-10.8909
organismi	-10.8933
õhtu	-10.9002
osakes	-10.9033
nger	-10.9063
ähemal	-10.9132
▁suvali	-10.9143
rch	-10.9195
tüübi	-10.9214
ässa	-10.9223
tegev	-10.9254
neuroni	-10.9578
rkus	-10.9707
▁sisemin	-10.9714
▁rändami	-10.9814
hike	-10.984
▁reaal	-10.9855
OT	-10.9926
▁vaadak	-10.9942
▁taseme	-10.9969
▁üllatav	-11.0133
▁piirkonna	-11.0202
▁kõla	-11.0214
▁karj	-11.027
▁reegl	-11.029
▁vastupid	-11.0298
ümn	-11.0299
▁1,0	-11.0322
kõrguse	-11.0324
kirjut	-11.0376
seisus	-11.0416
▁märg	-11.0424
▁lahus	-11.0439
▁inglisekeel	-11.0453
viirus	-11.0482
▁ahj	-11.0563
tekstis	-11.058
sõidukite	-11.0594
▁lamb	-11.0619
▁ruum	-11.0678
▁automaat	-11.0753
▁varuos	-11.0831
▁ülikool	-11.0851
silm	-11.0899
▁pinn	-11.0902
ooper	-11.0923
▁pealkir	-11.0928
▁isik	-11.0946
▁ameerik	-11.0978
03.	-11.0982
▁Näit	-11.1034
▁liikuv	-11.1051
ifitseeri	-11.1062
▁kontroll	-11.1064
▁standard	-11.1072
oomiseks	-11.1079
▁Inim	-11.108
▁aktiiv	-11.1086
kodanikuportaali	-11.1086
▁sügav	-11.1098
▁saavut	-11.1104
▁absoluut	-11.1135
▁tüdruk	-11.1135
▁kristlik	-11.115
▁port	-11.1168
▁meteor	-11.1237
egemist	-11.1251
onteineri	-11.1264
▁ekraan	-11.1287
’	-11.1293
kriisi	-11.1294
mudeli	-11.1297
haridus	-11.1298
tingimus	-11.1299
ehitus	-11.13
▁eesmärk	-11.1301
piirangu	-11.1302
tüüpi	-11.1302
täht	-11.1304
euroopa	-11.1305
number	-11.1305
sibula	-11.1306
kaamera	-11.1307
Euroopa	-11.1307
põhja	-11.1308
Ä	-11.1309
kõrvale	-11.131
kahju	-11.1311
karantiini	-11.1311
pähe	-11.1312
▁sõbral	-11.1312
teooria	-11.1312
täit	-11.1313
valguse	-11.1313
seemne	-11.1317
pildi	-11.1318
hetke	-11.1319
kyll	-11.1319
▁hull	-11.1319
kaalu	-11.132
täis	-11.1321
tulemus	-11.1327
midagi	-11.1329
▁püs	-11.1333
▁pädev	-11.1333
tagasi	-11.1334
▁leebe	-11.1341
▁hulg	-11.1346
asemel	-11.1347
märkide	-11.1367
▁piirkond	-11.1375
▁Tallin	-11.1388
servas	-11.1399
vormid	-11.1405
toote	-11.1406
▁Kahju	-11.1407
▁negatiiv	-11.1408
▁ajarän	-11.1412
▁Põhja	-11.1412
abarii	-11.1414
ajakirja	-11.1424
käim	-11.1425
õbraliku	-11.1431
▁korter	-11.1436
▁prakti	-11.1436
▁elekt	-11.144
▁kohut	-11.1441
▁tilgu	-11.1448
▁kohustus	-11.1448
▁päike	-11.1456
***	-11.1456
akatunu	-11.1459
strateegi	-11.1463
▁lühi	-11.1464
oloogilist	-11.1464
▁Näh	-11.1464
andeemia	-11.1465
elklaagri	-11.1469
amsungi	-11.147
streeri	-11.1471
ohik	-11.1474
meristeem	-11.1474
illeg	-11.1476
▁KÕI	-11.1476
akäi	-11.1476
porteeri	-11.1476
▁energ	-11.1476
tunnist	-11.1476
eemiat	-11.1476
grupi	-11.1477
prits	-11.1477
sõja	-11.1477
kulptuuri	-11.1477
traditsio	-11.1477
▁emotsio	-11.1477
ahingu	-11.1477
▁täistööa	-11.1477
kompetents	-11.1477
parlamen	-11.1477
▁Allisoni	-11.1477
▁Cobra	-11.1477
▁Elektri	-11.1477
▁Lasnamäe	-11.1477
▁Teadjanaise	-11.1477
▁aialapi	-11.1477
▁ananassi	-11.1477
▁defitsii	-11.1477
▁ettenägelik	-11.1477
▁geograafia	-11.1477
▁gravitasiooni	-11.1477
▁kokkupaneku	-11.1477
▁kärntõve	-11.1477
▁maksimaalse	-11.1477
▁meditsiinitööta	-11.1477
▁miinimum	-11.1477
▁mälestuste	-11.1477
▁orienteeru	-11.1477
▁palgatõus	-11.1477
▁pruunik	-11.1477
▁püvilille	-11.1477
▁reaktiiv	-11.1477
▁rünnata	-11.1477
▁seitsmesajase	-11.1477
▁sõprade	-11.1477
▁tahomeetri	-11.1477
▁teenustasu	-11.1477
▁tulumaksu	-11.1477
▁vabatahtliku	-11.1477
▁vaskvitriol	-11.1477
▁vedelväetis	-11.1477
▁väljundi	-11.1477
▁ämmveifanaatik	-11.1477
KINDL	-11.1477
STAN	-11.1477
^	-11.1477
ehoovatunnistaja	-11.1477
hävitaja	-11.1477
jonärid	-11.1477
kalevipoeg	-11.1477
konsulatatsiooni	-11.1477
konverents	-11.1477
koolifüüsika	-11.1477
kuulamisharjutus	-11.1477
kümnendate	-11.1477
lashdoti	-11.1477
liexpressis	-11.1477
magneti	-11.1477
ompressor	-11.1477
omöopaatia	-11.1477
poliitik	-11.1477
põletik	-11.1477
tutvustus	-11.1477
tööstus	-11.1477
«	-11.1477
»	-11.1477
õhulahtisus	-11.1477
•	-11.1477
▁BBC	-11.1477
▁Britney	-11.1477
▁Ekspressi	-11.1477
▁Hispaania	-11.1477
▁INTERVJUU	-11.1477
▁Jesper	-11.1477
▁Jumalateot	-11.1477
▁Jõuluvana	-11.1477
▁KAHJU	-11.1477
▁Kõrvale	-11.1477
▁Kükametsa	-11.1477
▁Lugejaga	-11.1477
▁LÕHED	-11.1477
▁Müügi	-11.1477
▁Nartsissi	-11.1477
▁Nordicus	-11.1477
▁PILDID	-11.1477
▁Põhjend	-11.1477
▁Reaktor	-11.1477
▁Selveri	-11.1477
▁Sipelga	-11.1477
▁Supercruis	-11.1477
▁Telefon	-11.1477
▁Tunnista	-11.1477
▁Winamp	-11.1477
▁ZAZ	-11.1477
▁absurd	-11.1477
▁ahsoo	-11.1477
▁allekokki	-11.1477
▁analüü	-11.1477
▁arhiiv	-11.1477
▁bakter	-11.1477
▁banaanitaim	-11.1477
▁bioloogilis	-11.1477
▁circ	-11.1477
▁dokumentaal	-11.1477
▁ebameeldiv	-11.1477
▁ebapädeva	-11.1477
▁ebastabiil	-11.1477
▁eesmàrgi	-11.1477
▁eestpalve	-11.1477
▁epidemioloog	-11.1477
▁esmanäht	-11.1477
▁ettekuulut	-11.1477
▁ettepaneku	-11.1477
▁fokus	-11.1477
▁future	-11.1477
▁googelda	-11.1477
▁guugel	-11.1477
▁haruldasema	-11.1477
▁hoolitse	-11.1477
▁horisondi	-11.1477
▁huiar	-11.1477
▁hukkunut	-11.1477
▁hõrgutis	-11.1477
▁ignoreerin	-11.1477
▁illusioon	-11.1477
▁imiteeri	-11.1477
▁immuuns	-11.1477
▁ingliskeel	-11.1477
▁intelligents	-11.1477
▁iseloomust	-11.1477
▁jaanuari	-11.1477
▁jeliiza	-11.1477
▁juhendamise	-11.1477
▁katastroof	-11.1477
▁kirsipuud	-11.1477
▁kirsturaha	-11.1477
▁klouni	-11.1477
▁konkurent	-11.1477
▁koosviibim	-11.1477
▁käsitöö	-11.1477
▁küttearve	-11.1477
▁langevarju	-11.1477
▁laskemoona	-11.1477
▁lauslollus	-11.1477
▁lupiini	-11.1477
▁lõpmatuse	-11.1477
▁lõpueksami	-11.1477
▁lõõgastu	-11.1477
▁maailmalõpp	-11.1477
▁mehhanis	-11.1477
▁menstruatsioon	-11.1477
▁mereääre	-11.1477
▁mingisuguste	-11.1477
▁muinasjutt	-11.1477
▁multši	-11.1477
▁naisterahvas	-11.1477
▁network	-11.1477
▁nõudepesu	-11.1477
▁parameetri	-11.1477
▁piisknakkus	-11.1477
▁pingelise	-11.1477
▁pizza	-11.1477
▁porgand	-11.1477
▁praekartul	-11.1477
▁protseduur	-11.1477
▁protsendi	-11.1477
▁prügimäe	-11.1477
▁pühend	-11.1477
▁questioni	-11.1477
▁religioosse	-11.1477
▁ristsugutis	-11.1477
▁skulptor	-11.1477
▁soccerneti	-11.1477
▁soomuk	-11.1477
▁staabi	-11.1477
▁sõidustiili	-11.1477
▁tagajärgede	-11.1477
▁tagajärje	-11.1477
▁talupoja	-11.1477
▁tehnikahuvili	-11.1477
▁teleportatsioon	-11.1477
▁terviseametnike	-11.1477
▁tindiku	-11.1477
▁tutvusta	-11.1477
▁ullikeste	-11.1477
▁valikuvõimalus	-11.1477
▁ähvarda	-11.1477
▁õlaltlastava	-11.1477
▁õlletootjate	-11.1477
▁üllatuse	-11.1477
▁üürilepingu	-11.1477
😀	-11.1477
▁KUI	-11.1477
▁galopp	-11.1477
▁kräsu	-11.1477
▁käputäi	-11.1477
▁nimekirja	-11.1477
▁parkla	-11.1477
▁taktika	-11.1477
▁täiskasvanu	-11.1477
▁uudishimu	-11.1477
▁vähetõhus	-11.1477
iddelgrunden	-11.1477
kübar	-11.1477
neutraalse	-11.1477
nterneti	-11.1477
ugoslaav	-11.1477
õhutuul	-11.1477
▁FUc	-11.1477
▁Fabia	-11.1477
▁Focus	-11.1477
▁Jürgens	-11.1477
▁Liiklus	-11.1477
▁Lõpet	-11.1477
▁Peenra	-11.1477
▁Perekonna	-11.1477
▁Unustasi	-11.1477
▁Venkud	-11.1477
▁anemooni	-11.1477
▁avarustest	-11.1477
▁equt	-11.1477
▁grammar	-11.1477
▁gurmee	-11.1477
▁insektitsiid	-11.1477
▁isekülv	-11.1477
▁jalaväe	-11.1477
▁jörmi	-11.1477
▁kindlust	-11.1477
▁koefits	-11.1477
▁kõrvalekalle	-11.1477
▁naelrehv	-11.1477
▁optimis	-11.1477
▁orgunni	-11.1477
▁paralleel	-11.1477
▁parteilise	-11.1477
▁prootoni	-11.1477
▁pseudoprobleem	-11.1477
▁regulaar	-11.1477
▁riigieksam	-11.1477
▁rüüsta	-11.1477
▁selgeltnäg	-11.1477
▁sümbioos	-11.1477
▁tõlgenda	-11.1477
▁tütartaim	-11.1477
▁usaldusväär	-11.1477
Payne	-11.1477
nõgese	-11.1477
roport	-11.1477
tsõgan	-11.1477
▁Aiandus	-11.1477
▁MEM	-11.1477
▁alkoho	-11.1477
▁emotsionaalse	-11.1477
▁garanteeri	-11.1477
▁korstna	-11.1477
▁propageerim	-11.1477
▁psüholoogi	-11.1477
▁soomustorik	-11.1477
▁ulmefilmide	-11.1477
eptemb	-11.1477
kõlbmatu	-11.1477
tuuningu	-11.1477
ütlemise	-11.1477
▁168	-11.1477
▁Prakti	-11.1477
▁Twain	-11.1477
▁arusaamise	-11.1477
▁halvima	-11.1477
▁impor	-11.1477
▁joller	-11.1477
▁kapriis	-11.1477
▁käesoleva	-11.1477
▁nuhtlu	-11.1477
▁painuta	-11.1477
▁purskamis	-11.1477
▁seeneraamatu	-11.1477
▁solvunu	-11.1477
▁spetsialis	-11.1477
▁suitsiid	-11.1477
▁taustsüsteemi	-11.1477
▁tehisintel	-11.1477
▁totaalse	-11.1477
▁tsentr	-11.1477
hahahah	-11.1477
▁Hillar	-11.1477
▁Verekeskus	-11.1477
▁autojuhtimis	-11.1477
▁pikivahe	-11.1477
üppajat	-11.1477
▁Postimehe	-11.1477
▁Tihti	-11.1477
▁eksootili	-11.1477
▁meetod	-11.1477
▁oblika	-11.1477
▁ressurs	-11.1477
▁soldati	-11.1477
▁soojene	-11.1477
▁subject	-11.1477
▁suhkru	-11.1477
▁Aptee	-11.1477
▁Gripp	-11.1477
▁Nõges	-11.1477
▁Paigald	-11.1477
▁Pevkur	-11.1477
▁Pritsimi	-11.1477
▁murumun	-11.1477
▁vahtima	-11.1477
▁ümberistutamise	-11.1477
laiksuse	-11.1477
▁Lordi	-11.1477
▁``	-11.1477
▁glass	-11.1477
▁porno	-11.1477
▁positsioon	-11.1477
▁rõve	-11.1477
▁väljaõppe	-11.1477
▁õppur	-11.1477
▁Hubei	-11.1477
NIME	-11.1477
▁Merkava	-11.1477
▁küüsi	-11.1477
▁peenemal	-11.1477
▁räuska	-11.1477
▁show	-11.1477
▁veerandi	-11.1477
hotelli	-11.1477
ikipedia	-11.1477
▁Esmaspäev	-11.1477
▁hoolda	-11.1477
▁kehti	-11.1477
▁senator	-11.1477
▁tsenseeri	-11.1477
▁kesklinna	-11.1477
▁kooskõl	-11.1477
▁kässari	-11.1477
▁minimaal	-11.1477
▁ratsastamise	-11.1477
▁ämb	-11.1477
ktorite	-11.1477
▁kapital	-11.1477
▁krundi	-11.1477
▁lühem	-11.1477
▁tolmu	-11.1477
▁ufo	-11.1477
▁vähima	-11.1477
▁dollari	-11.1477
▁kõiguta	-11.1477
▁hanerasva	-11.1477
▁regiooni	-11.1477
▁väljend	-11.1477
▁kõneld	-11.1477
▁peldiku	-11.1477
▁sõiduoskus	-11.1477
pühki	-11.1477
ulfaat	-11.1477
▁käivitu	-11.1477
▁laguneva	-11.1477
▁lõbu	-11.1477
▁velje	-11.1477
▁eriolukor	-11.1477
▁friik	-11.1477
▁kuritegeliku	-11.1477
▁magnet	-11.1477
▁pärandi	-11.1477
▁põrgu	-11.1477
▁usuhullu	-11.1477
▁versio	-11.1477
▁magusai	-11.1477
▁testamendi	-11.1477
▁topelt	-11.1477
▁trügi	-11.1477
▁Sõit	-11.1477
▁raadiojaam	-11.1477
▁tegelikkuse	-11.1477
▁ERR	-11.1477
▁sumbu	-11.1477
▁süvene	-11.1477
▁jopa	-11.1477
▁jäljenda	-11.1477
ehaanika	-11.1477
▁Avamaa	-11.1477
▁küllakutse	-11.1477
▁covid	-11.1478
▁kõndi	-11.1478
▁lohaka	-11.1478
▁planeet	-11.1478
▁õhukese	-11.1478
▁kavatsus	-11.1478
▁siiajõudmis	-11.1478
▁promo	-11.1478
▁Pritsid	-11.1478
▁Püsi	-11.1478
linnavalitsus	-11.1478
▁Paranda	-11.1478
▁ohvri	-11.1478
▁sõstra	-11.1478
RUM	-11.1478
ject	-11.1478
indluse	-11.1478
▁Jaapan	-11.1478
▁baasi	-11.1478
dition	-11.1478
▁Hoia	-11.1478
▁Tüüpilis	-11.1478
▁Korralik	-11.1478
▁homse	-11.1478
▁põhjamaade	-11.1478
▁vaimse	-11.1478
▁vastutustund	-11.1478
▁kergus	-11.1478
▁laiendus	-11.1478
▁Zero	-11.1478
▁harrast	-11.1478
padjake	-11.1478
▁hainina	-11.1478
▁pahtel	-11.1478
-16	-11.1478
ÜÜ	-11.1478
▁Õhtu	-11.1478
▁Teooria	-11.1478
▁Eelneva	-11.1478
▁New	-11.1478
▁põldu	-11.1478
▁hamba	-11.1478
▁teosta	-11.1478
▁joodiku	-11.1478
▁puhtus	-11.1478
▁kunstlik	-11.1478
▁suitsu	-11.1478
▁kaalium	-11.1478
▁raatsi	-11.1478
riiuli	-11.1478
kombin	-11.1478
▁vesised	-11.1478
▁rämps	-11.1478
▁toidutegemis	-11.1478
raskuse	-11.1478
▁väelii	-11.1478
▁tilku	-11.1478
▁traav	-11.1478
avalduse	-11.1478
▁alateadlik	-11.1478
▁arvestatava	-11.1478
▁filosoof	-11.1478
▁Helme	-11.1478
▁riigikogula	-11.1478
▁ränil	-11.1478
▁otstarbeka	-11.1478
▁fronius	-11.1478
318	-11.1478
▁kaartul	-11.1478
▁keerle	-11.1478
▁kummiv	-11.1478
▁rapsi	-11.1478
▁tagakius	-11.1478
▁raadio	-11.1478
▁varasema	-11.1478
▁kihl	-11.1478
▁kihuta	-11.1478
▁kubise	-11.1478
▁jpm	-11.1478
puhma	-11.1478
▁küssa	-11.1478
lmutuseraamatu	-11.1478
▁Euro	-11.1478
automargi	-11.1478
sagedust	-11.1478
▁juurestiku	-11.1478
▁suitseta	-11.1478
▁blokeeri	-11.1478
lippu	-11.1478
▁ratsutamise	-11.1478
▁turja	-11.1478
ALAT	-11.1478
KAS	-11.1478
▁prao	-11.1478
▁Cafe	-11.1478
▁eksamitulemus	-11.1478
debiil	-11.1479
eeldetuletuse	-11.1479
▁põdra	-11.1479
atuur	-11.1479
▁Kurjus	-11.1479
▁realistliku	-11.1479
▁demokraatia	-11.1479
▁sugene	-11.1479
▁vaibum	-11.1479
▁ülistas	-11.1479
▁ikla	-11.1479
raskuste	-11.1479
väetamis	-11.1479
▁Lühi	-11.1479
▁Tehnika	-11.1479
▁helme	-11.1479
▁perso	-11.1479
suunal	-11.1479
▁lälin	-11.1479
▁sapika	-11.1479
▁07.	-11.1479
▁keemili	-11.1479
▁takista	-11.1479
▁tegevat	-11.1479
▁meediku	-11.1479
▁volitus	-11.1479
▁Kaalu	-11.1479
▁ehmat	-11.1479
▁Valge	-11.1479
rveeri	-11.1479
kaalse	-11.1479
▁enesetap	-11.1479
▁võrk	-11.1479
kohasema	-11.1479
urnide	-11.1479
▁talvise	-11.1479
▁KOOR	-11.1479
▁Sarna	-11.1479
▁kopsu	-11.1479
▁Viimaste	-11.1479
▁Väike	-11.1479
▁värdja	-11.1479
▁baar	-11.1479
▁ajalehe	-11.1479
▁Üritas	-11.1479
▁ümbrus	-11.148
▁Valmis	-11.148
▁dikt	-11.148
▁sadisti	-11.148
▁üleminek	-11.148
▁vaheaega	-11.148
▁Teadvus	-11.148
▁kajasta	-11.148
▁haigestum	-11.148
▁keskealis	-11.148
▁trendik	-11.148
▁Point	-11.148
▁Pilsner	-11.148
▁katsum	-11.148
▁auhinna	-11.148
▁taolist	-11.148
160	-11.148
▁kandideeri	-11.148
portaal	-11.148
▁bio	-11.148
▁maasikapeenras	-11.148
▁õudus	-11.148
▁kokkupuut	-11.148
▁kommentaarium	-11.148
▁keeleosk	-11.148
▁inimlikku	-11.148
▁vinni	-11.148
▁rännat	-11.148
▁teeolud	-11.148
▁ajakirjanik	-11.148
äibe	-11.148
▁Jeesus	-11.148
mbata	-11.148
▁kuuenda	-11.148
▁sõjavä	-11.148
▁maiusta	-11.1481
▁postita	-11.1481
kahjustused	-11.1481
▁kaabli	-11.1481
nurme	-11.1481
▁Umb	-11.1481
▁hurr	-11.1481
▁detail	-11.1481
reaktsioon	-11.1481
▁Usk	-11.1481
▁ratsa	-11.1481
▁tarni	-11.1481
ootusetu	-11.1481
▁näljas	-11.1481
▁oskus	-11.1481
▁elektro	-11.1481
▁torust	-11.1481
iitilise	-11.1482
▁inemes	-11.1482
"	-12.1326
ð	-12.1477
[	-12.1477
\	-12.1477
]	-12.1477
ó	-12.1477
Ś	-12.1477
Ž	-12.1477
🌴	-12.1477
🍹	-12.1477
💜	-12.1477
😁	-12.1477
😭	-12.1477
🙂	-12.1477
🤔	-12.1477
́	-12.9705
ù	-12.9706
”	-12.9707
Ö	-12.9708
š	-12.9709
;	-12.971
%	-12.9711
ö	-12.9712
