<unk>	0
<s>	0
</s>	0
▁	-3.00056
n	-3.09421
a	-3.30377
▁.	-3.48175
▁,	-3.84383
t	-4.12769
i	-4.25914
▁ja	-4.32115
s	-4.60277
en	-4.60746
in	-4.61641
ä	-4.6364
▁on	-4.6425
ssa	-4.70077
ta	-4.81852
u	-4.94166
-	-5.03092
sta	-5.03955
o	-5.19807
e	-5.21904
an	-5.2434
ksi	-5.42776
lle	-5.50605
lla	-5.5083
r	-5.5847
ja	-5.65218
h	-5.70461
si	-5.70644
y	-5.73346
että	-5.74762
▁ei	-5.77139
▁oli	-5.78352
tä	-5.80571
sti	-5.8173
ko	-5.88899
stä	-5.8909
ssä	-5.90639
kin	-5.99937
ri	-6.01802
vat	-6.0545
nen	-6.06313
la	-6.06596
tu	-6.07736
ka	-6.08029
va	-6.11525
l	-6.11747
ki	-6.12806
▁)	-6.14266
(	-6.16682
on	-6.17851
▁jo	-6.19284
k	-6.1995
tta	-6.20936
na	-6.21137
ti	-6.22021
.	-6.22649
llä	-6.22787
än	-6.22949
nut	-6.27836
:	-6.28012
li	-6.28463
▁myös	-6.3009
ista	-6.30619
us	-6.30849
inen	-6.35102
vi	-6.36221
m	-6.37369
ke	-6.37375
te	-6.37703
▁:	-6.40308
et	-6.40578
d	-6.41863
▁se	-6.42577
maan	-6.48622
▁A	-6.49321
▁tai	-6.49501
is	-6.50866
ma	-6.53245
sa	-6.54207
▁"	-6.56792
▁ovat	-6.57649
ni	-6.57902
ty	-6.58553
▁voi	-6.58991
pa	-6.59045
▁ole	-6.62341
▁K	-6.62946
ra	-6.64574
vät	-6.65792
▁S	-6.67088
re	-6.67576
den	-6.67776
▁mukaan	-6.69083
▁-	-6.69605
mutta	-6.70455
g	-6.70566
▁kuin	-6.71003
aan	-6.7121
ku	-6.71464
iden	-6.7285
lo	-6.7288
nsa	-6.73373
▁–	-6.74618
lta	-6.75182
tti	-6.75243
▁T	-6.772
mme	-6.77235
nä	-6.77433
c	-6.786
▁joka	-6.79294
le	-6.80379
ten	-6.80575
▁V	-6.81059
de	-6.81319
kä	-6.81462
▁hän	-6.81693
issa	-6.83411
4	-6.83534
ut	-6.85654
taan	-6.85785
ille	-6.86424
▁kun	-6.87483
vuonna	-6.87563
ö	-6.89091
5	-6.89834
8	-6.90005
▁sekä	-6.90453
2	-6.90868
▁saa	-6.91908
▁sen	-6.92441
jen	-6.93263
jä	-6.95564
▁Tämä	-6.95573
to	-6.9558
1	-6.96129
ro	-6.9671
6	-6.96868
f	-6.97819
▁ka	-6.97983
p	-6.98761
ha	-7.00512
di	-7.0131
3	-7.02524
sen	-7.02944
*	-7.03743
0	-7.04874
v	-7.05956
▁kanssa	-7.06295
minen	-7.06423
pu	-7.08778
nyt	-7.0924
el	-7.09277
un	-7.09388
▁Hän	-7.10226
tiin	-7.11031
▁E	-7.11747
▁Turun	-7.12048
▁I	-7.13848
9	-7.14104
illa	-7.14609
7	-7.15349
ve	-7.16097
ään	-7.16989
sto	-7.17772
mä	-7.20637
lli	-7.21288
kka	-7.22506
b	-7.22695
neet	-7.22991
ttu	-7.2339
▁P	-7.23853
mi	-7.23917
▁ma	-7.2482
▁pää	-7.25223
▁niin	-7.26011
pi	-7.26754
it	-7.26832
▁jälkeen	-7.27117
lä	-7.27131
▁p	-7.27311
▁kuitenk	-7.27835
▁eri	-7.28311
ne	-7.28493
▁pa	-7.28537
▁ollut	-7.28623
isi	-7.29609
jo	-7.29806
▁O	-7.303
▁la	-7.30598
pe	-7.30658
istä	-7.31884
▁toimi	-7.32071
van	-7.32206
▁vuoden	-7.32651
▁k	-7.32955
▁prosentti	-7.33435
▁?	-7.33669
▁vain	-7.34058
me	-7.34217
teen	-7.35776
▁sitä	-7.3638
▁N	-7.37532
sin	-7.37591
ltä	-7.39533
es	-7.40846
kaan	-7.41076
ste	-7.4184
nsä	-7.42718
▁ra	-7.42856
▁itse	-7.43001
▁Se	-7.43748
▁jonk	-7.44268
▁olla	-7.44488
ia	-7.4455
▁mu	-7.46199
▁olisi	-7.4621
vä	-7.46449
▁mitä	-7.4649
▁h	-7.48386
▁kaikki	-7.48635
mm	-7.48816
ita	-7.48943
isen	-7.49071
essa	-7.49568
▁B	-7.50257
usta	-7.50412
w	-7.51386
▁sitten	-7.51446
man	-7.51559
▁pi	-7.5156
▁2009	-7.51634
tus	-7.51848
vo	-7.51941
▁Suomen	-7.52061
▁työ	-7.52195
▁Tä	-7.52719
se	-7.52754
▁jotk	-7.52801
sillä	-7.52865
▁su	-7.52978
ho	-7.53766
▁sano	-7.54639
▁yli	-7.54976
▁jossa	-7.5514
▁tä	-7.55434
kki	-7.5581
ru	-7.56281
▁ko	-7.57235
▁asia	-7.57683
▁sai	-7.57936
▁eli	-7.58298
▁usei	-7.58813
or	-7.59343
▁maa	-7.60414
er	-7.6058
mpi	-7.60661
▁nii	-7.61092
▁luo	-7.61174
▁tuo	-7.6118
▁ne	-7.62187
▁G	-7.63127
▁!	-7.6338
sä	-7.642
▁koko	-7.64245
lan	-7.65128
▁vielä	-7.65153
ttiin	-7.65169
he	-7.65175
▁ihan	-7.6518
▁olivat	-7.65564
kko	-7.66181
▁H	-7.66403
▁yliopiston	-7.66458
neen	-7.66757
▁jos	-7.66796
llise	-7.66842
os	-7.67005
▁vasta	-7.67861
ihin	-7.67868
▁eivät	-7.6829
▁F	-7.6832
▁osa	-7.68744
po	-7.6918
▁s	-7.70487
▁esimerki	-7.70942
▁e	-7.71153
▁Te	-7.72228
▁Ma	-7.72365
mään	-7.72791
al	-7.7302
ksen	-7.73332
▁he	-7.73775
ju	-7.73933
rk	-7.74512
▁hyvin	-7.74601
▁häne	-7.75076
oi	-7.75275
il	-7.75465
▁kaksi	-7.75675
▁C	-7.76133
mista	-7.7641
kseen	-7.76556
iin	-7.77273
▁noin	-7.77825
itä	-7.78389
▁...	-7.78425
misen	-7.78657
▁jota	-7.78897
▁Jo	-7.78915
▁viime	-7.79002
▁hyvä	-7.79591
lu	-7.80395
▁M	-7.80574
▁määrä	-7.8078
z	-7.80925
uutta	-7.81335
▁Ku	-7.81637
▁kerto	-7.81983
▁U	-7.82136
kaa	-7.82548
sten	-7.83398
▁koska	-7.83728
▁tuli	-7.83932
isesti	-7.84424
▁v	-7.8443
vaan	-7.84613
kään	-7.84624
▁pu	-7.84812
mise	-7.85258
ime	-7.85338
tte	-7.85419
▁yksi	-7.86032
ee	-7.86086
▁Le	-7.86644
▁uusi	-7.86714
S	-7.86882
ivat	-7.87046
▁euro	-7.87314
▁f	-7.87521
▁minu	-7.87564
▁Sa	-7.87735
▁muun	-7.87761
uksen	-7.87802
▁Ko	-7.88101
ji	-7.88626
)	-7.88644
▁seura	-7.8874
ttava	-7.88793
▁yliopisto	-7.89042
da	-7.89162
ttä	-7.89703
▁kuva	-7.89919
seen	-7.90258
▁te	-7.90351
kse	-7.90594
iksi	-7.9074
▁Suomessa	-7.90932
een	-7.91029
▁W	-7.9128
malla	-7.91674
llinen	-7.9177
▁000	-7.92213
▁He	-7.92294
▁Euroopan	-7.92306
ise	-7.92345
▁b	-7.9269
▁1	-7.92799
hti	-7.92874
▁Mi	-7.93002
ter	-7.93051
nne	-7.9313
vaa	-7.93529
▁La	-7.93531
▁syy	-7.93554
▁ve	-7.93956
▁3	-7.94211
▁Si	-7.94469
do	-7.94627
▁kolme	-7.94866
men	-7.94928
sia	-7.95017
▁val	-7.95124
▁aikana	-7.95646
▁valta	-7.95735
lin	-7.9599
▁Pa	-7.96503
▁voida	-7.97023
▁tulee	-7.97043
▁ennen	-7.97201
▁So	-7.97558
▁me	-7.97792
kk	-7.98089
ot	-7.9822
▁aika	-7.98657
miseen	-7.98698
kas	-7.99265
▁Ra	-7.99409
I	-7.99455
▁mua	-7.99675
▁Ha	-8.00075
maa	-8.00086
▁so	-8.00106
mo	-8.00279
▁vuot	-8.00298
isten	-8.00517
essä	-8.00973
▁nyt	-8.01305
A	-8.01808
tel	-8.01975
▁loppu	-8.02213
▁tu	-8.02379
mma	-8.02663
▁vii	-8.027
▁Vi	-8.02778
ll	-8.02959
▁neljä	-8.03013
▁Mithridate	-8.03159
▁vaikka	-8.03211
▁To	-8.03336
▁lisää	-8.04061
massa	-8.04173
mistä	-8.04283
set	-8.04346
▁L	-8.04393
yö	-8.04623
▁sii	-8.04857
▁Po	-8.04871
tava	-8.05081
▁paljon	-8.0535
▁to	-8.05549
mis	-8.05603
han	-8.06035
▁suuri	-8.06475
▁Venäjä	-8.06521
kö	-8.06539
▁18	-8.06733
yn	-8.0722
pp	-8.07398
▁päivän	-8.07477
lais	-8.07939
una	-8.08132
▁Ja	-8.08451
ili	-8.08544
tään	-8.08701
kirja	-8.08935
pal	-8.08958
yty	-8.09127
▁henkilö	-8.09283
oja	-8.09325
tty	-8.0942
▁muut	-8.09659
▁Mo	-8.09947
ppa	-8.10047
pä	-8.10049
utta	-8.10062
/	-8.10295
ttää	-8.10896
▁R	-8.10917
▁5	-8.11184
▁tämän	-8.11418
P	-8.12119
▁ase	-8.12756
▁o	-8.13015
▁var	-8.13056
▁oma	-8.13276
isiin	-8.13361
▁väli	-8.13715
▁pitää	-8.14095
▁Kun	-8.14102
▁asu	-8.14659
▁Mu	-8.14868
▁tehdä	-8.15455
▁puhu	-8.15464
ilta	-8.15775
▁lähes	-8.15778
▁si	-8.15831
▁laske	-8.15983
▁tutkimus	-8.16502
ky	-8.16628
▁J	-8.16709
tettu	-8.16719
kkaa	-8.16854
hin	-8.16911
▁sanoi	-8.16991
je	-8.17026
ng	-8.17328
▁enemm	-8.17347
istu	-8.17449
▁lisäksi	-8.1759
▁ensimmäi	-8.1802
yhtiö	-8.1812
C	-8.1813
▁ku	-8.18545
▁euroa	-8.18604
tila	-8.1884
ella	-8.19278
per	-8.19495
ga	-8.19613
▁mikä	-8.20002
▁Lo	-8.20808
▁tapahtu	-8.20837
talo	-8.20868
▁pitkä	-8.20924
▁syö	-8.21412
ver	-8.21512
▁nime	-8.21625
▁4	-8.21736
▁Tässä	-8.21786
▁Pe	-8.22124
ton	-8.22168
▁vastaan	-8.22203
K	-8.22237
isia	-8.22695
via	-8.2313
lloin	-8.2316
−	-8.23225
▁ihmis	-8.23372
▁tieto	-8.23377
ikka	-8.23562
ys	-8.23733
uksia	-8.23918
▁lii	-8.24021
▁mies	-8.24333
▁no	-8.24415
issä	-8.25112
▁Ar	-8.25179
x	-8.25205
tettiin	-8.2557
▁Ti	-8.25674
tys	-8.25893
ala	-8.26295
kan	-8.26511
luvu	-8.26991
▁pel	-8.27102
▁vähä	-8.27403
▁alu	-8.27593
ien	-8.28203
iseksi	-8.28728
▁siit	-8.28747
D	-8.28804
▁20	-8.28934
▁esi	-8.29071
▁EU	-8.29515
▁käsi	-8.2962
mus	-8.29662
▁suure	-8.29853
▁moni	-8.29868
▁tila	-8.29901
ker	-8.30098
▁Ki	-8.30137
▁kaupunki	-8.30602
elle	-8.3074
▁olevan	-8.30949
nto	-8.31242
▁julkais	-8.31283
työ	-8.31363
T	-8.31365
tun	-8.31465
▁talous	-8.31491
esti	-8.31549
ry	-8.31606
▁lasku	-8.31661
▁selvi	-8.31822
▁teki	-8.32063
hto	-8.32457
vien	-8.32706
▁joten	-8.32812
▁koti	-8.32858
▁kuulu	-8.329
tio	-8.33054
▁hie	-8.3353
▁Helsingi	-8.33593
sarja	-8.33909
▁velka	-8.33916
ch	-8.34117
hän	-8.342
▁Li	-8.34346
▁halua	-8.34553
▁10	-8.34774
ed	-8.34804
kuu	-8.35158
▁2	-8.35168
▁Re	-8.35224
▁No	-8.35225
▁alka	-8.35241
▁aja	-8.3525
iä	-8.35252
ori	-8.35777
▁Jos	-8.3579
▁keski	-8.35872
▁ajan	-8.35965
▁lo	-8.36124
▁tärkeä	-8.36146
▁vuoksi	-8.36158
her	-8.3654
▁Tai	-8.36792
▁siis	-8.36817
▁Mar	-8.37404
vel	-8.3753
ul	-8.37809
▁kut	-8.38059
ic	-8.38254
▁pysty	-8.38473
▁kyse	-8.38782
▁kautta	-8.38814
▁ilma	-8.38986
▁Sen	-8.39031
▁tuke	-8.39055
▁kertoi	-8.39115
ttävä	-8.39374
▁13	-8.39385
kunnan	-8.39572
mmä	-8.39758
ryhmä	-8.40541
M	-8.40582
▁Su	-8.40718
dan	-8.40728
▁kertaa	-8.40862
ite	-8.40901
▁Myö	-8.40911
▁aina	-8.40928
▁Kiina	-8.41017
ura	-8.41025
ttäin	-8.41218
▁Tuo	-8.41359
▁Me	-8.41624
tää	-8.41626
uuden	-8.41743
▁otta	-8.42163
eita	-8.42196
hon	-8.42329
▁mi	-8.42372
ettiin	-8.42476
kone	-8.42713
telu	-8.43264
'	-8.43292
R	-8.43378
▁Al	-8.43668
▁vuosi	-8.43784
▁le	-8.44058
jien	-8.44878
▁kulu	-8.45032
kunta	-8.45108
▁D	-8.45202
▁En	-8.454
▁hyväksy	-8.45792
▁yhtä	-8.45802
▁pois	-8.45865
eseen	-8.45887
▁katso	-8.45894
▁sä	-8.45966
▁minä	-8.4604
▁tämä	-8.46581
▁muu	-8.47361
▁miljoonaa	-8.47647
uus	-8.47787
ava	-8.47822
▁jää	-8.48048
▁toise	-8.48055
▁15	-8.48058
▁12	-8.48211
▁Lisä	-8.48429
▁The	-8.48653
llisen	-8.49218
▁Ro	-8.49365
▁maailman	-8.49516
▁erityise	-8.497
▁Lu	-8.50375
llaan	-8.5048
osa	-8.50544
V	-8.50816
päivä	-8.50896
yt	-8.50944
▁Yhdysvalta	-8.50988
▁kaiki	-8.51007
▁pitäisi	-8.51039
▁197	-8.5106
▁2008	-8.51077
▁kansallis	-8.51202
O	-8.51263
▁ala	-8.51366
iset	-8.51376
▁auto	-8.51693
▁puu	-8.52097
staan	-8.52105
▁par	-8.52111
uh	-8.52303
▁kau	-8.52885
määrä	-8.53009
yys	-8.5301
▁musta	-8.53014
my	-8.53045
▁päivä	-8.53226
co	-8.53274
▁käy	-8.5331
▁kasva	-8.53591
▁siihen	-8.53709
▁tavall	-8.53723
ellä	-8.53736
du	-8.54278
tetty	-8.54405
▁On	-8.54838
▁Da	-8.54931
illä	-8.55379
▁kuu	-8.55487
▁vie	-8.55858
▁7	-8.56301
▁kir	-8.5638
▁edes	-8.56394
tuksen	-8.56467
▁kasvu	-8.5647
▁alkoi	-8.56482
▁tark	-8.56494
▁2007	-8.5654
estä	-8.56754
▁professori	-8.56841
lleen	-8.57118
ssaan	-8.57472
uun	-8.57616
py	-8.58043
▁yhteen	-8.58325
▁19	-8.58647
–	-8.58655
esta	-8.58778
eksi	-8.59035
▁puol	-8.592
▁huol	-8.59293
▁Pohjois	-8.59325
▁juuri	-8.59327
▁2006	-8.59411
▁lu	-8.59431
ero	-8.60077
▁nimi	-8.60175
▁perus	-8.60234
yy	-8.6024
▁käyttää	-8.60251
isiä	-8.60298
oihin	-8.60349
opi	-8.60351
mman	-8.6036
▁aikaan	-8.60445
▁ihmise	-8.60537
ällä	-8.61177
ge	-8.6121
▁ava	-8.61439
▁mo	-8.61482
ttua	-8.6149
tto	-8.61494
▁kyllä	-8.61578
▁Pi	-8.61701
aika	-8.61709
▁omi	-8.61962
mmat	-8.61999
▁198	-8.621
▁elä	-8.6214
▁julkis	-8.62151
▁kirjoitta	-8.62276
▁nousi	-8.62289
var	-8.62351
▁puolesta	-8.62357
mia	-8.62368
▁palvelu	-8.6237
▁mene	-8.62419
▁17	-8.62449
▁voisi	-8.62499
▁Kau	-8.62653
enää	-8.62799
▁tie	-8.6291
▁16	-8.6299
lj	-8.63032
▁vai	-8.631
miseksi	-8.63118
▁valtio	-8.63276
▁hä	-8.63338
▁josta	-8.63381
L	-8.63424
▁Näi	-8.63488
▁alle	-8.6358
ilu	-8.6363
ltaan	-8.63672
▁m	-8.63767
▁poika	-8.63902
▁Tu	-8.63976
▁antaa	-8.63985
▁kesäkuu	-8.64107
▁näin	-8.64126
eja	-8.6443
▁200	-8.64673
ön	-8.6468
▁kaupungi	-8.6511
▁ensimmäisen	-8.65185
+	-8.65297
▁ehkä	-8.65298
▁yhteyde	-8.65301
▁kiinni	-8.65308
▁meidä	-8.65321
▁heidä	-8.65327
▁al	-8.65328
▁maan	-8.65408
▁pidet	-8.65528
min	-8.65636
▁ainakin	-8.65637
kunna	-8.65732
▁Hu	-8.6575
▁naise	-8.66153
▁historia	-8.66193
bo	-8.66214
▁osaa	-8.66356
▁pala	-8.66408
▁saanut	-8.66447
aivan	-8.66757
▁suomalaise	-8.66835
▁saman	-8.67383
▁käyttä	-8.6761
▁sija	-8.67735
kset	-8.6788
ksu	-8.6789
▁puolue	-8.67901
isin	-8.68224
▁ammatti	-8.68358
X	-8.68422
▁myöhemm	-8.68422
▁Y	-8.68446
▁alku	-8.6845
▁onnistu	-8.68506
▁myy	-8.6851
▁saattaa	-8.68518
um	-8.68521
ing	-8.68522
▁muita	-8.6866
▁3.	-8.68895
ajan	-8.69035
▁tällä	-8.69331
▁Ho	-8.70084
eet	-8.70103
▁sama	-8.70117
▁usko	-8.70149
▁näi	-8.70278
▁hy	-8.70514
▁maailma	-8.70591
▁alueell	-8.70661
▁sy	-8.70806
▁Ny	-8.70878
misesta	-8.70888
▁tarjo	-8.71085
ensa	-8.71217
siin	-8.71247
▁ilman	-8.71366
▁halu	-8.71647
▁heinäkuu	-8.71647
▁marraskuu	-8.71647
erin	-8.71846
▁miten	-8.71869
▁piene	-8.72028
▁mukana	-8.72097
mpaa	-8.72188
▁koke	-8.72246
▁Saksa	-8.72258
▁Ne	-8.72519
▁tuleva	-8.73228
eiden	-8.73238
▁joissa	-8.73238
mar	-8.73249
▁sisä	-8.73366
kkä	-8.73719
alue	-8.73734
▁tosi	-8.73911
▁j	-8.74408
▁hoita	-8.74684
▁Ju	-8.7474
▁kysy	-8.74899
▁oleva	-8.74958
▁joulu	-8.74977
▁tammikuu	-8.74981
▁toukokuu	-8.74981
▁Espanja	-8.74981
▁lokakuu	-8.74981
ohjelma	-8.74998
ppi	-8.74998
▁esiinty	-8.75007
▁Nokia	-8.75019
vaihee	-8.75041
▁lähi	-8.75053
▁lisä	-8.75252
imi	-8.75281
▁jatko	-8.75376
▁tarkoitta	-8.75392
▁lopu	-8.75499
▁muodo	-8.75515
▁joiden	-8.75808
udu	-8.76027
▁voitti	-8.76047
tori	-8.7633
tävä	-8.76382
yhtye	-8.76409
▁Tar	-8.76595
j	-8.76598
▁tutkimukse	-8.76617
vän	-8.76633
uri	-8.76728
E	-8.76749
mmin	-8.76861
▁koulu	-8.77168
ris	-8.7741
id	-8.77419
val	-8.77478
▁valmista	-8.78173
Euroopa	-8.78208
pää	-8.78214
▁Työ	-8.78337
etta	-8.78596
▁liha	-8.7862
tehtävi	-8.78893
▁ollee	-8.79033
viä	-8.79042
▁tasa	-8.79091
▁30	-8.79335
▁194	-8.79613
▁nyky	-8.79649
kaupa	-8.79692
▁päästä	-8.79792
▁kulttuuri	-8.79828
laise	-8.79854
▁Toise	-8.79918
▁valo	-8.79924
▁koulutukse	-8.79931
▁ongelma	-8.80016
▁yleis	-8.80446
rs	-8.80818
vuodesta	-8.80958
ottelu	-8.81158
▁kie	-8.81308
▁arvo	-8.81527
▁vaati	-8.81715
▁huoma	-8.81837
▁toivo	-8.81952
▁pari	-8.81956
▁huomio	-8.82
▁SDP	-8.82
▁huono	-8.82001
▁Italia	-8.82001
▁teksti	-8.82002
▁aiemmin	-8.82003
▁Esimerk	-8.82004
▁ero	-8.82021
▁tehty	-8.82056
▁Yle	-8.82144
liitto	-8.8215
▁tull	-8.8218
▁prosenti	-8.82196
▁tänään	-8.82204
valta	-8.82331
▁muiden	-8.8247
▁sana	-8.82591
▁iso	-8.82643
▁toinen	-8.82678
tieteen	-8.82871
▁11	-8.82915
▁sijaan	-8.82925
eitä	-8.83217
▁yhden	-8.83238
▁aikaa	-8.83342
hta	-8.83794
ojen	-8.83924
uonna	-8.84001
▁vara	-8.84031
▁jolla	-8.84231
▁kuningas	-8.84443
vuosina	-8.84523
▁14	-8.84601
H	-8.84616
oissa	-8.84617
ile	-8.84671
▁kappale	-8.84747
▁joutu	-8.84917
toimi	-8.84967
don	-8.85065
▁ehdot	-8.8519
▁saada	-8.85277
▁koske	-8.8536
sesti	-8.85565
poliitti	-8.85604
taas	-8.85674
▁elokuu	-8.85704
▁vaikutta	-8.85705
▁yksityis	-8.85713
▁metri	-8.85717
▁kerra	-8.85721
▁perhe	-8.8573
▁Uusi	-8.85731
▁valkea	-8.85735
vää	-8.85766
▁toisen	-8.859
▁pelaa	-8.85989
▁Tänä	-8.86
▁matka	-8.861
▁vastaava	-8.86215
▁1.	-8.86294
▁käyttö	-8.86469
▁elämä	-8.86549
tien	-8.86969
ukset	-8.87265
▁jäsen	-8.87336
▁aamu	-8.87421
▁olen	-8.87527
▁lähtie	-8.87555
▁edusta	-8.87715
▁toiminta	-8.87721
piste	-8.87803
▁195	-8.88238
▁levy	-8.88285
▁ensimmäise	-8.8832
miehe	-8.88669
uksesta	-8.8884
▁osta	-8.88888
tojen	-8.8918
▁kehittä	-8.89317
▁komissio	-8.8955
▁puheenjohtaja	-8.8955
▁joukko	-8.89555
lääkäri	-8.89587
▁2005	-8.89683
▁kii	-8.89697
▁arvioi	-8.89707
▁pieni	-8.89726
▁muka	-8.89777
▁mielestä	-8.8983
▁pohja	-8.89835
▁asunto	-8.89877
▁suomalai	-8.89897
▁suhtee	-8.89961
▁De	-8.90211
40	-8.90337
yhä	-8.90362
emmin	-8.90411
▁osallistu	-8.9042
mien	-8.90681
▁isä	-8.91151
skel	-8.91232
▁yhteisö	-8.91251
▁ky	-8.91327
▁50	-8.91417
▁yhteis	-8.9167
emme	-8.91846
N	-8.9198
▁Pal	-8.92221
▁varma	-8.927
sessa	-8.92744
▁tapa	-8.92882
▁raja	-8.92985
▁Ei	-8.93176
be	-8.93213
▁Ke	-8.93331
▁kuninkaa	-8.93548
järjestö	-8.9355
kurssi	-8.93593
▁Rooma	-8.93599
▁tekemä	-8.93608
▁tuntu	-8.93614
▁vuoteen	-8.93669
▁avulla	-8.93682
maksu	-8.93881
▁viesti	-8.94006
kirjoi	-8.94083
▁jäsenvaltioi	-8.94085
▁minkä	-8.94138
go	-8.94327
▁yhteistyö	-8.94339
▁raha	-8.9439
▁johtaja	-8.9445
▁viisi	-8.94462
toista	-8.94474
▁hyvää	-8.94538
auto	-8.94631
▁muuta	-8.94649
▁johta	-8.94808
▁juo	-8.94903
▁oikeus	-8.94924
▁tästä	-8.95062
▁peli	-8.95065
▁annet	-8.95069
alan	-8.95148
▁sal	-8.95231
kkee	-8.95315
▁suur	-8.95497
tänyt	-8.95613
▁22	-8.96159
▁Il	-8.96206
paikka	-8.9665
▁etu	-8.96969
▁miele	-8.97166
▁synty	-8.97436
imo	-8.97526
▁pääsi	-8.97534
▁miljoona	-8.9755
▁aiheutta	-8.97717
▁tehtävä	-8.97717
▁maksa	-8.97719
▁lapse	-8.97725
▁kerro	-8.97727
vuo	-8.97751
▁Uude	-8.97756
▁kävi	-8.97801
▁tunte	-8.97809
▁myynti	-8.97833
▁tuomit	-8.9785
tor	-8.97851
▁pikku	-8.97857
▁koulutus	-8.97872
▁suunta	-8.98006
▁tunni	-8.98032
▁osoitta	-8.98099
▁Pu	-8.9817
▁Tur	-8.9834
▁Ba	-8.98418
▁taso	-8.98778
aali	-8.98864
eaa	-8.98874
peri	-8.99179
▁oikea	-8.9919
▁vanh	-8.99205
▁pitä	-8.9925
▁Ch	-8.9934
kauden	-8.99376
tyksen	-8.99419
▁puoli	-8.99561
pol	-8.9965
▁toisi	-8.99674
▁mone	-8.99756
50	-8.99901
▁Sii	-8.99918
▁oman	-8.99943
▁savu	-9.00084
▁pur	-9.00094
▁hetkell	-9.00245
▁kesä	-9.00247
▁tapahtuma	-9.00249
▁osan	-9.00381
▁elämän	-9.00499
▁omaa	-9.00752
▁varsin	-9.01003
▁Be	-9.01023
tunut	-9.01112
▁samaa	-9.01119
ex	-9.01142
▁vuode	-9.01256
▁toimii	-9.01295
johtaja	-9.01441
▁lento	-9.01552
heti	-9.0173
▁ulko	-9.01911
▁Kaijasilta	-9.02065
▁todella	-9.02066
▁yrittä	-9.02067
▁Etelä	-9.02068
▁yleensä	-9.02075
▁vaikea	-9.02076
▁Suomalai	-9.0208
llisuu	-9.0212
taulu	-9.02153
ittele	-9.02159
sopimus	-9.02247
▁ryhmä	-9.02294
▁kieli	-9.02319
keino	-9.02639
▁Kan	-9.02846
llisi	-9.03122
▁piti	-9.03137
–19	-9.03139
▁perä	-9.03153
ttoma	-9.03201
ike	-9.03318
voima	-9.03386
tele	-9.03688
▁Oli	-9.04315
▁kuo	-9.04495
▁verratt	-9.04537
▁pelas	-9.04589
järjestelmä	-9.04997
har	-9.05153
▁kar	-9.05278
kent	-9.05325
▁uuden	-9.0547
puolell	-9.05595
▁Vuo	-9.0584
▁kul	-9.05877
kar	-9.05939
eista	-9.06213
U	-9.06246
miin	-9.06259
matka	-9.0635
▁kutsu	-9.06568
▁sivu	-9.06597
▁Yliopisto	-9.0661
&	-9.0661
▁Obama	-9.0661
vaikutus	-9.06614
▁isännöitsijä	-9.06617
▁Kreika	-9.06618
▁jälleen	-9.0662
▁tiistai	-9.06636
▁usea	-9.06647
neuvosto	-9.0665
▁New	-9.06691
▁kansalais	-9.06727
▁2003	-9.06749
00-	-9.06752
▁vallan	-9.06816
▁yritys	-9.0682
▁etsi	-9.06899
▁Turku	-9.06936
luvull	-9.06952
▁7.	-9.07021
▁Car	-9.07023
▁perustu	-9.0709
▁of	-9.07094
the	-9.07191
▁valmistu	-9.07227
gr	-9.07387
kohta	-9.07513
▁tilantee	-9.07518
▁sota	-9.07632
ensä	-9.07726
llut	-9.0775
talouden	-9.07917
▁joita	-9.07924
▁suku	-9.08044
▁joilla	-9.08192
▁nosta	-9.08295
▁laaj	-9.08365
▁Kai	-9.08422
▁Val	-9.08544
▁tule	-9.08653
▁ongelmi	-9.08732
itse	-9.08753
▁Itä	-9.08885
▁Co	-9.08886
▁toista	-9.08963
▁hal	-9.09064
llään	-9.09251
63	-9.09305
▁kuul	-9.095
▁liittyvä	-9.09681
▁samall	-9.09693
▁muuten	-9.0972
oitu	-9.09759
▁esittä	-9.09922
▁helpo	-9.10452
toimisto	-9.10513
▁tulos	-9.10779
skus	-9.10868
aine	-9.1093
piir	-9.10939
▁liia	-9.10992
▁löyty	-9.1104
▁miehe	-9.11047
laji	-9.11074
uutis	-9.11118
sopimukse	-9.11145
▁hallitsi	-9.11158
B	-9.11229
▁edelleen	-9.11372
▁ehdoll	-9.11372
▁tehnyt	-9.11373
▁kpl	-9.11373
▁sijaitseva	-9.11377
ohjelmi	-9.1138
▁sijaitsee	-9.11382
▁huhtikuu	-9.11385
▁jouko	-9.1141
▁uhka	-9.11471
▁silloin	-9.11491
▁kohti	-9.1159
▁linna	-9.11696
▁muistutta	-9.11903
laisen	-9.11928
lehti	-9.1195
▁4.	-9.11954
▁laina	-9.12075
▁missä	-9.12136
▁ol	-9.12141
▁tänä	-9.12142
00	-9.12205
tynyt	-9.12346
▁Ranskan	-9.12351
▁toi	-9.12363
▁ruoka	-9.12372
▁laajen	-9.12442
▁Brysseli	-9.12448
▁San	-9.12538
ettava	-9.12546
laati	-9.1261
▁Keski	-9.12688
▁omista	-9.12734
▁miehen	-9.12845
pr	-9.13117
yyttä	-9.13163
laitokse	-9.13222
▁muoto	-9.13372
vuotias	-9.13472
emi	-9.1349
▁kuuluva	-9.13578
▁joutui	-9.13961
odi	-9.1399
tteri	-9.14063
▁saari	-9.14142
▁vir	-9.14185
▁yhtiö	-9.14226
▁199	-9.14362
idä	-9.14484
loma	-9.14582
▁kauppa	-9.14816
▁yl	-9.15016
▁luke	-9.15095
▁väl	-9.15188
masta	-9.15515
▁koskeva	-9.15796
suhte	-9.15923
▁kuului	-9.15942
▁oppi	-9.16215
▁harv	-9.16234
▁kuvi	-9.16319
▁Berlusconi	-9.16372
▁normaali	-9.16372
▁toimitusjohtaja	-9.16372
▁KTM	-9.16372
▁tarpee	-9.16372
▁Yhtiö	-9.16372
Britannia	-9.16372
▁sairaala	-9.16372
kehitys	-9.16373
▁keskustelu	-9.16373
▁järjestet	-9.16373
▁tekee	-9.16376
juhla	-9.16379
▁merkittävä	-9.16388
järvi	-9.16389
▁laski	-9.16389
▁menesty	-9.16428
▁Vaikka	-9.16449
▁vaimo	-9.16452
▁nuore	-9.16542
etään	-9.1662
▁hiuk	-9.16681
▁maaliskuuta	-9.16719
▁nuo	-9.16725
arvo	-9.16733
▁väri	-9.16856
▁100	-9.16857
▁malli	-9.16943
▁erikois	-9.16983
▁Ru	-9.17073
▁hake	-9.17252
▁moottori	-9.17335
▁vero	-9.17406
▁Nii	-9.17415
▁tuotta	-9.17479
alueen	-9.17495
▁elokuva	-9.1761
tis	-9.17636
▁muutama	-9.17645
▁Osa	-9.17765
▁järjestä	-9.17881
▁käyttöön	-9.1794
▁silmä	-9.17946
▁osalta	-9.18026
▁Vuode	-9.18276
20	-9.18474
▁yle	-9.18487
alais	-9.18552
▁Luo	-9.18552
▁seksi	-9.18565
▁ensi	-9.1881
uudessa	-9.18882
mies	-9.19112
▁vapaa	-9.19317
▁vanha	-9.19434
▁Min	-9.19468
▁aine	-9.19607
▁kasvoi	-9.19615
▁asioi	-9.19615
▁kansan	-9.19662
▁oikeast	-9.19805
kis	-9.19829
▁näky	-9.20049
▁pysy	-9.20077
▁nais	-9.20183
▁tulo	-9.20209
uksessa	-9.20253
▁perusta	-9.20586
oitus	-9.20922
▁Par	-9.20948
▁Tois	-9.20965
▁puhe	-9.21112
▁tarvi	-9.21516
ryhmi	-9.21589
▁tiede	-9.21598
kysymyksi	-9.21605
keh	-9.21612
dynastia	-9.21635
▁Eurooppa	-9.21635
▁kehitty	-9.21635
▁myöntä	-9.21635
▁poliisi	-9.21636
▁voimakkaa	-9.21638
▁kolmanne	-9.2164
aikoina	-9.21646
▁suola	-9.21663
▁aluee	-9.21695
▁Repo	-9.21749
▁kieltä	-9.21793
▁perin	-9.21836
▁selvästi	-9.21844
Aasia	-9.21872
hallinto	-9.21881
tutkinto	-9.21881
▁II	-9.21882
▁kerä	-9.21945
▁menne	-9.21971
päin	-9.22024
valtio	-9.221
▁Sama	-9.22116
▁kannatta	-9.22148
F	-9.22182
istö	-9.22226
seura	-9.22242
▁asema	-9.22259
land	-9.22367
kuva	-9.22615
palvelu	-9.2274
llista	-9.22792
▁presidentin	-9.22831
▁193	-9.22984
▁tapaukse	-9.2302
▁Var	-9.23202
tuottei	-9.23296
▁täytt	-9.2336
ehty	-9.23426
▁odot	-9.23432
ukku	-9.23444
luu	-9.23456
▁herk	-9.23619
▁kaiken	-9.23635
▁jatka	-9.23738
▁Bo	-9.23801
▁Oy	-9.23892
▁hetke	-9.23911
▁harjoit	-9.24323
▁sopi	-9.24588
▁päälle	-9.24698
▁epä	-9.24776
▁nopeast	-9.2482
käytö	-9.2485
utui	-9.24916
▁sil	-9.24936
ettu	-9.25116
▁jatku	-9.25398
kohda	-9.25585
▁jäi	-9.25642
▁sosiaali	-9.26212
▁/	-9.26241
▁ilmesty	-9.2634
▁ratkais	-9.26374
dessä	-9.26751
▁mahdollisuu	-9.26798
▁päivi	-9.26884
ystävä	-9.26974
▁ir	-9.26981
▁sit	-9.27007
▁korkea	-9.27136
turva	-9.27151
▁ympäri	-9.27176
päällikkö	-9.27191
▁seitsemän	-9.27191
▁sähkö	-9.27191
▁tarvitse	-9.27192
▁lapsi	-9.27196
▁ulos	-9.27209
▁parempi	-9.2721
kaudella	-9.27215
▁täyde	-9.2722
▁joulukuu	-9.27236
jakso	-9.2724
▁huomattava	-9.27253
▁tarkoitus	-9.27302
▁kylä	-9.27315
vaara	-9.2733
▁yhdessä	-9.27336
▁tilanne	-9.27359
▁viikko	-9.27361
▁käytetä	-9.27383
lehde	-9.27388
▁laiva	-9.27396
▁liike	-9.27414
▁merkit	-9.27428
▁teho	-9.27619
pohja	-9.27879
▁tee	-9.27899
▁Helsingissä	-9.27909
G	-9.27924
▁saavutta	-9.28008
▁lääke	-9.28059
tön	-9.28061
▁2000	-9.2815
▁sisältä	-9.28216
▁Yhdysvalloi	-9.28261
kr	-9.28293
▁lähe	-9.288
luo	-9.28829
▁paika	-9.2915
▁korko	-9.29178
oks	-9.29308
eissa	-9.2931
tulokse	-9.29545
ville	-9.29769
▁saatu	-9.29785
▁enti	-9.29805
▁edu	-9.29939
▁liitty	-9.30076
▁tavoi	-9.30391
▁albumi	-9.30445
▁jäsene	-9.30525
▁luku	-9.30579
eihin	-9.30723
korkeakoulu	-9.31221
▁Maan	-9.3134
▁Vai	-9.31528
▁siirty	-9.3164
▁vähen	-9.31697
teja	-9.32079
tutkija	-9.3232
▁ruo	-9.3242
joukkue	-9.32463
ejä	-9.32777
▁kor	-9.32866
▁ensin	-9.32941
määri	-9.32977
keskus	-9.33015
▁Pekk	-9.33028
▁inflaatio	-9.33073
▁löytä	-9.33073
▁työskentel	-9.33073
▁esitteli	-9.33073
▁juhli	-9.33073
▁tutustu	-9.33074
▁aihee	-9.33075
▁Japani	-9.33078
▁tärkei	-9.33079
▁erää	-9.33083
▁Irani	-9.3309
▁suome	-9.3309
▁uudelleen	-9.33095
▁taki	-9.33103
▁pääministeri	-9.33111
▁suora	-9.33117
▁takana	-9.33124
▁vaihto	-9.33125
▁opiskelija	-9.3313
▁Kaikki	-9.33144
▁vuoro	-9.33155
tutkinno	-9.33164
▁siellä	-9.33186
▁Ikea	-9.33197
▁hinna	-9.332
▁Tähän	-9.33231
▁21	-9.33279
▁suoja	-9.33283
▁keskitty	-9.33299
▁hallitus	-9.33397
▁pitki	-9.33399
▁mainit	-9.334
▁äär	-9.33405
▁28	-9.33407
▁seuraava	-9.33444
▁olemassa	-9.33584
▁korva	-9.336
▁Suur	-9.33616
▁osto	-9.33657
▁näyttä	-9.33663
▁johto	-9.33674
▁nykyis	-9.33875
▁Yksi	-9.33966
der	-9.34012
koulu	-9.34023
▁asetukse	-9.34045
▁Saar	-9.34079
▁Er	-9.34085
▁Je	-9.34195
▁suomalaisi	-9.34245
▁nap	-9.34424
▁versio	-9.34549
▁80	-9.34655
▁maali	-9.34718
▁lopul	-9.34731
▁tulla	-9.35009
tieto	-9.35078
▁25	-9.35347
▁meni	-9.35372
toja	-9.35398
▁kahden	-9.35607
mässä	-9.35841
▁kriisi	-9.35871
▁päivää	-9.36043
▁tiedot	-9.36122
▁koe	-9.36185
hallinno	-9.36226
▁kilpailu	-9.36535
sesta	-9.36593
▁Sam	-9.36672
käytännössä	-9.36724
▁valtion	-9.36748
▁sel	-9.36756
nämä	-9.37004
▁kär	-9.37103
vuor	-9.37198
tulo	-9.37328
toiminnan	-9.37812
▁Do	-9.3821
mättä	-9.391
lut	-9.39254
▁oikei	-9.39294
▁hoito	-9.39298
▁Albumi	-9.39323
▁Android	-9.39323
▁Arduino	-9.39323
▁Helsinki	-9.39323
▁Iberia	-9.39323
▁vähemmä	-9.39323
▁yhdysvaltalai	-9.39323
▁öljy	-9.39323
säätiö	-9.39323
▁pyrki	-9.39323
▁Suomi	-9.39324
▁syyskuu	-9.39324
▁valittiin	-9.39327
▁melko	-9.39327
▁perusteell	-9.39327
▁nouss	-9.3933
markkina	-9.39345
▁johtu	-9.39346
▁kaikke	-9.39352
▁Ensimmäi	-9.39369
▁ihmiskaupa	-9.39373
▁Valio	-9.39377
▁Tutki	-9.39384
laittei	-9.39385
▁käytettiin	-9.39387
▁täysi	-9.39407
▁käynnis	-9.3942
päätös	-9.39428
▁1990	-9.39439
▁koostu	-9.39454
▁keskusta	-9.39461
▁vahvista	-9.39465
▁tiuk	-9.39478
▁Iso	-9.395
▁data	-9.39561
▁sopimukse	-9.39598
▁tiety	-9.39649
▁Viro	-9.39651
vuotiaan	-9.39651
▁Mies	-9.39669
▁kuoli	-9.39675
▁sopu	-9.39683
tilaisuu	-9.39757
▁löytyy	-9.39763
▁näh	-9.39767
▁kuukaude	-9.3979
joiden	-9.39859
▁huolimatta	-9.39962
sotila	-9.39976
▁2.	-9.4002
▁virallise	-9.40053
Y	-9.4013
▁aluei	-9.40303
▁tunne	-9.40316
hön	-9.4037
▁Mark	-9.40466
markkinoi	-9.40654
▁siirtyi	-9.40896
▁tak	-9.40896
▁kannal	-9.41006
peli	-9.41014
▁toiminna	-9.41055
elämä	-9.4106
▁hävi	-9.41072
VA	-9.41279
kausi	-9.41317
▁koto	-9.4133
▁ihmisi	-9.41598
tiete	-9.41801
yttä	-9.41821
▁muuttu	-9.41835
▁lain	-9.41909
▁uude	-9.42097
▁verra	-9.42306
ell	-9.4231
▁lähti	-9.42712
▁piiri	-9.42953
▁kappalee	-9.43019
yhtyeen	-9.43147
▁tutki	-9.43406
▁aik	-9.43523
▁ainoas	-9.43669
empi	-9.43707
oikeuden	-9.43775
and	-9.44196
▁anta	-9.44232
▁julkise	-9.4443
▁tarkastel	-9.44595
▁paino	-9.44849
▁seksuaali	-9.45011
▁vaali	-9.45246
▁johdo	-9.45312
politiikka	-9.45409
▁Tee	-9.45524
▁saare	-9.4579
▁rakenne	-9.45853
▁maku	-9.45889
politiika	-9.45963
š	-9.4599
▁Belgia	-9.4599
▁keisari	-9.4599
▁presidentti	-9.4599
▁numero	-9.4599
▁EKP	-9.4599
pyörä	-9.4599
▁myötä	-9.4599
▁unioni	-9.45991
▁Toivo	-9.45994
▁Kirja	-9.45994
▁luovut	-9.45998
ologi	-9.46
▁etelä	-9.46005
▁2010	-9.46012
▁läpi	-9.46024
▁uhri	-9.46029
berg	-9.46046
ahd	-9.46054
▁kovin	-9.46063
▁cm	-9.46114
indeksi	-9.46121
▁196	-9.46128
▁täyty	-9.46338
▁lupa	-9.46378
▁tiedekunna	-9.46453
▁näkyy	-9.46479
▁Tapahtuma	-9.46496
kyky	-9.46539
ger	-9.46567
▁mahdollisi	-9.46631
▁Juha	-9.46658
▁Di	-9.46693
Rf	-9.46751
meren	-9.4683
maton	-9.46894
▁paikallis	-9.46916
oilla	-9.47
▁kiva	-9.47038
▁laskeutu	-9.47079
▁näyttää	-9.47156
pö	-9.47287
▁tuki	-9.47289
▁opiskelijoi	-9.47297
▁jokaise	-9.47324
▁kansainvälise	-9.47363
▁koo	-9.47424
▁Suome	-9.47511
▁vastuu	-9.47673
ieme	-9.47763
▁Mitä	-9.47771
▁ilme	-9.47795
▁sivusto	-9.47798
les	-9.47817
▁yhte	-9.47848
▁suurimma	-9.47913
▁tyttö	-9.48049
▁tiedo	-9.48108
▁90	-9.48113
▁Kaude	-9.48139
luku	-9.48172
▁tunnettu	-9.48172
ointi	-9.48184
▁kirjo	-9.48263
▁Katai	-9.48368
▁välill	-9.485
asema	-9.48666
▁Olen	-9.48942
▁kansa	-9.49418
▁toimiva	-9.49879
tsu	-9.49903
uudesta	-9.50114
▁jatkuva	-9.50247
siiv	-9.50677
▁lähte	-9.50677
▁sata	-9.50742
nce	-9.50906
ineen	-9.51048
mahdollisuuksi	-9.51066
oita	-9.51313
▁kesken	-9.51318
▁osallistui	-9.51517
▁Ruotsin	-9.51579
palkinto	-9.51714
▁säily	-9.5172
▁pääse	-9.51764
▁ääni	-9.51799
▁kala	-9.51844
▁kuude	-9.52023
uransa	-9.52085
▁toimintaa	-9.52342
▁Kar	-9.52624
▁yrityst	-9.528
▁ohje	-9.53084
yritykse	-9.53084
▁rauha	-9.53096
juusto	-9.53098
merkki	-9.53123
▁Euro	-9.53132
filosofi	-9.53133
▁YLE	-9.53133
▁neuvottelu	-9.53133
▁näkökulma	-9.53133
▁vähintään	-9.53133
kumppani	-9.53133
▁6,	-9.53133
▁maailmansoda	-9.53133
▁Åkeby	-9.53133
sääntö	-9.53133
rahoitukse	-9.53133
▁rahoitus	-9.53133
▁takaisin	-9.53134
▁hilja	-9.53134
▁video	-9.53135
miehi	-9.53137
▁ritari	-9.53137
▁vankeu	-9.53138
▁toteutt	-9.5314
▁kuolema	-9.53141
▁liikku	-9.53142
▁27.	-9.53142
▁nousu	-9.53144
▁Pää	-9.53153
▁käydä	-9.53158
▁mieltä	-9.53162
▁käytössä	-9.53167
▁Puol	-9.53178
▁parhai	-9.53183
▁erilaisi	-9.53185
▁Tällöin	-9.53199
ikan	-9.53204
haara	-9.53224
▁pesä	-9.53237
▁aikaisemmi	-9.5324
▁Silloin	-9.53273
▁400	-9.53278
▁valmii	-9.53338
kysymys	-9.53342
▁2001	-9.53369
▁Mikko	-9.53383
sijoi	-9.53387
▁2004	-9.53405
▁silti	-9.53437
▁tulevaisuude	-9.53437
▁nuori	-9.53451
▁viimeisen	-9.53456
asunno	-9.53457
▁yleisö	-9.53473
▁23	-9.53496
▁väitt	-9.5364
▁voitto	-9.5367
▁itsenäi	-9.53743
▁kysymykse	-9.53743
▁riittävä	-9.5389
▁ulkopuolell	-9.53891
▁Muut	-9.53956
–1	-9.54026
▁5.	-9.54119
▁Ä	-9.54141
isko	-9.54177
yyde	-9.54181
aude	-9.54209
▁julkaistu	-9.54261
rras	-9.54297
▁esille	-9.54663
ese	-9.54681
▁sellaise	-9.54847
▁hak	-9.54909
▁laula	-9.54916
imaa	-9.54953
puoli	-9.55164
paperi	-9.55192
jö	-9.55193
▁keske	-9.55305
mäki	-9.55339
▁tapaa	-9.55408
▁entise	-9.55439
▁liiga	-9.55512
auppakorkeakoulu	-9.55526
levy	-9.55605
aikais	-9.55613
utuva	-9.55654
▁toimitta	-9.55886
▁yhdeksän	-9.55923
valmistaja	-9.56137
▁riittä	-9.56164
saare	-9.56209
▁sellai	-9.56236
▁ilmoitta	-9.56348
▁kielen	-9.56439
tavoitte	-9.56796
▁säännö	-9.56806
▁erityis	-9.57151
mb	-9.57186
kaali	-9.57227
▁mini	-9.57325
▁suosi	-9.57393
▁näy	-9.57906
▁vahva	-9.5804
▁liittyi	-9.58271
keskukse	-9.58417
▁pidä	-9.58996
▁vastusta	-9.59014
markkinoill	-9.59317
▁päätty	-9.59714
taessa	-9.59741
▁meill	-9.5975
suus	-9.59836
▁Lap	-9.60339
▁tavara	-9.60346
oikeuksi	-9.60364
arvio	-9.60414
ttömä	-9.60445
▁valinta	-9.60527
ettua	-9.60564
▁millai	-9.6061
▁York	-9.60661
▁musiikki	-9.60825
asiantuntija	-9.60825
kierroksell	-9.60825
seminaari	-9.60825
▁Kappadokia	-9.60825
▁MTV	-9.60825
▁artikl	-9.60825
▁helppo	-9.60825
▁myönteis	-9.60825
▁pörssi	-9.60825
▁ymmärr	-9.60825
teknologia	-9.60825
tyyppi	-9.60825
▁kahdeksa	-9.60825
▁näyttelij	-9.60825
▁Tammela	-9.60826
▁Poliisi	-9.60827
▁totesi	-9.60828
▁häpeä	-9.60829
▁merkittävi	-9.6083
▁matkustaja	-9.60831
▁selkeä	-9.60834
▁mieli	-9.60837
▁ydin	-9.60839
▁muutoksi	-9.6084
▁taakse	-9.60841
▁Harri	-9.60841
salaatti	-9.60851
▁ilmi	-9.60851
▁tiedon	-9.6087
▁riski	-9.60875
järve	-9.60878
▁kokonaan	-9.60886
▁jaksa	-9.60904
▁idea	-9.60906
▁Tieto	-9.60929
▁tutkijat	-9.60935
▁selvä	-9.60954
mitali	-9.60958
▁virhe	-9.60958
▁ruotsalai	-9.60979
▁tekemis	-9.61039
und	-9.61066
▁192	-9.61072
pankki	-9.61078
▁kulke	-9.61112
▁mihin	-9.61156
▁sinne	-9.6116
▁Tule	-9.61182
▁asetus	-9.61187
liito	-9.61189
▁haast	-9.6119
▁maahan	-9.6119
▁virka	-9.61226
mpää	-9.61255
▁Yli	-9.61338
▁lasten	-9.61347
▁harvoi	-9.61371
▁pakko	-9.61382
▁31	-9.61407
Korea	-9.61468
▁huu	-9.61515
▁Ruotsi	-9.61571
▁20.	-9.61603
▁häntä	-9.6162
▁viiden	-9.61623
taso	-9.61736
▁Tuli	-9.61744
enera	-9.61789
▁liittyvi	-9.61913
linnan	-9.61928
▁palkk	-9.62031
▁autta	-9.62096
▁sellaisi	-9.62122
▁palasi	-9.62158
lojen	-9.62205
▁odotta	-9.62212
▁kehittämis	-9.62246
▁leikk	-9.62246
▁hieno	-9.62392
▁mitta	-9.62508
▁Gra	-9.62604
tietää	-9.6266
▁Kari	-9.62728
xe	-9.62751
▁epäil	-9.62837
▁uudist	-9.62873
aalta	-9.63029
▁yhteiskunna	-9.6303
▁lauantain	-9.63034
nosti	-9.63067
10	-9.6308
▁niistä	-9.63143
▁paremm	-9.63215
▁kilometri	-9.63231
▁perusti	-9.63318
▁Tau	-9.63388
▁inno	-9.63434
▁ainoa	-9.63593
▁paras	-9.63748
▁26	-9.63919
▁tunneta	-9.63932
▁191	-9.6398
vär	-9.63986
kesäkuu	-9.64034
henkilö	-9.64062
▁poik	-9.64322
▁jakoi	-9.64385
ieltä	-9.64414
▁Bar	-9.64559
▁Viime	-9.64628
mättöm	-9.64647
▁sopiva	-9.64878
uksella	-9.6488
ttomuu	-9.64899
▁Mikkelinsaar	-9.6509
▁ohi	-9.65149
mais	-9.65151
ilee	-9.65355
▁valmistet	-9.65864
▁tuomio	-9.66058
teitä	-9.66254
▁järjestämä	-9.66651
tutkimuksen	-9.66863
▁ottama	-9.66972
▁rakenta	-9.66974
lisen	-9.67244
▁Yhdysvall	-9.67552
toimittaja	-9.67705
▁itselle	-9.67996
27	-9.68156
▁Tää	-9.6824
▁alkuperä	-9.68361
▁El	-9.68762
joki	-9.68763
▁suoritta	-9.68812
▁rekisteröi	-9.68951
▁70	-9.69056
▁kuka	-9.69062
▁Ulko	-9.69073
▁hyökkä	-9.69113
q	-9.69113
mattomi	-9.69123
-19	-9.69152
å	-9.69158
▁kiinteistö	-9.69158
▁suunni	-9.69158
demokraat	-9.69158
ollegium	-9.69158
▁Määttä	-9.69158
▁Wolters	-9.69158
▁todennäköis	-9.69158
▁päätökse	-9.69158
▁sovelleta	-9.69159
▁pronssi	-9.69159
▁putosi	-9.69161
▁runsaa	-9.69162
▁sijoittu	-9.69165
▁siirto	-9.69166
▁metsä	-9.69166
ravinto	-9.69167
▁Mitro	-9.69168
▁kehitet	-9.6917
▁nautti	-9.69172
▁Thom	-9.69172
▁äänestä	-9.69173
▁pyytä	-9.69173
▁naara	-9.69177
ympäristö	-9.69179
▁kevää	-9.69183
▁vääri	-9.69195
▁antoi	-9.69202
▁tanssi	-9.69203
▁Itse	-9.69211
▁bio	-9.69211
▁parhaa	-9.69213
▁III	-9.69215
▁ominaisuu	-9.69235
▁laitta	-9.6924
▁keskiviikkona	-9.69241
▁jätti	-9.69256
ES	-9.69257
taistelu	-9.69263
tyyli	-9.69263
▁kello	-9.69288
▁9.	-9.69288
▁välise	-9.69289
▁Peter	-9.69342
▁kevät	-9.69349
▁Tällai	-9.69364
▁tietoj	-9.69367
▁poliittise	-9.69388
▁Eli	-9.69391
▁mauste	-9.69408
▁US	-9.69417
julist	-9.69426
▁uute	-9.69429
▁merkitys	-9.6947
tiivis	-9.69482
uksissa	-9.69513
kaasu	-9.69514
▁jäänyt	-9.69529
▁älypuhelin	-9.69531
▁luotto	-9.69539
▁Stor	-9.69543
▁Mikä	-9.69555
▁Turki	-9.6956
▁tällai	-9.69562
▁avoim	-9.6958
▁ehti	-9.69612
▁olevi	-9.69631
▁liittyy	-9.69654
teokse	-9.6967
▁Vim	-9.69673
▁paikkaa	-9.69699
▁korja	-9.69703
▁kymmenen	-9.69754
▁15.	-9.69765
▁toime	-9.69791
▁puuttu	-9.69847
▁ohe	-9.6987
▁johdosta	-9.70032
▁Rist	-9.70068
kertai	-9.70189
▁joukkuee	-9.70223
▁takaa	-9.70281
▁metalli	-9.70376
▁otti	-9.70412
ratkaisu	-9.70416
–200	-9.70468
▁kuusi	-9.7052
▁päätti	-9.70608
▁kel	-9.70615
▁piha	-9.70726
▁lie	-9.70757
▁saadaan	-9.7086
▁aikoj	-9.70924
▁muista	-9.7099
isyyde	-9.71016
htori	-9.7107
▁kokonais	-9.71116
yyte	-9.71125
▁Tö	-9.71319
▁peru	-9.71346
puole	-9.71376
▁km	-9.71449
▁saatt	-9.7148
▁uuni	-9.7152
▁pinta	-9.71721
▁pysyvä	-9.71722
▁vahv	-9.7208
▁alusta	-9.72206
katse	-9.72224
▁Syy	-9.72589
▁suomalaist	-9.72621
käyttö	-9.72829
kilpailu	-9.7304
albumi	-9.73052
▁Lii	-9.73144
käyttäjä	-9.73207
▁hallitukse	-9.73501
Lc	-9.73557
vuotis	-9.73595
rgi	-9.73703
paika	-9.73752
▁nykyise	-9.73808
lasi	-9.73814
▁Kat	-9.7383
▁Kim	-9.74077
▁löyd	-9.74101
▁todelli	-9.7414
▁35	-9.74233
▁euroo	-9.74312
▁saksalais	-9.74548
pistettä	-9.74672
▁saisi	-9.75036
▁mahdolli	-9.75285
▁eil	-9.75375
▁ilmeise	-9.75552
▁500	-9.75694
▁Onni	-9.76023
▁Kok	-9.76056
rad	-9.76107
▁kann	-9.76539
palkinno	-9.76801
▁auk	-9.76808
▁arki	-9.76953
▁jäsenvaltio	-9.77042
▁televisio	-9.77911
▁ilmoitt	-9.7801
▁hyödy	-9.78045
projekti	-9.78222
▁huhti	-9.78228
▁talvi	-9.78243
▁Jyväskylä	-9.78249
▁Microsoft	-9.78249
▁Tukholma	-9.78249
▁humanisti	-9.78249
▁vähemmistö	-9.78249
▁Akatemia	-9.78249
▁Mäkelä	-9.78249
▁Portugali	-9.78249
▁Risperidon	-9.78249
▁Yhdysvaltoj	-9.78249
▁direktiivi	-9.78249
▁kiinnosta	-9.78249
▁ksylitoli	-9.78249
▁pukeutu	-9.78249
▁unohta	-9.78249
▁Laodike	-9.78249
▁Lääke	-9.78249
▁myöhä	-9.78249
▁äänestys	-9.78249
▁aloitti	-9.7825
▁tekijänoikeu	-9.7825
▁2...	-9.7825
▁väärä	-9.7825
prosess	-9.78251
▁talve	-9.78251
ajoneuvo	-9.78252
▁Tutkimukse	-9.78252
sihteeri	-9.78255
onnettomuu	-9.78263
▁muodostu	-9.78266
▁radio	-9.78267
▁toisaal	-9.78275
▁muutokse	-9.78276
▁kahvi	-9.78278
▁Jussi	-9.78281
neuvo	-9.78281
▁hetki	-9.78288
▁media	-9.78302
▁ajankohta	-9.78305
▁Valtio	-9.78317
▁totea	-9.78319
▁tekevä	-9.78321
▁Putin	-9.78333
▁vaikutuksi	-9.78353
▁Toimi	-9.78359
▁ulkomai	-9.78359
ttelin	-9.78362
▁kannat	-9.78373
▁Pirat	-9.78391
puisto	-9.78418
▁uskal	-9.78419
▁6.	-9.78419
▁näytö	-9.78426
▁mennä	-9.78442
▁eurooppalaist	-9.78455
▁ollen	-9.78467
▁Paul	-9.78476
vun	-9.78482
ministeriö	-9.78491
▁näke	-9.78493
▁pesi	-9.78503
▁MI	-9.78521
▁kommentoi	-9.78552
zz	-9.78555
▁naisten	-9.78614
▁Nuo	-9.78661
▁Wei	-9.78668
mpan	-9.78674
▁oppila	-9.78713
▁For	-9.78721
▁entistä	-9.7875
▁ikään	-9.78755
▁Sitte	-9.78842
▁ansio	-9.78847
▁mielessä	-9.78895
cker	-9.78934
▁mahdollista	-9.78954
▁hii	-9.78957
▁kivi	-9.78977
▁suositui	-9.78979
▁haluaisi	-9.7899
▁luopu	-9.79021
30	-9.79031
▁tuho	-9.79065
▁taloudellis	-9.79075
▁valita	-9.79127
▁syntyy	-9.79145
▁käytä	-9.7921
▁tunti	-9.79236
▁sotilas	-9.79349
▁Ruotsissa	-9.79385
▁18.	-9.79391
joitus	-9.79403
▁paikalla	-9.79429
▁tuore	-9.79613
▁johti	-9.79683
▁jääd	-9.79763
luvulta	-9.79842
▁Oma	-9.79866
kaupunki	-9.79893
▁Bay	-9.79993
▁päättyi	-9.80037
▁Asia	-9.80046
▁muutti	-9.80107
ktiivi	-9.80176
▁ihmi	-9.80217
▁pahi	-9.80248
▁Toisin	-9.804
▁vähentä	-9.80455
voimi	-9.80514
▁Koko	-9.80853
kerma	-9.8089
▁kauan	-9.80971
▁kunno	-9.80981
▁kato	-9.81319
▁musti	-9.81701
▁yrityksi	-9.81829
▁levi	-9.81886
▁24	-9.81892
▁välttä	-9.81951
osasto	-9.82018
mbi	-9.82036
▁mahdollisuude	-9.82135
▁ampu	-9.822
▁paha	-9.82335
▁vapa	-9.82593
satama	-9.82675
oikeus	-9.83105
▁viimeise	-9.83469
▁ajoi	-9.8365
puoluee	-9.8375
▁taloude	-9.83756
▁johtama	-9.84196
▁PI	-9.8455
kuvi	-9.85183
▁Vimi	-9.8519
▁kova	-9.85253
▁Nyky	-9.85407
▁olo	-9.85512
▁pait	-9.8558
tekni	-9.85589
▁arvost	-9.8583
▁osoit	-9.86127
TT	-9.86295
▁vaale	-9.8686
99	-9.87026
▁nouse	-9.8719
öitä	-9.87236
järjestykse	-9.87287
▁Tosi	-9.87354
.3.	-9.87356
▁natsi	-9.88171
töissä	-9.8823
IMO	-9.88249
artikkeli	-9.88249
pöydä	-9.88249
é	-9.88249
▁Ariarathe	-9.88249
▁Internet	-9.88249
▁Kaarle	-9.88249
▁Sydow	-9.88249
▁miljardi	-9.88249
▁perjantain	-9.88249
▁valuuttarahasto	-9.88249
▁viikonloppu	-9.88249
▁ymmärtä	-9.88249
▁McCain	-9.88249
▁UPM	-9.88249
▁rahoitta	-9.88249
▁Espoo	-9.88249
▁vasemma	-9.88249
Amerika	-9.8825
KKU	-9.8825
▁Tallinna	-9.8825
▁aloitta	-9.8825
▁single	-9.8825
▁tallenta	-9.88251
▁1970-	-9.88252
▁kamera	-9.88252
häiriö	-9.88252
▁korkein	-9.88253
▁mestaruu	-9.88253
▁valitsi	-9.88253
▁mahtava	-9.88253
▁Joulu	-9.88254
tuotanno	-9.88254
▁rikokse	-9.88254
▁Heikki	-9.88255
▁heikko	-9.88256
▁kysely	-9.88256
▁voitaisiin	-9.88257
konser	-9.88257
▁lopetta	-9.8826
▁Sarja	-9.8826
▁suostu	-9.88262
▁Mirian	-9.88262
▁pohti	-9.8827
▁muisto	-9.8827
▁Myöhemm	-9.8827
▁pyrit	-9.88273
▁reilu	-9.88273
▁hankki	-9.88274
▁Antto	-9.88279
▁todeta	-9.8828
▁Tulos	-9.88283
▁esimerkki	-9.88287
▁Koulu	-9.88289
▁synny	-9.88291
▁vuosittain	-9.88292
▁yllättä	-9.88299
▁yksilö	-9.88308
ight	-9.88309
▁ollessa	-9.8831
▁äiti	-9.88317
▁Star	-9.88337
valiokun	-9.88345
▁Henri	-9.88355
▁lukiolais	-9.8836
▁rikko	-9.88368
▁ajatell	-9.88371
▁tytö	-9.88374
▁neljännekse	-9.88375
▁arvioida	-9.88378
▁työvoima	-9.88382
viikolla	-9.88388
▁paluu	-9.88427
▁puolelle	-9.88438
▁korost	-9.88446
▁sisälty	-9.88451
▁soitta	-9.88464
▁pohjois	-9.88467
▁Yorke	-9.88482
▁Neste	-9.88486
▁1994	-9.88488
▁estää	-9.885
▁vaikutukse	-9.88534
▁1987	-9.88537
▁tietenk	-9.88546
▁kahte	-9.88563
▁koodi	-9.88577
▁Johan	-9.88597
▁ilmene	-9.88597
▁tarkoituksen	-9.88613
▁1985	-9.88625
▁lähellä	-9.88625
kakku	-9.88627
▁turv	-9.88628
tuottee	-9.88728
▁käytti	-9.88737
▁viere	-9.88867
▁lentoliiken	-9.88884
▁kärsi	-9.88888
kaup	-9.88952
▁kansainväli	-9.89018
▁opettaja	-9.89065
▁kasvatta	-9.89109
▁yleisest	-9.89124
▁tuloksi	-9.89222
▁edustaja	-9.89299
▁mahdollisest	-9.89308
▁kohteeks	-9.89432
▁Matti	-9.89553
▁edust	-9.89625
▁osake	-9.89741
eetti	-9.89786
▁pro	-9.89827
▁kur	-9.89855
▁harm	-9.90059
▁1000	-9.90079
▁Gli	-9.90181
teollisuu	-9.90303
▁pääos	-9.90515
▁Kesk	-9.90529
▁käyttämä	-9.90533
▁kuiv	-9.9058
▁kolm	-9.90732
▁Gall	-9.90957
▁lisätä	-9.91005
elee	-9.91033
▁yhteyt	-9.91112
kanava	-9.91413
▁sisäl	-9.9187
piiri	-9.91998
▁jäljell	-9.9261
▁edellise	-9.92614
▁näkymä	-9.92972
▁löydett	-9.93042
▁tilalle	-9.9312
▁yhde	-9.93132
ily	-9.93163
▁Yrit	-9.9317
▁laito	-9.93243
▁Mikkelinsaarill	-9.93404
ock	-9.93571
▁Mer	-9.93896
▁52	-9.93995
▁odotet	-9.93999
ongelmi	-9.94191
▁arvostel	-9.94205
ongelma	-9.94221
kriisi	-9.94231
▁perustett	-9.94238
W	-9.94255
!	-9.94281
▁riippu	-9.94286
aamu	-9.9451
▁Kro	-9.94517
hallituksen	-9.94559
▁yhdisty	-9.94688
töiden	-9.94688
TA	-9.94853
▁liikenne	-9.95421
▁kahde	-9.95847
▁liikkee	-9.95997
▁Savo	-9.9626
▁parlamenti	-9.96469
▁Ole	-9.96475
▁perintei	-9.9695
▁huippu	-9.97006
▁yhteiskunnalli	-9.97083
▁kesk	-9.97101
▁kil	-9.9725
▁työllis	-9.97342
asioi	-9.97602
ilanne	-9.9761
liikentee	-9.97747
▁mielenkiintois	-9.98136
▁Usei	-9.98329
ministeri	-9.9898
merki	-9.99088
▁nähdä	-9.99105
▁pohjoise	-9.99129
▁iske	-9.99243
▁Maailma	-9.99254
▁potilas	-9.99326
▁tyydy	-9.99332
▁Seminaari	-9.9936
lainsäädäntö	-9.9936
▁elintarvik	-9.9936
▁epäonnistu	-9.9936
▁käytännön	-9.9936
▁naapuri	-9.9936
▁tehdy	-9.9936
menettely	-9.9936
ulkukotilo	-9.9936
uurlähettilä	-9.9936
▁Binderup	-9.9936
▁Carlson	-9.9936
▁Ihmiskaup	-9.9936
▁Järnefelt	-9.9936
▁Molvania	-9.9936
▁Möttölä	-9.9936
▁Neuvostoliito	-9.9936
▁Professori	-9.9936
▁Ratcliffe	-9.9936
▁Rauparaha	-9.9936
▁Säätiö	-9.9936
▁Varsinais	-9.9936
▁World	-9.9936
▁amerikkalais	-9.9936
▁brittiläi	-9.9936
▁helmikuu	-9.9936
▁kreikkalai	-9.9936
▁paljastu	-9.9936
▁rakennus	-9.9936
▁reagoi	-9.9936
▁suvaitsevaisuu	-9.9936
▁verkosto	-9.9936
▁ICT	-9.9936
▁Keskustelu	-9.9936
▁Yahoo	-9.9936
▁elokuvi	-9.9936
▁järjesti	-9.99361
▁pohdi	-9.99361
▁Räisä	-9.99361
▁käytettävä	-9.99361
▁sähköposti	-9.99361
▁Nordea	-9.99361
▁dollari	-9.99361
▁naimisi	-9.99361
▁yritti	-9.99361
▁Tanska	-9.99361
▁solmi	-9.99362
▁luennoi	-9.99362
▁tulkit	-9.99362
▁makkara	-9.99362
mpänä	-9.99362
▁ennakko	-9.99362
▁1980-	-9.99363
▁Hieta	-9.99363
▁sovelta	-9.99363
▁kengä	-9.99363
▁Vuorio	-9.99364
hahmo	-9.99364
▁maanantai	-9.99365
▁Sanoma	-9.99365
▁oikeut	-9.99366
▁suunna	-9.99367
▁vaadita	-9.99367
▁torju	-9.99368
▁Julki	-9.99369
▁Päiv	-9.99373
▁ryhty	-9.99376
▁kielte	-9.99377
▁herättä	-9.99378
▁samoi	-9.99381
▁Turussa	-9.99382
hyökkäykse	-9.99386
▁tunnust	-9.99386
▁Rosas	-9.99387
▁pääasia	-9.9939
▁Media	-9.9939
▁Hyvä	-9.99391
▁Pariisi	-9.99392
▁Tekni	-9.99402
▁senaattori	-9.99403
▁hausk	-9.99404
suhde	-9.99423
▁eräs	-9.99428
▁saapui	-9.99431
▁vaihta	-9.99434
▁teollisuus	-9.99439
▁pääkaupunki	-9.99439
▁henge	-9.99444
▁valtiopäivä	-9.99446
▁työelämä	-9.99465
▁osuus	-9.99471
▁hanke	-9.99473
▁maajoukkue	-9.99474
▁kytke	-9.99476
kaapeli	-9.99519
▁korostaa	-9.9952
▁tiloi	-9.9955
▁1997	-9.99553
▁merkitse	-9.99557
▁21.	-9.99563
kymmentä	-9.99584
▁Mustan	-9.99588
▁tarkoitet	-9.99589
▁irro	-9.99589
▁rakennettu	-9.99596
▁lähetti	-9.99616
▁nähdään	-9.9962
▁epäillä	-9.99655
▁yhdistä	-9.99671
▁tarkoitettu	-9.99672
▁1989	-9.9969
▁War	-9.99752
▁Ainak	-9.99754
▁taju	-9.99786
▁tyytyväi	-9.99787
▁HS	-9.99788
▁tunnetu	-9.99815
▁toisten	-9.9983
▁alkuun	-9.99831
▁maistu	-9.99889
▁Auto	-9.99911
▁turvallisuus	-9.9998
▁sada	-10.0002
lub	-10.0004
▁Pitkä	-10.0007
▁16.	-10.0008
▁paina	-10.0009
▁raaka	-10.0012
▁talli	-10.0016
▁sisällä	-10.0019
▁johtava	-10.0024
▁neljänne	-10.0028
▁jättä	-10.0029
▁esim	-10.0034
▁metal	-10.0035
unnelma	-10.0037
▁suosio	-10.0038
▁10.	-10.0039
▁korot	-10.0039
▁osapuol	-10.0045
▁alkuperäise	-10.0045
▁ajautu	-10.0048
usch	-10.0048
▁esitet	-10.0074
▁elämään	-10.0077
TY	-10.0082
▁29.	-10.0088
vaaleissa	-10.01
▁sellaisena	-10.0119
näytte	-10.013
litsee	-10.0133
▁isännöinti	-10.0153
Georgia	-10.0158
rth	-10.0187
▁haluta	-10.0193
▁luul	-10.0203
▁pakka	-10.0203
▁Oil	-10.0206
▁vuodel	-10.0212
▁termi	-10.0215
▁parlament	-10.0234
▁ope	-10.0245
▁saatavill	-10.0248
▁yön	-10.0251
▁latv	-10.0261
▁85	-10.0272
▁Nykyis	-10.0275
▁opiskelu	-10.0289
▁tarkoit	-10.0307
1998	-10.0335
▁300	-10.0343
▁meno	-10.0348
uomioistui	-10.0372
▁Eil	-10.0385
▁laill	-10.039
▁keskimäär	-10.0435
▁tutkijoi	-10.0466
▁rooli	-10.0468
voittaj	-10.0513
engi	-10.0515
▁työpaik	-10.0542
▁oikeisto	-10.0567
stuva	-10.0594
▁naisi	-10.0599
▁keit	-10.0652
muoto	-10.067
kulttuuri	-10.0672
tapahtuma	-10.0679
tiedot	-10.0683
▁ykkös	-10.073
▁lenno	-10.0748
▁kaike	-10.0749
viiva	-10.0778
▁Sal	-10.0816
▁kansainvälist	-10.0832
▁nimittä	-10.0838
▁kehittämise	-10.0853
SM	-10.0872
▁teollis	-10.0925
▁hallit	-10.0936
▁perustamis	-10.0974
alueell	-10.0995
▁jälke	-10.108
▁maaliskuu	-10.1097
mestari	-10.1102
kyvy	-10.1125
▁poistam	-10.1128
lääkke	-10.1132
▁veroj	-10.1137
▁kohte	-10.1137
▁tulevaisuu	-10.1138
▁vasemmisto	-10.1143
eijo	-10.115
▁kiinnostu	-10.1158
▁sulke	-10.117
▁lukio	-10.1175
ällöin	-10.1175
immäisen	-10.1177
▁aloite	-10.1181
▁edellyt	-10.1183
▁syksy	-10.1186
▁työntekij	-10.1186
upseeri	-10.1186
▁Robert	-10.1186
▁analysoi	-10.1186
▁energia	-10.1186
▁englanni	-10.1186
▁maahanmuuto	-10.1186
▁melkein	-10.1186
▁puutarha	-10.1186
▁väitöskirja	-10.1186
[	-10.1186
]	-10.1186
tepölypäiväkirja	-10.1186
▁Clinton	-10.1186
▁Google	-10.1186
▁Gorbatšov	-10.1186
▁Kysely	-10.1186
▁Libuše	-10.1186
▁Nikomede	-10.1186
▁Origene	-10.1186
▁Viipuri	-10.1186
▁Wilson	-10.1186
▁kirjailija	-10.1186
▁liikevaihto	-10.1186
▁oranssi	-10.1186
▁pehmeä	-10.1186
▁rangaistus	-10.1186
▁sassanidi	-10.1186
▁työskennellyt	-10.1186
▁türki	-10.1186
▁venäläise	-10.1186
▁ylioppila	-10.1186
käsittely	-10.1186
▁EMN	-10.1186
▁Louramo	-10.1186
▁Record	-10.1186
▁suhtautu	-10.1186
▁Khosroiani	-10.1186
▁toimenpite	-10.1186
▁vuokra	-10.1186
marginaal	-10.1186
▁Elokuva	-10.1186
▁myönnett	-10.1186
▁vanhemmat	-10.1186
▁italialai	-10.1186
▁suunnitelma	-10.1186
▁juure	-10.1186
▁jälki	-10.1186
▁markkinaosuu	-10.1186
väkivalta	-10.1186
▁Bysant	-10.1186
▁581	-10.1186
▁kurkku	-10.1186
▁Talve	-10.1186
▁3...	-10.1186
▁liittovaltio	-10.1186
▁näkemyks	-10.1186
▁Pontokse	-10.1186
▁ekstaasi	-10.1186
▁käsittele	-10.1186
▁ajattele	-10.1186
▁pelkästä	-10.1186
▁tuotanto	-10.1186
▁havaitt	-10.1187
▁Tiedä	-10.1187
suunnittelu	-10.1187
▁mietti	-10.1187
▁Kokoomu	-10.1187
▁Kolme	-10.1187
▁neliö	-10.1187
▁Orion	-10.1187
▁kaltaise	-10.1187
▁Oulu	-10.1188
▁Jyr	-10.1188
▁murha	-10.1188
▁väite	-10.1188
▁tilantei	-10.1188
▁Kyllä	-10.1188
▁dosent	-10.1188
▁Tarkoit	-10.1188
▁vanhempi	-10.1189
▁kokoontu	-10.1189
▁salaati	-10.1189
▁vapautu	-10.119
▁kirjoitus	-10.119
ction	-10.1191
▁arvel	-10.1191
▁siirtä	-10.1191
▁kohde	-10.1192
▁annost	-10.1192
▁You	-10.1192
▁osittai	-10.1192
▁näkö	-10.1192
litrai	-10.1193
▁syrj	-10.1193
▁kehot	-10.1193
▁puoliso	-10.1195
▁komp	-10.1195
▁todist	-10.1198
▁mansik	-10.1199
▁hovi	-10.12
▁Tarvit	-10.1202
kastike	-10.1202
syntyi	-10.1204
▁tuntemattom	-10.1206
▁laatu	-10.1208
▁kukist	-10.1209
▁kirkko	-10.121
▁1999	-10.1211
▁ammattilais	-10.1213
▁hallinta	-10.1214
▁24.	-10.1215
Maria	-10.1217
▁26.	-10.122
▁suosittu	-10.1224
▁Mets	-10.1226
▁otettiin	-10.1227
▁todett	-10.1231
▁lukuun	-10.1232
▁Cao	-10.1234
▁kasvatus	-10.1234
▁valitu	-10.1241
äppä	-10.1243
▁yksittäi	-10.1251
ommon	-10.1258
▁46	-10.1265
kerho	-10.1267
▁Finn	-10.1274
▁kiist	-10.1276
▁sekoi	-10.1284
▁maailmanmestar	-10.1289
▁Kansainvälise	-10.1309
▁paho	-10.1312
vaalit	-10.1313
▁päätte	-10.1364
▁pitävä	-10.1372
▁Bal	-10.1378
▁olennai	-10.1381
▁kohtaa	-10.1387
iteetti	-10.1388
▁tyypillise	-10.1397
väline	-10.1415
▁muutami	-10.1417
ärjest	-10.1431
▁viestintä	-10.1436
vieras	-10.1448
▁teema	-10.1454
▁pitkäaikais	-10.1463
oitto	-10.1464
▁koskevi	-10.1465
▁Tällaise	-10.1475
▁tumma	-10.149
▁vastust	-10.1495
▁hallitsija	-10.1501
▁iho	-10.1509
ittain	-10.1542
▁lähettä	-10.1567
arvois	-10.1617
▁este	-10.1655
▁Tamperee	-10.1656
Tapiola	-10.1669
vaatimukse	-10.167
suositu	-10.1676
▁paine	-10.1685
yksikö	-10.1691
käyttöjärjestelm	-10.1701
kertaise	-10.1707
▁nopea	-10.1763
arkist	-10.1785
▁41	-10.1792
▁todellisuu	-10.1798
190	-10.1851
OP	-10.1858
uskoo	-10.189
▁antava	-10.1964
▁kumm	-10.1984
▁rajall	-10.2013
▁avust	-10.2014
▁kiele	-10.2021
▁kuuluvi	-10.2027
▁opinto	-10.203
▁itäis	-10.2052
▁tohtori	-10.2059
▁yhdeksä	-10.206
toimintaa	-10.2099
yhteisö	-10.21
meitä	-10.21
uudella	-10.21
tiedon	-10.21
▁valmist	-10.2113
▁riit	-10.2135
▁paljo	-10.2151
koulutukse	-10.2163
▁antama	-10.2201
▁perustamise	-10.2243
Kor	-10.2265
▁sato	-10.2359
▁mukava	-10.2396
▁välttämätt	-10.2426
▁Talous	-10.2445
▁kahdest	-10.2453
▁heitt	-10.2453
▁tukemise	-10.2454
▁edellisvuo	-10.2457
▁Pohja	-10.2497
reik	-10.2547
▁kasvi	-10.2548
avoitteen	-10.2576
kkuli	-10.2581
ikaisemmi	-10.2597
kierroksen	-10.2606
▁Egypti	-10.2615
▁siitepöly	-10.2615
í	-10.2615
▁Vartiovuoren	-10.2615
▁georgialai	-10.2615
Sulawesi	-10.2615
järjestely	-10.2615
konomisti	-10.2615
merkkejä	-10.2615
rkkipiispa	-10.2615
’	-10.2615
▁Agricola	-10.2615
▁Arabiantimali	-10.2615
▁Aunesluoma	-10.2615
▁Isännöitsij	-10.2615
▁Moolenaar	-10.2615
▁Penttilä	-10.2615
▁Rodrigue	-10.2615
▁Tšerepanov	-10.2615
▁Veikkausliiga	-10.2615
▁Ykköse	-10.2615
▁ennätykse	-10.2615
▁itseluottamus	-10.2615
▁luottoluokitus	-10.2615
▁nautinto	-10.2615
▁neliökilometri	-10.2615
▁opiskele	-10.2615
▁rangaistukse	-10.2615
▁suhdanne	-10.2615
▁terveys	-10.2615
▁turkkilai	-10.2615
▁turkulais	-10.2615
▁vahingo	-10.2615
▁velvoittava	-10.2615
Pohjola	-10.2615
▁CEDAW	-10.2615
▁Charger	-10.2615
▁Islanni	-10.2615
▁Kuivajärv	-10.2615
▁Yhtye	-10.2615
▁aiempaa	-10.2615
▁apuraha	-10.2615
▁kohdistu	-10.2615
▁käräjäoikeu	-10.2615
▁noudatta	-10.2615
▁prinssi	-10.2615
▁sukkahousu	-10.2615
▁Judge	-10.2615
▁arabi	-10.2615
▁blogi	-10.2615
▁keskustella	-10.2615
▁Libya	-10.2615
▁Pietari	-10.2615
▁kehitykse	-10.2615
▁ohjelmoi	-10.2615
▁valitettava	-10.2615
▁vähite	-10.2615
▁vaellus	-10.2615
▁vaihtele	-10.2615
uringon	-10.2615
▁suunnittele	-10.2615
▁maisteri	-10.2615
▁pysäyt	-10.2615
näyttely	-10.2615
▁Erityise	-10.2615
▁huolehti	-10.2615
äänestykse	-10.2615
▁paljasta	-10.2615
▁pekoni	-10.2615
ohjaaj	-10.2615
turnaukse	-10.2615
▁saavutet	-10.2615
▁Tasaval	-10.2615
▁Apple	-10.2615
▁sipuli	-10.2615
▁hopea	-10.2615
▁vauhti	-10.2615
▁musiiki	-10.2615
▁kiinteä	-10.2615
päästö	-10.2615
▁Kuopio	-10.2615
▁Miehe	-10.2615
▁enimmä	-10.2615
▁tuhansi	-10.2615
▁rahoja	-10.2615
▁Samuli	-10.2615
▁tahdo	-10.2616
▁erinomai	-10.2616
▁Mäki	-10.2616
▁Lähi	-10.2616
▁sokeri	-10.2616
ansleri	-10.2616
▁minuutti	-10.2616
▁heiken	-10.2616
tuomioistuime	-10.2616
▁mustapippuri	-10.2616
kentälle	-10.2617
kaavio	-10.2617
▁orjuu	-10.2617
▁oppiainee	-10.2617
▁lyhye	-10.2617
▁sisäpiiri	-10.2617
▁lahja	-10.2617
▁huvi	-10.2617
▁Kanada	-10.2618
▁väestö	-10.2618
▁rock	-10.2618
▁luento	-10.2618
▁koriste	-10.2618
▁varoitt	-10.2618
korkkar	-10.2619
▁sulje	-10.2619
▁koira	-10.2619
▁tarkkail	-10.2619
▁vajaa	-10.2619
▁matkustaji	-10.262
oody	-10.262
▁eurooppalaise	-10.262
▁heiko	-10.262
▁hoitotyö	-10.2621
▁Tuntu	-10.2621
▁tuhat	-10.2621
▁ajatuksi	-10.2622
▁tavaroi	-10.2622
▁rannall	-10.2622
▁syödä	-10.2622
▁veljen	-10.2623
▁odotuksia	-10.2623
▁ruots	-10.2623
tarttu	-10.2624
▁linnu	-10.2624
▁aktiivis	-10.2625
▁gambiitti	-10.2625
▁lyö	-10.2625
▁lohi	-10.2625
▁henkilökohtai	-10.2625
tapauksi	-10.2626
▁jääkiekko	-10.2626
▁Baker	-10.2626
▁käytetty	-10.2627
kokemukse	-10.2627
▁sauna	-10.2627
▁töitä	-10.2628
▁tilaisuude	-10.2628
▁keitto	-10.2628
▁turvallis	-10.2629
▁määritel	-10.2629
▁YK	-10.2629
tuomari	-10.2629
▁molemm	-10.263
▁AAA	-10.2631
▁risteily	-10.2632
MK	-10.2633
▁Super	-10.2635
▁Koska	-10.2635
▁1960	-10.2636
ennuste	-10.2636
▁Rii	-10.2637
▁opetus	-10.2639
tekniika	-10.2639
rannan	-10.2639
▁pienempi	-10.264
▁selittä	-10.264
osakeyhtiö	-10.264
▁posti	-10.264
▁riitti	-10.2641
▁punaist	-10.2641
▁kutsuttu	-10.2642
▁rakkau	-10.2645
▁outo	-10.2647
▁ajatukse	-10.2647
▁tahto	-10.2647
▁1995	-10.2648
▁tarvitaan	-10.2649
▁palaute	-10.265
hintaa	-10.2651
▁1947	-10.2651
▁asiakkai	-10.2651
▁kehittäjä	-10.2654
▁suurempi	-10.2656
sekunni	-10.2657
▁Laji	-10.2659
▁puhelime	-10.266
vaalikone	-10.2663
AA	-10.2665
▁lentä	-10.2668
leipä	-10.2672
▁suorittanei	-10.2676
seinä	-10.2685
▁harjoittaj	-10.2687
▁vav	-10.2692
▁kotimai	-10.2692
paketti	-10.2695
▁kappalet	-10.2697
▁päivittäi	-10.2698
▁Brit	-10.2698
▁rikos	-10.2701
▁sijoitett	-10.2706
▁maailmanlaajui	-10.2715
▁keltai	-10.2724
talouspolitiikka	-10.2735
▁Minull	-10.2745
▁samanlais	-10.2748
▁jutu	-10.2751
▁surman	-10.2766
yhteiskunta	-10.2769
▁tarjoama	-10.277
▁suurui	-10.2778
▁keskeise	-10.2785
▁vuosineljänneks	-10.2786
▁vastaanott	-10.2802
▁lukuisi	-10.2827
▁Nummi	-10.2834
▁rivi	-10.2873
▁keskeisi	-10.2877
▁toisell	-10.2899
▁säilyttä	-10.2918
▁tällaise	-10.2919
luokan	-10.2934
▁läheise	-10.2943
▁62	-10.2943
▁painott	-10.2949
TS	-10.2959
▁kymmen	-10.2962
kirje	-10.2981
▁kiire	-10.2985
heim	-10.2998
varm	-10.3014
▁pallo	-10.302
▁viitt	-10.3021
▁ollei	-10.307
▁varsinais	-10.3071
▁tavallise	-10.3081
▁oikeude	-10.3114
merell	-10.3138
▁lähtevä	-10.3144
uuhun	-10.3151
OM	-10.3152
▁viite	-10.3152
vierailu	-10.3159
▁tietty	-10.3176
Reko	-10.3187
ttomi	-10.3201
yhdistys	-10.3216
▁huone	-10.3265
▁varmist	-10.3285
▁95	-10.3299
▁savust	-10.3333
▁avu	-10.3384
vuotia	-10.3456
▁osoitett	-10.3463
▁saatav	-10.349
IP	-10.3503
luokka	-10.3513
▁Viimeis	-10.3515
▁asetet	-10.3573
isteli	-10.3598
▁osil	-10.3615
▁lopull	-10.362
▁tutkimuskesku	-10.3631
yrityksille	-10.3633
tarkoitukse	-10.3669
▁pääsevä	-10.368
▁ilmoitet	-10.3689
tyttö	-10.3759
liiga	-10.3761
▁Last	-10.3766
lääke	-10.3767
käyttöön	-10.3768
historia	-10.3769
?	-10.3774
J	-10.3787
imu	-10.3798
korko	-10.3799
▁lähtö	-10.38
▁erillis	-10.3811
otitalousvähenny	-10.3925
▁joutuva	-10.3941
▁1800	-10.3988
atiivi	-10.3993
kokouksessa	-10.4087
▁ulkopuol	-10.4151
▁kustannuks	-10.4151
laitos	-10.4177
valtuusto	-10.418
▁koululais	-10.4199
▁Tilasto	-10.4203
▁alukse	-10.4218
puhelim	-10.4228
järjestelmi	-10.4244
▁matkust	-10.4275
▁Mylly	-10.4281
pyyntö	-10.4281
veljeskunna	-10.4281
°	-10.4281
▁Duodecim	-10.4281
▁Windows	-10.4281
▁hyönteis	-10.4281
▁jalkapallo	-10.4281
▁monimutkai	-10.4281
▁nautinno	-10.4281
▁ohjaus	-10.4281
▁sunnuntai	-10.4281
>	-10.4281
divisioona	-10.4281
ehdokas	-10.4281
khosroidi	-10.4281
viranomaise	-10.4281
yhtymä	-10.4281
ymposiumi	-10.4281
▁1,5	-10.4281
▁Englanni	-10.4281
▁Gaddafi	-10.4281
▁Group	-10.4281
▁Hollming	-10.4281
▁Häpeä	-10.4281
▁Kysymy	-10.4281
▁Käytännössä	-10.4281
▁Lennonjohtaj	-10.4281
▁NHL	-10.4281
▁Paflagonia	-10.4281
▁Perjantain	-10.4281
▁Radiohead	-10.4281
▁Reutersi	-10.4281
▁Ruotsalai	-10.4281
▁Taloude	-10.4281
▁Tradeka	-10.4281
▁Venezuela	-10.4281
▁Wikimedia	-10.4281
▁demokrati	-10.4281
▁horisontaali	-10.4281
▁höyhen	-10.4281
▁jesuiitta	-10.4281
▁korkeude	-10.4281
▁kuningatar	-10.4281
▁kustannus	-10.4281
▁kypsy	-10.4281
▁lähdekoodi	-10.4281
▁länsimais	-10.4281
▁maahanmuuttaji	-10.4281
▁organisaatio	-10.4281
▁provinssi	-10.4281
▁roomalais	-10.4281
▁ruokavalio	-10.4281
▁vihdoin	-10.4281
aupunginteatteri	-10.4281
▁Chávez	-10.4281
▁Evertoni	-10.4281
▁Fischer	-10.4281
▁IMF	-10.4281
▁Sähkö	-10.4281
▁Zagat	-10.4281
▁arkkiteh	-10.4281
▁aurinko	-10.4281
▁hidastu	-10.4281
▁informaatio	-10.4281
▁jalkapalloilija	-10.4281
▁kreivi	-10.4281
▁lapsuude	-10.4281
▁ortodoksi	-10.4281
▁ruskea	-10.4281
▁vertailu	-10.4281
▁yhdistetty	-10.4281
tandard	-10.4281
▁Aleksan	-10.4281
▁Ontario	-10.4281
▁Smith	-10.4281
▁ehdokkai	-10.4281
▁eteenpäin	-10.4281
▁hienonnettu	-10.4281
▁japanilais	-10.4281
▁paprika	-10.4281
▁tasapaino	-10.4281
▁ennakoi	-10.4281
▁Tyttö	-10.4281
▁hedelm	-10.4281
▁kotisivu	-10.4281
▁häirits	-10.4281
▁rauhoit	-10.4281
▁supistu	-10.4281
▁velkakatto	-10.4281
kauppoja	-10.4281
▁Hoskins	-10.4281
▁SAK	-10.4281
▁käsiteltävä	-10.4281
▁lahjoitus	-10.4281
▁pidemmä	-10.4281
▁ranniko	-10.4281
▁tiedotteessa	-10.4281
▁vuorovaikutukse	-10.4281
▁Finnjet	-10.4281
▁Agila	-10.4281
▁Armenia	-10.4281
harrastaj	-10.4281
▁Large	-10.4281
▁kimpp	-10.4281
▁rajoitet	-10.4281
▁sukupolv	-10.4281
▁ulottu	-10.4281
▁yksikkö	-10.4281
▁valloitt	-10.4281
▁kestänyt	-10.4281
menetelmä	-10.4282
▁itsetunto	-10.4282
▁perustuslai	-10.4282
▁Palvelu	-10.4282
▁tutkimuksi	-10.4282
▁tytär	-10.4282
▁Nobel	-10.4282
kirjoittaja	-10.4282
▁päässy	-10.4282
▁Itävalla	-10.4282
▁ylös	-10.4282
▁hoidet	-10.4282
▁näytell	-10.4282
▁laittoma	-10.4282
▁Hirv	-10.4282
▁omistusasu	-10.4282
▁lukija	-10.4282
havainno	-10.4282
▁Lontoos	-10.4282
▁kylmä	-10.4282
▁kitara	-10.4282
▁tervee	-10.4282
▁alhais	-10.4282
▁aikoo	-10.4282
näyttö	-10.4282
▁tehtiin	-10.4282
▁Katso	-10.4282
valtuute	-10.4283
▁Yhdisty	-10.4283
▁hankal	-10.4283
▁Kottila	-10.4283
▁Kolma	-10.4283
▁taloyhtiö	-10.4283
▁Norja	-10.4283
▁Olvi	-10.4283
▁valtakuntaa	-10.4283
▁Kyp	-10.4283
komite	-10.4283
remont	-10.4283
▁Sohka	-10.4283
▁tiedä	-10.4283
▁600	-10.4283
▁monipuolis	-10.4283
▁kopioi	-10.4284
▁monitieteis	-10.4284
▁hullu	-10.4284
siemeni	-10.4284
▁torstai	-10.4284
cupi	-10.4284
▁mediamaksu	-10.4284
▁väkilu	-10.4284
nharmaa	-10.4284
▁Doran	-10.4284
▁alemma	-10.4285
▁pelattu	-10.4285
aakkois	-10.4285
valvonta	-10.4285
▁kolmante	-10.4285
▁Valkea	-10.4285
▁Paikall	-10.4285
▁rinnall	-10.4285
▁Usko	-10.4285
▁punaise	-10.4286
▁Intia	-10.4286
▁kokemust	-10.4286
ratorio	-10.4286
▁kenkä	-10.4286
▁eurooppalaisi	-10.4287
toveri	-10.4287
▁kuukausi	-10.4287
▁linnoit	-10.4288
▁vahvistu	-10.4288
▁luotettav	-10.4288
▁kolmas	-10.4288
▁lukumäärä	-10.4288
▁kohdalla	-10.4288
▁välittömä	-10.4288
▁sammu	-10.4288
▁aloitettiin	-10.4289
tappio	-10.4289
▁yhteys	-10.429
que	-10.4291
▁pidettävä	-10.4291
▁tehokkaa	-10.4292
▁jonkinlais	-10.4292
▁talouksi	-10.4293
kaupunginosa	-10.4295
▁useimmi	-10.4296
▁naura	-10.4297
nkielis	-10.4298
▁Univers	-10.4298
▁keskuspank	-10.4298
▁Lind	-10.43
▁kumpik	-10.43
▁partio	-10.4301
▁Thriller	-10.4303
▁asukkai	-10.4303
▁vakaa	-10.4304
▁Twi	-10.4305
▁sorm	-10.4307
ikäisi	-10.4307
▁myydä	-10.4309
▁julkaisema	-10.4311
pelaaja	-10.4313
hip	-10.4314
▁uhat	-10.4316
▁piirtei	-10.4317
▁Yhd	-10.4321
▁esitelt	-10.4322
▁osuude	-10.4338
▁oteta	-10.4339
hallin	-10.4347
puolisko	-10.4347
htyi	-10.4347
▁lause	-10.4347
paketis	-10.4353
▁vapautt	-10.4355
▁Bur	-10.4356
▁Tilastokesku	-10.436
▁lääkkee	-10.4361
▁astee	-10.4366
Iraki	-10.4369
▁osakke	-10.437
▁kirjee	-10.4374
▁muutost	-10.438
ihmisoikeuksi	-10.4388
▁uralla	-10.4402
lentokone	-10.4415
▁muunnelm	-10.4427
▁täyte	-10.4459
hoitaja	-10.447
▁vaaralli	-10.447
▁nouseva	-10.4477
▁laisk	-10.4502
UN	-10.4551
▁mustasukkaisuu	-10.4559
▁euroaluee	-10.4561
▁millaist	-10.4564
▁penk	-10.4571
iltapäiv	-10.4571
▁menettä	-10.4619
osaamista	-10.4661
▁laitoksell	-10.4692
lonia	-10.4731
▁rakentamise	-10.4755
▁rip	-10.4775
teknise	-10.4787
▁lopputulo	-10.4796
lääketieteellise	-10.4838
▁perinteise	-10.4849
▁kasvo	-10.4997
▁romut	-10.4997
asutus	-10.5131
▁varoj	-10.5256
isuuksia	-10.5299
erussuomalais	-10.5313
▁eks	-10.5331
uitenk	-10.5343
Ranskassa	-10.5346
kirjoj	-10.5355
▁tieteellis	-10.5387
▁Eer	-10.5416
mpuja	-10.5422
▁Aik	-10.546
puolue	-10.5464
▁tusk	-10.5467
▁lämmi	-10.5551
soitti	-10.5563
välistä	-10.5563
biodiversiteetti	-10.5582
▁lauk	-10.5611
oimittajat	-10.5612
▁laajuu	-10.5738
versio	-10.5747
sivusto	-10.5759
vastuu	-10.576
elokuva	-10.5765
▁presidenti	-10.5806
▁Georg	-10.5876
hallitsijan	-10.593
▁allergiaoire	-10.5945
tasoll	-10.5961
▁ilmoi	-10.5966
aikaistyöttömyy	-10.5989
sännöintitehtävi	-10.5994
Numm	-10.6016
▁muistut	-10.6069
▁esittämä	-10.6106
▁Tapahtu	-10.6121
▁Aamu	-10.6144
prosent	-10.6157
▁turvallisuu	-10.6158
äädyi	-10.6197
eurooppalai	-10.622
▁viralli	-10.6223
tyypi	-10.6246
▁rakente	-10.6248
paikkoja	-10.6252
▁henkilöstö	-10.6253
aupunki	-10.6259
▁ranska	-10.6268
▁olympia	-10.6274
valmentaja	-10.6276
pippuri	-10.6279
tyttyä	-10.628
▁Tiedot	-10.6281
▁Litium	-10.6281
▁Khosro	-10.6281
ρ	-10.6281
ι	-10.6281
isualisoin	-10.6281
mielisyyte	-10.6281
▁Härkö	-10.6281
▁Kilpailu	-10.6281
▁sassanide	-10.6281
▁täytäntöön	-10.6281
▁vuodentakaise	-10.6281
akuutusyhtiö	-10.6281
konsortio	-10.6281
poliitikko	-10.6281
terveydenhuollo	-10.6281
—	-10.6281
▁Albert	-10.6281
▁Bithynia	-10.6281
▁Eduskunta	-10.6281
▁Fredrik	-10.6281
▁GitHubi	-10.6281
▁Johnson	-10.6281
▁Kalifornia	-10.6281
▁Kyseessä	-10.6281
▁Lutenblag	-10.6281
▁Lönnrot	-10.6281
▁Plotino	-10.6281
▁Science	-10.6281
▁Teknologia	-10.6281
▁Tšeljabinsk	-10.6281
▁Urheilu	-10.6281
▁Vladimir	-10.6281
▁Volvo	-10.6281
▁akatemiatutkija	-10.6281
▁antibioott	-10.6281
▁apurahoj	-10.6281
▁avioliito	-10.6281
▁englantilai	-10.6281
▁huomen	-10.6281
▁kauppakamari	-10.6281
▁kevätsipuli	-10.6281
▁kirjakiele	-10.6281
▁komentotila	-10.6281
▁kongress	-10.6281
▁kritisoi	-10.6281
▁kuningasgambiit	-10.6281
▁kuvitteelli	-10.6281
▁löysi	-10.6281
▁maanviljel	-10.6281
▁porukall	-10.6281
▁pääkaupungi	-10.6281
▁raportti	-10.6281
▁testamentti	-10.6281
▁täytäntöönpano	-10.6281
katsauksessa	-10.6281
kursseja	-10.6281
lämpötila	-10.6281
materiaali	-10.6281
mielenosoitukse	-10.6281
suntorakentamis	-10.6281
▁First	-10.6281
▁Kakheti	-10.6281
▁Köklot	-10.6281
▁LHC	-10.6281
▁Linux	-10.6281
▁Oikeisto	-10.6281
▁Pelander	-10.6281
▁Viestintä	-10.6281
▁Wahlbeck	-10.6281
▁Yliluonnollis	-10.6281
▁backlinkk	-10.6281
▁komedia	-10.6281
▁kosmokse	-10.6281
▁myymäläauto	-10.6281
▁myönsi	-10.6281
▁norjalai	-10.6281
▁periaatte	-10.6281
▁perustuslaki	-10.6281
▁riveissä	-10.6281
▁sairastu	-10.6281
▁subjekti	-10.6281
▁unohtu	-10.6281
▁viivästy	-10.6281
▁yliluonnollis	-10.6281
ainsäädännö	-10.6281
humanistitohtori	-10.6281
tietokonepeli	-10.6281
▁BBC	-10.6281
▁Kajaanin	-10.6281
▁iOS	-10.6281
▁trauma	-10.6281
▁vapaaehtois	-10.6281
puheenvuoro	-10.6281
vaikuttei	-10.6281
▁RAY	-10.6281
▁Todellisuu	-10.6281
▁hidasta	-10.6281
ebyytti	-10.6281
▁kotitalouksi	-10.6281
▁vuoristo	-10.6281
luettelo	-10.6281
reissu	-10.6281
▁Opiskel	-10.6281
▁Yhteis	-10.6281
▁death	-10.6281
▁Naši	-10.6281
▁siirryt	-10.6281
ward	-10.6281
▁kilpaile	-10.6281
▁toteutu	-10.6281
esittely	-10.6281
▁yläpuolell	-10.6281
rakennukse	-10.6281
▁kursori	-10.6281
▁luonnolli	-10.6281
▁tyttäre	-10.6281
▁sitoutu	-10.6281
▁vanhempa	-10.6281
▁Nicol	-10.6281
▁Hollanni	-10.6281
▁Verkko	-10.6281
▁palveli	-10.6281
▁raejuusto	-10.6281
Arabia	-10.6281
ammuskel	-10.6281
▁Kokonais	-10.6281
▁nauhoit	-10.6281
▁Walesi	-10.6281
▁keitetty	-10.6281
▁Gold	-10.6281
▁nähtävi	-10.6281
pitoisuu	-10.6282
▁Finland	-10.6282
▁läsnä	-10.6282
▁käytety	-10.6282
▁kokoelma	-10.6282
▁mikro	-10.6282
▁puolustukse	-10.6282
▁vaihde	-10.6282
▁Sihvo	-10.6282
▁kykene	-10.6282
valmiude	-10.6282
▁Hadro	-10.6282
▁virolais	-10.6282
▁kaipaa	-10.6282
identiteetti	-10.6282
▁Palkinno	-10.6282
havainto	-10.6282
draama	-10.6282
▁ensisijais	-10.6282
akijamäärä	-10.6282
▁panssari	-10.6282
▁Epäil	-10.6282
koistyötapahtuma	-10.6282
▁näppäin	-10.6282
▁sävy	-10.6282
▁rautatieasema	-10.6282
▁säädet	-10.6282
▁laulukilpailu	-10.6282
▁elinympäristö	-10.6282
▁päävalmentajan	-10.6282
▁suositella	-10.6282
▁velkoj	-10.6282
▁Terve	-10.6282
▁ohui	-10.6282
▁Lumina	-10.6282
▁kiinalais	-10.6282
▁kirjoitettu	-10.6282
▁vaikeutt	-10.6282
▁Magnu	-10.6282
▁Opinto	-10.6282
hankkei	-10.6282
▁Vähän	-10.6283
▁herttua	-10.6283
▁Neljä	-10.6283
▁Pääministeri	-10.6283
▁ruumi	-10.6283
▁Vaasa	-10.6283
▁opti	-10.6283
▁pyyh	-10.6283
▁runko	-10.6283
▁Tilh	-10.6283
▁katsele	-10.6283
laadun	-10.6283
▁nautitt	-10.6283
▁parempa	-10.6283
▁pituus	-10.6283
▁tavaramerkki	-10.6284
▁lyhyt	-10.6284
ääkaupunkiseudul	-10.6284
▁runsas	-10.6284
▁voittanut	-10.6284
biologi	-10.6284
▁mahtu	-10.6284
▁riem	-10.6284
▁rakenteelli	-10.6284
▁viittaava	-10.6285
▁sukkul	-10.6285
▁Korke	-10.6285
▁vastaanoto	-10.6285
▁kattila	-10.6285
▁Suurimma	-10.6285
▁Usea	-10.6285
▁paisu	-10.6285
▁sovitu	-10.6285
▁suoritet	-10.6285
▁innostu	-10.6285
▁kirjoitti	-10.6285
▁laulu	-10.6286
▁päästy	-10.6286
▁Tuskin	-10.6286
▁äänesti	-10.6286
▁Kaiken	-10.6286
▁nimenoma	-10.6287
▁vahvistet	-10.6287
▁tilh	-10.6287
▁kaverei	-10.6287
▁rakasta	-10.6287
Hämee	-10.6287
ketju	-10.6287
▁tiedostoj	-10.6287
töihin	-10.6287
▁jedi	-10.6288
▁aikaisemp	-10.6288
▁kuukaut	-10.6288
▁potilasohjaukse	-10.6288
▁uhra	-10.6289
▁Poika	-10.6289
▁vaihtu	-10.6289
felt	-10.6289
▁autonomi	-10.6289
▁käsitellä	-10.6289
baari	-10.6289
▁hitaa	-10.629
▁tehtaa	-10.6291
▁uudistumis	-10.6291
▁yritet	-10.6291
pokeri	-10.6292
▁Tuloks	-10.6292
▁kaupung	-10.6292
rouhe	-10.6293
▁lääni	-10.6293
▁ajoittai	-10.6294
lohko	-10.6294
house	-10.6297
▁aido	-10.6299
▁torni	-10.6299
paperei	-10.6299
▁taputt	-10.6299
Karjala	-10.63
▁länne	-10.6301
opers	-10.6302
▁omaisuu	-10.6302
▁aikuis	-10.6302
▁mieti	-10.6304
▁tehnee	-10.6307
▁esitell	-10.6308
▁kuulustel	-10.6308
vaunu	-10.6312
▁syyttee	-10.6313
▁luontee	-10.6316
▁Vironmä	-10.6316
▁eräi	-10.6317
▁tauo	-10.6321
▁samanaikai	-10.6324
▁vastaaj	-10.6325
▁pilk	-10.6328
▁kallii	-10.6329
▁hyödyntä	-10.6329
▁seokse	-10.633
▁erilaist	-10.6333
▁ajatteli	-10.6336
▁kiihty	-10.6337
älkää	-10.6338
▁muodostava	-10.634
▁läheisyy	-10.6344
▁mitkä	-10.6347
▁keräämä	-10.6348
▁sääst	-10.6351
▁kansanedustaj	-10.6358
taantuma	-10.6361
▁valitta	-10.6363
▁kokonaisuude	-10.6371
▁onneks	-10.6384
▁voittama	-10.6395
huuto	-10.6404
▁katsell	-10.6414
nimikkee	-10.6418
▁Aamuleh	-10.642
mattoman	-10.6425
immist	-10.6447
Elämäntapaliitto	-10.6466
vaatimust	-10.6469
kortti	-10.6483
▁Tommi	-10.6496
▁puoliväli	-10.6514
▁mielenkiinto	-10.6516
puhelu	-10.652
▁vuosikymmen	-10.6544
uomala	-10.6546
phi	-10.6575
▁ilmestynee	-10.6634
iteeti	-10.6645
työttömyyde	-10.6708
▁kaunis	-10.6721
▁silmis	-10.6787
▁Maast	-10.6806
erbi	-10.6807
▁Ranska	-10.6834
ääkäri	-10.684
Coll	-10.6873
▁julkisuut	-10.6889
▁sijaits	-10.6891
ainio	-10.6927
kuningaskun	-10.7055
luennolla	-10.7075
lukem	-10.7123
▁opintopiste	-10.7197
▁Paav	-10.7272
▁riippumatt	-10.7313
▁lahjoituks	-10.7362
▁kuull	-10.7364
tieteellisen	-10.7504
lahjoituksen	-10.7546
▁vaihdo	-10.7642
huonee	-10.7679
▁jälje	-10.7692
kappaleen	-10.7806
▁Tapio	-10.7823
2009	-10.785
▁tiettyj	-10.785
▁alkanee	-10.79
kyljyks	-10.7931
▁lemp	-10.7945
palveluj	-10.8134
laulaj	-10.8145
ttämättömä	-10.8206
maailma	-10.8245
▁pohj	-10.8253
moottori	-10.8264
yhteistyö	-10.8267
muodo	-10.8269
Saksa	-10.8269
tutkimus	-10.8275
tilantee	-10.8298
▁pistel	-10.8301
▁lääketietee	-10.8327
▁saavutt	-10.8385
hamp	-10.8389
▁tyypilli	-10.8392
▁kaikkiall	-10.8409
suojelu	-10.8479
asumise	-10.8481
▁kuulunee	-10.8492
▁sellaist	-10.8511
▁Kansainväli	-10.8524
surma	-10.8534
▁Elämäntapaliit	-10.8549
opettajan	-10.8565
iedosto	-10.8611
suuntais	-10.8621
vaikutuks	-10.8674
▁komment	-10.8698
laisuute	-10.872
▁liiketoiminta	-10.8725
ruhtina	-10.8732
▁Thrill	-10.8747
▁Vasemmisto	-10.8747
kampanja	-10.8765
voiton	-10.877
▁lyh	-10.8776
▁litium	-10.878
ż	-10.8781
▁Makuuhaav	-10.8781
▁elektroni	-10.8781
▁kasvihuone	-10.8781
▁kenraali	-10.8781
▁kesämökki	-10.8781
aljasnaamalepak	-10.8781
velvollisuus	-10.8781
▁diplomi	-10.8781
▁finanssi	-10.8781
▁maahanpääsy	-10.8781
▁palkankorotuksi	-10.8781
▁poliitiko	-10.8781
Kulttuurirahasto	-10.8781
airaanhoitopiiri	-10.8781
aksujalka	-10.8781
ehdokkaa	-10.8781
insinööri	-10.8781
kokemuksista	-10.8781
lauluntekijä	-10.8781
lähdö	-10.8781
mozzarella	-10.8781
ntasuunnitelma	-10.8781
ntegraatio	-10.8781
oikeudenkäynti	-10.8781
torpedovene	-10.8781
tämistoimenpite	-10.8781
yöehtokiista	-10.8781
»	-10.8781
ääesiintyjä	-10.8781
ς	-10.8781
О	-10.8781
е	-10.8781
‘	-10.8781
▁Allsvenskan	-10.8781
▁Auktorisoi	-10.8781
▁Australia	-10.8781
▁Bergman	-10.8781
▁Black	-10.8781
▁Bloomberg	-10.8781
▁CERN	-10.8781
▁Capital	-10.8781
▁Elisabeth	-10.8781
▁Eupator	-10.8781
▁Guaram	-10.8781
▁HIFK	-10.8781
▁Heraklei	-10.8781
▁Isännöinni	-10.8781
▁JHL	-10.8781
▁Kaijasilla	-10.8781
▁Konsortio	-10.8781
▁Kostroma	-10.8781
▁Kuypers	-10.8781
▁Lammintausta	-10.8781
▁Ludvig	-10.8781
▁Lukiolais	-10.8781
▁Neuvottelu	-10.8781
▁Noisnieme	-10.8781
▁Ongelma	-10.8781
▁Opettaja	-10.8781
▁Pehkijärve	-10.8781
▁Republi	-10.8781
▁Romney	-10.8781
▁Ryhmä	-10.8781
▁Rössler	-10.8781
▁Sarkozy	-10.8781
▁Sirviö	-10.8781
▁Spotify	-10.8781
▁Stefano	-10.8781
▁Taloussanom	-10.8781
▁Tbilisi	-10.8781
▁Tikkurila	-10.8781
▁Työttömyys	-10.8781
▁Volga	-10.8781
▁aiheutti	-10.8781
▁aktivaatio	-10.8781
▁alkoholi	-10.8781
▁alusvaatte	-10.8781
▁animaatio	-10.8781
▁armenia	-10.8781
▁basso	-10.8781
▁eksoplaneet	-10.8781
▁haastattelu	-10.8781
▁haavoittu	-10.8781
▁havaitsi	-10.8781
▁hiilidioksidi	-10.8781
▁hirviö	-10.8781
▁jäljittele	-10.8781
▁kilpailija	-10.8781
▁kompromissi	-10.8781
▁liberaal	-10.8781
▁liikevaihdo	-10.8781
▁lähetystö	-10.8781
▁lääkekehitykse	-10.8781
▁maalipörssi	-10.8781
▁moottoripyöri	-10.8781
▁mykkäelokuva	-10.8781
▁myymälöi	-10.8781
▁määrittele	-10.8781
▁näkökulmi	-10.8781
▁pelastuspaketi	-10.8781
▁psykoos	-10.8781
▁päätöslauselma	-10.8781
▁rajoituksia	-10.8781
▁raportoi	-10.8781
▁rikkipäästö	-10.8781
▁saastunei	-10.8781
▁sairaaloi	-10.8781
▁savugeneraattor	-10.8781
▁sisällisso	-10.8781
▁suhtaudut	-10.8781
▁syyllisty	-10.8781
▁terveydenhuolto	-10.8781
▁tiedotusvälinei	-10.8781
▁valtaväestö	-10.8781
▁vastagambiit	-10.8781
▁viikonlopu	-10.8781
▁viranomaist	-10.8781
▁ystävyys	-10.8781
budjetti	-10.8781
mekanismi	-10.8781
nningham	-10.8781
utkijakollegiumi	-10.8781
▁Business	-10.8781
▁HDR	-10.8781
▁Horisontaali	-10.8781
▁Journal	-10.8781
▁Kaukaluoto	-10.8781
▁Kuningasgambiit	-10.8781
▁Mantukimalai	-10.8781
▁MySQL	-10.8781
▁Přemysli	-10.8781
▁TIAS	-10.8781
▁Välimere	-10.8781
▁basilika	-10.8781
▁ekologis	-10.8781
▁evakuoit	-10.8781
▁guaramidi	-10.8781
▁kapteeni	-10.8781
▁katastrofi	-10.8781
▁kirjaimisto	-10.8781
▁konsuli	-10.8781
▁korkeimma	-10.8781
▁kyljyst	-10.8781
▁mietintö	-10.8781
▁pysähty	-10.8781
▁tanskalais	-10.8781
▁unohd	-10.8781
▁vaihtoehdo	-10.8781
▁voimavaroj	-10.8781
TIK	-10.8781
eminaarilippu	-10.8781
gressiivis	-10.8781
logistiikkayrity	-10.8781
tieteilijä	-10.8781
á	-10.8781
▁Collider	-10.8781
▁Lappeenran	-10.8781
▁Lähes	-10.8781
▁Oborne	-10.8781
▁Porvoo	-10.8781
▁TCSM	-10.8781
▁Tuomiokirk	-10.8781
▁brutto	-10.8781
▁gallup	-10.8781
▁internet	-10.8781
▁miehistö	-10.8781
▁rajoittu	-10.8781
▁sitruuna	-10.8781
▁työnantaji	-10.8781
▁vihreä	-10.8781
kiihdyt	-10.8781
▁High	-10.8781
▁Hioke	-10.8781
▁Nerehta	-10.8781
▁kriitti	-10.8781
▁matemaat	-10.8781
▁vaihtee	-10.8781
▁Latvala	-10.8781
▁aiheutu	-10.8781
▁kanadalai	-10.8781
▁opinnäyt	-10.8781
oimavaraistu	-10.8781
л	-10.8781
т	-10.8781
▁Kiikala	-10.8781
▁luonnehti	-10.8781
tröm	-10.8781
uunnittelija	-10.8781
▁Toronto	-10.8781
▁Tunnettu	-10.8781
▁enduro	-10.8781
▁komenno	-10.8781
▁kypsä	-10.8781
▁yritän	-10.8781
▁kehitti	-10.8781
▁ISA	-10.8781
▁Viagra	-10.8781
▁lähdi	-10.8781
▁porno	-10.8781
▁yksinkertaist	-10.8781
ideologia	-10.8781
▁Kuumenn	-10.8781
▁hallitseva	-10.8781
▁ihmee	-10.8781
▁mietinnö	-10.8781
▁vaaleansini	-10.8781
DVD	-10.8781
▁Tomaatti	-10.8781
▁suunnitelmi	-10.8781
▁gradu	-10.8781
▁grilli	-10.8781
▁lehdist	-10.8781
gration	-10.8781
▁Lähde	-10.8781
▁aikaisemma	-10.8781
▁hassu	-10.8781
▁käsitteli	-10.8781
а	-10.8781
▁Rahatiedo	-10.8781
▁pakettiauto	-10.8781
▁tyhjä	-10.8781
nglish	-10.8781
sluokkalais	-10.8781
▁Taiwani	-10.8781
▁kallistu	-10.8781
▁ohjaam	-10.8781
luutnant	-10.8781
▁vaikutti	-10.8781
venäläist	-10.8781
▁Seuraava	-10.8781
▁rohke	-10.8781
▁Gugi	-10.8781
▁terävä	-10.8781
▁Tytö	-10.8781
▁hienovarais	-10.8781
▁lisääntyi	-10.8781
▁sisällö	-10.8781
▁tippu	-10.8781
burg	-10.8781
hrash	-10.8781
▁ansaitse	-10.8781
▁epävarmuu	-10.8781
▁Boyle	-10.8782
tiedotustilaisuu	-10.8782
▁asuntolaina	-10.8782
▁ikävä	-10.8782
▁luokittel	-10.8782
kontroll	-10.8782
▁parantaa	-10.8782
▁avaruus	-10.8782
▁huomise	-10.8782
▁tomaati	-10.8782
▁Yliopistonmäe	-10.8782
▁olemassaolo	-10.8782
▁eversti	-10.8782
euvostoliittolai	-10.8782
▁Afrik	-10.8782
▁Selvity	-10.8782
▁finaali	-10.8782
▁vatjalais	-10.8782
▁velkaneuvon	-10.8782
▁Asunto	-10.8782
▁ohjann	-10.8782
▁Voimme	-10.8782
▁maalaiskunna	-10.8782
dolf	-10.8782
▁liioitel	-10.8782
▁marjoj	-10.8782
▁hallussa	-10.8782
▁Palkinto	-10.8782
▁aatelis	-10.8782
▁tapoja	-10.8782
▁Työväen	-10.8782
▁edellytykse	-10.8782
▁kollega	-10.8782
▁melodi	-10.8782
▁majuri	-10.8782
▁iloits	-10.8782
tutkielman	-10.8782
▁Hieno	-10.8782
IKI	-10.8782
yhye	-10.8782
▁tykkää	-10.8782
▁ritarei	-10.8782
▁tiedonanto	-10.8782
▁siirro	-10.8782
▁kiihotta	-10.8782
▁patentti	-10.8782
▁ylpeä	-10.8782
▁paikallisvaal	-10.8782
▁Kaza	-10.8782
▁isännöitsijöi	-10.8782
▁Steve	-10.8782
vaihtelu	-10.8782
▁Hattula	-10.8783
▁Laatik	-10.8783
▁avoint	-10.8783
▁kestävä	-10.8783
▁mainetta	-10.8783
näkemys	-10.8783
▁Levy	-10.8783
▁merkitykse	-10.8783
▁jumal	-10.8783
▁hallitsema	-10.8783
▁Angel	-10.8783
▁tuijot	-10.8783
kiertue	-10.8783
▁Kemian	-10.8783
▁osui	-10.8783
▁vieraan	-10.8783
Kyprokse	-10.8783
välitykse	-10.8783
▁kävijöi	-10.8783
firma	-10.8783
▁heijast	-10.8783
▁Sanomi	-10.8783
▁tuhanne	-10.8783
sankari	-10.8783
▁syvyy	-10.8783
sovellu	-10.8783
▁räjähtävä	-10.8783
kaipuu	-10.8783
Bakur	-10.8783
▁jännit	-10.8783
▁luokite	-10.8783
▁natse	-10.8784
vankeusrangaistu	-10.8784
▁vuosisatoj	-10.8784
▁kadonnee	-10.8784
▁Teleste	-10.8784
▁vuosittaise	-10.8784
▁leikkele	-10.8784
▁Sipoo	-10.8784
▁lintuj	-10.8784
▁Voima	-10.8784
▁paniik	-10.8784
▁paikoi	-10.8785
alvisoda	-10.8785
hämäri	-10.8785
leisradio	-10.8785
hyökkääjä	-10.8785
▁fyysise	-10.8785
työkalu	-10.8785
▁etenem	-10.8785
yhteyksi	-10.8785
▁rahalaito	-10.8785
▁kiersi	-10.8785
▁Edm	-10.8785
▁monenlais	-10.8785
▁tekijöi	-10.8785
▁Björ	-10.8785
▁Kirjoit	-10.8785
▁määräykse	-10.8786
▁Kolava	-10.8786
▁Tyyne	-10.8786
▁2006-200	-10.8786
▁pelottav	-10.8786
puittee	-10.8786
▁Bioke	-10.8786
▁ylipäätä	-10.8786
▁viholli	-10.8787
▁vosu	-10.8787
▁leivä	-10.8787
hyökkäyksi	-10.8787
▁tyls	-10.8787
▁tyhm	-10.8787
0–6	-10.8787
▁Pikku	-10.8787
▁stadilai	-10.8787
yöskennel	-10.8787
▁Hawk	-10.8788
▁tyydyttäm	-10.8788
▁pyysi	-10.8789
holm	-10.8789
▁vammo	-10.8789
▁sotaharjoituks	-10.8789
kuorma	-10.8789
ositiivi	-10.8789
▁levittäm	-10.8789
▁projektitöi	-10.8789
▁osuma	-10.879
Veera	-10.879
olympialaisi	-10.8791
▁aukkoj	-10.8792
▁kokeellis	-10.8793
matkoj	-10.8796
Maksa	-10.8796
▁Tavalli	-10.8796
▁ranskankiel	-10.8799
▁viidenneks	-10.88
tavaramerki	-10.88
▁miellet	-10.8801
▁kaduill	-10.8802
▁sijoituks	-10.8804
▁tilastoj	-10.8805
työttömyyttä	-10.8807
▁Maailmantalou	-10.8807
▁rajoj	-10.8808
▁ahdist	-10.8809
▁Aiemmi	-10.881
▁viihd	-10.8814
▁Miele	-10.8814
Vasemmistoliitto	-10.8815
▁maksullis	-10.8816
▁Hallitu	-10.8819
▁Keskeis	-10.8819
▁maistel	-10.882
nuoriso	-10.8823
hakijoi	-10.8825
▁Venukse	-10.8826
utomaatt	-10.8828
ruhtinaskun	-10.8831
▁velkaantun	-10.8835
leikkauksi	-10.8837
▁kuninkaallist	-10.8839
▁kiinnostunei	-10.8842
▁senaatt	-10.8843
▁vilk	-10.8851
▁käsitelt	-10.8856
▁eräänlai	-10.8858
▁maisem	-10.8864
▁laajemmi	-10.8879
▁koneell	-10.8911
puhelin	-10.8913
äestö	-10.8915
kyyti	-10.8948
iihen	-10.8981
▁Velk	-10.8985
vaurio	-10.8987
toiminno	-10.8991
▁keskeytt	-10.9003
▁ilmoituks	-10.9009
perustelu	-10.9041
▁Useimm	-10.9064
▁nostett	-10.9092
▁Const	-10.9113
arnak	-10.9128
evyt	-10.913
ehdotuks	-10.9179
▁seksuaalisest	-10.9195
▁sosiaalisest	-10.9282
epäily	-10.9344
ärven	-10.936
titalousvähennys	-10.9366
▁illall	-10.9616
suomalaist	-10.9661
liikkeellä	-10.9664
▁loppuvuode	-10.9668
▁valmistukses	-10.9672
▁miljoonakaupun	-10.9712
▁vanhoj	-10.9712
▁biodiversiteet	-10.9756
▁lähtökoh	-10.9765
▁Satakun	-10.9772
lennolla	-10.9797
▁saksalai	-10.9974
▁kesätöi	-11.0059
oikeistolai	-11.0286
▁säännöks	-11.0354
▁seuraukse	-11.038
oolipeli	-11.0508
ohjauksessa	-11.0596
▁perustutkimu	-11.0651
ierailuluenno	-11.0837
▁Tampere	-11.0838
▁edellis	-11.0987
juoksi	-11.1083
▁lauantai	-11.1089
uudistuks	-11.1144
ikeustieteellise	-11.1209
▁Brasilia	-11.1277
äkymät	-11.1517
▁mustasukkai	-11.1535
Ä	-11.1593
professori	-11.1605
▁opiskeli	-11.1733
äytössä	-11.1738
ruoho	-11.176
▁huolimatt	-11.1779
menetelmi	-11.1851
korotuks	-11.1884
lähtöä	-11.1885
▁isännöin	-11.1915
▁arvoj	-11.194
katsom	-11.1959
▁yhdist	-11.1963
yytyväis	-11.1972
ansanedustaja	-11.1978
▁keskiviikko	-11.2077
▁jääkiek	-11.2085
▁gambiit	-11.2088
enaattori	-11.2105
elevisio	-11.2106
▁risteil	-11.211
kuljetuks	-11.2112
▁rautatie	-11.2114
sopimuksi	-11.2115
ά	-11.2115
aksuhäiriömerkin	-11.2115
analyytikko	-11.2115
budjeti	-11.2115
ytointitapahtuma	-11.2115
▁Luonnontiete	-11.2115
▁Projekti	-11.2115
▁Yandex	-11.2115
▁ainutlaatui	-11.2115
▁cosplay	-11.2115
▁kierrätet	-11.2115
▁mineraali	-11.2115
▁näppäimistö	-11.2115
▁pioneeri	-11.2115
▁propaganda	-11.2115
#	-11.2115
-35:	-11.2115
1.1.20	-11.2115
Bulgaria	-11.2115
Seelanti	-11.2115
acebook	-11.2115
bakteeri	-11.2115
barometri	-11.2115
bloggaaj	-11.2115
erneenverso	-11.2115
ingattarenpäivä	-11.2115
juustoraastetta	-11.2115
konsepti	-11.2115
koordinaattori	-11.2115
kuvernööri	-11.2115
latform	-11.2115
liberalis	-11.2115
luonnontieteelli	-11.2115
ntervalliajasti	-11.2115
oguusilais	-11.2115
operaatio	-11.2115
päoikeudenmukais	-11.2115
strategia	-11.2115
säveltäjä	-11.2115
tiedekilpailu	-11.2115
tšagatai	-11.2115
vakausvälinee	-11.2115
velvollisuude	-11.2115
ylimielisyydestä	-11.2115
ysähdy	-11.2115
à	-11.2115
ähtävyyksi	-11.2115
äpimurto	-11.2115
ν	-11.2115
ο	-11.2115
А	-11.2115
“	-11.2115
⁄	-11.2115
▁Accenture	-11.2115
▁Adarnase	-11.2115
▁Adventure	-11.2115
▁Blackburn	-11.2115
▁Ehdollise	-11.2115
▁Filosofi	-11.2115
▁Hampshire	-11.2115
▁Inglés	-11.2115
▁Israeli	-11.2115
▁Jatkosoda	-11.2115
▁Joukkoraiska	-11.2115
▁Jälkimmäi	-11.2115
▁Kasvu	-11.2115
▁Kovddoskaisi	-11.2115
▁Kulttuuri	-11.2115
▁Kummelskäri	-11.2115
▁Kuninkaallis	-11.2115
▁Lamborghini	-11.2115
▁Laskeutu	-11.2115
▁Liikennepaik	-11.2115
▁Liikevaihto	-11.2115
▁Mattighofen	-11.2115
▁Museovirasto	-11.2115
▁Määrä	-11.2115
▁Neurosi	-11.2115
▁PALTA	-11.2115
▁Pakettiauto	-11.2115
▁Risperdal	-11.2115
▁Ruisrock	-11.2115
▁Sijoittaj	-11.2115
▁Sisäpiirikauppa	-11.2115
▁Snacks	-11.2115
▁Spiegel	-11.2115
▁Syksy	-11.2115
▁Tennessees	-11.2115
▁Ukraina	-11.2115
▁Viirupallokala	-11.2115
▁Viranomais	-11.2115
▁Wetherby	-11.2115
▁akateemis	-11.2115
▁asianmukais	-11.2115
▁bittorrent	-11.2115
▁diktaattori	-11.2115
▁diktatuur	-11.2115
▁epäluulois	-11.2115
▁epäselvä	-11.2115
▁erektio	-11.2115
▁espanjalaisi	-11.2115
▁etusivu	-11.2115
▁eurovaaliehdokk	-11.2115
▁filosofe	-11.2115
▁globaali	-11.2115
▁hallitsijasuku	-11.2115
▁hermostunee	-11.2115
▁hiilimonoksidi	-11.2115
▁hämmästy	-11.2115
▁ilmastonmuuto	-11.2115
▁instrument	-11.2115
▁jauheliha	-11.2115
▁kasvuvauhti	-11.2115
▁kreviini	-11.2115
▁kristinusko	-11.2115
▁kristitty	-11.2115
▁kriteeri	-11.2115
▁kuljettanee	-11.2115
▁käyttöliittymä	-11.2115
▁köyhi	-11.2115
▁laiminlyö	-11.2115
▁ligniini	-11.2115
▁liikekiinteistö	-11.2115
▁lintuinfluenssa	-11.2115
▁luottoluokittaj	-11.2115
▁lähdettyä	-11.2115
▁lääkitys	-11.2115
▁maahanmuutto	-11.2115
▁miljooni	-11.2115
▁negatiivise	-11.2115
▁paritusepäily	-11.2115
▁pettymy	-11.2115
▁poikkeuksellise	-11.2115
▁ponnistelu	-11.2115
▁potilasohjaus	-11.2115
▁projekteis	-11.2115
▁psykologi	-11.2115
▁pätevöity	-11.2115
▁rantautumispaik	-11.2115
▁republikaani	-11.2115
▁rouhittu	-11.2115
▁rouhitu	-11.2115
▁ruskistu	-11.2115
▁räpyttel	-11.2115
▁sairaanhoitaja	-11.2115
▁sananvapau	-11.2115
▁savukranaat	-11.2115
▁sidosryhmi	-11.2115
▁sormisuola	-11.2115
▁strategise	-11.2115
▁taloudenpito	-11.2115
▁tarinoita	-11.2115
▁tietämys	-11.2115
▁tähtäime	-11.2115
▁varainhankinta	-11.2115
▁vastustuskyky	-11.2115
▁velkasuohon	-11.2115
▁vertaisverk	-11.2115
▁visualisointeja	-11.2115
▁ylläpito	-11.2115
▁ympäröivä	-11.2115
▁älymystönais	-11.2115
島	-11.2115
魚	-11.2115
aatutkaluotauksi	-11.2115
jogurt	-11.2115
kulttuureis	-11.2115
kustantamo	-11.2115
pyynnö	-11.2115
sbanken	-11.2115
symboli	-11.2115
vallankumoukse	-11.2115
ympyrä	-11.2115
▁Anderss	-11.2115
▁Antibioot	-11.2115
▁Artikkeli	-11.2115
▁Bäckman	-11.2115
▁Canalys	-11.2115
▁Diàoyútái	-11.2115
▁Elliott	-11.2115
▁Friday	-11.2115
▁Gordiokse	-11.2115
▁Irlanni	-11.2115
▁Kiinnostu	-11.2115
▁Latinalaise	-11.2115
▁Management	-11.2115
▁Renault	-11.2115
▁SLJY	-11.2115
▁Salakosk	-11.2115
▁Salanterä	-11.2115
▁Stepanoz	-11.2115
▁TUCS	-11.2115
▁asiantuntijoi	-11.2115
▁delegoi	-11.2115
▁epätoivo	-11.2115
▁euribor	-11.2115
▁genetii	-11.2115
▁imperiumi	-11.2115
▁infrastruktuuri	-11.2115
▁inhimillis	-11.2115
▁kalenteri	-11.2115
▁kuningattar	-11.2115
▁käytännöllis	-11.2115
▁logistiikka	-11.2115
▁modernismi	-11.2115
▁motocross	-11.2115
▁neutraal	-11.2115
▁omakotitalo	-11.2115
▁periaate	-11.2115
▁ruokamellakoi	-11.2115
▁sienisalaatti	-11.2115
▁sosialist	-11.2115
▁soveltamisala	-11.2115
▁taivutusluokki	-11.2115
▁tekstieditor	-11.2115
erehdyt	-11.2115
erenkulku	-11.2115
veitsiläis	-11.2115
▁Antifas	-11.2115
▁Backlink	-11.2115
▁Biodiversit	-11.2115
▁Delilah	-11.2115
▁ERVV	-11.2115
▁Haudonta	-11.2115
▁Heinäkuu	-11.2115
▁Huhtikuu	-11.2115
▁Kreviini	-11.2115
▁Madrid	-11.2115
▁Ngā	-11.2115
▁Oxford	-11.2115
▁United	-11.2115
▁Vihreä	-11.2115
▁cathode	-11.2115
▁hehtaari	-11.2115
▁hyvinvoinni	-11.2115
▁ihastu	-11.2115
▁ihmiskauppa	-11.2115
▁innovaatioi	-11.2115
▁kunnallisvaal	-11.2115
▁luennoitsija	-11.2115
▁lämpiäv	-11.2115
▁ohjelmanumeroi	-11.2115
▁porvari	-11.2115
▁pujottelu	-11.2115
▁rannikko	-11.2115
▁realisoi	-11.2115
▁valloituksi	-11.2115
▁yhdy	-11.2115
釣	-11.2115
kynnykse	-11.2115
pistooli	-11.2115
reaktio	-11.2115
▁RIM	-11.2115
▁Vilske	-11.2115
▁halloumi	-11.2115
▁heikken	-11.2115
▁kiihkeä	-11.2115
▁metalliesinee	-11.2115
▁piispainkokou	-11.2115
▁päällimmäise	-11.2115
▁rekisteri	-11.2115
▁viisumi	-11.2115
bruttokansantuot	-11.2115
graph	-11.2115
ohukais	-11.2115
tynnyri	-11.2115
ämökkikiinteistö	-11.2115
ō	-11.2115
о	-11.2115
▁Alankoma	-11.2115
▁Bluesi	-11.2115
▁Company	-11.2115
▁Galatia	-11.2115
▁Kunmingi	-11.2115
▁Menesty	-11.2115
▁Tärkeim	-11.2115
▁UMP	-11.2115
▁asianomais	-11.2115
▁hyvinvointi	-11.2115
▁jyrkk	-11.2115
▁loukkaantu	-11.2115
▁pidempää	-11.2115
▁riehu	-11.2115
▁rikollisuu	-11.2115
▁säännellä	-11.2115
▁vauhdi	-11.2115
oteutetu	-11.2115
▁Baldato	-11.2115
▁Komitea	-11.2115
▁alimmill	-11.2115
▁kohtuu	-11.2115
lausunto	-11.2115
yhdistelmä	-11.2115
▁Kuningas	-11.2115
▁Sastamala	-11.2115
▁vadelm	-11.2115
hämärä	-11.2115
▁ehkäisevä	-11.2115
▁erikoiskokee	-11.2115
▁lähistöl	-11.2115
ISS	-11.2115
fasismi	-11.2115
kelaattej	-11.2115
resept	-11.2115
▁Innova	-11.2115
▁huipu	-11.2115
▁kaappasi	-11.2115
▁käytettävi	-11.2115
▁paheksu	-11.2115
▁talouskasvu	-11.2115
▁aikomuks	-11.2115
▁ohjauskorkoj	-11.2115
▁ravinno	-11.2115
▁farma	-11.2115
▁päätöksenteo	-11.2115
▁saippua	-11.2115
▁Ahtisaar	-11.2115
▁Handel	-11.2115
▁Sinope	-11.2115
▁kuntaliitost	-11.2115
▁ruskei	-11.2115
▁niemimaa	-11.2115
▁noudatett	-11.2115
в	-11.2115
▁Kävelyrei	-11.2115
▁pitkäkestoi	-11.2115
▁yksinkertaisest	-11.2115
▁Tallink	-11.2115
kapinallis	-11.2115
ollantilaise	-11.2115
▁planeeta	-11.2115
mantereel	-11.2115
▁terveyt	-11.2115
varainminister	-11.2115
unakaarti	-11.2115
▁Ratkais	-11.2115
▁seurue	-11.2115
▁tultua	-11.2115
▁annokse	-11.2115
Seelanni	-11.2115
▁Chrestu	-11.2115
▁suomenkielise	-11.2115
▁year	-11.2115
▁Ahteri	-11.2115
▁positiivise	-11.2115
▁vangit	-11.2115
▁levottom	-11.2115
▁uskonnolli	-11.2115
▁Osakekoht	-11.2115
▁Poutiai	-11.2115
cycl	-11.2115
▁epätavallis	-11.2115
▁laivoj	-11.2115
jalostamo	-11.2115
▁haastatell	-11.2115
käytäntö	-11.2115
▁Lokakuus	-11.2115
▁Ruskist	-11.2115
▁suunnitellu	-11.2115
▁haastatelt	-11.2115
tehdas	-11.2115
▁purkautu	-11.2115
▁Tilaisuude	-11.2115
▁keskustelem	-11.2115
▁ohjelmistoj	-11.2115
▁Velkaantun	-11.2115
▁valtionvelk	-11.2116
▁terass	-11.2116
▁tarkistukse	-11.2116
▁opettaji	-11.2116
▁kilpaill	-11.2116
kelpois	-11.2116
▁vantaalai	-11.2116
▁yrittäjyy	-11.2116
▁kemialli	-11.2116
▁panokse	-11.2116
▁ulkomaalai	-11.2116
▁lennonjohtaj	-11.2116
matkatavaroi	-11.2117
sarjois	-11.2117
▁merivartio	-11.2117
▁henkilötietoj	-11.2117
▁ojennukse	-11.2117
▁onnistuneest	-11.2117
▁tiputt	-11.2117
▁julma	-11.2117
huonekalu	-11.2117
▁prototyyp	-11.2117
▁tinkimä	-11.2118
▁katkais	-11.2118
▁välittänee	-11.2118
▁Turnaukse	-11.2118
oitsija	-11.2119
▁jälkeläis	-11.212
▁poikkeav	-11.212
▁autonvalmistaj	-11.212
yntymäpäivä	-11.212
▁rintamal	-11.212
tipendi	-11.2121
θ	-11.7115
č	-11.7115
<	-11.7115
«	-11.7115
±	-11.7115
è	-11.7115
́	-11.7115
α	-11.7115
δ	-11.7115
ε	-11.7115
ό	-11.7115
р	-11.7115
х	-11.7115
ი	-11.7115
ო	-11.7115
ר	-11.7115
ь	-11.7115
"	-12.6646
台	-12.7092
ḥ	-12.7093
ر	-12.7094
ا	-12.7095
ր	-12.7096
ա	-12.7097
С	-12.7098
τ	-12.7099
Δ	-12.71
ë	-12.7101
Ö	-12.7102
Š	-12.7103
ņ	-12.7104
ū	-12.7105
|	-12.7106
ž	-12.7107
ü	-12.7108
Q	-12.7109
Å	-12.711
Z	-12.7111
%	-12.7112
;	-12.7113
”	-12.7114
н	-12.7114
ა	-12.7114
Λ	-12.7114
σ	-12.7114
ч	-12.7114
я	-12.7114
@	-12.7115
ł	-12.7115
$	-12.7115
=	-12.7115
~	-12.7115
®	-12.7115
À	-12.7115
Á	-12.7115
É	-12.7115
Î	-12.7115
×	-12.7115
ã	-12.7115
ç	-12.7115
ú	-12.7115
ć	-12.7115
ğ	-12.7115
ī	-12.7115
ı	-12.7115
ń	-12.7115
ř	-12.7115
ş	-12.7115
Ž	-12.7115
ǎ	-12.7115
Μ	-12.7115
έ	-12.7115
η	-12.7115
κ	-12.7115
μ	-12.7115
υ	-12.7115
ω	-12.7115
Б	-12.7115
Н	-12.7115
б	-12.7115
г	-12.7115
д	-12.7115
ж	-12.7115
з	-12.7115
и	-12.7115
й	-12.7115
к	-12.7115
м	-12.7115
с	-12.7115
у	-12.7115
ц	-12.7115
ш	-12.7115
щ	-12.7115
ъ	-12.7115
э	-12.7115
ю	-12.7115
ё	-12.7115
տ	-12.7115
ט	-12.7115
ت	-12.7115
ვ	-12.7115
ნ	-12.7115
რ	-12.7115
ს	-12.7115
ხ	-12.7115
群	-12.7115
諸	-12.7115
魏	-12.7115
ā	-12.7115
閣	-12.7115
Ε	-12.7115
π	-12.7115
א	-12.7115
ὐ	-12.7115
尖	-12.7115
,	-12.7115
п	-12.7115
ф	-12.7115
ы	-12.7115
Ա	-12.7115
آ	-12.7115
