<unk>	0
<s>	0
</s>	0
▁	-2.59442
▁a	-3.20063
,	-3.21206
▁.	-3.69832
i	-3.77914
t	-3.87674
▁az	-4.14288
a	-4.684
▁A	-4.71036
▁és	-4.81423
ban	-4.9405
▁is	-4.99682
n	-5.00312
en	-5.02083
ben	-5.02973
k	-5.03855
▁hogy	-5.12104
e	-5.13073
—	-5.14241
-	-5.14454
nak	-5.20216
nek	-5.25032
▁nem	-5.43143
▁"	-5.51416
▁egy	-5.57666
ra	-5.57694
re	-5.5858
▁meg	-5.59143
an	-5.62921
ott	-5.63002
ik	-5.72614
ja	-5.72664
▁Az	-5.73103
▁s	-5.75636
ek	-5.77211
et	-5.8205
ok	-5.83949
on	-5.84778
▁el	-5.97812
▁ez	-5.9847
:	-6.03861
s	-6.0548
os	-6.06915
ni	-6.09995
ett	-6.11174
ó	-6.1479
ig	-6.15456
ért	-6.18083
▁ki	-6.18301
▁már	-6.19573
ő	-6.21215
át	-6.26967
m	-6.27401
▁de	-6.29436
ák	-6.29583
é	-6.31592
▁volt	-6.32519
á	-6.32658
▁ha	-6.34336
es	-6.34771
.	-6.35166
▁még	-6.3681
ű	-6.38165
▁csak	-6.3903
l	-6.42652
▁amely	-6.43222
▁szerint	-6.43534
ól	-6.45353
ak	-6.45715
▁mint	-6.46441
at	-6.47509
▁két	-6.49475
▁év	-6.5111
▁ami	-6.53259
▁fel	-6.54049
▁mi	-6.55857
vel	-6.5885
ét	-6.58998
▁kell	-6.61003
ként	-6.61156
ta	-6.6368
án	-6.6474
▁több	-6.6574
(	-6.69162
▁)	-6.69162
▁azt	-6.69897
▁aki	-6.71722
hoz	-6.71853
▁sem	-6.72279
ot	-6.72926
▁K	-6.73455
▁magyar	-6.74432
va	-6.7463
ől	-6.76106
▁nagy	-6.76153
ről	-6.78147
b	-6.7901
▁van	-6.79725
is	-6.80899
▁be	-6.83171
em	-6.84442
▁ugyan	-6.87384
▁után	-6.91125
▁millió	-6.91757
▁ped	-6.92296
ú	-6.94242
te	-6.94481
ul	-6.94612
▁állam	-6.94732
▁között	-6.95074
val	-6.96537
ás	-6.96997
▁S	-6.98306
er	-6.99202
▁milliárd	-7.00969
▁gazdaság	-7.02488
ról	-7.03417
kor	-7.03715
▁kormány	-7.0436
gy	-7.04561
▁forint	-7.06936
▁minden	-7.07184
▁egyik	-7.086
já	-7.08692
▁leg	-7.09421
ár	-7.09448
ták	-7.10024
▁első	-7.10325
▁ellen	-7.10434
okat	-7.11242
ai	-7.12471
▁mind	-7.12715
▁B	-7.13002
ének	-7.13269
▁M	-7.14077
óta	-7.14661
▁E	-7.14959
tak	-7.15383
▁szerb	-7.1563
leg	-7.16887
▁orosz	-7.18018
ség	-7.1894
ül	-7.20862
▁R	-7.21831
▁ma	-7.22952
▁lehet	-7.23179
z	-7.23246
nem	-7.23488
ük	-7.24306
▁le	-7.24672
▁majd	-7.24839
▁akkor	-7.25678
én	-7.25936
▁I	-7.26136
ték	-7.26253
▁T	-7.26268
tól	-7.26927
▁k	-7.27388
d	-7.2792
hez	-7.28835
▁most	-7.2889
▁át	-7.29275
ve	-7.2956
kal	-7.29652
▁azon	-7.29778
▁fő	-7.30117
▁élet	-7.32305
▁új	-7.32517
▁Ez	-7.32739
▁cím	-7.33006
be	-7.33708
▁oly	-7.34056
uk	-7.34331
je	-7.35453
y	-7.35878
▁L	-7.37096
▁hét	-7.37412
ék	-7.37971
egy	-7.38832
unk	-7.39773
▁elnök	-7.40334
ba	-7.40652
ság	-7.41499
▁G	-7.41646
▁cseh	-7.41904
▁b	-7.42661
▁kerül	-7.42813
▁által	-7.42834
és	-7.43553
▁út	-7.43574
hat	-7.44209
▁nap	-7.4542
▁szám	-7.45605
▁f	-7.46194
▁vagy	-7.46342
kat	-7.46738
▁jövő	-7.46886
▁nemzet	-7.47025
▁évek	-7.47839
▁ember	-7.49053
o	-7.50538
j	-7.50844
▁jó	-7.51542
▁parlament	-7.51661
fontos	-7.51772
▁politika	-7.51898
ére	-7.52177
▁idő	-7.52534
abb	-7.5265
ebb	-7.52919
▁m	-7.5303
▁hó	-7.53133
▁elő	-7.53739
nnak	-7.54465
rra	-7.54524
▁dollár	-7.56924
▁cég	-7.56979
▁miatt	-7.57182
▁török	-7.5722
▁mert	-7.57483
▁előtt	-7.59511
▁százalék	-7.60119
csak	-7.60718
▁tud	-7.61009
▁tovább	-7.62484
▁hisze	-7.62508
▁világ	-7.62711
▁lesz	-7.64762
hol	-7.65158
5	-7.66914
het	-7.67845
▁?	-7.68362
▁Magyarország	-7.68669
▁mellett	-7.69001
▁hivatal	-7.69141
▁úgy	-7.69631
▁más	-7.70095
▁H	-7.70202
től	-7.70368
▁P	-7.7099
al	-7.71013
vő	-7.71073
ám	-7.71433
ikus	-7.72093
▁c	-7.72623
ország	-7.73313
tam	-7.73598
eket	-7.73627
na	-7.74177
sz	-7.74179
▁példá	-7.74579
▁nincs	-7.7462
as	-7.74642
▁mely	-7.74658
▁F	-7.74772
▁V	-7.75094
▁három	-7.75433
r	-7.76408
▁köz	-7.77023
▁Ha	-7.77057
nyi	-7.77498
tek	-7.78317
▁város	-7.79028
nagyobb	-7.80155
ása	-7.80402
kel	-7.81104
oszovó	-7.8116
▁U	-7.81278
▁tartomány	-7.81279
▁Kft	-7.81282
▁utóbbi	-7.81383
▁múlt	-7.82628
g	-7.82867
közi	-7.83078
ött	-7.83179
bb	-7.83968
▁él	-7.84223
nél	-7.8648
▁Budapest	-7.86483
őt	-7.86597
▁számá	-7.86623
▁sok	-7.86912
us	-7.87084
▁fog	-7.87143
▁valami	-7.87472
▁szlovák	-7.88127
▁földrengés	-7.88421
▁épp	-7.88425
▁Ján	-7.88467
▁párt	-7.88666
▁össze	-7.88867
▁kiállítás	-7.90058
▁főváros	-7.9049
▁sz	-7.90673
▁akik	-7.91002
alatt	-7.911
etlen	-7.91373
▁1	-7.92326
ani	-7.92733
juk	-7.92969
cs	-7.9331
ket	-7.93525
▁30	-7.9454
sor	-7.9474
▁szeret	-7.95013
ök	-7.95091
▁szép	-7.95441
▁rendszer	-7.95569
▁okoz	-7.96011
hány	-7.96133
▁helyzet	-7.96151
▁négy	-7.96189
▁albánok	-7.96196
▁Koszovó	-7.96251
▁jog	-7.96487
ját	-7.96955
▁tíz	-7.97141
▁belül	-7.97143
eg	-7.97432
álló	-7.97477
▁rá	-7.97513
▁ő	-7.9801
h	-7.98059
▁mond	-7.9907
dig	-7.99172
v	-7.99784
▁kap	-8.0027
él	-8.00448
▁semmi	-8.00581
▁ad	-8.00778
it	-8.0086
▁szerbek	-8.01013
▁egész	-8.02542
▁Egy	-8.02785
ését	-8.03319
köz	-8.03671
f	-8.04351
▁túl	-8.04429
▁illet	-8.04435
▁ENSZ	-8.04447
▁várható	-8.04461
▁hozzá	-8.04491
▁követő	-8.04492
▁korább	-8.04509
▁Nem	-8.04523
▁magas	-8.04744
▁Pe	-8.04815
zel	-8.04847
▁10	-8.04861
▁viszony	-8.0494
el	-8.04949
sal	-8.05237
▁Mi	-8.05422
▁külön	-8.05477
M	-8.05598
▁í	-8.05861
▁megye	-8.05908
▁ország	-8.06188
nál	-8.06236
▁kis	-8.06587
▁történ	-8.0723
00	-8.08245
▁2	-8.08519
▁Ma	-8.08975
▁ilyen	-8.0916
▁vezető	-8.09661
▁tavaly	-8.11003
▁vált	-8.11263
▁teljes	-8.11293
▁éve	-8.11515
nap	-8.12744
▁hely	-8.13002
▁alap	-8.13459
▁viszon	-8.1349
▁Dubcek	-8.13538
▁Ferenc	-8.13538
▁hasonló	-8.13538
▁SPD	-8.13541
▁miniszterelnök	-8.13543
▁dél	-8.13545
▁látható	-8.13557
▁kormányfő	-8.13562
▁végé	-8.13572
▁hónap	-8.13594
▁egyszer	-8.13612
▁közül	-8.13655
▁német	-8.1377
▁család	-8.13997
né	-8.14063
▁másik	-8.14082
▁dolgoz	-8.14098
▁előadás	-8.14102
ször	-8.14478
▁együtt	-8.14576
0	-8.14977
▁mondta	-8.15579
után	-8.15783
▁feladat	-8.15869
ára	-8.15902
▁szól	-8.16239
▁bank	-8.16685
sége	-8.16853
az	-8.17144
▁kérdés	-8.17261
▁készült	-8.17535
▁ezek	-8.18346
▁elejé	-8.18508
vé	-8.19016
▁ír	-8.19588
▁szem	-8.1996
tette	-8.20599
▁En	-8.21013
▁arr	-8.21471
za	-8.21899
▁közös	-8.22243
▁sor	-8.22978
ing	-8.23195
áb	-8.23267
▁kor	-8.23372
▁szabad	-8.23475
▁Magyar	-8.23495
Í	-8.23538
▁EU	-8.23538
▁orvos	-8.23538
▁kíván	-8.23538
▁legalább	-8.23542
▁legyen	-8.23561
▁maga	-8.23725
▁jegyz	-8.23733
ján	-8.23916
▁nyelv	-8.24034
▁színpad	-8.24037
ünk	-8.24193
▁né	-8.24278
▁C	-8.24622
ös	-8.24639
lag	-8.2483
▁terv	-8.25064
▁este	-8.25127
▁vezetőj	-8.25595
▁pénz	-8.25813
▁haza	-8.25995
▁fél	-8.26121
om	-8.26276
ésé	-8.26353
F	-8.2648
▁anyag	-8.26717
▁nyom	-8.28471
secsen	-8.28859
▁rész	-8.2896
▁siker	-8.28979
elő	-8.29077
▁egyes	-8.29201
▁D	-8.29339
bban	-8.29446
▁g	-8.29462
▁törvény	-8.29646
▁többség	-8.29877
ény	-8.29978
▁lév	-8.30191
eni	-8.30192
▁részt	-8.30691
▁tagja	-8.31672
▁szó	-8.31804
▁település	-8.32044
ink	-8.32109
▁képviselő	-8.32145
▁Tit	-8.3219
▁Sz	-8.33235
▁vol	-8.33373
▁kör	-8.3355
▁p	-8.33559
rsze	-8.33782
zó	-8.33797
dik	-8.34081
▁munka	-8.34636
▁szakértő	-8.34651
▁egymás	-8.34668
▁jelentős	-8.34673
▁körül	-8.34724
▁jelenleg	-8.34725
képp	-8.34732
▁szerdá	-8.3474
enek	-8.3485
▁lép	-8.34886
▁egyéb	-8.34887
▁működ	-8.349
▁jól	-8.35156
▁film	-8.35211
▁hatalom	-8.35216
ny	-8.35231
▁É	-8.3524
▁marad	-8.35269
ható	-8.35446
▁csökkent	-8.35585
emberek	-8.35728
▁újra	-8.35754
▁szemben	-8.35995
▁ismert	-8.36018
▁6	-8.36049
ck	-8.36217
▁bár	-8.36359
ad	-8.37131
▁közel	-8.37232
vá	-8.37293
csk	-8.37355
lenne	-8.37465
6	-8.37826
▁való	-8.38142
▁idé	-8.38157
▁sí	-8.38263
▁lát	-8.3838
oldal	-8.38454
gazdaság	-8.39255
mint	-8.39945
▁N	-8.39983
▁Köz	-8.40293
or	-8.40629
íg	-8.40668
mel	-8.41109
ók	-8.41174
▁jelen	-8.41374
tag	-8.417
▁készül	-8.42072
▁19	-8.42139
▁vissza	-8.42381
▁W	-8.42642
2	-8.43416
▁erő	-8.43926
▁hiány	-8.44746
▁És	-8.46305
heti	-8.46564
tel	-8.46603
▁lehető	-8.46812
ást	-8.47042
elmúlt	-8.47099
▁bal	-8.47103
▁HVG	-8.47149
▁gyors	-8.47149
▁alkotmány	-8.47149
▁hajlandó	-8.4715
▁Törökország	-8.47152
▁ideiglenes	-8.47162
▁szeptember	-8.47176
▁államfő	-8.47187
▁hivatkoz	-8.4719
▁ezelőtt	-8.47359
hosszabb	-8.47478
▁Európa	-8.4751
▁lett	-8.47513
▁ismét	-8.47558
▁hatóságok	-8.47587
ame	-8.47721
ha	-8.47881
▁akar	-8.47964
▁hír	-8.47964
D	-8.47983
▁választások	-8.48067
▁lehetőség	-8.48291
▁Meg	-8.48307
▁képes	-8.48443
▁40	-8.48845
rel	-8.4901
nal	-8.49178
▁száz	-8.49372
si	-8.49414
▁igaz	-8.49479
▁társaság	-8.498
▁alapj	-8.49973
▁e	-8.50466
▁szavak	-8.50492
▁következ	-8.52225
▁szerepe	-8.5224
.-	-8.5247
▁szinte	-8.53027
vált	-8.53229
▁vál	-8.53295
▁ebb	-8.53498
▁imm	-8.53655
▁teszi	-8.53679
▁gondol	-8.54116
imi	-8.54875
▁hoz	-8.55713
▁zár	-8.56076
tív	-8.56084
szer	-8.56113
▁folytat	-8.56211
őket	-8.56895
um	-8.57089
ház	-8.57252
ön	-8.57513
ése	-8.57525
▁áll	-8.57536
▁jelentett	-8.57561
▁zené	-8.57988
▁tart	-8.58128
▁nélkül	-8.58804
▁szín	-8.58893
▁erős	-8.58897
▁pe	-8.58906
▁Ho	-8.59345
ol	-8.59523
▁tett	-8.59887
p	-8.59898
▁Ja	-8.60149
▁érdek	-8.6057
▁néz	-8.60776
u	-8.60841
me	-8.60946
▁formá	-8.61015
▁lehetet	-8.6114
▁saját	-8.61174
▁teh	-8.6118
▁Ami	-8.61225
▁vár	-8.61322
▁Ú	-8.61377
▁11	-8.61425
▁nyolc	-8.61435
;	-8.61435
▁Orbán	-8.61435
▁infláció	-8.61435
▁november	-8.61435
▁közvetlen	-8.61435
▁levél	-8.61435
▁csup	-8.61435
oszkva	-8.61437
▁Péter	-8.61438
▁rendkívül	-8.61441
▁megérkez	-8.61441
▁Mert	-8.61447
▁maguk	-8.61453
▁köztársaság	-8.61491
▁folyamatos	-8.61492
méter	-8.61492
▁katona	-8.61494
hard	-8.61513
▁cél	-8.6152
ktor	-8.61571
▁vas	-8.6158
talán	-8.61604
pal	-8.61629
▁lakos	-8.61983
▁sikerül	-8.62072
am	-8.62091
▁háború	-8.62183
▁olaj	-8.62183
▁idejé	-8.62273
▁jut	-8.62305
ód	-8.62332
▁pontos	-8.62395
▁élő	-8.62462
og	-8.62471
▁író	-8.62703
▁alá	-8.62933
▁eddigi	-8.63181
▁per	-8.63484
▁indul	-8.63511
▁felé	-8.63569
▁ellenzéki	-8.63572
▁tette	-8.63817
▁nagyobb	-8.63982
▁4	-8.64167
▁Ze	-8.64178
▁kelet	-8.64854
▁közlekedés	-8.64902
zsi	-8.64942
▁mű	-8.65031
▁közölt	-8.65059
▁ár	-8.65078
hogy	-8.65235
ügy	-8.65259
ur	-8.65576
lső	-8.65856
▁egykor	-8.65869
▁7	-8.65914
tán	-8.66183
▁oszt	-8.66965
▁írt	-8.67206
▁O	-8.67269
▁kórházba	-8.67608
▁magát	-8.67703
▁ügy	-8.67851
▁tervez	-8.68188
zs	-8.68316
ába	-8.68375
▁magán	-8.68749
▁De	-8.69088
▁állt	-8.69149
V	-8.6928
té	-8.69627
ro	-8.69732
S	-8.69841
▁tanács	-8.69938
előtt	-8.70128
▁vele	-8.7015
részt	-8.70228
▁benne	-8.70503
▁éves	-8.70795
▁ház	-8.70902
▁kapcsolat	-8.71681
ene	-8.71748
ipar	-8.72111
▁szervezet	-8.72416
▁200	-8.72604
ászl	-8.72621
▁3	-8.72766
▁személy	-8.73239
atlan	-8.73283
itt	-8.73433
ítani	-8.74025
▁vesz	-8.74246
▁azok	-8.74289
▁kéz	-8.74696
nt	-8.74822
edett	-8.75154
▁tőke	-8.75453
▁ellenzék	-8.75643
▁embere	-8.75868
kon	-8.75884
▁Ki	-8.75974
áról	-8.76466
▁értelm	-8.77023
▁érték	-8.77111
▁súly	-8.77295
▁1997	-8.77413
▁tartó	-8.77505
ly	-8.77647
ít	-8.77854
▁elég	-8.77874
oha	-8.77889
▁segít	-8.77916
lat	-8.77919
▁férfi	-8.7797
udapesti	-8.78016
ug	-8.78056
▁kész	-8.78088
▁AIDS	-8.78101
▁EBESZ	-8.78101
▁Moszkvába	-8.78101
▁Schröder	-8.78101
▁alapítvány	-8.78101
▁jugoszláv	-8.78101
▁külügyminiszter	-8.78101
▁partizán	-8.78101
▁rövid	-8.78101
▁szovjet	-8.78101
▁testület	-8.78101
▁könny	-8.78102
▁külföld	-8.78103
▁Tudjman	-8.78105
forgalom	-8.78108
▁Svájc	-8.78111
uális	-8.78116
▁érint	-8.78118
▁szövetség	-8.78138
ció	-8.7817
▁mérték	-8.78215
▁természetes	-8.78221
▁megfelelő	-8.78223
▁beruházás	-8.7829
▁vállalatok	-8.78297
▁kedvező	-8.78331
▁újabb	-8.78354
▁kezdőd	-8.78412
gel	-8.78449
▁Ger	-8.78466
ább	-8.78487
▁busz	-8.78531
▁egyszerű	-8.78645
leges	-8.78996
▁megállapodás	-8.79078
ltak	-8.79121
▁magá	-8.7917
▁nő	-8.79173
▁végzet	-8.79204
▁tény	-8.7928
▁történet	-8.79336
▁napok	-8.79346
talan	-8.79682
▁szerepé	-8.7974
ását	-8.80152
c	-8.80233
zer	-8.80316
kán	-8.80359
▁érz	-8.80396
▁baleset	-8.80506
okba	-8.8058
▁színház	-8.80593
adó	-8.80878
▁Mik	-8.80884
▁nyújt	-8.81051
jo	-8.81107
▁20	-8.81234
▁látsz	-8.81299
▁én	-8.81342
ács	-8.81347
▁munká	-8.8183
▁nyugat	-8.82228
▁kérdések	-8.82784
▁jelent	-8.83048
▁vezetői	-8.83102
▁módo	-8.83135
urópa	-8.83415
▁ahogy	-8.83464
▁8	-8.83559
dó	-8.83587
▁helyi	-8.84004
yéb	-8.84106
▁mutat	-8.84542
talált	-8.84758
▁ön	-8.8511
8	-8.85636
▁Hi	-8.85956
ságá	-8.86713
▁százaléká	-8.86773
ce	-8.86775
▁csinál	-8.87003
bé	-8.8708
kezelő	-8.87179
▁hat	-8.87406
van	-8.87654
1-	-8.88215
▁tag	-8.88455
öt	-8.88753
▁autó	-8.89098
milyen	-8.89146
sze	-8.89308
▁szint	-8.8933
▁elej	-8.89565
▁men	-8.8965
K	-8.89727
ső	-8.89805
P	-8.89818
művészet	-8.89919
▁tőké	-8.89924
▁tartott	-8.89925
éves	-8.89995
akon	-8.90002
lehet	-8.90242
da	-8.90982
mos	-8.91127
son	-8.91314
csoport	-8.91508
mat	-8.91599
▁állítj	-8.91833
▁keres	-8.91904
▁helyet	-8.91945
dt	-8.92056
áz	-8.92301
▁számít	-8.92832
éb	-8.93295
mény	-8.93762
▁múl	-8.93892
▁5	-8.94203
sel	-8.94251
▁amelyek	-8.94291
▁növek	-8.94294
akadt	-8.94424
zott	-8.94486
▁vett	-8.94577
▁közötti	-8.94794
kár	-8.94933
sága	-8.94986
ar	-8.95096
▁órá	-8.95219
▁eddig	-8.95652
szik	-8.95759
társ	-8.95783
▁szolgál	-8.9597
▁pár	-8.95983
csi	-8.9602
erre	-8.9616
nemzeti	-8.96483
▁ré	-8.96901
▁beszél	-8.97028
▁produkció	-8.97232
▁fotó	-8.97318
▁olasz	-8.97579
▁tulajdon	-8.97646
endő	-8.97667
▁fogj	-8.97711
▁polgár	-8.97733
hető	-8.97757
▁vállal	-8.97802
▁199	-8.97952
▁érkez	-8.98023
▁Tu	-8.98089
ri	-8.98095
▁Bundes	-8.98101
▁fűtőolaj	-8.98101
▁Kouchner	-8.98101
▁Martonyi	-8.98101
▁bariton	-8.98101
▁bizottság	-8.98101
▁András	-8.98101
▁Bróker	-8.98101
▁Kfor	-8.98101
▁NATO	-8.98101
▁album	-8.98101
▁március	-8.98101
▁napirend	-8.98101
▁segély	-8.98101
▁takarékos	-8.98101
▁teljesítmény	-8.98102
▁korlátoz	-8.98102
▁vezette	-8.98102
▁hiába	-8.98103
▁átmeneti	-8.98103
▁tájékoztat	-8.98104
▁igyekez	-8.98104
▁kedd	-8.98105
▁rossz	-8.98106
▁mögött	-8.98107
▁kezé	-8.98108
▁nehéz	-8.98108
▁másod	-8.98111
▁Cseh	-8.98114
▁1998	-8.98117
▁kizár	-8.98125
▁hatalmas	-8.98128
▁együttműködés	-8.98128
▁köszönhető	-8.9813
▁alkotó	-8.98132
▁alakította	-8.98133
▁hétfő	-8.98144
gal	-8.98147
▁szavazat	-8.98149
▁elfogad	-8.9815
▁támadások	-8.98152
▁helyettesítés	-8.98153
▁lapunk	-8.98157
▁utal	-8.98171
▁2000	-8.98184
▁közelmúlt	-8.98184
kovics	-8.98192
▁válság	-8.98204
▁katasztrófa	-8.98232
▁távol	-8.98238
▁bírálat	-8.98253
▁mindenki	-8.9826
▁alig	-8.98264
▁tevékenység	-8.98273
▁érdeklődők	-8.9828
▁egyesület	-8.98335
▁kerülhet	-8.9834
▁érdekes	-8.98371
▁jelentőség	-8.98383
▁döntés	-8.98388
▁kereté	-8.98413
▁személyes	-8.98431
▁Minden	-8.98458
▁Erst	-8.98495
▁jármű	-8.98598
la	-8.98621
féle	-8.98652
ságosa	-8.98658
vén	-8.98671
▁opera	-8.98724
▁egyház	-8.98736
▁31	-8.98822
▁Nap	-8.98824
▁szület	-8.98911
▁nevez	-8.98912
szel	-8.99069
▁rendőr	-8.99086
▁Ol	-8.99131
▁utas	-8.99205
▁venni	-8.99214
▁árverés	-8.99216
▁június	-8.99217
szlovákia	-8.99217
▁program	-8.99217
▁polgármester	-8.99219
▁szobor	-8.99225
ló	-8.99281
▁Aki	-8.99292
▁jutott	-8.9946
▁hagy	-8.99467
▁érvény	-8.99496
▁egyetem	-8.9951
séges	-8.99543
▁dönt	-8.9979
pr	-8.99813
▁jobb	-8.99854
man	-8.99868
▁neki	-9.00144
▁nev	-9.0024
▁tulajdonosa	-9.00273
▁problémá	-9.00389
▁muzsiká	-9.00421
▁kato	-9.00519
jen	-9.00617
▁voltak	-9.00733
▁akció	-9.00877
tük	-9.01318
má	-9.01341
▁adta	-9.01363
▁mér	-9.01533
▁műfaj	-9.01567
▁ném	-9.01576
▁állapot	-9.01581
▁jelentés	-9.01627
▁sze	-9.01835
▁nevé	-9.02018
méret	-9.0214
yal	-9.02203
▁hangz	-9.02402
▁J	-9.02574
nió	-9.02574
▁művész	-9.02729
4	-9.03159
▁ter	-9.0316
▁hamar	-9.03239
▁barát	-9.03258
nia	-9.03304
▁életé	-9.03739
▁nép	-9.04108
▁Budapesti	-9.04241
▁tavalyi	-9.04295
út	-9.04341
tal	-9.04442
▁könyv	-9.04519
olt	-9.04784
le	-9.04832
▁szociáldemokrat	-9.04849
ájá	-9.05107
▁hiányá	-9.0525
▁Vi	-9.05439
▁Németország	-9.05874
ová	-9.05932
get	-9.06343
bó	-9.06789
▁darab	-9.06927
ította	-9.07121
zociáldemokraták	-9.07212
ir	-9.07234
▁híres	-9.0724
▁El	-9.07304
ők	-9.07309
erő	-9.07484
▁Cs	-9.07656
kus	-9.08203
▁íg	-9.0824
▁törvényt	-9.08285
lásá	-9.08435
▁Re	-9.08574
ut	-9.09147
▁jelentésé	-9.09213
▁biztonság	-9.09383
▁fek	-9.09388
andó	-9.09612
▁Már	-9.10163
▁pr	-9.10198
▁60	-9.10296
▁részé	-9.10823
ép	-9.11142
ros	-9.11177
ond	-9.11275
▁találkoz	-9.11838
szor	-9.11982
▁jár	-9.12111
dal	-9.12164
hatta	-9.12447
7	-9.12502
▁ker	-9.12507
▁hitel	-9.1263
▁foly	-9.13094
▁igazgató	-9.13345
▁táv	-9.13402
pa	-9.13538
tiszt	-9.13598
▁rendőrség	-9.13667
kocsi	-9.13667
▁szak	-9.13707
▁Vol	-9.13969
ális	-9.14045
lom	-9.14097
zon	-9.14108
▁fejlesztés	-9.14149
▁tudn	-9.14276
fél	-9.1439
mond	-9.1458
T	-9.14602
I	-9.14607
ch	-9.14619
zal	-9.1476
▁közönség	-9.14896
anyag	-9.14998
▁adó	-9.15131
▁tervezet	-9.15141
elnök	-9.15209
orosz	-9.15259
E	-9.15366
▁mások	-9.15428
ait	-9.16565
elem	-9.16582
▁neve	-9.16845
▁tör	-9.16857
▁tartj	-9.17049
don	-9.17097
való	-9.17279
▁foglalkoz	-9.17647
▁halál	-9.17679
0-	-9.17731
▁irány	-9.17913
▁vél	-9.18017
által	-9.18592
av	-9.18946
ne	-9.18985
megy	-9.1905
óriá	-9.19152
▁Er	-9.19166
ír	-9.19238
▁növekedés	-9.19452
▁pályá	-9.1953
▁rend	-9.19564
▁arány	-9.19675
▁Szerb	-9.20086
▁kivál	-9.20227
▁szerepel	-9.20308
▁rendez	-9.20325
▁lég	-9.20554
▁kül	-9.20694
ex	-9.20709
▁csökken	-9.20876
▁képe	-9.20879
kre	-9.20978
▁beszéd	-9.21041
9	-9.21105
öz	-9.21196
▁fogyaszt	-9.2127
▁műve	-9.2137
jára	-9.21373
munkás	-9.2157
mes	-9.21645
▁vitá	-9.22296
▁egyed	-9.22336
▁hossz	-9.2243
▁cégek	-9.22457
ca	-9.22488
▁nyilván	-9.22695
▁ellentét	-9.22745
▁albán	-9.22812
▁50	-9.22863
▁ho	-9.22883
▁természet	-9.22915
▁1999	-9.22918
▁hor	-9.22929
ppe	-9.22961
titkár	-9.22981
▁fenntart	-9.23024
▁püspök	-9.2306
▁Egyesül	-9.23075
kívül	-9.2309
▁gyakor	-9.23096
▁koncert	-9.23101
▁Zsolnay	-9.23101
irodák	-9.23101
papír	-9.23101
pénzügyminiszter	-9.23101
Ő	-9.23101
▁!	-9.23101
▁Tarzan	-9.23101
▁Trajkovics	-9.23101
▁csomagterv	-9.23101
▁dzsungel	-9.23101
▁január	-9.23101
▁július	-9.23101
▁szomszéd	-9.23101
▁árbevétel	-9.23101
▁Rezník	-9.23101
▁költségvetés	-9.23101
▁lemez	-9.23101
▁május	-9.23101
▁szorgalmaz	-9.23101
▁kegytárgy	-9.23102
▁sújtott	-9.23102
▁tűzoltók	-9.23102
▁rajzfilm	-9.23102
▁angol	-9.23102
▁ratifikál	-9.23102
▁üres	-9.23102
▁jellemző	-9.23102
▁december	-9.23103
▁napilap	-9.23103
▁lélek	-9.23103
▁Milos	-9.23103
▁rendezvény	-9.23104
▁Orahovac	-9.23105
▁kiadvány	-9.23105
▁Bécs	-9.23107
▁kultúr	-9.23107
▁terhes	-9.23107
▁legutóbb	-9.23108
vidék	-9.23108
▁listá	-9.23108
▁tőkeemelés	-9.23109
▁utol	-9.23111
▁fiatal	-9.23113
rancia	-9.23113
▁kereslet	-9.23113
▁Weltek	-9.23113
▁olvas	-9.23117
▁társadalom	-9.23118
▁nyugdíj	-9.23118
▁szerda	-9.23118
▁Bank	-9.23123
▁közgyűlés	-9.23124
▁levelé	-9.23126
katonák	-9.23127
▁központ	-9.23133
▁végleg	-9.23134
▁véletlen	-9.2314
▁Ikar	-9.23142
lós	-9.23142
▁műtárgy	-9.2315
▁kevese	-9.23151
▁28	-9.23155
▁fegyveresek	-9.23158
▁Fran	-9.2316
hatatlan	-9.23179
▁kamionok	-9.23185
▁nagykövetség	-9.23185
▁...	-9.23189
▁ülésén	-9.23208
▁koroná	-9.23209
▁Akkor	-9.23211
▁tábor	-9.23224
▁körülmények	-9.23226
▁eltelt	-9.23236
▁létre	-9.23238
▁Államok	-9.23242
▁Vesz	-9.23244
▁vehet	-9.2327
▁fizet	-9.23271
▁építész	-9.23276
▁kényszer	-9.23292
▁1999.	-9.23302
▁megkezd	-9.23305
uty	-9.23328
▁ekkor	-9.2333
yan	-9.23331
▁enged	-9.23337
▁tulajdonába	-9.23344
általán	-9.23383
▁Cor	-9.23389
György	-9.234
ord	-9.23404
▁ősz	-9.23405
vető	-9.23433
▁bírál	-9.23473
tart	-9.23558
▁180	-9.23568
állás	-9.23586
▁utaz	-9.23594
▁sajátos	-9.23638
▁17	-9.23663
▁történelm	-9.23749
▁szét	-9.23753
▁szekt	-9.23793
▁kölcsönös	-9.23836
▁legfel	-9.23842
▁Ebb	-9.23961
szen	-9.23964
tenger	-9.24031
tván	-9.24109
ed	-9.24183
▁sokak	-9.24211
▁kialakul	-9.24297
▁nők	-9.24358
▁igen	-9.24378
rák	-9.24433
▁biztos	-9.24504
▁lap	-9.24515
▁nagykövet	-9.24515
ést	-9.24529
▁hős	-9.2454
iskolá	-9.24562
▁konjunktúra	-9.24575
▁szenved	-9.24576
▁export	-9.24577
▁zeneszerző	-9.24579
▁forma	-9.24581
▁veszély	-9.24585
▁tisztelet	-9.24644
▁ajánl	-9.24712
▁szükséges	-9.24738
▁fu	-9.24742
maradás	-9.24758
▁fizetés	-9.24795
▁alakult	-9.248
▁diákok	-9.2489
▁segítségé	-9.24944
▁fény	-9.25026
▁vonat	-9.25046
beli	-9.25049
▁Is	-9.25122
▁Min	-9.25196
atol	-9.25234
▁igazolások	-9.25473
un	-9.25474
tex	-9.25482
▁szív	-9.2561
▁oroszok	-9.25623
▁németek	-9.25638
▁kite	-9.25663
mus	-9.25694
▁légi	-9.2576
▁egyedi	-9.2584
két	-9.2587
közbe	-9.26038
vitás	-9.2629
ppan	-9.26411
ran	-9.26651
hatj	-9.26759
▁nemrég	-9.26772
▁közösség	-9.2682
▁szállít	-9.26845
▁önkén	-9.27038
▁győzel	-9.27057
▁érte	-9.27095
▁tér	-9.271
▁vállalat	-9.27188
▁székhely	-9.27197
▁tanácsadás	-9.27199
▁na	-9.27256
eti	-9.27389
zené	-9.27668
▁márkát	-9.2771
▁növekedésé	-9.27744
▁Kon	-9.27899
ag	-9.27988
kos	-9.28013
▁beteg	-9.28162
▁fal	-9.28205
▁akad	-9.2834
▁Oroszország	-9.28456
▁Le	-9.2847
▁élelm	-9.28518
▁jön	-9.2853
▁Á	-9.28555
▁évtizede	-9.28611
▁halálá	-9.28833
▁határ	-9.28873
▁harco	-9.28995
▁véd	-9.29002
kadémia	-9.29251
ága	-9.29265
▁fogad	-9.2949
▁egészség	-9.29591
▁elmondt	-9.29621
▁rendezés	-9.29849
▁adósság	-9.29967
ém	-9.30433
▁küzd	-9.30773
▁név	-9.30816
▁Kar	-9.31093
napi	-9.31323
▁legke	-9.31369
co	-9.3137
▁járt	-9.31468
intézet	-9.31605
▁3,	-9.31727
▁megjelen	-9.31822
▁Fel	-9.32177
▁lakói	-9.32438
▁nélküli	-9.32471
▁tárgya	-9.32925
▁piac	-9.33026
▁Ka	-9.33132
▁12	-9.33179
▁helyett	-9.33206
▁összeg	-9.33769
sti	-9.33906
▁te	-9.34474
érték	-9.34751
▁igény	-9.34913
▁ide	-9.3505
▁Rá	-9.35118
▁elnökö	-9.3512
▁Ig	-9.35139
▁kaland	-9.35141
rvá	-9.35532
▁bele	-9.35558
se	-9.35596
áció	-9.35741
▁öt	-9.35752
▁kár	-9.35847
rendszer	-9.36029
▁reál	-9.36317
▁művészet	-9.36666
de	-9.3678
▁küld	-9.36791
▁darabok	-9.37118
▁vala	-9.37192
▁énekel	-9.37712
ült	-9.37856
▁kapcsolatok	-9.37931
▁kér	-9.382
▁demokrati	-9.38251
▁cs	-9.38351
▁tudj	-9.38512
gépkocsi	-9.38936
▁ah	-9.39263
▁megmutat	-9.39323
so	-9.39563
▁Lis	-9.39779
lé	-9.39989
szok	-9.40052
1	-9.40172
szobro	-9.40303
▁tudta	-9.40452
hatóság	-9.40886
tra	-9.41076
választás	-9.41342
cla	-9.4154
ások	-9.41605
munká	-9.41619
ss	-9.41655
ult	-9.42107
▁tesz	-9.42192
ánt	-9.425
▁cse	-9.42582
ségéb	-9.42612
arán	-9.42846
dő	-9.42859
mai	-9.4309
só	-9.43185
▁Két	-9.43694
sa	-9.44247
op	-9.4471
évi	-9.45448
▁euró	-9.45589
ette	-9.45607
gor	-9.45868
zerbia	-9.45903
omba	-9.46005
▁sír	-9.4605
ht	-9.46216
ud	-9.46402
nok	-9.46662
művész	-9.46891
sorozat	-9.47104
▁mutatj	-9.47118
fal	-9.47391
adósság	-9.47598
mód	-9.47612
tárgya	-9.47621
▁bíz	-9.47648
Á	-9.47676
▁tetsz	-9.47845
ított	-9.47864
▁lenn	-9.47964
▁80	-9.47967
nyugat	-9.48033
ogh	-9.48137
fő	-9.48213
O	-9.48246
pénz	-9.48274
nyá	-9.48275
adatok	-9.48278
▁Jo	-9.48524
össze	-9.48637
közel	-9.48639
közlekedés	-9.48659
▁tartoz	-9.48698
kormány	-9.48724
helyé	-9.48725
▁lemond	-9.48825
▁számol	-9.49106
bő	-9.49373
név	-9.49396
asztó	-9.49618
▁tartan	-9.49663
▁épít	-9.49667
úgy	-9.49835
meg	-9.49864
▁szava	-9.49892
▁tisztség	-9.49998
▁tonn	-9.50365
kció	-9.51278
ondo	-9.51713
idő	-9.52082
hetetlen	-9.52091
▁Do	-9.52315
tro	-9.52471
inc	-9.52477
kelet	-9.52626
olni	-9.5275
hív	-9.5277
ész	-9.52864
mű	-9.52872
▁tűn	-9.5289
▁kancellár	-9.53002
yei	-9.53121
▁gyakorlat	-9.53189
▁Je	-9.5331
evés	-9.53329
▁évforduló	-9.53469
ze	-9.53472
▁mer	-9.53531
▁fo	-9.53666
▁Vá	-9.5373
▁bizony	-9.53732
let	-9.53794
akkor	-9.53905
▁er	-9.5394
▁buszok	-9.53948
▁vezetés	-9.53981
▁válasz	-9.53988
omo	-9.54036
▁haj	-9.54197
edő	-9.54355
▁ünnep	-9.54412
ségbe	-9.54516
▁tulajdonos	-9.54517
▁Mel	-9.54557
véd	-9.54571
▁győz	-9.54675
torlaszok	-9.54827
eset	-9.54828
okb	-9.54953
▁ment	-9.54965
▁intézmény	-9.55036
▁szab	-9.55236
▁bizonyít	-9.55248
ma	-9.55314
ölt	-9.55321
sú	-9.55442
▁tényező	-9.55572
▁1992	-9.55786
zás	-9.55786
enki	-9.55876
▁po	-9.55878
▁észre	-9.55979
etes	-9.56025
vásárol	-9.5604
kép	-9.5606
zett	-9.56063
▁föl	-9.56095
▁politikus	-9.5611
▁nyilatkoz	-9.56133
▁fegyver	-9.56137
▁megfelel	-9.56222
szerű	-9.56244
▁február	-9.56279
iadó	-9.56285
▁támad	-9.56314
mantika	-9.56326
▁közleked	-9.56344
▁kereszt	-9.56368
ábor	-9.56381
ztambul	-9.56422
ortu	-9.56433
▁gyűjt	-9.56434
▁kenyere	-9.56434
▁csütörtök	-9.56435
▁humor	-9.56435
▁hólánc	-9.56435
fenntartó	-9.56435
konferenci	-9.56435
közigazgatás	-9.56435
nyíl	-9.56435
ompozíció	-9.56435
vírus	-9.56435
ösztön	-9.56435
▁Amadind	-9.56435
▁Eichel	-9.56435
▁Fejér	-9.56435
▁Ivanov	-9.56435
▁Jugoszlávi	-9.56435
▁József	-9.56435
▁KGB	-9.56435
▁Múzeum	-9.56435
▁NSZK	-9.56435
▁Nyugat	-9.56435
▁Szovjetunió	-9.56435
▁Tietmeyer	-9.56435
▁bizon	-9.56435
▁deficit	-9.56435
▁fertőzött	-9.56435
▁hangsúlyoz	-9.56435
▁hibátlan	-9.56435
▁integrá	-9.56435
▁koalíció	-9.56435
▁megkapta	-9.56435
▁negatív	-9.56435
▁perújrafelvétel	-9.56435
▁politiká	-9.56435
▁puccs	-9.56435
▁példa	-9.56435
▁restitúció	-9.56435
▁sajtó	-9.56435
▁tragédi	-9.56435
▁törzstőké	-9.56435
▁valószínű	-9.56435
▁villany	-9.56435
▁Tőkepiac	-9.56435
▁bonyolult	-9.56435
▁diplomá	-9.56435
▁fellendülés	-9.56435
▁kamara	-9.56435
▁komponál	-9.56435
▁közlemény	-9.56435
burg	-9.56435
felszerelések	-9.56435
frika	-9.56435
vezeték	-9.56435
▁Babiuc	-9.56435
▁Vladim	-9.56435
▁felnőtt	-9.56435
▁kormánypárt	-9.56435
▁kötelesség	-9.56435
▁midibusz	-9.56435
▁repülőtér	-9.56435
▁szerződés	-9.56435
▁szobrász	-9.56435
▁tized	-9.56435
▁tüz	-9.56435
▁Pirot	-9.56435
▁fejlőd	-9.56435
▁titkos	-9.56435
▁Interna	-9.56435
▁Tamás	-9.56435
▁húsz	-9.56435
▁szerencsétlen	-9.56435
▁tucat	-9.56435
▁ápol	-9.56435
▁attasé	-9.56435
▁elvárás	-9.56435
▁legszebb	-9.56435
▁remél	-9.56435
tőzsd	-9.56435
▁kolozsvári	-9.56435
▁partner	-9.56435
▁fenyeget	-9.56436
▁légkör	-9.56436
▁október	-9.56436
▁hihetetlen	-9.56436
▁zsúfolt	-9.56436
▁intézkedés	-9.56436
▁termelés	-9.56436
▁finomító	-9.56436
▁tilt	-9.56436
▁tiltakoz	-9.56436
gyilko	-9.56436
zmit	-9.56437
▁Saar	-9.56437
▁kérdez	-9.56437
terjed	-9.56437
▁Zeneakadémi	-9.56437
▁külvilág	-9.56438
▁túlélő	-9.56438
▁terhel	-9.56439
▁alkalom	-9.56439
▁globalizáció	-9.56439
▁rádió	-9.56439
▁autóbusz	-9.56439
kiált	-9.56439
▁fennáll	-9.5644
▁szerkezet	-9.56441
idesz	-9.56441
▁1964	-9.56441
▁Tudom	-9.56441
▁ingatlan	-9.56441
▁Tibor	-9.56441
▁harag	-9.56441
▁rang	-9.56441
▁hallgatók	-9.56442
▁iránt	-9.56442
▁regény	-9.56442
▁aukció	-9.56443
▁közzé	-9.56443
▁Jaguár	-9.56444
▁esély	-9.56444
▁ered	-9.56445
▁tévé	-9.56445
▁Pilisszántó	-9.56446
▁megszüntetés	-9.56447
▁reménykedhet	-9.56447
▁lass	-9.56447
▁Krav	-9.56448
▁népszerű	-9.56448
▁fordít	-9.56448
▁világháború	-9.56449
▁Nagy	-9.56449
▁1993	-9.5645
▁unió	-9.5645
▁előfordul	-9.56451
▁emelked	-9.56451
▁hagyomány	-9.56452
▁tűz	-9.56453
▁nyilvánosság	-9.56453
▁Hans	-9.56453
▁megközelít	-9.56454
▁kisebbség	-9.56454
mező	-9.56455
▁különmegbízott	-9.56456
ehavaz	-9.56456
ügynök	-9.56458
▁verseny	-9.56459
▁akarj	-9.5646
▁valaki	-9.5646
▁vize	-9.5646
▁ismeretlen	-9.56461
centr	-9.56466
▁bizonyult	-9.56466
kritikus	-9.56468
▁érthető	-9.56468
▁zene	-9.56469
citás	-9.56471
▁láthatatlan	-9.56472
▁örök	-9.56472
▁láthatt	-9.56472
▁végig	-9.56474
▁korszerű	-9.56474
▁halott	-9.56476
▁következmény	-9.56476
▁remek	-9.5648
▁kötelező	-9.56484
▁198	-9.56486
▁mély	-9.56487
▁esztendő	-9.56488
▁neheze	-9.56488
reng	-9.56492
▁püspökök	-9.56493
lakát	-9.56495
▁Zsol	-9.565
▁Még	-9.565
▁Makk	-9.56504
▁korlátai	-9.5651
▁hasznos	-9.56518
▁havazás	-9.56519
▁műszak	-9.56527
emberg	-9.5653
alapító	-9.56532
▁vallás	-9.56533
▁elvetett	-9.56535
▁közép	-9.56538
1959	-9.56541
zés	-9.56545
ragad	-9.5655
▁évszázad	-9.56552
▁tömeges	-9.56557
tyás	-9.5657
vány	-9.56581
▁Új	-9.56585
igány	-9.56594
▁1994-	-9.56597
▁megbeszélése	-9.56603
▁kiemelt	-9.56612
▁Mo	-9.56616
alist	-9.56619
▁világgazdaság	-9.56621
▁Moz	-9.56625
vivő	-9.5663
játéká	-9.56631
▁számíthat	-9.56632
mutatkoz	-9.56633
▁példány	-9.56636
készített	-9.56642
▁Bla	-9.56644
▁díjazott	-9.56646
érdekeltség	-9.56662
▁konk	-9.56663
▁látogatásán	-9.56667
▁végző	-9.56667
▁tárgyalások	-9.56678
▁levele	-9.56678
ci	-9.56683
▁Kü	-9.56688
▁garancia	-9.56689
▁újságok	-9.5669
▁Opera	-9.56692
▁Volán	-9.56696
▁őrül	-9.56705
▁mindazo	-9.56717
incs	-9.56738
▁elemek	-9.56745
▁Bad	-9.56751
▁látványos	-9.56762
▁politikusok	-9.56768
▁kérni	-9.56779
▁ellátás	-9.56779
▁megment	-9.56789
▁található	-9.56797
szolgáltatás	-9.56803
▁menekülés	-9.56806
▁külkereskedelm	-9.56818
jev	-9.56823
▁döntő	-9.56853
▁Bib	-9.56861
▁meghív	-9.56861
▁Pier	-9.56865
ítésé	-9.56866
▁térni	-9.56868
▁konv	-9.56872
▁megvásárol	-9.56878
▁átalakul	-9.56881
iemelked	-9.56892
▁350	-9.56928
▁rendelkez	-9.56945
▁Nis	-9.56951
▁Ber	-9.56995
II	-9.57
▁szél	-9.57003
zeg	-9.57005
▁parancsnoka	-9.57012
▁előbb	-9.57013
▁megfontolások	-9.57046
▁távoz	-9.57052
▁195	-9.57056
▁becs	-9.57083
erlin	-9.57089
▁Bal	-9.57093
▁stabili	-9.5712
eszt	-9.57132
régi	-9.57132
▁1992-	-9.57139
▁poszt	-9.57146
▁operál	-9.57157
használat	-9.57233
▁helyezte	-9.57272
átor	-9.57275
űszak	-9.57275
▁választ	-9.57316
▁akarat	-9.57331
▁emlékez	-9.57338
▁lebontás	-9.5735
▁tapasztal	-9.57364
iroda	-9.57368
▁tél	-9.57411
▁óra	-9.57419
etem	-9.57419
▁látogató	-9.5743
pir	-9.57476
▁dolgozó	-9.57497
▁Mari	-9.57508
álta	-9.57511
▁Lib	-9.5753
▁választotta	-9.57631
ical	-9.57646
▁szótár	-9.57693
▁hát	-9.57704
világo	-9.5773
▁közé	-9.57733
▁Ár	-9.57748
zései	-9.57753
űr	-9.5786
▁számított	-9.57917
▁Fő	-9.57922
▁eset	-9.57942
int	-9.57961
▁1997-	-9.57984
eteg	-9.58002
▁operá	-9.5801
▁lakás	-9.58025
▁bán	-9.58073
▁követ	-9.58086
ezet	-9.58115
▁tanul	-9.58175
dni	-9.58188
apad	-9.58201
▁puszt	-9.58222
▁negyedé	-9.58242
▁eredménye	-9.58274
lal	-9.58303
▁alapított	-9.58315
▁perc	-9.58349
▁nyugo	-9.58367
▁vizsgál	-9.58372
▁beszélget	-9.58379
▁osztály	-9.5846
▁részei	-9.58479
▁témá	-9.58487
▁ünnepel	-9.58498
▁gyerek	-9.58602
▁vendég	-9.58603
▁kabinet	-9.58603
▁ritmus	-9.58603
▁kezdeményez	-9.58604
▁vizit	-9.58606
▁információ	-9.58606
▁amerikai	-9.58607
▁ötven	-9.58613
▁darabjai	-9.58618
▁illetékes	-9.5862
▁oda	-9.5863
▁életem	-9.58648
▁Fidesz	-9.58654
▁ítélt	-9.58657
▁megsz	-9.58699
▁szerző	-9.587
500	-9.58732
▁pro	-9.58795
alakításá	-9.58833
▁részvénye	-9.58917
▁szan	-9.58932
▁támogatás	-9.58966
▁hitelei	-9.58982
vételé	-9.59019
▁ideg	-9.5904
szereplő	-9.5904
▁von	-9.59066
ard	-9.59086
▁állítás	-9.59141
▁Galéri	-9.59151
sza	-9.59188
▁elégedett	-9.59225
▁fordul	-9.5924
▁kutatás	-9.59247
▁gyakorlati	-9.59264
▁megnyit	-9.59265
▁foglalkoztat	-9.59325
▁kezdte	-9.59413
▁w	-9.5942
tion	-9.59538
▁fia	-9.59567
▁kezd	-9.59567
▁figyelme	-9.59596
▁munkájá	-9.59728
▁felold	-9.59736
ejű	-9.59782
▁vir	-9.59855
▁választók	-9.59898
ányos	-9.59905
▁Sza	-9.5993
útt	-9.59932
árad	-9.59954
áll	-9.59972
▁reformok	-9.59993
▁Gyu	-9.60164
▁teremt	-9.60181
▁irányb	-9.60212
▁baj	-9.60245
törés	-9.60843
▁véleménye	-9.60888
▁eredményei	-9.60929
atos	-9.60964
▁6-	-9.60999
▁ül	-9.61178
lépést	-9.61224
ná	-9.61328
▁vagyon	-9.61408
▁vet	-9.61424
▁művei	-9.61509
▁egyesül	-9.61571
▁Groznijt	-9.61772
▁Any	-9.61814
▁erej	-9.6186
▁magáé	-9.61875
▁Pel	-9.61929
▁lelkesed	-9.61942
▁kedvelt	-9.61959
▁órák	-9.6204
▁pá	-9.62041
essel	-9.6205
san	-9.62158
▁se	-9.62209
▁tiszt	-9.62345
▁elé	-9.62417
▁szállítmány	-9.62516
▁függ	-9.6252
▁megteremtésé	-9.62549
▁eseté	-9.62665
▁in	-9.62666
ségek	-9.62757
▁szabadság	-9.62788
▁raj	-9.62971
zik	-9.63067
▁feltűn	-9.63222
fogás	-9.63237
▁irányítás	-9.6326
▁munkám	-9.63289
▁néző	-9.63326
ral	-9.63395
▁veszi	-9.63491
▁tőkéjé	-9.63575
▁Se	-9.63773
▁szót	-9.6393
▁oldal	-9.64026
▁am	-9.64165
lyen	-9.64185
▁kar	-9.64188
jelentett	-9.6426
▁h	-9.64273
▁kézi	-9.64282
ment	-9.64404
▁szer	-9.64481
to	-9.64508
▁He	-9.64508
▁környéké	-9.64578
▁5-	-9.64638
▁nyere	-9.64658
▁támogatj	-9.64765
▁lel	-9.64785
mut	-9.64947
▁dolgo	-9.64968
tölten	-9.6506
▁ör	-9.65184
melyik	-9.65277
▁tár	-9.65296
▁ér	-9.65554
▁javaslat	-9.65563
elm	-9.65633
ós	-9.65691
anul	-9.658
vés	-9.65915
▁elnöké	-9.65953
gépe	-9.6615
▁tetszen	-9.66183
▁fele	-9.66393
▁j	-9.66635
▁Mind	-9.66674
▁sorozat	-9.66714
ven	-9.66804
▁járato	-9.66831
▁szüksége	-9.66996
utat	-9.67022
ósító	-9.67064
társaság	-9.67072
▁33	-9.67097
Kis	-9.67226
▁távo	-9.6728
▁hegye	-9.67456
▁gyár	-9.67574
zód	-9.67778
járó	-9.68073
▁Pozsony	-9.68174
▁század	-9.68176
▁élt	-9.68257
amb	-9.68657
▁változat	-9.68733
▁szerel	-9.69106
▁körzet	-9.69411
szociáldemokratá	-9.69651
▁Mit	-9.69839
elek	-9.69934
jön	-9.69958
▁autópályá	-9.70197
ódi	-9.70225
▁tu	-9.70461
▁építés	-9.70595
▁városba	-9.70711
der	-9.70721
beteg	-9.70758
▁szen	-9.70786
▁vág	-9.7098
▁áldozat	-9.7114
▁27	-9.71188
▁kocsi	-9.71212
lensége	-9.71602
oló	-9.71735
▁felkért	-9.7219
zu	-9.72198
▁dr	-9.72348
rendszeré	-9.72479
gen	-9.7252
▁lezárt	-9.72648
uta	-9.72769
▁nyitotta	-9.72785
hangz	-9.73106
▁csoport	-9.73122
lés	-9.73256
híve	-9.73258
vit	-9.73616
▁45	-9.742
alló	-9.74286
▁tartotta	-9.74312
▁Zo	-9.7454
száz	-9.74597
▁állít	-9.75029
olva	-9.75056
ony	-9.75108
▁biztonságá	-9.75451
▁kezelt	-9.75779
▁Man	-9.75817
▁r	-9.76179
eit	-9.76354
▁területe	-9.76437
ld	-9.76581
▁Vé	-9.76604
▁ka	-9.76881
▁ilyenek	-9.77152
esség	-9.77167
▁mondj	-9.77665
▁Szá	-9.77803
ep	-9.78024
▁igazgatój	-9.7803
ozások	-9.78196
▁autók	-9.78216
ző	-9.78277
tat	-9.78291
▁oldalá	-9.78293
▁kapj	-9.78596
ttó	-9.78606
demokrat	-9.78613
▁ipar	-9.78701
▁Z	-9.79037
▁megfogad	-9.79292
elte	-9.79457
▁lé	-9.79457
▁ro	-9.79805
ajta	-9.80118
ezett	-9.80311
jén	-9.80455
▁emberi	-9.80558
tató	-9.80676
▁hol	-9.80838
▁1-	-9.80976
öztársaság	-9.8136
▁Don	-9.8138
etik	-9.81386
ítette	-9.8147
▁egység	-9.81528
adár	-9.81545
szt	-9.81692
erék	-9.81734
kedés	-9.81768
▁terület	-9.82029
▁Ko	-9.82078
almas	-9.821
ellett	-9.82165
▁tapasztalat	-9.82188
▁szerep	-9.82262
▁módszer	-9.82282
okon	-9.82327
des	-9.82428
▁helyez	-9.82436
szl	-9.82586
bank	-9.82648
▁kir	-9.82926
dén	-9.83265
▁2,	-9.83285
ked	-9.83293
lap	-9.83483
fon	-9.83658
cu	-9.83867
▁hatás	-9.83922
oz	-9.84115
▁nevezet	-9.84148
▁mondat	-9.84361
tás	-9.84375
▁számo	-9.84416
szerep	-9.8442
elet	-9.84545
▁nyitott	-9.84791
▁elkép	-9.8483
▁nevezi	-9.85001
▁Ré	-9.85373
ör	-9.85507
jelez	-9.85799
ítás	-9.8582
id	-9.85902
tes	-9.86016
▁felkérte	-9.86397
▁Va	-9.86522
sra	-9.86552
▁120	-9.86924
kozás	-9.87717
▁összege	-9.87802
▁szükség	-9.88107
▁15	-9.88191
▁valam	-9.88387
▁körbe	-9.88793
tár	-9.88936
▁emel	-9.8933
emelt	-9.89402
helyettes	-9.89878
zt	-9.89891
sok	-9.89984
▁ku	-9.90061
Tő	-9.90094
▁jelenti	-9.90327
vic	-9.90342
bon	-9.91073
kar	-9.91736
▁része	-9.92014
▁Al	-9.9207
▁igazá	-9.92092
magyaráz	-9.92133
▁abba	-9.92347
vélemény	-9.92428
▁tölt	-9.92617
▁10-	-9.92664
hite	-9.9269
jű	-9.92963
▁javaslato	-9.93086
▁feltétel	-9.93286
▁rab	-9.93292
▁támogat	-9.9363
cionál	-9.93654
bírá	-9.93818
pont	-9.9385
dus	-9.93945
ü	-9.94144
▁Or	-9.94166
lések	-9.94322
gyéb	-9.94332
mérn	-9.94426
▁környék	-9.94464
▁gyanú	-9.94623
együttes	-9.94899
perce	-9.94904
kezd	-9.95038
ró	-9.95065
óján	-9.95174
folytatás	-9.95186
▁értékesít	-9.95318
fe	-9.95369
▁terve	-9.95621
bu	-9.9563
látni	-9.95708
umi	-9.95749
ron	-9.95787
tekinthető	-9.96064
tér	-9.96072
hangszerek	-9.96126
hirdet	-9.9614
szállító	-9.96145
kötött	-9.96148
felügyelet	-9.96176
dőlt	-9.96186
már	-9.96287
szembe	-9.96376
5-	-9.96424
▁mo	-9.9659
városok	-9.96616
▁bor	-9.96751
század	-9.96874
há	-9.96875
vó	-9.96886
tematik	-9.97025
kereskedelm	-9.97031
alom	-9.9705
állítás	-9.97059
elmet	-9.97115
orú	-9.97116
▁megteremtés	-9.97181
szállítmány	-9.97232
szabadság	-9.9724
üggetlen	-9.97256
rendezés	-9.97395
▁zárta	-9.97414
urin	-9.97425
alak	-9.97478
kro	-9.9755
maros	-9.97581
▁harc	-9.97654
▁alkalmazott	-9.97674
nélküli	-9.97685
biztonság	-9.97685
tanácsadás	-9.97696
székhely	-9.97703
vállalat	-9.97728
A	-9.9787
and	-9.97886
lel	-9.97914
W	-9.97979
indul	-9.98037
cég	-9.98079
▁lelkes	-9.9811
színház	-9.9812
történet	-9.98162
gő	-9.98164
szervezet	-9.98205
20	-9.98243
igazgatój	-9.98283
vári	-9.98338
többség	-9.98413
ném	-9.98429
3	-9.98444
Z	-9.98458
belül	-9.98521
H	-9.9856
hivatal	-9.98594
tíz	-9.98603
három	-9.98618
következ	-9.9864
milliárd	-9.98711
▁vita	-9.98722
▁kilométer	-9.98776
kerül	-9.98973
hiány	-9.99054
kezet	-9.99163
▁tekint	-9.99166
szal	-9.99226
gyár	-9.99302
szó	-9.99427
▁pi	-9.99545
▁maradt	-9.996
▁elinduln	-9.99609
▁alakít	-9.99667
énekes	-9.99736
▁otthon	-9.99875
▁megbíz	-9.9997
▁ju	-10.0002
tásá	-10.0003
pe	-10.0004
▁őr	-10.0019
számo	-10.0036
öl	-10.0041
▁érez	-10.0047
ített	-10.005
▁Po	-10.0051
▁nyilatkozat	-10.0066
fel	-10.0071
▁kötet	-10.0076
▁ver	-10.0083
▁látogat	-10.0088
▁győ	-10.0105
változás	-10.0108
díja	-10.0108
▁gondo	-10.0116
omb	-10.0127
▁ítélet	-10.0132
▁szav	-10.0135
őbb	-10.0161
ebek	-10.0161
▁Gy	-10.0169
▁kedv	-10.0206
▁amik	-10.0207
ho	-10.0209
ítj	-10.0219
▁ismer	-10.0246
au	-10.0247
bár	-10.025
kező	-10.0276
▁kif	-10.0283
erte	-10.0286
▁utc	-10.0288
dalom	-10.0301
zött	-10.0303
▁por	-10.0306
▁segítség	-10.0321
▁képz	-10.0332
▁negyed	-10.0358
▁moz	-10.036
bá	-10.0362
ökök	-10.0363
edés	-10.0368
▁fej	-10.0387
▁irányít	-10.0401
▁kiad	-10.0419
dás	-10.0422
▁ille	-10.0434
▁mag	-10.045
gg	-10.0456
▁pont	-10.0475
ány	-10.0475
▁kölcsön	-10.0479
▁Ö	-10.0479
▁18	-10.048
▁láb	-10.0482
▁sü	-10.0492
▁kó	-10.0492
urális	-10.0506
▁növeked	-10.0511
▁össz	-10.0533
ély	-10.0534
kciók	-10.0536
▁elismer	-10.0541
▁lak	-10.0544
özlekedés	-10.0547
tí	-10.0549
ereskedelm	-10.055
yelv	-10.0554
▁kapcs	-10.0566
▁rendel	-10.0568
▁biztosít	-10.0569
▁Jó	-10.0579
felett	-10.0585
▁harm	-10.0594
▁szolgáltat	-10.0598
▁alkalmaz	-10.0604
ője	-10.0607
zív	-10.0607
yörgy	-10.0608
rü	-10.061
rto	-10.061
lőtt	-10.0611
▁Pili	-10.0612
egény	-10.0612
telen	-10.0615
látás	-10.0615
▁megállapod	-10.0615
esetek	-10.0615
beszélés	-10.0616
terme	-10.0616
kozó	-10.0617
▁Állam	-10.0617
ankovic	-10.0617
▁büntet	-10.0619
▁fér	-10.0619
▁folyamat	-10.062
▁viselked	-10.0621
▁visz	-10.0621
▁fest	-10.0624
▁társa	-10.0625
▁tömeg	-10.0625
▁kapcsol	-10.0628
önyv	-10.0629
berg	-10.063
▁helyettesít	-10.063
elügyelet	-10.0631
▁alkalm	-10.0633
ichard	-10.0635
▁ütő	-10.0637
▁akadályozta	-10.0638
▁kormán	-10.0638
lyel	-10.0638
▁Orosz	-10.0639
saládo	-10.0639
▁eszköz	-10.0639
kritik	-10.0639
őváros	-10.0639
forg	-10.064
▁növel	-10.064
gyűlés	-10.0641
▁társadal	-10.0642
aguár	-10.0642
egutóbb	-10.0642
útvonal	-10.0642
▁vall	-10.0642
▁miniszter	-10.0642
▁szabály	-10.0642
oldo	-10.0643
▁hatalm	-10.0643
mány	-10.0643
▁minős	-10.0643
anciá	-10.0643
befektet	-10.0643
ax	-10.0643
bizonyosod	-10.0643
csatlakoz	-10.0643
kiegyenlítés	-10.0643
▁Belgrád	-10.0643
▁Egészség	-10.0643
▁Ingatlan	-10.0643
▁Szolgál	-10.0643
▁Ybl	-10.0643
▁elszállításá	-10.0643
▁erőfeszítése	-10.0643
▁fennakadás	-10.0643
▁filozóf	-10.0643
▁krízis	-10.0643
▁montenegrói	-10.0643
▁pesszimist	-10.0643
▁páncél	-10.0643
▁sürget	-10.0643
X	-10.0643
alkotmánybíróság	-10.0643
dühö	-10.0643
fordítás	-10.0643
gresszió	-10.0643
históriá	-10.0643
iffer	-10.0643
isztességtelenek	-10.0643
költöztet	-10.0643
rankfurt	-10.0643
ritkaság	-10.0643
törlesztés	-10.0643
yógyszer	-10.0643
zágr	-10.0643
zékesfehérvár	-10.0643
▁Brosnan	-10.0643
▁Demokrat	-10.0643
▁Gallery	-10.0643
▁Goebbels	-10.0643
▁Hasonló	-10.0643
▁Intézet	-10.0643
▁Kaposvár	-10.0643
▁QI	-10.0643
▁Qua	-10.0643
▁Világ	-10.0643
▁alkalmazkodás	-10.0643
▁aranykincs	-10.0643
▁banditák	-10.0643
▁betiltott	-10.0643
▁cipők	-10.0643
▁derűlátás	-10.0643
▁diploma	-10.0643
▁dirig	-10.0643
▁dokumentum	-10.0643
▁dátum	-10.0643
▁egyensúly	-10.0643
▁eszmecser	-10.0643
▁felhasznál	-10.0643
▁feszültség	-10.0643
▁fiatalember	-10.0643
▁frakcióján	-10.0643
▁fórum	-10.0643
▁hangoztat	-10.0643
▁heves	-10.0643
▁hófúvás	-10.0643
▁időjárás	-10.0643
▁individu	-10.0643
▁interjú	-10.0643
▁jelöltje	-10.0643
▁kampány	-10.0643
▁kandalló	-10.0643
▁karrier	-10.0643
▁kettéválás	-10.0643
▁kilencven	-10.0643
▁kimaradt	-10.0643
▁kimenekít	-10.0643
▁kollég	-10.0643
▁konfliktus	-10.0643
▁káosz	-10.0643
▁kísérőzené	-10.0643
▁könyör	-10.0643
▁legyőzhetetlen	-10.0643
▁likviditás	-10.0643
▁lépcsőjé	-10.0643
▁magánszemély	-10.0643
▁marsall	-10.0643
▁megfenyeget	-10.0643
▁megformálás	-10.0643
▁megnyilvánul	-10.0643
▁megnyugtató	-10.0643
▁megszavazn	-10.0643
▁modern	-10.0643
▁méltó	-10.0643
▁mítosz	-10.0643
▁szerzeménye	-10.0643
▁szuggeszti	-10.0643
▁szövege	-10.0643
▁televízió	-10.0643
▁tendenci	-10.0643
▁tisztességesek	-10.0643
▁titkosszolgálat	-10.0643
▁utánpótlás	-10.0643
▁utódállama	-10.0643
▁visszavásárlás	-10.0643
▁végelszámolás	-10.0643
▁zöm	-10.0643
▁ÁPTF	-10.0643
▁Állásbörz	-10.0643
▁államháztartás	-10.0643
▁álláskeresés	-10.0643
▁április	-10.0643
▁óvatosa	-10.0643
▁összekötő	-10.0643
▁övezet	-10.0643
▁útszakasz	-10.0643
▁üggyel	-10.0643
gonosz	-10.0643
▁Sztálin	-10.0643
▁Színház	-10.0643
▁Vatikán	-10.0643
▁beavatkoz	-10.0643
▁eltüntett	-10.0643
▁foglaltak	-10.0643
▁holttest	-10.0643
▁hozzájárul	-10.0643
▁tökéletes	-10.0643
▁vív	-10.0643
asszony	-10.0643
sebesült	-10.0643
vezényelt	-10.0643
▁1948-	-10.0643
▁Atatürk	-10.0643
▁Gnjilan	-10.0643
▁Göd	-10.0643
▁Kohl	-10.0643
▁brigád	-10.0643
▁civil	-10.0643
▁csodál	-10.0643
▁eltörlésé	-10.0643
▁energiahordozók	-10.0643
▁gyermek	-10.0643
▁gyógyít	-10.0643
▁javasol	-10.0643
▁kiszámíthat	-10.0643
▁kommuniká	-10.0643
▁különböző	-10.0643
▁liberalizá	-10.0643
▁megosztottság	-10.0643
▁megpróbál	-10.0643
▁megszorítás	-10.0643
▁nyomozás	-10.0643
▁pozíció	-10.0643
▁szorong	-10.0643
▁taksál	-10.0643
▁versenyképesség	-10.0643
▁verzió	-10.0643
▁Építő	-10.0643
▁állásajánlat	-10.0643
▁árfolyam	-10.0643
▁újdonság	-10.0643
Wür	-10.0643
aporo	-10.0643
mozdony	-10.0643
szláv	-10.0643
▁Disney	-10.0643
▁Labem	-10.0643
▁Mitrohin	-10.0643
▁Pristiná	-10.0643
▁elhelyez	-10.0643
▁elszigetel	-10.0643
▁feloszl	-10.0643
▁gondja	-10.0643
▁sebesség	-10.0643
▁vesztese	-10.0643
▁villamos	-10.0643
79-	-10.0644
huza	-10.0644
repülés	-10.0644
▁Közösség	-10.0644
▁elnapolt	-10.0644
▁gyengé	-10.0644
▁rögzít	-10.0644
▁tanítványa	-10.0644
▁Önkéntes	-10.0644
▁elmélet	-10.0644
parti	-10.0644
szólaltat	-10.0644
tekercs	-10.0644
▁egyezség	-10.0644
▁gazdálkod	-10.0644
▁kisbefektető	-10.0644
▁belgyógyász	-10.0644
▁megkérd	-10.0644
▁meglepetés	-10.0644
▁támasz	-10.0644
szünet	-10.0644
▁Carmen	-10.0644
▁Korább	-10.0644
▁feltehető	-10.0644
▁leszögez	-10.0644
▁panaszkod	-10.0644
▁szellem	-10.0644
▁figur	-10.0644
▁Rákosi	-10.0644
▁Szakértő	-10.0644
▁belpolitika	-10.0644
▁kivonul	-10.0644
▁vádol	-10.0644
acedón	-10.0644
bocsá	-10.0644
hozatalá	-10.0644
▁Bod	-10.0644
▁kiderül	-10.0644
▁megvalósít	-10.0644
▁Tanács	-10.0644
▁mozdul	-10.0644
▁éjszak	-10.0644
▁széd	-10.0644
▁ébred	-10.0644
▁indokolj	-10.0644
▁költsége	-10.0644
▁létszám	-10.0644
▁kávé	-10.0644
▁újjáépítés	-10.0644
▁bányá	-10.0644
▁tizenk	-10.0644
ológi	-10.0644
▁végrehajtás	-10.0644
eljárás	-10.0644
▁teherautó	-10.0644
▁hidegháború	-10.0644
▁kamattámogatás	-10.0644
▁üzenet	-10.0644
▁tologat	-10.0644
ubli	-10.0644
▁durv	-10.0644
▁motor	-10.0644
▁felszólít	-10.0644
▁pompá	-10.0644
▁felújít	-10.0644
ertál	-10.0644
▁beleegyez	-10.0644
▁hideg	-10.0644
ollari	-10.0644
▁beiktat	-10.0644
▁elhagy	-10.0644
▁fejez	-10.0644
▁félórá	-10.0644
▁négyzet	-10.0644
▁lic	-10.0644
ópiá	-10.0644
▁elvesz	-10.0644
▁kénytelen	-10.0644
▁fedez	-10.0644
▁univer	-10.0644
ürk	-10.0644
▁veszteg	-10.0644
▁díszített	-10.0644
▁vezér	-10.0644
▁említ	-10.0644
▁hadsereg	-10.0644
▁huszon	-10.0644
emelés	-10.0644
raktár	-10.0644
▁Nemzet	-10.0644
▁jegybank	-10.0644
▁dalszínház	-10.0644
▁igyek	-10.0644
▁legmél	-10.0644
▁dinamik	-10.0644
▁újraönt	-10.0644
enyh	-10.0644
▁Mindez	-10.0644
▁kedvezménye	-10.0644
▁telep	-10.0644
szkij	-10.0644
▁álláspont	-10.0644
▁elvtárs	-10.0644
▁úthálózato	-10.0644
▁Baran	-10.0644
▁édesa	-10.0644
▁jövedelmek	-10.0644
ovszk	-10.0644
▁bánya	-10.0644
tempó	-10.0644
▁rekedt	-10.0644
▁finom	-10.0644
▁forgalm	-10.0644
uralkod	-10.0644
▁személyautó	-10.0644
▁terhek	-10.0644
elseje	-10.0644
▁arch	-10.0644
▁1969	-10.0644
kezességvállalás	-10.0644
▁befolyásol	-10.0644
▁eljuttat	-10.0644
▁Raj	-10.0645
▁Ankaráb	-10.0645
▁megsemmisítés	-10.0645
sodás	-10.0645
▁regi	-10.0645
▁végre	-10.0645
▁infrastruktúr	-10.0645
▁veszteség	-10.0645
▁minőség	-10.0645
▁szabályoz	-10.0645
▁gyönyörű	-10.0645
őrzés	-10.0645
▁Walt	-10.0645
▁szűk	-10.0645
öntő	-10.0645
▁hamis	-10.0645
▁elsül	-10.0645
▁tétele	-10.0645
▁kínál	-10.0645
onstru	-10.0645
▁források	-10.0645
▁2002-	-10.0645
▁szakadék	-10.0645
▁állatok	-10.0645
park	-10.0645
állomá	-10.0645
aludt	-10.0645
▁szakasz	-10.0645
urusz	-10.0645
▁aláírt	-10.0645
▁meghalad	-10.0645
▁1995-	-10.0645
▁hida	-10.0645
▁iszlámist	-10.0645
▁reakció	-10.0645
▁kultikus	-10.0645
▁hátter	-10.0645
▁zászl	-10.0645
▁mozgatás	-10.0646
▁lány	-10.0646
▁Isztambul	-10.0646
▁vége	-10.0646
▁Brüs	-10.0646
▁FIK	-10.0646
▁jogász	-10.0646
▁1950-	-10.0646
▁hullám	-10.0646
▁transz	-10.0646
HV	-10.0646
▁vasútvonal	-10.0646
▁Zsig	-10.0646
hesse	-10.0646
▁rétegel	-10.0646
▁bűn	-10.0646
prop	-10.0646
ennyi	-10.0646
▁Klaus	-10.0646
▁hallat	-10.0646
▁Áll	-10.0646
▁elfoglaltság	-10.0646
▁végi	-10.0646
▁búz	-10.0646
▁hatályba	-10.0646
ffo	-10.0646
▁befejez	-10.0646
▁megmutatkozás	-10.0646
▁növelésér	-10.0646
▁közbeszéd	-10.0647
lektora	-10.0647
▁bíróság	-10.0647
küldöttség	-10.0647
udvar	-10.0647
▁félreértés	-10.0647
óztatás	-10.0647
▁bázis	-10.0647
▁autósok	-10.0647
▁késés	-10.0647
▁alelnök	-10.0647
▁készpénz	-10.0647
▁tóra	-10.0647
▁követel	-10.0647
▁magánlev	-10.0647
▁vér	-10.0647
engyel	-10.0647
▁mezőgazdaság	-10.0647
▁árkokb	-10.0647
▁110	-10.0648
▁ráadás	-10.0648
▁privatizációjá	-10.0648
▁őriz	-10.0648
▁fűződ	-10.0648
hmann	-10.0648
▁eszközök	-10.0648
▁játszhatt	-10.0648
▁Hajd	-10.0648
▁olcsó	-10.0648
▁Több	-10.0648
formálód	-10.0648
ozzá	-10.0649
▁13	-10.0649
▁Brand	-10.0649
▁szállod	-10.0649
csúcs	-10.0649
▁álma	-10.0649
rich	-10.0649
▁konzervgyár	-10.0649
▁kísér	-10.0649
lámo	-10.065
▁alkalmas	-10.065
▁falu	-10.065
▁ejtett	-10.065
▁legjobb	-10.065
enciál	-10.065
▁sokszoros	-10.065
▁délkelet	-10.065
tudomány	-10.065
▁prof	-10.0651
készítő	-10.0651
lbro	-10.0651
▁hősünk	-10.0651
▁vegyes	-10.0651
yőző	-10.0651
örülte	-10.0652
▁Wil	-10.0652
▁pillanat	-10.0652
érzékeny	-10.0652
▁barátom	-10.0652
▁otthonuk	-10.0652
▁aligha	-10.0652
▁szavatol	-10.0652
▁megismer	-10.0652
▁munkaerő	-10.0652
▁bevallo	-10.0652
▁bü	-10.0653
ejtő	-10.0653
idejű	-10.0653
▁beszámoló	-10.0653
▁üt	-10.0654
ristin	-10.0654
▁dil	-10.0654
▁Richard	-10.0654
▁átlagos	-10.0654
▁elhatároz	-10.0654
▁jelző	-10.0654
▁bevétel	-10.0654
▁Külön	-10.0654
▁észak	-10.0654
uszt	-10.0655
▁kérdései	-10.0655
▁körny	-10.0655
▁Szent	-10.0655
▁elfelejt	-10.0656
▁szerencsés	-10.0656
▁bizalmas	-10.0656
▁bővül	-10.0656
▁Mitro	-10.0656
ójel	-10.0657
tagállamok	-10.0657
ajná	-10.0657
▁kiür	-10.0657
▁dugó	-10.0657
▁pénzügy	-10.0658
galom	-10.0658
szex	-10.0658
ovs	-10.0658
▁Hír	-10.0658
▁felkérés	-10.0658
▁mindez	-10.0659
▁kitüntetés	-10.0659
▁Tudj	-10.0659
takaró	-10.0659
▁CD	-10.0659
▁nyers	-10.0659
▁keresztül	-10.0659
▁keretek	-10.0659
▁bekövetkez	-10.0659
hova	-10.0659
▁dombo	-10.0659
▁szolidaritás	-10.0659
skod	-10.066
▁párosul	-10.066
▁próbál	-10.066
▁ezre	-10.066
▁játszott	-10.066
▁muzsikus	-10.066
▁önálló	-10.066
vará	-10.066
▁Ház	-10.066
sky	-10.066
jét	-10.0661
illi	-10.0661
▁közep	-10.0661
▁láthatj	-10.0661
▁mese	-10.0662
ítések	-10.0662
előterjeszt	-10.0662
▁bőv	-10.0662
▁megtiltott	-10.0662
▁megtörténhet	-10.0662
▁ifjú	-10.0663
▁Bud	-10.0663
▁közút	-10.0663
▁megkövet	-10.0663
gatj	-10.0663
avart	-10.0664
ggá	-10.0664
▁vonul	-10.0664
▁tanítás	-10.0664
▁kantonok	-10.0665
▁vállalhat	-10.0665
korhatár	-10.0665
▁legend	-10.0666
osztályvezető	-10.0666
ályok	-10.0666
nyel	-10.0666
▁tánc	-10.0666
rtya	-10.0666
követelménye	-10.0667
▁viselkedés	-10.0667
▁1947	-10.0667
álásá	-10.0667
▁igényel	-10.0668
nji	-10.0669
▁Vagy	-10.0669
hing	-10.0669
▁februárjá	-10.0669
▁csapat	-10.0669
▁vonzó	-10.067
▁tanulmány	-10.0671
▁terel	-10.0671
▁szívébe	-10.0671
▁büntető	-10.0672
▁forgat	-10.0672
▁kétszáz	-10.0673
▁gyak	-10.0673
▁vélem	-10.0673
▁bri	-10.0673
▁nyár	-10.0673
időszak	-10.0675
▁Sch	-10.0676
▁Pilis	-10.0676
▁ütős	-10.0676
sem	-10.0676
▁festmény	-10.0678
▁mellék	-10.0678
▁széles	-10.0679
▁SP	-10.0679
▁emberiség	-10.0679
iróni	-10.068
▁fordulat	-10.068
▁igazság	-10.068
▁élvezte	-10.068
▁vizsgálat	-10.068
▁tanít	-10.0681
kezés	-10.0681
felvétel	-10.0681
▁torlód	-10.0682
har	-10.0683
▁legf	-10.0683
tört	-10.0683
▁fölött	-10.0684
▁szótárá	-10.0685
▁Ör	-10.0685
lobo	-10.0686
▁roma	-10.0687
▁valóság	-10.0687
▁tisztáz	-10.0687
▁1949	-10.0688
▁határoz	-10.069
▁gyűjteményé	-10.069
▁teher	-10.0692
lír	-10.0692
gél	-10.0692
▁bér	-10.0693
▁addig	-10.0694
▁energia	-10.0694
▁homo	-10.0694
feldolgoz	-10.0694
▁játszan	-10.0694
▁ajánlat	-10.0695
rigy	-10.0696
gus	-10.0696
▁Maj	-10.0696
elenged	-10.0698
▁rendű	-10.0699
tassa	-10.0699
▁ideig	-10.0699
▁test	-10.07
▁juthat	-10.07
▁mondhat	-10.07
▁ütem	-10.0701
▁jelentkező	-10.0703
▁csoportok	-10.0703
▁Audi	-10.0705
▁had	-10.0705
pulá	-10.0707
romlottak	-10.0707
▁Fal	-10.0708
▁szervező	-10.0709
▁kezdet	-10.0709
▁műkincse	-10.071
▁szolgálat	-10.071
▁történése	-10.071
techniká	-10.0711
▁módosít	-10.0712
▁kimond	-10.0712
▁megszerez	-10.0713
árom	-10.0713
▁svéd	-10.0713
ung	-10.0713
szabá	-10.0714
▁atom	-10.0714
▁szándékos	-10.0715
▁Mag	-10.0715
abi	-10.0715
lügyminisztérium	-10.0716
▁do	-10.0716
▁építő	-10.0717
gondolkodó	-10.0717
▁Sor	-10.0717
▁folytass	-10.0718
gépkocsivezetőjé	-10.0719
▁férfiak	-10.072
▁18-	-10.072
▁márka	-10.0721
inger	-10.0722
állásb	-10.0722
▁romantik	-10.0724
zálód	-10.0726
SZ	-10.0727
mennyiség	-10.0727
▁újság	-10.0728
▁származ	-10.0728
szerzés	-10.0729
▁érdekei	-10.0729
nszk	-10.073
rium	-10.073
▁mentés	-10.073
SA	-10.0731
▁fogadta	-10.0731
▁gyakorlatok	-10.0731
ress	-10.0734
biztosítás	-10.0734
▁9,	-10.0734
▁tulajdonostárs	-10.0735
▁Párt	-10.0735
▁ellentétek	-10.0736
üveg	-10.0736
letek	-10.0737
áló	-10.0738
hivatalnok	-10.0738
adásu	-10.0739
vevő	-10.0739
hold	-10.0741
▁törek	-10.0742
▁színf	-10.0742
pesti	-10.0742
▁forr	-10.0742
▁Go	-10.0743
▁Rad	-10.0745
▁Egyesület	-10.0748
▁vallat	-10.0749
képviselet	-10.075
▁polgárok	-10.0751
▁helyreállítás	-10.0753
▁zsol	-10.0755
▁folytatása	-10.0757
▁ismétel	-10.0759
erus	-10.0759
▁eladó	-10.076
képtelenség	-10.0762
▁államtitkár	-10.0762
húzás	-10.0763
kulás	-10.0764
eltűn	-10.0766
▁kialakulásá	-10.0766
▁Elle	-10.0767
ográ	-10.0769
▁távozás	-10.0769
▁házát	-10.0769
szár	-10.077
▁országai	-10.0772
▁észrevett	-10.0772
▁hómaró	-10.0773
őf	-10.0773
▁irányul	-10.0773
úr	-10.0777
▁megny	-10.0778
▁alsó	-10.0779
▁tényezők	-10.0786
ium	-10.0788
▁falat	-10.079
▁1996	-10.0793
inten	-10.0796
▁olaszok	-10.0797
85	-10.08
énz	-10.0801
osztani	-10.0801
oratórium	-10.0802
pán	-10.0802
ajo	-10.0802
▁építse	-10.0802
akadályoztatását	-10.0803
szánt	-10.0804
hes	-10.0806
▁megtalál	-10.0806
▁kom	-10.0808
▁fenntartásai	-10.0809
▁térsége	-10.0809
oltot	-10.0813
▁területek	-10.0813
▁Jár	-10.0814
▁Her	-10.082
▁Havel	-10.082
▁terem	-10.0822
▁gép	-10.0825
ópont	-10.0825
▁lába	-10.0826
elmi	-10.0828
vörösvár	-10.0831
alap	-10.0831
▁időről	-10.0832
▁rendszeres	-10.0832
▁emlék	-10.0835
▁Pol	-10.0836
jelz	-10.0838
▁halad	-10.0841
▁telít	-10.0841
▁személyiség	-10.0841
▁Alb	-10.0849
▁mened	-10.0856
▁tárgyal	-10.0863
rét	-10.0865
imist	-10.0865
▁háló	-10.0865
▁illető	-10.0865
lus	-10.0867
25-	-10.0871
pá	-10.0871
▁juttat	-10.0871
▁szervezte	-10.0874
pes	-10.0875
talp	-10.0882
bil	-10.0886
▁csatá	-10.0888
▁ügyek	-10.0889
▁alkotásá	-10.0892
scher	-10.0893
ulj	-10.0897
korrek	-10.0898
▁produkciók	-10.0901
születésé	-10.0902
▁Más	-10.0902
▁fotók	-10.0903
▁késő	-10.0904
▁tol	-10.0906
▁munkáim	-10.0911
▁hótorlasz	-10.0912
térés	-10.0912
▁Kal	-10.0917
▁im	-10.0919
ps	-10.0922
határozat	-10.0926
▁8-	-10.0927
tlan	-10.0928
stát	-10.0932
▁Vid	-10.0938
almaz	-10.094
úlyos	-10.0943
▁nyit	-10.0945
▁temet	-10.0947
▁vi	-10.0949
▁származás	-10.0949
▁mozi	-10.0951
▁értet	-10.0955
▁Azt	-10.0956
▁elődj	-10.0957
váltani	-10.0958
ew	-10.0958
▁sofőrj	-10.0959
▁otthoni	-10.0959
▁kantonizá	-10.0961
▁3-	-10.0962
▁mérséklőd	-10.0962
anak	-10.0967
▁felül	-10.0968
▁gondolt	-10.0968
▁érde	-10.0969
▁Bán	-10.0969
kályha	-10.0971
kasu	-10.0975
▁tudat	-10.0984
▁Kár	-10.0988
▁épül	-10.099
▁Fels	-10.0992
gedi	-10.0994
neszt	-10.0994
▁Mu	-10.0997
▁választhat	-10.0997
▁Most	-10.0999
▁kelt	-10.1
▁figyel	-10.1006
▁szék	-10.1014
▁utca	-10.1015
▁képez	-10.1016
▁leb	-10.102
▁Hung	-10.1021
▁távozó	-10.1022
kérte	-10.1024
▁est	-10.1027
▁kém	-10.1029
▁kezelésé	-10.1029
▁sar	-10.1031
▁kisz	-10.1033
nakod	-10.1035
▁képzel	-10.1036
▁sérülés	-10.1036
▁ős	-10.1038
▁csúsz	-10.1038
bus	-10.1038
▁kommunist	-10.1042
▁pálya	-10.1042
▁járőr	-10.1042
▁pszichiáter	-10.1042
▁kamat	-10.1042
▁Má	-10.1042
▁csoda	-10.1042
▁mester	-10.1043
fizető	-10.1043
▁dol	-10.1045
▁értesülése	-10.1045
▁meleg	-10.1047
▁Bak	-10.1047
▁igazít	-10.1048
ván	-10.1048
rendező	-10.1049
leír	-10.1052
▁húz	-10.1052
▁mesél	-10.1052
▁bemutató	-10.1053
▁tudós	-10.1053
▁megél	-10.1054
▁lok	-10.1057
▁lényeges	-10.1057
▁láng	-10.1061
ukka	-10.1063
▁akadálya	-10.1064
▁pontjai	-10.1065
▁épületé	-10.1065
▁állított	-10.1066
fogyasztó	-10.1072
▁La	-10.1076
▁privatizálás	-10.1078
▁gyártó	-10.108
▁kiadás	-10.1081
eck	-10.1085
▁annyi	-10.1088
▁fant	-10.1091
▁Ch	-10.1097
▁harmad	-10.1099
▁rendezetlen	-10.11
tartása	-10.1112
▁pártok	-10.1112
▁ossz	-10.1114
dos	-10.1115
▁károk	-10.1119
▁előírt	-10.1121
▁csa	-10.1121
égtelen	-10.1125
atic	-10.1125
▁veszít	-10.1135
rácso	-10.1135
▁áldozata	-10.114
▁kutató	-10.1145
▁pótol	-10.1147
▁évfordulójá	-10.1154
▁Szer	-10.1157
rist	-10.1162
ságok	-10.1166
▁mondani	-10.1166
toni	-10.1167
▁közre	-10.1169
nikai	-10.117
▁látogatás	-10.1172
▁fős	-10.1176
▁rendelte	-10.1178
▁kiadó	-10.1181
ítélete	-10.1182
társul	-10.1187
▁demokráciá	-10.1192
sta	-10.1196
▁eleg	-10.1197
osztásá	-10.1204
▁kifejt	-10.1208
doro	-10.1208
uma	-10.1209
▁idei	-10.1212
▁esett	-10.1212
▁hatása	-10.1222
ekb	-10.1222
érhet	-10.1224
▁benn	-10.1237
▁vitt	-10.1241
▁Posz	-10.1244
▁bol	-10.1247
nkar	-10.1257
▁szabo	-10.1258
▁okozó	-10.1278
▁Ezek	-10.1281
▁megosztás	-10.1283
rép	-10.1286
▁szob	-10.1302
▁etn	-10.1302
▁napja	-10.1305
▁köt	-10.1307
▁nyilatkozatá	-10.1307
▁hava	-10.1308
▁rek	-10.1315
▁előad	-10.1316
bél	-10.1317
▁Tö	-10.1326
▁lezárás	-10.1346
▁értelmez	-10.1352
▁termékek	-10.1356
pja	-10.1358
bizonyos	-10.1363
vászn	-10.1366
nevezés	-10.1372
▁hadi	-10.1373
agé	-10.1385
▁érdekelt	-10.139
szk	-10.1391
▁tekintet	-10.1394
spea	-10.1396
▁vétel	-10.1409
▁Dny	-10.141
▁elismerésé	-10.1411
zta	-10.1412
▁elindul	-10.1415
▁Senk	-10.1434
csig	-10.1452
▁üldöz	-10.1455
▁kilométerre	-10.1471
némely	-10.1476
▁elvi	-10.1479
▁összes	-10.1482
▁szembe	-10.1491
rányos	-10.1491
nemese	-10.1496
▁szent	-10.15
▁pályájá	-10.1505
▁siet	-10.1507
ssza	-10.1513
▁hajt	-10.152
jutottak	-10.1523
▁szerepek	-10.1524
▁Kos	-10.1527
megbízott	-10.1528
árg	-10.1529
nó	-10.1541
tető	-10.1544
▁mindenek	-10.1556
▁szervezés	-10.1574
pusz	-10.1591
▁énekl	-10.1592
óz	-10.16
piacok	-10.1604
▁ennyi	-10.1611
építés	-10.1629
lizál	-10.1643
▁alkalmazotta	-10.165
ődő	-10.1665
ker	-10.1665
▁eladásá	-10.1667
▁mon	-10.1667
▁romák	-10.1692
ágai	-10.1694
▁értelmetlen	-10.1708
áza	-10.1713
óságo	-10.1721
▁újságírók	-10.1727
matikus	-10.173
eh	-10.1731
cent	-10.1737
ens	-10.1746
▁Tet	-10.177
▁állításá	-10.1775
▁szokás	-10.1778
atva	-10.1779
▁Bro	-10.1782
▁hirdet	-10.1787
▁hangszerek	-10.1789
▁kereskedelm	-10.1792
▁kötött	-10.1793
▁felügyelet	-10.1798
hallgathat	-10.1799
▁dőlt	-10.1801
ségük	-10.1803
▁tonná	-10.1809
▁Jan	-10.1811
▁díja	-10.182
▁személyi	-10.1822
▁szállító	-10.186
▁érezte	-10.1865
zata	-10.1878
▁énekes	-10.1885
▁arat	-10.1887
kód	-10.19
▁érv	-10.1905
▁indított	-10.1911
sen	-10.1918
▁erősít	-10.1935
40	-10.1947
▁megtekinthet	-10.1952
▁gyanús	-10.1978
▁tőketö	-10.1998
mellett	-10.2014
nnál	-10.2029
▁értékesítés	-10.2041
agó	-10.2063
▁módszerek	-10.2079
▁tőkéj	-10.2101
zat	-10.2106
rszágo	-10.2106
dem	-10.213
szob	-10.2136
▁darabo	-10.2138
dici	-10.214
őz	-10.2149
▁idéz	-10.2151
▁nemes	-10.2164
ka	-10.2173
▁városok	-10.2192
ervezete	-10.2195
port	-10.2215
zben	-10.222
szek	-10.2224
gók	-10.2234
áram	-10.2243
vette	-10.227
ssen	-10.227
ront	-10.2272
▁község	-10.2275
▁mu	-10.2276
sságá	-10.2296
▁közlés	-10.2297
▁ves	-10.2322
mia	-10.2327
tele	-10.2332
töltő	-10.234
▁küzden	-10.2346
ázza	-10.2357
▁tel	-10.2409
▁bevezetés	-10.2421
lja	-10.2423
tartozás	-10.246
▁Szerbi	-10.2464
zügy	-10.2466
▁színi	-10.251
ob	-10.2518
▁képviselői	-10.2548
▁települése	-10.2549
oly	-10.2584
ásai	-10.2589
▁amilyen	-10.259
alizál	-10.2595
▁Lu	-10.2609
menekült	-10.2612
▁ügye	-10.2649
▁has	-10.2664
faj	-10.2665
szeretet	-10.2707
váltó	-10.2724
írás	-10.277
▁értéke	-10.2776
rozás	-10.2783
▁86	-10.2789
gyen	-10.2811
10-1	-10.282
ival	-10.2853
▁bo	-10.2865
gyetem	-10.2869
ódás	-10.2875
007-	-10.2909
lár	-10.2913
4-	-10.2937
erősít	-10.2941
▁me	-10.2941
▁tudás	-10.2975
▁jele	-10.2976
töltött	-10.3013
▁semmit	-10.3017
▁fejlesztések	-10.3026
▁pé	-10.3042
▁szerepelte	-10.3086
▁tagjai	-10.3091
viselő	-10.3097
▁megjelenés	-10.3109
▁Hol	-10.311
edt	-10.3111
nti	-10.3113
▁ed	-10.3113
ner	-10.3131
▁5,	-10.314
vi	-10.3151
▁Stúdió	-10.3158
▁megfoga	-10.316
visel	-10.3164
▁változás	-10.3165
lmazott	-10.3172
▁közönsége	-10.3206
szabadítás	-10.3209
▁mozg	-10.3214
▁rendőrsége	-10.3223
olf	-10.3228
▁judai	-10.3239
cia	-10.3256
▁Haz	-10.3304
▁megjelent	-10.332
▁Előz	-10.3325
▁válts	-10.336
rokon	-10.3366
▁ut	-10.3371
zásá	-10.3378
▁4,	-10.3378
▁menté	-10.3382
▁hang	-10.3405
▁használ	-10.3423
▁hitele	-10.3424
ulat	-10.3429
jutott	-10.3448
▁oka	-10.3466
szak	-10.3475
ito	-10.3501
▁Elő	-10.3552
esítés	-10.3554
44	-10.3562
▁különbsége	-10.3564
▁szor	-10.3572
▁Kn	-10.3579
▁ese	-10.3606
vétele	-10.3619
▁hangj	-10.3632
▁túlzott	-10.3649
▁velü	-10.3669
▁jelentések	-10.3671
▁hálá	-10.3673
▁kérdésé	-10.3688
bony	-10.3689
▁számítan	-10.369
ste	-10.371
▁Cse	-10.374
▁ára	-10.3741
hívj	-10.3745
rk	-10.3751
vétel	-10.3751
▁találkozó	-10.3785
▁hatásá	-10.3799
▁Si	-10.3813
ál	-10.3838
lképzel	-10.3848
ada	-10.3854
▁hozz	-10.3864
ius	-10.3917
▁dal	-10.3926
von	-10.3932
▁Me	-10.3954
kereste	-10.3959
▁helyü	-10.3981
dék	-10.4016
ezred	-10.4021
▁szobr	-10.4026
ázó	-10.4027
avaly	-10.4034
▁Borba	-10.4072
▁tapasztalatok	-10.409
▁sikere	-10.4103
▁fed	-10.4155
agy	-10.416
szoros	-10.418
ődöt	-10.4215
▁megbé	-10.4219
▁megs	-10.4225
határ	-10.423
élés	-10.4238
omm	-10.4245
itet	-10.4259
▁eljut	-10.4261
▁megmutatj	-10.4273
rol	-10.4304
▁Ér	-10.4308
▁története	-10.4316
zlovákia	-10.432
▁szervezeté	-10.4372
adta	-10.438
▁v	-10.44
atók	-10.4442
▁zenék	-10.4454
baj	-10.4458
▁betölt	-10.4481
pó	-10.4501
száll	-10.4514
eme	-10.4517
▁Lá	-10.4553
rény	-10.4553
▁Szlovák	-10.4598
lu	-10.4626
▁lezár	-10.4651
lhangz	-10.4709
elvon	-10.4715
ásáb	-10.4717
▁kezelő	-10.4735
ária	-10.4737
ecsen	-10.4738
2-	-10.4739
▁gondolo	-10.4781
▁lét	-10.4791
▁bék	-10.4806
zetes	-10.4835
▁Ért	-10.4837
▁mondato	-10.4863
rá	-10.4873
▁szerv	-10.488
lété	-10.4891
▁folytatás	-10.4904
vet	-10.4908
▁hírek	-10.4952
▁Mar	-10.4953
▁ők	-10.497
baleset	-10.4973
▁kiállít	-10.4983
▁kezel	-10.4985
▁Tava	-10.5005
ssé	-10.5027
▁tudhat	-10.5058
▁Bor	-10.5071
erős	-10.5134
szorosa	-10.5153
▁üz	-10.5179
ásá	-10.5193
▁áldozato	-10.5264
mar	-10.5264
▁csőd	-10.529
▁piaco	-10.5299
▁márká	-10.5305
kori	-10.5316
▁hál	-10.5352
pra	-10.5384
nyomás	-10.5393
▁bejár	-10.5455
▁túlzotta	-10.5465
▁beleb	-10.549
▁elzárt	-10.5491
▁köré	-10.5504
▁használt	-10.5506
rán	-10.5528
▁különbség	-10.5542
rága	-10.5548
atyj	-10.5553
▁kórház	-10.5591
▁igénye	-10.5596
gó	-10.5599
ég	-10.5606
olya	-10.5629
rt	-10.5638
▁csinálj	-10.5677
jé	-10.5683
▁talál	-10.5687
▁termé	-10.5705
ációs	-10.5713
rny	-10.5715
▁feljelent	-10.5719
isztségviselők	-10.5747
60	-10.577
▁194	-10.578
▁egyesek	-10.5799
▁történetén	-10.5831
ázásá	-10.5867
ütt	-10.5878
ékes	-10.5885
ter	-10.5886
urina	-10.5889
▁Te	-10.5927
udaika	-10.5947
ásuk	-10.5975
▁Felszabad	-10.5986
mozgás	-10.5987
▁megg	-10.6
tika	-10.6
szállás	-10.6012
▁tra	-10.6035
▁Gaz	-10.6061
épít	-10.6129
▁Németországb	-10.6144
etek	-10.6151
fogalmaz	-10.6172
gem	-10.6177
vény	-10.6199
▁min	-10.6221
írt	-10.6221
du	-10.6251
▁kivált	-10.6253
utópályájá	-10.6274
7-	-10.631
ítő	-10.6351
▁azonos	-10.6441
tervezet	-10.6466
▁változ	-10.6467
tség	-10.6468
▁körzetbe	-10.647
▁Erc	-10.6476
ltek	-10.6547
irk	-10.6547
rom	-10.6554
▁lakóit	-10.6578
olna	-10.6583
lemző	-10.6585
viselt	-10.6592
▁14	-10.6612
érő	-10.6615
70	-10.6628
▁Co	-10.6651
▁Pá	-10.6661
ítsa	-10.6677
▁intéz	-10.6687
uc	-10.674
ere	-10.6754
zupe	-10.6778
▁Pozsonyba	-10.6785
▁bet	-10.6827
▁fővárosba	-10.6849
▁ko	-10.6863
imm	-10.6899
30	-10.6944
90	-10.6958
rci	-10.6966
sik	-10.7006
▁hegy	-10.7022
▁tisztá	-10.7024
zni	-10.703
több	-10.7035
cer	-10.7052
▁u	-10.709
eire	-10.7135
cso	-10.7178
▁élmén	-10.7192
inál	-10.7202
▁dolg	-10.7234
gép	-10.7274
állító	-10.7287
▁stúdió	-10.7371
ügyész	-10.7392
▁közöl	-10.7401
osza	-10.7419
mondás	-10.7434
▁szerepelt	-10.7493
lór	-10.752
ító	-10.7522
bomb	-10.7534
▁következet	-10.7553
▁Hor	-10.7559
sít	-10.757
▁Val	-10.7582
mb	-10.7591
alakítás	-10.7606
ási	-10.7609
rs	-10.7618
▁könyve	-10.7633
▁akadémi	-10.7633
▁elmond	-10.7664
▁kiállításá	-10.7666
▁élvez	-10.768
szág	-10.7685
▁Vu	-10.7694
▁nyer	-10.7776
▁állás	-10.7803
fö	-10.7822
zártak	-10.7848
▁kiáll	-10.7867
zaj	-10.7881
díj	-10.7882
zor	-10.7897
▁évtized	-10.7903
mér	-10.7908
▁Oroszországba	-10.798
emény	-10.7996
énekelt	-10.8029
vere	-10.8084
▁írj	-10.8095
arátunk	-10.8099
ya	-10.8158
ola	-10.8162
sék	-10.8176
▁vess	-10.8193
▁felfog	-10.8217
kás	-10.8221
óipar	-10.8229
▁újságíró	-10.8288
▁eredmény	-10.8321
▁elzár	-10.8344
elmetlenebb	-10.8361
▁műfajb	-10.8365
apján	-10.8368
jain	-10.837
atai	-10.839
▁eladás	-10.8417
▁szervez	-10.8433
lló	-10.8465
hely	-10.8467
ind	-10.8477
keresked	-10.8484
ell	-10.8498
▁köztiszt	-10.8505
▁Sze	-10.8526
küldte	-10.8541
mpu	-10.8551
lte	-10.8555
udi	-10.8576
éve	-10.8584
cke	-10.8593
▁tartós	-10.8612
▁Groznij	-10.8664
pró	-10.8668
alakult	-10.8674
föld	-10.8681
▁tárgy	-10.8687
íti	-10.8699
orok	-10.8722
észség	-10.8735
▁századb	-10.8748
zü	-10.878
▁gyárb	-10.8783
w	-10.879
ncz	-10.879
▁Vörös	-10.8796
koz	-10.8812
jö	-10.8833
▁meghallgat	-10.8843
elosztásá	-10.8848
▁heti	-10.8863
önös	-10.8865
ssége	-10.8883
her	-10.8894
hang	-10.8894
túdiójá	-10.8901
▁élve	-10.8903
ót	-10.8905
indította	-10.8915
jú	-10.8916
soh	-10.8947
▁nyújtan	-10.8956
▁körb	-10.8977
ád	-10.8987
mp	-10.8989
▁elnevez	-10.8998
elje	-10.9014
▁muzsik	-10.9022
vál	-10.9026
▁romá	-10.9037
▁150	-10.904
teszi	-10.9053
ébe	-10.9057
▁problém	-10.9077
spe	-10.9079
állapotá	-10.9086
▁Ví	-10.9088
▁kapcsolatba	-10.9102
ezte	-10.9104
apja	-10.9117
dönten	-10.9129
ezés	-10.9134
▁ezekb	-10.9135
▁ne	-10.9143
ásznak	-10.915
▁kev	-10.9177
tar	-10.918
▁elismerés	-10.9214
kedv	-10.9217
dja	-10.9221
romlott	-10.9239
ítés	-10.9241
csoportba	-10.9241
dísz	-10.9247
▁jelentet	-10.9253
privatizáció	-10.9258
vásár	-10.9273
▁reformo	-10.9274
ezteti	-10.9276
kötelez	-10.9277
világ	-10.9282
▁csinált	-10.9283
gá	-10.9285
rajz	-10.9293
csap	-10.9293
azonos	-10.9299
álód	-10.9305
▁szokáso	-10.9308
dé	-10.9308
▁rég	-10.931
szu	-10.9315
íves	-10.9321
termék	-10.9323
író	-10.9335
▁szoci	-10.9339
esült	-10.935
kezelés	-10.9355
darab	-10.9356
▁demokráci	-10.9358
got	-10.9359
mutat	-10.936
házb	-10.9363
tudt	-10.9364
▁igazolás	-10.9376
tált	-10.9383
zen	-10.9402
rendezésé	-10.9412
busz	-10.9415
húz	-10.9437
fin	-10.9455
oldásá	-10.9459
képes	-10.9459
látoga	-10.9474
lám	-10.9478
▁érdekel	-10.948
▁ri	-10.948
pusztít	-10.9481
tére	-10.9484
evezetes	-10.9486
keret	-10.949
vezetésé	-10.949
▁figyelm	-10.9495
szokás	-10.9526
indított	-10.9535
▁kerüln	-10.9539
▁szándék	-10.954
▁Kl	-10.9541
könyve	-10.9571
sztjá	-10.9574
alériá	-10.9579
műve	-10.9586
▁Kati	-10.9589
követ	-10.9591
szín	-10.9594
tűnő	-10.9602
pót	-10.9605
▁privatizál	-10.9608
▁végz	-10.9609
közlés	-10.9614
gely	-10.9627
▁akadály	-10.9639
láng	-10.9651
▁bevezet	-10.9658
azonosít	-10.9659
▁diáko	-10.9663
idéz	-10.9666
▁fr	-10.9671
üldöz	-10.9673
átfú	-10.9677
szervezés	-10.9677
tagjai	-10.9678
▁elem	-10.9681
lényeges	-10.9682
kutató	-10.9684
megosztás	-10.9686
harmad	-10.9687
bemutató	-10.9688
gyártó	-10.9688
pszichiáter	-10.9689
járőr	-10.9689
kommunist	-10.9689
tudós	-10.9689
pálya	-10.9689
értesülése	-10.9689
pótol	-10.9689
mester	-10.969
figyel	-10.9691
ényes	-10.9692
csoda	-10.9697
hadi	-10.9699
▁főszerep	-10.97
származ	-10.9702
rész	-10.9706
elég	-10.9706
▁üldö	-10.9707
kamat	-10.9712
harc	-10.9712
pontjai	-10.9713
terem	-10.9713
jegy	-10.9715
olás	-10.9718
terület	-10.972
sérülés	-10.9724
érde	-10.9725
▁Pr	-10.9726
eltek	-10.9726
csúsz	-10.9727
mesél	-10.9727
okozó	-10.9731
ejtésér	-10.9732
fordul	-10.9735
33	-10.9743
emlék	-10.9743
piac	-10.9745
kod	-10.975
▁épület	-10.9755
dolgoz	-10.9758
épül	-10.9761
▁azokb	-10.9765
ítélt	-10.9766
irányítás	-10.9769
körbe	-10.9772
eged	-10.9775
dött	-10.9776
kedvelt	-10.978
támogatás	-10.9783
részvénye	-10.9783
illetékes	-10.9784
kezdeményez	-10.9784
információ	-10.9784
kabinet	-10.9784
vendég	-10.9784
amerikai	-10.9784
ritmus	-10.9784
vizit	-10.9784
vizsgál	-10.9784
darabjai	-10.9785
osztály	-10.9785
szület	-10.9785
▁Hun	-10.9787
vagyon	-10.9788
cseré	-10.9789
szerző	-10.9791
ismert	-10.9791
tapasztal	-10.9791
vezetés	-10.9791
▁Ro	-10.9792
kutatás	-10.9792
ötven	-10.9792
elégedett	-10.9793
fizet	-10.9797
gyerek	-10.9798
barát	-10.9798
tartoz	-10.9799
operá	-10.98
Fidesz	-10.9801
kál	-10.9803
vág	-10.9817
állapot	-10.9817
oda	-10.9819
forma	-10.9821
▁kanton	-10.9824
szab	-10.9824
veszély	-10.9825
zeneszerző	-10.9825
nagykövet	-10.9825
fu	-10.9825
konjunktúra	-10.9826
tö	-10.9826
biztos	-10.9828
szenved	-10.9828
export	-10.9828
beszéd	-10.9831
magá	-10.9832
fizetés	-10.9834
C	-10.9835
▁hallgat	-10.9835
gar	-10.9836
ejük	-10.9837
hős	-10.9837
vezetőj	-10.9838
közönség	-10.9839
ezér	-10.9842
választj	-10.9842
▁Y	-10.9843
hamar	-10.9847
polgármester	-10.9848
program	-10.9848
érvény	-10.9848
június	-10.9848
fia	-10.9849
tulajdonosa	-10.9849
▁nyug	-10.9849
▁kályh	-10.985
érz	-10.9853
íció	-10.9853
választó	-10.9856
szobor	-10.9858
rén	-10.9858
izáció	-10.986
nyújt	-10.986
ideg	-10.9861
megállapodás	-10.9863
háború	-10.9866
N	-10.9868
mert	-10.987
J	-10.9872
árverés	-10.9875
németek	-10.9876
▁sofőr	-10.9877
városba	-10.9879
tőke	-10.9884
segít	-10.9884
olaj	-10.9885
film	-10.9885
lá	-10.9885
ismét	-10.9887
képviselő	-10.9887
színpad	-10.989
egyed	-10.9891
rendőr	-10.9891
állam	-10.9892
hitel	-10.9894
előadás	-10.9894
család	-10.9894
jobb	-10.9895
viszony	-10.9897
10	-10.9899
utas	-10.9899
G	-10.9902
Magyarország	-10.9906
idej	-10.9906
politika	-10.9908
▁mérséklő	-10.9909
kérdés	-10.9911
magyar	-10.9913
hatalom	-10.9913
R	-10.9919
"	-10.9921
települése	-10.9925
jövő	-10.9927
mind	-10.9932
tanács	-10.9934
▁terméke	-10.9935
nyom	-10.9938
nék	-10.9939
getés	-10.9943
dol	-10.9948
járt	-10.9953
lta	-10.9954
tartó	-10.9956
ztető	-10.9956
érzék	-10.9959
yr	-10.996
▁Ve	-10.9961
volt	-10.9962
odt	-10.9965
▁no	-10.9967
▁hajto	-10.9969
cégek	-10.9969
eljes	-10.9973
örű	-10.9973
▁befoly	-10.9977
talmaz	-10.9978
ise	-10.9979
vona	-10.998
pontos	-10.998
neve	-10.9986
német	-10.9987
▁széke	-10.9994
értelm	-10.9996
venni	-11.0002
▁százaléko	-11.0004
miatt	-11.0004
autó	-11.0013
új	-11.0015
meleg	-11.0027
károk	-11.0039
▁előír	-11.006
mot	-11.0062
szám	-11.0062
jog	-11.0066
▁országok	-11.0066
ehetne	-11.0067
▁tap	-11.0072
egyetem	-11.0083
ellen	-11.0084
ndu	-11.0092
színi	-11.01
aliz	-11.0103
▁tartás	-11.0108
érzés	-11.0108
tatásai	-11.0121
esb	-11.0123
teremt	-11.0131
zza	-11.0138
▁oper	-11.0139
helyzetb	-11.0151
▁elvál	-11.0154
▁tehetet	-11.0168
9.	-11.0171
fog	-11.0173
kiadó	-11.0174
▁alkot	-11.019
lépés	-11.0194
lásai	-11.0196
nyelv	-11.02
▁kiejt	-11.0201
érni	-11.0204
vonat	-11.0205
néző	-11.0227
ötte	-11.0244
▁feláll	-11.0245
enő	-11.0245
▁előd	-11.0246
ratórium	-11.025
▁akadályoztatás	-11.0261
utó	-11.0266
elképes	-11.0266
▁kutat	-11.0269
efej	-11.0274
▁fenntartása	-11.0275
▁lebont	-11.0275
▁képvisel	-11.0277
▁szoc	-11.0278
▁Európ	-11.0279
ubi	-11.0286
▁megszület	-11.0293
▁cen	-11.0294
működés	-11.0295
erjeszt	-11.0299
▁fize	-11.03
össége	-11.0301
▁alko	-11.0311
▁25	-11.0312
marógép	-11.0321
▁ado	-11.0324
utottak	-11.0325
forduló	-11.0325
ehetséges	-11.0326
képtelen	-11.035
ger	-11.035
tikusok	-11.0352
▁száll	-11.0354
▁köve	-11.0357
stabil	-11.0364
ilenced	-11.0364
mérge	-11.0367
▁helyreállít	-11.037
▁tekinthet	-11.0371
asszi	-11.0373
dzs	-11.0374
nyeg	-11.0378
vég	-11.0383
helyi	-11.0384
▁hivatalba	-11.0385
készülte	-11.0386
állítj	-11.0386
▁megfontolás	-11.0392
▁utóbb	-11.0399
▁techn	-11.0403
▁parancsnok	-11.0412
halt	-11.0416
▁államtitk	-11.0418
▁elégedet	-11.0418
▁választott	-11.0418
szem	-11.0425
zve	-11.0429
tartók	-11.0436
▁kedvez	-11.0437
▁tisztele	-11.0439
▁gépkocsivezető	-11.0453
mil	-11.0456
émák	-11.0461
Br	-11.0461
ügyminisztérium	-11.0466
riz	-11.0468
usic	-11.0474
▁beruház	-11.0474
▁vörös	-11.0476
▁gondolkod	-11.0476
életb	-11.0477
kincsek	-11.0477
grán	-11.0486
▁külkereskedel	-11.0489
▁lakó	-11.0491
▁hóba	-11.0491
oszto	-11.0492
szá	-11.0494
▁jelentkez	-11.0499
ikke	-11.05
▁Ny	-11.0503
lenged	-11.0506
stáb	-11.0508
kö	-11.0509
cher	-11.0512
96-	-11.0516
▁tevékeny	-11.0517
hir	-11.0518
▁találhat	-11.0519
vonal	-11.0521
▁érdeklőd	-11.0522
▁mennyi	-11.0523
gyűjtemény	-11.0525
▁energi	-11.0527
▁kisvár	-11.0528
▁verse	-11.0531
izonyos	-11.0532
lla	-11.0532
szemlé	-11.0533
▁észreve	-11.0537
beszerz	-11.0538
▁garanci	-11.0541
api	-11.0544
ölcs	-11.0545
ün	-11.0545
kozn	-11.0546
szí	-11.0547
▁katasztróf	-11.0547
enger	-11.0548
▁hí	-11.0548
▁Oper	-11.0555
▁for	-11.0556
ische	-11.0557
▁megold	-11.0565
nosz	-11.0566
▁bemutat	-11.0568
96	-11.057
észítés	-11.0572
▁színművé	-11.0574
▁körülménye	-11.0574
▁élte	-11.0575
őművésze	-11.0575
fiú	-11.0576
gatta	-11.0579
▁látvány	-11.0579
étez	-11.0582
▁tárgyalás	-11.0584
orr	-11.0587
szól	-11.0588
▁hivat	-11.0588
▁lako	-11.059
cal	-11.0593
▁melyb	-11.0593
▁mellé	-11.0594
▁1994	-11.0595
▁ifj	-11.0595
▁díjaz	-11.0596
▁megtörtén	-11.0596
▁megtilt	-11.0596
zí	-11.0597
▁raga	-11.0597
▁látván	-11.0598
▁muta	-11.0599
helye	-11.0601
▁próbá	-11.0602
▁fogalm	-11.0603
▁mérsékl	-11.0603
zolidaritás	-11.0603
ontosa	-11.0604
enekült	-11.0605
űvészet	-11.0605
▁kitüntet	-11.0605
▁kamion	-11.0608
zociáldemokrat	-11.0609
▁haszno	-11.0609
zeptember	-11.0611
zövetség	-11.0611
▁roml	-11.0611
▁szerencsé	-11.0612
▁lényege	-11.0613
▁bizalma	-11.0613
övetelé	-11.0614
▁korlát	-11.0616
rverés	-11.0618
éget	-11.0618
▁beszámol	-11.0618
ajda	-11.062
gári	-11.062
odor	-11.062
▁esztend	-11.0622
reml	-11.0622
▁pillan	-11.0623
▁készíte	-11.0624
landok	-11.0625
övetkezet	-11.0626
felejt	-11.0626
deiglenes	-11.0627
▁együttműköd	-11.0627
mányai	-11.0627
örténelm	-11.0628
ísér	-11.0629
apít	-11.0629
onzervgyár	-11.0629
sztrá	-11.0629
▁mell	-11.0629
örzs	-11.063
amionok	-11.0631
ez	-11.0631
▁köszönhet	-11.0631
▁visszaj	-11.0632
észíte	-11.0632
trány	-11.0632
függe	-11.0632
endező	-11.0633
eleb	-11.0634
▁köszön	-11.0634
szolg	-11.0634
nergia	-11.0634
vájc	-11.0635
ris	-11.0635
mlékez	-11.0635
ezőgazdaság	-11.0636
agánlev	-11.0636
üntető	-11.0636
▁hatály	-11.0636
▁elfoglalt	-11.0636
ázisok	-11.0636
igazol	-11.0636
▁hagyomán	-11.0637
iniszterelnök	-11.0637
▁biz	-11.0637
▁érdeklő	-11.0637
öveked	-11.0637
▁pilis	-11.0638
▁dö	-11.0638
ehéz	-11.0638
álasztás	-11.0638
inisztérium	-11.0639
egközelít	-11.0639
▁iszlám	-11.0639
▁Német	-11.0639
rusz	-11.0639
állalat	-11.0639
▁Török	-11.0639
▁kí	-11.0639
özölt	-11.0639
▁réteg	-11.0639
▁hull	-11.0639
▁reményked	-11.0639
ög	-11.064
rdés	-11.064
yönyörű	-11.064
osztat	-11.064
gatás	-11.0641
▁infrastrukt	-11.0641
éged	-11.0641
gazda	-11.0641
▁ülése	-11.0641
olitikus	-11.0641
szüntet	-11.0641
▁kezesség	-11.0641
vállalás	-11.0641
arancsnok	-11.0641
▁tájékoz	-11.0641
gyűl	-11.0641
▁jövedel	-11.0641
▁globalizá	-11.0642
üntetés	-11.0642
tmeneti	-11.0642
adsereg	-11.0642
elkedjen	-11.0643
eneakadémi	-11.0643
rahovac	-11.0643
delj	-11.0643
tanulmányo	-11.0643
▁jellem	-11.0643
verz	-11.0643
hajtás	-11.0643
apok	-11.0643
któber	-11.0643
súfolt	-11.0643
▁törvén	-11.0643
olozsvár	-11.0643
merik	-11.0643
gyógyász	-11.0643
apod	-11.0643
lasztott	-11.0643
▁panasz	-11.0643
keresztel	-11.0643
ifikált	-11.0643
űzoltó	-11.0643
▁gazdá	-11.0643
szöge	-11.0643
rgalmazz	-11.0643
▁Szoci	-11.0643
'	-11.0643
börzé	-11.0643
hordozó	-11.0643
víz	-11.0643
xp	-11.0643
ä	-11.0643
▁pszich	-11.0643
repülő	-11.0643
▁Dub	-11.0643
lendül	-11.0643
csomag	-11.0644
sszió	-11.0644
alékba	-11.0644
solhat	-11.0644
övő	-11.0644
szerelése	-11.0644
málás	-11.0644
szülte	-11.0644
zkodás	-11.0644
97-	-11.0644
ztetés	-11.0644
▁gazdaságba	-11.0644
okráci	-11.0644
ecember	-11.0644
zménye	-11.0644
ilisszántó	-11.0644
chin	-11.0644
bűnb	-11.0645
bru	-11.0645
▁bonyo	-11.0645
▁rög	-11.0645
▁repül	-11.0645
endel	-11.0645
fiká	-11.0645
rtóz	-11.0646
vasút	-11.0646
natkoz	-11.0646
dozás	-11.0646
▁parancs	-11.0646
93	-11.0646
akadályo	-11.0646
ezmény	-11.0646
▁inform	-11.0646
▁állap	-11.0647
tagállam	-11.0647
eglepet	-11.0647
lánb	-11.0647
▁part	-11.0647
▁Szö	-11.0647
▁feny	-11.0648
atását	-11.0648
páros	-11.0648
▁tanácsa	-11.0648
jraönt	-11.0648
íróság	-11.0648
▁garan	-11.0648
Mart	-11.0649
▁kultu	-11.0649
nfer	-11.0649
zése	-11.065
lassz	-11.0651
rádi	-11.0651
arancs	-11.0651
▁utód	-11.0651
▁mög	-11.0651
ucc	-11.0651
ozin	-11.0652
▁belg	-11.0652
annh	-11.0652
alkod	-11.0652
asztal	-11.0652
zisei	-11.0653
ülké	-11.0653
IK	-11.0653
szkod	-11.0653
gö	-11.0654
bort	-11.0654
akításá	-11.0655
elhá	-11.0655
▁fűz	-11.0656
zkö	-11.0656
dov	-11.0656
érség	-11.0656
arco	-11.0657
▁külügy	-11.0657
róf	-11.0658
▁Akad	-11.0659
lált	-11.0659
▁elfog	-11.0661
tóműv	-11.0661
▁Zsi	-11.0662
özön	-11.0662
szthatj	-11.0663
▁töm	-11.0663
fűt	-11.0664
tétbe	-11.0664
▁főb	-11.0664
▁közvet	-11.0665
lamo	-11.0665
▁Fü	-11.0665
▁Op	-11.0665
kodó	-11.0666
imál	-11.0668
▁rest	-11.0668
▁félreért	-11.0668
ádjá	-11.0668
hót	-11.0668
ovább	-11.0669
hil	-11.067
nacionál	-11.0671
enlét	-11.0671
64	-11.0671
rítás	-11.0672
▁választó	-11.0673
▁uta	-11.0673
elmo	-11.0673
lációk	-11.0673
lins	-11.0674
dezés	-11.0674
▁konst	-11.0674
▁támadás	-11.0677
ülésein	-11.0678
▁megszere	-11.0678
rozó	-11.0679
díszv	-11.0679
▁remény	-11.068
▁Fé	-11.0681
▁kiszab	-11.0681
ressz	-11.0681
▁járat	-11.0681
▁Car	-11.0681
fir	-11.0683
jza	-11.0683
onyba	-11.0684
shi	-11.0684
ulál	-11.0684
▁csom	-11.0685
táli	-11.0686
▁indok	-11.0686
ezné	-11.0687
▁törzs	-11.0687
hálózat	-11.0687
edhet	-11.0688
ladás	-11.0689
gezte	-11.069
mber	-11.069
▁kór	-11.069
▁arany	-11.0691
▁vag	-11.0691
▁tartom	-11.0691
ulásá	-11.0691
torn	-11.0692
uszon	-11.0694
roszt	-11.0694
▁művé	-11.0695
szedő	-11.0695
hne	-11.0695
lvilág	-11.0696
kieg	-11.0696
ivatal	-11.0697
▁Ce	-11.0698
▁lény	-11.0698
őjé	-11.0698
őzet	-11.07
▁Zene	-11.07
▁komp	-11.07
zolás	-11.0702
lódás	-11.0705
ásolj	-11.0706
atok	-11.0707
epül	-11.0708
epel	-11.0709
steri	-11.0709
madi	-11.0709
úli	-11.071
osszabb	-11.071
▁jelentő	-11.0711
sch	-11.0712
sítésé	-11.0713
delem	-11.0715
▁szavaz	-11.0715
stb	-11.0716
▁technik	-11.0717
▁éj	-11.0717
zatel	-11.0717
alma	-11.0718
tila	-11.0719
földre	-11.0722
csón	-11.0722
▁autóba	-11.0724
egbe	-11.0726
renciá	-11.0726
rakoz	-11.0729
▁vegy	-11.073
rdo	-11.0731
jel	-11.0732
doka	-11.0733
hie	-11.0734
▁fegyveres	-11.0735
▁ref	-11.0735
geny	-11.0736
gyar	-11.0737
▁lib	-11.0737
nka	-11.0737
57	-11.0743
▁jav	-11.0744
▁kifo	-11.0744
ktus	-11.0747
eper	-11.075
▁csö	-11.0751
▁világszer	-11.0751
dug	-11.0755
▁Tud	-11.0756
kölcs	-11.0756
▁versen	-11.0756
▁bar	-11.0757
ékbe	-11.0757
▁elválas	-11.0759
díjas	-11.0761
lélő	-11.0763
szha	-11.0763
tatását	-11.0763
semmisít	-11.0765
lató	-11.0765
énye	-11.0769
kab	-11.0769
osítás	-11.0769
psz	-11.0771
▁megszé	-11.0771
ltság	-11.0773
▁Ju	-11.0774
életlen	-11.0774
ogna	-11.0775
írá	-11.0775
▁jelentése	-11.0775
▁emléke	-11.0775
▁fonto	-11.0777
ények	-11.0779
ér	-11.0779
eine	-11.078
ndr	-11.0781
rös	-11.0782
▁Pa	-11.0782
ramjá	-11.0784
társát	-11.0784
▁Tisz	-11.0785
ségtelen	-11.0785
dába	-11.0787
▁elv	-11.0788
vics	-11.0788
termel	-11.0788
székh	-11.0789
▁értesül	-11.079
takar	-11.0795
▁tava	-11.0799
liá	-11.0802
▁mód	-11.0806
▁értékes	-11.0808
▁kisebb	-11.0813
▁átté	-11.0814
▁Vla	-11.0814
▁Ál	-11.0814
▁megelége	-11.0814
dá	-11.0815
fus	-11.0816
▁elfo	-11.0816
vonala	-11.0817
▁bec	-11.0819
mora	-11.0822
▁alkotás	-11.0822
▁eleme	-11.0826
lőn	-11.0827
íts	-11.0831
▁átlag	-11.0837
nden	-11.0838
▁drá	-11.0839
▁inga	-11.0841
▁hajl	-11.0841
álja	-11.0842
▁din	-11.0844
vna	-11.0847
▁kény	-11.085
▁mesé	-11.0851
lo	-11.0853
▁Vo	-11.086
42	-11.0862
ukciók	-11.0863
árult	-11.0867
tett	-11.0871
pontj	-11.0873
▁nyilvános	-11.0874
atkozni	-11.0875
tetett	-11.0876
rvos	-11.0882
osult	-11.0883
rd	-11.0889
veg	-11.0889
▁szeme	-11.089
87	-11.089
rország	-11.0891
vje	-11.0891
onyos	-11.0892
▁Gé	-11.0893
▁Leg	-11.0896
hetés	-11.0896
mények	-11.0897
dv	-11.09
llg	-11.09
értékén	-11.09
letet	-11.0902
tóbb	-11.0903
ázott	-11.0904
yitott	-11.0906
49	-11.0908
gtek	-11.0909
ogat	-11.0912
pon	-11.0914
solt	-11.0916
zésé	-11.0916
sszimi	-11.0918
kusz	-11.0918
▁megáll	-11.0919
lása	-11.092
vész	-11.0924
érkezne	-11.0926
▁Kiemel	-11.0927
talá	-11.0928
kilenced	-11.093
▁léte	-11.0933
repe	-11.0933
47	-11.0933
ské	-11.0935
▁meghal	-11.0943
pera	-11.0947
lcsi	-11.0949
terjeszt	-11.0952
ossz	-11.0954
▁érti	-11.0956
▁amelyb	-11.0957
▁Gal	-11.0958
▁éneke	-11.0958
rülés	-11.0961
ciós	-11.0963
▁Mos	-11.0964
ztos	-11.0965
▁Ön	-11.0965
ntoni	-11.0967
lföld	-11.0969
lum	-11.097
ov	-11.0971
teljes	-11.0974
ságáb	-11.0976
▁mun	-11.0976
▁lef	-11.0978
▁tor	-11.0992
▁ura	-11.0992
ünt	-11.0997
rnyék	-11.0997
yebb	-11.0998
úcs	-11.1004
69	-11.1004
6-	-11.1005
uss	-11.1013
örv	-11.1013
mont	-11.1015
▁Józs	-11.1017
efejez	-11.1018
▁negy	-11.1024
▁állása	-11.1024
istáb	-11.1026
▁cá	-11.1027
lyos	-11.1035
turális	-11.1036
▁lelk	-11.1037
darabb	-11.1047
obá	-11.1047
nyú	-11.1048
▁fegy	-11.1048
óniá	-11.1048
illa	-11.1049
esés	-11.105
dua	-11.1052
▁tran	-11.1054
egin	-11.1055
elle	-11.1058
ált	-11.1058
zék	-11.1058
értése	-11.1066
nst	-11.107
▁kezelés	-11.1076
▁helyzete	-11.1078
▁Pri	-11.108
akciók	-11.1086
kált	-11.109
érését	-11.1091
▁formál	-11.1095
▁Kom	-11.1103
határoz	-11.1112
▁Egyes	-11.1116
sztotta	-11.1117
tatás	-11.1128
▁adat	-11.1132
aszt	-11.1141
ibusz	-11.1146
aszk	-11.1146
fak	-11.1154
ndj	-11.1156
élet	-11.1159
ndes	-11.1168
sult	-11.1172
▁Ed	-11.1178
▁pén	-11.118
▁leve	-11.1182
▁muz	-11.1189
▁alapo	-11.1191
yú	-11.1193
tlen	-11.1196
jék	-11.1204
▁kur	-11.1207
alem	-11.121
▁szemé	-11.1225
fek	-11.1226
osság	-11.1227
adalom	-11.1234
▁termék	-11.1239
▁újjá	-11.1242
enne	-11.1249
sztikus	-11.1275
ntézményrendszer	-11.1278
▁hel	-11.1284
rtés	-11.1286
▁kult	-11.1288
▁pusztít	-11.1295
lyik	-11.1304
ózs	-11.1311
▁útmu	-11.1326
űv	-11.1328
viselői	-11.1329
▁fejle	-11.1331
▁népe	-11.1335
▁kivé	-11.1341
▁befolyás	-11.1349
zük	-11.1358
zit	-11.1365
lő	-11.1366
fó	-11.1369
▁Pár	-11.1371
oger	-11.1385
inált	-11.1386
annyi	-11.1389
▁felle	-11.14
gelő	-11.1404
▁elf	-11.1408
lhető	-11.1412
▁érzéke	-11.1423
rtok	-11.1425
▁fala	-11.1431
kém	-11.1433
▁alk	-11.1434
égi	-11.1449
iségé	-11.1449
kov	-11.1449
alm	-11.1451
zenek	-11.1453
▁segíts	-11.1459
áris	-11.1465
ssa	-11.1484
íciói	-11.1494
mann	-11.1499
árján	-11.15
▁Yo	-11.1505
▁tenge	-11.1522
▁törö	-11.153
▁elh	-11.1532
egett	-11.1541
pta	-11.1543
áci	-11.155
ber	-11.1582
járat	-11.1591
▁otthont	-11.1594
▁Szak	-11.1608
ö	-11.3449
Y	-12.4383
Q	-12.4384
!	-12.4385
Ö	-12.4386
Ú	-12.4387
?	-12.4388
x	-12.4389
É	-12.439
U	-12.4391
L	-12.4392
)	-12.4393
B	-12.4394
í	-12.4395
