<unk>	0
<s>	0
</s>	0
▁	-3.37758
n	-3.42777
a	-3.49788
▁.	-3.53632
▁,	-3.7721
t	-3.85933
i	-4.03933
s	-4.25882
▁ja	-4.38338
e	-4.51823
▁on	-4.68198
d	-4.79074
in	-4.88296
l	-4.93908
u	-4.99646
o	-5.01747
ta	-5.074
en	-5.25325
ä	-5.32238
h	-5.32508
an	-5.39494
▁ei	-5.40384
-	-5.40915
r	-5.45485
ssa	-5.4598
b	-5.46444
id	-5.51358
sta	-5.55024
ja	-5.55942
ma	-5.55948
te	-5.63067
da	-5.65706
▁ka	-5.66689
▁:	-5.69537
le	-5.71379
st	-5.77268
si	-5.79754
▁et	-5.82243
ti	-5.82736
ga	-5.84603
gi	-5.87276
y	-5.89791
ks	-5.92423
ne	-5.975
ka	-5.98105
lle	-5.99574
v	-6.01142
ke	-6.01384
ki	-6.02723
▁oli	-6.02725
lla	-6.06108
na	-6.09264
ksi	-6.10831
ko	-6.11411
tu	-6.11451
ri	-6.12658
va	-6.13814
tä	-6.14212
k	-6.14416
▁?	-6.14863
m	-6.15407
á	-6.16365
us	-6.17019
ra	-6.21836
sti	-6.22154
▁ma	-6.22427
la	-6.28504
lt	-6.28547
on	-6.29562
is	-6.29929
▁kui	-6.30295
vi	-6.3031
▁)	-6.33421
▁"	-6.35343
ku	-6.36519
.	-6.36815
▁(	-6.36957
se	-6.37594
tta	-6.37715
de	-6.40079
me	-6.40375
▁siis	-6.41571
it	-6.45127
▁see	-6.45881
▁A	-6.50253
ge	-6.50712
et	-6.53247
p	-6.53537
että	-6.53571
stä	-6.5796
re	-6.58294
kin	-6.58436
ni	-6.58677
li	-6.5898
to	-6.58995
nud	-6.59597
▁ole	-6.6029
▁-	-6.60664
▁E	-6.61331
ssä	-6.6178
vad	-6.62721
vat	-6.63161
▁!	-6.65044
▁nii	-6.67299
▁S	-6.69328
sa	-6.69871
lo	-6.70314
ista	-6.71658
▁sa	-6.71667
▁saa	-6.72866
▁mu	-6.74256
pa	-6.74799
di	-6.74955
tti	-6.75254
mi	-6.75871
gu	-6.76668
▁se	-6.77259
▁o	-6.79292
g	-6.7991
llä	-6.81128
el	-6.82222
▁lea	-6.82881
▁oma	-6.8321
▁O	-6.85054
c	-6.86063
:	-6.86701
▁aga	-6.8702
▁pa	-6.87023
ty	-6.87182
än	-6.87978
▁...	-6.90298
▁jo	-6.91804
pi	-6.91948
nen	-6.92462
es	-6.93708
õ	-6.94265
▁su	-6.95209
▁ko	-6.95641
▁ta	-6.96579
tud	-6.97171
▁Ma	-6.97222
sin	-6.97567
▁myös	-6.98848
ro	-6.99188
▁või	-7.0247
inen	-7.05432
ve	-7.06484
ar	-7.07521
at	-7.08571
▁mis	-7.08805
2	-7.09018
▁K	-7.09158
▁T	-7.09197
ha	-7.09213
er	-7.09308
ttu	-7.09802
š	-7.1027
kka	-7.1091
al	-7.11347
ju	-7.1164
▁go	-7.11957
f	-7.1226
▁ra	-7.12699
nä	-7.12991
▁pole	-7.14664
▁seda	-7.15996
or	-7.16137
nut	-7.16643
taan	-7.17142
▁pi	-7.18243
mme	-7.18577
nsa	-7.186
▁tai	-7.18615
tus	-7.1976
▁voi	-7.19807
ü	-7.20615
▁ju	-7.21828
▁leat	-7.2313
pu	-7.23231
▁kes	-7.23728
ö	-7.2376
jä	-7.23922
▁va	-7.24794
▁selle	-7.24932
0	-7.25488
▁Ja	-7.26445
▁ovat	-7.26569
▁p	-7.26749
▁ha	-7.26776
1	-7.27701
un	-7.28837
▁b	-7.28901
jo	-7.31661
su	-7.31927
▁k	-7.3216
▁sama	-7.32731
▁P	-7.32769
lli	-7.33652
▁f	-7.33697
mä	-7.33759
▁la	-7.34315
▁Ka	-7.34703
▁–	-7.34872
▁lei	-7.35758
maan	-7.36038
ik	-7.363
6	-7.36526
as	-7.36559
issa	-7.36693
ille	-7.37392
mise	-7.37441
iden	-7.37463
il	-7.37479
▁mukaan	-7.37876
ru	-7.38623
lu	-7.39392
▁kun	-7.39845
he	-7.40243
4	-7.40286
os	-7.40516
▁joka	-7.41227
ide	-7.41778
▁eri	-7.41826
7	-7.42092
kki	-7.42204
du	-7.42443
▁me	-7.43071
kä	-7.43129
▁I	-7.43496
▁tu	-7.44555
mine	-7.44815
5	-7.44864
z	-7.45302
▁pää	-7.4543
▁Sa	-7.45729
▁hän	-7.46501
pe	-7.46941
ten	-7.47231
▁to	-7.47445
ut	-7.47678
▁mutt	-7.4808
▁ise	-7.4913
▁Te	-7.49485
ho	-7.4983
▁kuin	-7.50185
3	-7.5103
▁sen	-7.51339
mu	-7.51376
▁ikka	-7.5178
jen	-7.52243
aan	-7.52849
ise	-7.52941
▁osa	-7.53419
▁te	-7.54155
▁so	-7.54185
▁Ko	-7.55037
den	-7.557
▁auto	-7.5635
vuonna	-7.56461
▁olla	-7.56594
ba	-7.56999
isi	-7.57154
▁pu	-7.58008
kko	-7.58247
8	-7.59171
▁po	-7.59187
▁F	-7.59189
▁sekä	-7.59306
van	-7.60037
vät	-7.60783
ud	-7.60985
je	-7.61404
vo	-7.61586
sen	-7.62837
ji	-7.62996
▁M	-7.63391
▁G	-7.63608
mo	-7.64194
▁Tämä	-7.64345
▁kõik	-7.64454
▁minu	-7.64553
▁*	-7.64773
itä	-7.65229
▁lo	-7.65955
lta	-7.6596
▁kas	-7.66291
ime	-7.6687
▁oleks	-7.66989
x	-7.67045
ään	-7.67513
▁ära	-7.678
teen	-7.68231
▁Se	-7.68298
ste	-7.68422
▁s	-7.68487
isen	-7.68996
▁toimi	-7.69072
go	-7.69497
minen	-7.69682
ed	-7.69704
bi	-7.69808
▁mingi	-7.70726
tel	-7.71576
▁mitte	-7.71895
tiin	-7.72713
▁välja	-7.73198
tö	-7.73205
▁veel	-7.73368
▁B	-7.73502
hti	-7.74902
9	-7.75059
▁kanssa	-7.75105
▁luo	-7.75285
nyt	-7.75285
▁Va	-7.75445
▁Kui	-7.75825
▁v	-7.76299
▁sai	-7.76323
rg	-7.76513
▁U	-7.77391
ll	-7.77687
▁č	-7.78069
▁vii	-7.78221
▁Tä	-7.78454
▁La	-7.78614
neet	-7.78746
▁Hän	-7.78918
kse	-7.78944
▁var	-7.79024
▁seal	-7.79268
sid	-7.79784
▁ri	-7.79932
▁jub	-7.8002
▁Ta	-7.80443
▁iga	-7.80546
mis	-7.80767
▁Turun	-7.80788
▁nagu	-7.80817
essa	-7.81596
vu	-7.81609
I	-7.81893
illa	-7.82022
w	-7.82069
▁re	-7.82361
▁pe	-7.82627
hta	-7.82989
j	-7.83176
▁midagi	-7.83752
sse	-7.84035
▁sii	-7.84058
rk	-7.84085
▁aasta	-7.84202
▁olen	-7.84825
▁de	-7.85828
▁tä	-7.8598
▁jää	-7.86391
▁palju	-7.86535
ega	-7.86856
mus	-7.87153
▁N	-7.87735
A	-7.87893
ot	-7.88226
▁mida	-7.883
usta	-7.8847
lä	-7.88818
▁ve	-7.88932
▁küll	-7.88958
maa	-7.8976
mist	-7.89891
▁lähe	-7.89979
assa	-7.9036
hu	-7.90825
mpi	-7.90844
des	-7.90907
▁itse	-7.90935
lan	-7.91067
utu	-7.91838
dus	-7.91863
vä	-7.91994
▁he	-7.92149
▁saab	-7.92762
▁no	-7.93075
tele	-7.9324
kas	-7.93258
▁vai	-7.94208
▁väga	-7.95298
▁tea	-7.95317
▁Le	-7.95464
▁jälkeen	-7.9586
▁pea	-7.95965
mp	-7.96209
▁Mi	-7.96434
▁maa	-7.96494
man	-7.96622
▁kuitenk	-7.96695
las	-7.96831
D	-7.9789
▁esi	-7.97901
▁Si	-7.98107
▁ollut	-7.98349
▁2	-7.98575
▁üks	-7.9904
T	-7.99097
per	-7.99123
▁työ	-7.9944
ksen	-7.99564
ssi	-7.99634
em	-7.99695
▁Ju	-7.99784
val	-8.00019
▁si	-8.00325
▁oh	-8.00428
ning	-8.00677
▁Vi	-8.00914
sed	-8.00973
▁vastu	-8.01237
▁lihtsa	-8.014
▁vuoden	-8.01456
S	-8.01517
ist	-8.01755
▁niin	-8.01854
▁prosentti	-8.02192
kke	-8.0221
▁@	-8.02264
kaan	-8.02428
▁vasta	-8.02573
▁enam	-8.03106
▁vaja	-8.03141
▁nu	-8.03246
istä	-8.03335
ul	-8.03379
▁l	-8.03496
▁No	-8.03496
▁kah	-8.03555
▁kuu	-8.036
nsä	-8.03837
men	-8.04236
est	-8.04556
lik	-8.05062
▁sitä	-8.05249
▁ru	-8.05671
▁üle	-8.05918
▁R	-8.06574
▁ne	-8.06851
▁kus	-8.06903
ili	-8.06934
▁neid	-8.06943
▁vain	-8.07015
▁ea	-8.07313
▁V	-8.07331
▁tuli	-8.07348
▁jonk	-8.07459
ita	-8.07636
▁H	-8.08568
po	-8.08648
▁kasva	-8.08769
▁need	-8.09081
▁Su	-8.09179
▁tuleb	-8.09321
▁asi	-8.09356
▁ku	-8.0956
▁10	-8.09696
▁saada	-8.09766
▁See	-8.09911
lin	-8.10083
▁võib	-8.10353
ter	-8.10419
R	-8.10802
▁ahte	-8.10944
▁suur	-8.10954
▁val	-8.10956
ii	-8.11033
ái	-8.1166
▁mul	-8.11815
▁To	-8.11962
▁mo	-8.11967
▁hea	-8.12078
▁väli	-8.12232
án	-8.12474
▁vä	-8.12693
▁ii	-8.12761
▁dá	-8.12796
kaa	-8.13056
ng	-8.13114
▁Ra	-8.13236
▁kaikki	-8.13522
▁nime	-8.13748
▁L	-8.13994
▁peale	-8.14354
vaa	-8.14411
vá	-8.14655
▁lä	-8.14799
▁1	-8.15244
▁Pa	-8.15351
tava	-8.15922
M	-8.16311
min	-8.16511
▁vuo	-8.16641
nad	-8.16686
▁teha	-8.16954
▁mitä	-8.16995
neen	-8.17418
▁ro	-8.17603
lis	-8.17623
ust	-8.17756
▁j	-8.1778
▁aja	-8.17837
sten	-8.17874
▁muut	-8.17913
ihin	-8.18182
/	-8.18688
▁olisi	-8.18782
▁Aga	-8.18856
kk	-8.18868
▁2009	-8.19213
'	-8.19686
mas	-8.19715
▁yli	-8.19755
▁Ha	-8.20196
▁sitten	-8.20198
▁3	-8.20247
han	-8.20297
▁Tu	-8.20453
▁viime	-8.20478
▁asia	-8.20693
een	-8.20868
▁Suomen	-8.2103
ttiin	-8.2115
▁Ku	-8.21189
▁keegi	-8.21241
mista	-8.21418
mb	-8.21428
ele	-8.21455
▁W	-8.21504
▁lai	-8.21611
▁euro	-8.21674
▁hi	-8.21721
ky	-8.21723
▁jotk	-8.21832
▁Mo	-8.21909
▁jossa	-8.21941
selt	-8.22117
▁ainul	-8.22171
üüd	-8.22207
▁usei	-8.22355
▁eli	-8.22377
itse	-8.22419
yy	-8.22577
▁sano	-8.23036
▁siin	-8.23071
mma	-8.23178
mm	-8.23289
đ	-8.23512
▁4	-8.23819
pp	-8.23827
use	-8.24186
▁ledje	-8.24238
line	-8.24254
▁sest	-8.24505
ella	-8.2473
takse	-8.25087
▁18	-8.25289
▁kuulu	-8.25691
sillä	-8.25932
▁dan	-8.26026
rra	-8.26039
▁koko	-8.2608
tada	-8.26143
misen	-8.26214
▁õ	-8.26228
▁arva	-8.26307
▁ava	-8.26574
▁jos	-8.26721
▁Kas	-8.26925
kään	-8.27408
del	-8.27603
hto	-8.27633
oja	-8.27652
essä	-8.27803
▁tee	-8.28039
▁bo	-8.28051
lais	-8.2806
N	-8.28222
öö	-8.28225
kan	-8.28777
kseen	-8.29125
isten	-8.29145
▁Y	-8.29425
▁tõ	-8.29664
rin	-8.29804
ike	-8.30494
ltä	-8.30551
00	-8.30673
O	-8.307
ppi	-8.3071
▁maid	-8.30721
mmi	-8.30721
▁sel	-8.30785
▁tuo	-8.30806
▁lu	-8.30811
isesti	-8.30818
uksia	-8.3107
▁Mu	-8.3121
▁lii	-8.31816
ppa	-8.32048
▁8	-8.32159
K	-8.32174
▁aru	-8.32353
uksen	-8.32399
▁Ei	-8.32427
▁Po	-8.3243
ov	-8.32781
▁vaid	-8.33148
▁sin	-8.3372
▁5	-8.33754
▁vielä	-8.33922
▁tagasi	-8.34055
▁vaa	-8.34058
▁yliopiston	-8.34151
▁olivat	-8.34173
▁ihan	-8.34236
rj	-8.34312
▁m	-8.34318
isia	-8.3457
ker	-8.34989
▁käi	-8.35314
llinen	-8.35673
▁suure	-8.3576
rit	-8.35794
▁hyvin	-8.36171
pä	-8.3639
olla	-8.36512
▁häne	-8.36576
ras	-8.36624
ivat	-8.36805
▁puu	-8.36944
▁J	-8.37074
▁eivät	-8.37182
E	-8.37283
▁puhu	-8.37453
▁Ar	-8.38079
ää	-8.38421
llis	-8.38449
eeri	-8.38575
▁para	-8.38602
P	-8.38663
č	-8.38668
▁vie	-8.39007
▁Son	-8.39386
mään	-8.39685
▁esimerki	-8.39699
▁kohta	-8.39909
▁asu	-8.40184
▁C	-8.40229
uri	-8.40359
▁ilma	-8.40379
▁gal	-8.40605
▁miel	-8.40784
▁De	-8.41068
set	-8.41125
▁Na	-8.413
op	-8.4177
ce	-8.41884
▁da	-8.41933
fi	-8.41942
▁rohkem	-8.42121
▁mõ	-8.4218
laš	-8.42385
llu	-8.42444
▁Jo	-8.42549
▁tule	-8.42551
▁olema	-8.42779
▁c	-8.42881
lus	-8.435
tor	-8.43606
tään	-8.43728
yn	-8.43761
▁raha	-8.43881
▁..	-8.43893
▁peaks	-8.43915
llise	-8.44138
ch	-8.44276
▁määrä	-8.44319
▁sul	-8.44391
▁tunne	-8.44425
▁Li	-8.44605
▁osta	-8.44676
▁kaksi	-8.44732
una	-8.45417
▁yksi	-8.45446
▁ala	-8.45469
▁gá	-8.45491
ver	-8.45662
yhtiö	-8.45831
C	-8.46316
▁Sii	-8.46363
seen	-8.46395
malla	-8.46504
▁So	-8.46607
▁jota	-8.46657
▁do	-8.4676
▁teema	-8.46817
utta	-8.46857
▁g	-8.46904
igu	-8.46961
▁enne	-8.4704
▁sámi	-8.47231
▁000	-8.4726
▁noin	-8.47305
▁nende	-8.47606
▁buo	-8.47757
▁alu	-8.48085
L	-8.48166
uutta	-8.48426
▁käy	-8.48823
▁hyvä	-8.48888
▁käsi	-8.49444
▁du	-8.49462
hte	-8.49566
lise	-8.49626
▁uusi	-8.49776
▁ühe	-8.49803
▁loo	-8.50098
ppe	-8.50256
▁kirja	-8.50284
▁kerto	-8.50376
V	-8.5039
sia	-8.50465
▁ai	-8.50703
iset	-8.50754
uvvo	-8.50947
▁aika	-8.50957
bo	-8.51132
▁just	-8.51325
miseen	-8.51387
▁Me	-8.51673
yö	-8.51762
▁seura	-8.52288
▁hä	-8.52403
ala	-8.52481
▁kuul	-8.52504
▁koska	-8.5256
▁teki	-8.52862
▁Ti	-8.53146
▁tul	-8.53198
▁kur	-8.53242
tun	-8.53256
▁ky	-8.53292
▁tei	-8.53384
▁Ne	-8.53506
ön	-8.5352
▁le	-8.53846
▁:)	-8.53899
▁selles	-8.54005
▁Pi	-8.54059
▁ase	-8.54249
aali	-8.54373
▁Lo	-8.54567
▁mii	-8.54571
uh	-8.55279
▁In	-8.55306
▁kolme	-8.55339
dega	-8.55387
eri	-8.5556
▁hei	-8.55622
▁asja	-8.5565
ile	-8.55696
tur	-8.55698
om	-8.55955
kuu	-8.56131
kö	-8.56239
gga	-8.56341
hk	-8.56372
▁parem	-8.56388
▁Do	-8.56427
ys	-8.56453
▁loppu	-8.56623
▁töö	-8.56744
isu	-8.56773
▁On	-8.5697
▁kesk	-8.57261
▁muun	-8.5727
miseks	-8.57306
U	-8.5735
▁Ho	-8.57679
isto	-8.57767
▁kuva	-8.58004
▁neljä	-8.58051
▁mina	-8.58111
hka	-8.58268
▁He	-8.58383
▁kr	-8.585
▁dat	-8.58512
▁/	-8.58802
▁tead	-8.58846
▁yliopisto	-8.59151
ttä	-8.5918
ima	-8.59266
▁Re	-8.59347
ár	-8.59463
▁Dá	-8.5952
▁Suomessa	-8.59587
▁juo	-8.596
▁eest	-8.59971
▁Ba	-8.60271
test	-8.60412
▁alla	-8.60517
ris	-8.60526
dit	-8.60529
▁198	-8.61001
▁Kun	-8.61069
▁meie	-8.61073
▁maailma	-8.61215
dest	-8.6129
▁sä	-8.61293
▁syy	-8.61298
▁mille	-8.61408
▁henkilö	-8.61574
oli	-8.61589
▁199	-8.61683
iku	-8.61725
▁6	-8.61777
▁Nii	-8.61827
yty	-8.61912
uuden	-8.61981
▁Euroopan	-8.62302
▁al	-8.62334
▁vähe	-8.62504
▁Mun	-8.62663
▁kä	-8.62731
tty	-8.62841
rm	-8.62998
▁näi	-8.63722
tettiin	-8.6389
▁musta	-8.63905
ryhmä	-8.63983
tama	-8.64026
▁aikana	-8.64394
▁Ki	-8.64427
▁D	-8.64761
▁Da	-8.64855
ttää	-8.65018
lit	-8.65065
my	-8.65175
oma	-8.6548
▁olnud	-8.65654
ttava	-8.65818
▁15	-8.65948
▁kõ	-8.65956
▁vi	-8.65978
ojen	-8.66031
▁too	-8.66114
▁nyt	-8.66145
▁lisää	-8.66222
▁Lu	-8.66386
▁miks	-8.66489
kunta	-8.66508
talo	-8.66535
ing	-8.66574
oh	-8.66689
edje	-8.66875
▁12	-8.66959
▁kul	-8.67033
▁kii	-8.672
▁tulee	-8.67216
tori	-8.6743
▁voida	-8.67477
▁kogu	-8.67776
um	-8.67884
mistä	-8.68152
iste	-8.6843
já	-8.68488
kkaa	-8.68626
▁pärast	-8.68629
▁kuid	-8.68952
▁ol	-8.68992
elle	-8.69023
ura	-8.69049
ikka	-8.69161
▁jne	-8.69178
▁inime	-8.69271
▁son	-8.69326
▁põ	-8.69349
▁korra	-8.69586
▁ennen	-8.69665
kaup	-8.69673
▁ela	-8.69971
▁sellise	-8.69983
▁sis	-8.70079
▁praegu	-8.7028
▁valtio	-8.70349
▁valta	-8.70457
lii	-8.70509
mad	-8.70694
▁ajal	-8.71075
massa	-8.71191
▁tila	-8.71255
laine	-8.71275
▁;	-8.71287
iksi	-8.71342
▁eks	-8.71377
▁tah	-8.71393
▁mi	-8.71479
ite	-8.71528
▁Mithridate	-8.71917
▁nimi	-8.71978
▁läbi	-8.72022
▁sisä	-8.72036
▁vaikka	-8.72191
▁inimese	-8.72394
▁kohe	-8.72553
▁koos	-8.72779
▁barg	-8.72881
gg	-8.73048
▁Pe	-8.73215
tila	-8.73381
▁paljon	-8.73584
▁20	-8.73817
▁muu	-8.73821
▁laske	-8.73946
ilta	-8.73995
▁levi	-8.73995
▁hu	-8.74259
isiin	-8.74306
▁kor	-8.7435
▁Ve	-8.74569
issä	-8.74641
▁7	-8.74791
ilu	-8.75166
▁Venäjä	-8.75279
ck	-8.75281
telu	-8.75332
▁Dat	-8.75362
▁vali	-8.75373
▁Go	-8.75583
▁ette	-8.76075
kti	-8.76095
eita	-8.76112
▁taha	-8.76239
▁kasuta	-8.7659
hin	-8.76632
▁elämä	-8.76774
▁mõtle	-8.76894
▁epä	-8.76973
▁Di	-8.77078
▁gea	-8.77108
tettu	-8.7728
ellä	-8.77305
iin	-8.77395
▁tark	-8.77422
▁päivän	-8.77637
▁vel	-8.77753
hdo	-8.77903
▁suuri	-8.78023
▁vahe	-8.78042
via	-8.7834
▁vana	-8.78622
isin	-8.78738
_	-8.78757
▁ülds	-8.78757
▁kirjuta	-8.78759
ivät	-8.7895
tega	-8.78956
llaan	-8.79034
ettiin	-8.79094
istu	-8.79123
esti	-8.79167
▁tämän	-8.79231
päev	-8.79307
työ	-8.7932
▁tun	-8.794
▁suht	-8.79407
pää	-8.7944
▁kir	-8.79527
liselt	-8.79695
▁usu	-8.79805
vel	-8.79881
olu	-8.8039
▁kulu	-8.8046
▁tr	-8.80527
udu	-8.8055
osa	-8.8061
▁võiks	-8.80665
▁müü	-8.80718
▁pala	-8.80901
päivä	-8.80914
▁sil	-8.8097
▁pitkä	-8.80971
▁vastaan	-8.81068
▁ilm	-8.81195
▁lau	-8.81279
▁võ	-8.8132
▁Mar	-8.81447
▁tundu	-8.81448
▁Be	-8.81535
▁halua	-8.81699
▁ihmis	-8.8182
sä	-8.81927
▁enda	-8.82129
▁velka	-8.82139
▁mies	-8.82354
▁pitää	-8.82452
▁tema	-8.82459
▁õige	-8.82519
▁syö	-8.82571
▁kõige	-8.82658
tää	-8.82788
▁muita	-8.82818
matu	-8.82878
ry	-8.83017
tävä	-8.83171
▁min	-8.83271
mia	-8.83304
eet	-8.83344
eksi	-8.83406
ien	-8.83441
▁täna	-8.83464
aika	-8.83626
▁maha	-8.83835
lleen	-8.83942
osta	-8.84117
▁tehdä	-8.84306
kuidas	-8.84372
▁Vuo	-8.84758
jien	-8.84786
umi	-8.85083
▁meil	-8.85104
rr	-8.85137
tetty	-8.85143
▁tieto	-8.85324
laise	-8.85546
▁pro	-8.85675
▁ehk	-8.8577
▁tutkimus	-8.86064
▁Ro	-8.86076
▁enemm	-8.86108
▁jäsen	-8.86109
▁koti	-8.86235
▁linna	-8.86247
seks	-8.86248
▁lisäksi	-8.86271
▁EU	-8.8628
llisen	-8.86347
▁naa	-8.864
▁pois	-8.86431
inna	-8.8646
▁istu	-8.86484
▁piir	-8.86502
H	-8.86558
▁ensimmäi	-8.86963
tab	-8.87008
▁sanoi	-8.87094
▁pel	-8.87145
▁Al	-8.87367
määrä	-8.87372
▁koha	-8.87558
jit	-8.87629
▁julkais	-8.87681
▁Pal	-8.87684
▁and	-8.8794
▁dál	-8.88074
uks	-8.88137
▁100	-8.88163
▁ollu	-8.88275
▁päris	-8.88277
▁kel	-8.88484
▁euroa	-8.88488
G	-8.88521
ev	-8.88612
daga	-8.88623
▁muht	-8.88645
hje	-8.88699
iseksi	-8.88713
▁lähes	-8.88804
▁perus	-8.8881
skel	-8.89139
▁läheb	-8.89168
tiiv	-8.89672
gá	-8.89711
▁Vä	-8.89788
▁kris	-8.89912
tes	-8.89946
▁aastat	-8.89973
▁birra	-8.89989
▁jah	-8.90015
▁sellist	-8.90041
▁muidugi	-8.90112
liku	-8.90142
▁yl	-8.90158
vien	-8.9024
uste	-8.90243
▁mielde	-8.90272
▁Tässä	-8.90404
▁kuna	-8.90418
oihin	-8.90462
misel	-8.90579
▁tapahtu	-8.9066
lah	-8.90664
▁mikä	-8.90787
mmä	-8.90807
▁päeva	-8.90849
▁korda	-8.90917
laste	-8.90924
▁alka	-8.90991
illä	-8.91011
▁peab	-8.91127
tuksen	-8.91257
hän	-8.91416
vuo	-8.91643
▁En	-8.91662
sel	-8.91765
−	-8.91983
▁kindla	-8.91984
▁ütle	-8.9226
co	-8.92336
▁oled	-8.92516
▁liiga	-8.92523
▁vähema	-8.92684
▁sá	-8.92765
auto	-8.92818
▁näite	-8.92837
▁all	-8.92852
▁16	-8.92917
▁aega	-8.93006
▁tuke	-8.93158
nnut	-8.93187
likult	-8.93201
▁saanud	-8.93285
▁nuor	-8.9333
▁alle	-8.9338
▁Mis	-8.9339
▁ilmsel	-8.93411
▁elu	-8.93767
▁talous	-8.93904
vast	-8.93936
X	-8.93995
▁Jos	-8.94106
▁tulemus	-8.94124
▁kasvu	-8.94219
▁eai	-8.94233
▁13	-8.94259
kunnan	-8.94312
▁käyttä	-8.94366
▁Z	-8.94502
ija	-8.9481
sest	-8.94925
▁moni	-8.94979
▁näe	-8.95068
▁muud	-8.95076
▁vanh	-8.95078
▁Sama	-8.95166
▁vih	-8.95607
ttäin	-8.95609
▁hakka	-8.95679
yys	-8.95763
llut	-8.95843
her	-8.95942
▁vir	-8.96137
▁lasku	-8.96155
rä	-8.96209
▁kut	-8.9627
▁luge	-8.96435
▁huol	-8.96462
sarja	-8.96838
▁vähä	-8.96896
▁odot	-8.97085
▁terve	-8.97225
ällä	-8.97478
▁jät	-8.97517
▁kül	-8.97519
maks	-8.97614
miin	-8.97653
miehe	-8.97845
luku	-8.97981
▁tiedo	-8.98253
▁kaupunki	-8.98276
▁17	-8.98386
▁kolm	-8.98599
▁olevan	-8.9861
tänyt	-8.99118
B	-8.9919
kirja	-8.99205
oitu	-8.99562
▁197	-8.9967
rist	-8.99682
▁maan	-9.00029
luu	-9.00044
▁50	-9.00188
▁mun	-9.00241
ddi	-9.00338
▁kokku	-9.00413
▁Sen	-9.0063
▁taga	-9.00766
▁kunagi	-9.00778
▁Eesti	-9.00821
▁lisa	-9.00835
ruu	-9.00988
▁aina	-9.00989
▁Hi	-9.00989
▁joten	-9.01081
▁rá	-9.01117
▁galg	-9.0119
▁Selle	-9.01587
▁vuosi	-9.0161
selline	-9.02052
▁tapa	-9.02239
▁teh	-9.02292
luvu	-9.02464
▁Helsingi	-9.02493
▁Nu	-9.02508
▁kie	-9.02535
yhtye	-9.02648
lá	-9.02661
▁johta	-9.02676
▁tü	-9.02966
▁sü	-9.03149
,5	-9.03288
▁tuleva	-9.03292
kset	-9.03327
▁há	-9.03367
ski	-9.03579
mmat	-9.03702
▁'	-9.03758
▁sinu	-9.03863
isiä	-9.03992
▁aeg	-9.04129
pool	-9.04218
elda	-9.04531
▁kon	-9.04738
dis	-9.04754
▁kysy	-9.0479
▁tärkeä	-9.04904
▁teksti	-9.04914
▁uue	-9.04976
▁Jumal	-9.04979
▁Lea	-9.05088
▁hinna	-9.05103
▁&	-9.0511
▁Co	-9.05251
▁Ä	-9.05274
▁keski	-9.05301
▁minna	-9.054
▁enna	-9.05443
▁vuoksi	-9.05457
▁hie	-9.05548
▁19	-9.05571
▁usko	-9.05653
▁rahul	-9.05716
▁vapa	-9.0576
▁tavall	-9.05781
▁vist	-9.05803
▁nais	-9.05919
hit	-9.06089
olloin	-9.06224
▁puoli	-9.06311
oissa	-9.06406
▁pane	-9.06585
ajan	-9.06667
čča	-9.06787
▁ajan	-9.06876
ttävä	-9.06965
uun	-9.07074
▁koke	-9.07086
hku	-9.07094
▁pysty	-9.0723
▁194	-9.07293
▁liitty	-9.07403
toista	-9.07411
đa	-9.07448
▁Olen	-9.07451
lačča	-9.07678
▁synty	-9.07874
▁kautta	-9.07946
▁kyse	-9.0833
peal	-9.0835
▁200	-9.08364
▁kertoi	-9.08526
▁puudu	-9.08619
▁0	-9.08811
hon	-9.0883
▁naise	-9.08869
▁Je	-9.08875
▁inimes	-9.09071
lág	-9.09107
▁vara	-9.09189
▁ammatti	-9.09612
▁räägi	-9.09612
▁kertaa	-9.09622
▁2008	-9.09663
20	-9.09664
▁Myö	-9.09697
▁oska	-9.0971
▁panna	-9.09725
▁kutsu	-9.09747
▁Kiina	-9.09804
kone	-9.09957
▁3.	-9.10063
kar	-9.10109
▁Muht	-9.10112
▁professori	-9.10117
▁viirus	-9.10161
▁teine	-9.10208
▁Tai	-9.10336
▁koo	-9.10365
▁aju	-9.10376
▁muuta	-9.10484
▁ih	-9.10504
▁läks	-9.10963
var	-9.10971
mood	-9.11016
▁die	-9.11048
▁saaks	-9.11116
▁poole	-9.11337
maksu	-9.11549
▁näh	-9.11605
▁joo	-9.11707
▁ütles	-9.11714
siin	-9.11836
▁edu	-9.11915
▁nõu	-9.12109
▁w	-9.12175
▁soovi	-9.12279
▁Bo	-9.12283
▁peal	-9.12311
▁seis	-9.12392
▁küsi	-9.12554
▁30	-9.12706
▁alku	-9.12714
▁Näi	-9.12757
▁Hu	-9.12819
tion	-9.12926
▁Ky	-9.12954
▁täht	-9.1296
▁jäi	-9.12998
▁sáht	-9.13026
rdi	-9.1318
▁lähi	-9.13314
▁arvo	-9.13385
eb	-9.13645
▁bu	-9.13668
▁halu	-9.13778
▁Ch	-9.13947
▁ir	-9.1404
▁olemas	-9.14255
▁Ca	-9.14398
▁peri	-9.14471
▁kaupungi	-9.1451
▁natuke	-9.1455
▁juurde	-9.14552
▁osallistu	-9.14552
▁tarjo	-9.14557
▁hyväksy	-9.14558
vuođa	-9.14559
▁sáhttá	-9.14563
▁katso	-9.146
▁kuskil	-9.14618
▁võimalik	-9.14655
odi	-9.14786
▁kinni	-9.148
rus	-9.15027
▁kelle	-9.15113
▁sy	-9.15117
▁The	-9.15118
▁minä	-9.15472
▁Min	-9.15519
▁Saku	-9.15554
▁eel	-9.1571
▁lisä	-9.15821
amaan	-9.15865
▁dán	-9.16054
oista	-9.16124
puolell	-9.16637
▁tämä	-9.16718
kord	-9.16787
pla	-9.16799
▁Mul	-9.16813
▁yhtä	-9.16866
▁miljoonaa	-9.17005
mien	-9.17033
▁julkis	-9.17099
▁suuda	-9.17156
▁Lisä	-9.17186
▁umb	-9.17201
▁juuri	-9.1732
▁myy	-9.17344
▁Hei	-9.1749
▁katse	-9.17519
▁má	-9.17568
▁vaba	-9.17669
luo	-9.1783
▁11	-9.17895
–	-9.17898
▁Vii	-9.17973
▁erityise	-9.18036
ub	-9.18151
▁öelda	-9.18402
▁Gu	-9.18591
▁skuvlla	-9.18712
vän	-9.18801
▁näin	-9.18826
▁maksa	-9.18914
▁duo	-9.18936
▁paar	-9.18946
▁pidet	-9.19235
hoo	-9.19312
▁viisi	-9.19455
nnan	-9.19703
▁Yhdysvalta	-9.19745
▁pitäisi	-9.19747
▁edasi	-9.19752
▁kansallis	-9.19759
sopimukse	-9.19761
▁Ruotsi	-9.19763
,	-9.19811
▁2007	-9.19813
▁lapse	-9.19845
▁Saksa	-9.19921
▁jaoks	-9.19971
misest	-9.1998
▁lahti	-9.2008
▁oppi	-9.20094
▁kooli	-9.20136
▁vaata	-9.20187
▁piene	-9.20191
▁suomalai	-9.20237
▁päivä	-9.20375
▁elä	-9.20425
▁ees	-9.20425
▁kaiki	-9.20475
asema	-9.20791
▁koulu	-9.20822
▁par	-9.20879
▁maailman	-9.20965
▁end	-9.2128
▁suurem	-9.21353
konna	-9.21372
▁ede	-9.21425
duse	-9.21518
▁Nee	-9.21769
▁toiminta	-9.21837
jö	-9.21972
▁järgi	-9.22448
eiden	-9.22452
py	-9.22453
▁proovi	-9.22453
▁siihen	-9.22468
laisen	-9.22544
▁vuot	-9.22589
▁Työ	-9.22627
▁hoid	-9.2263
▁tõesti	-9.22641
▁dušš	-9.22888
hká	-9.22909
▁edusta	-9.22951
isk	-9.231
▁ken	-9.23276
kkä	-9.2329
▁ver	-9.2354
eseen	-9.23638
▁otta	-9.23754
▁üles	-9.24062
▁suosi	-9.24202
▁lean	-9.24607
mman	-9.2463
hii	-9.25006
kilpailu	-9.25226
▁olbmo	-9.25226
▁geavah	-9.2525
▁alkoi	-9.25251
▁maiddá	-9.2527
▁Dan	-9.25356
▁arvu	-9.25376
▁arvioi	-9.2538
▁14	-9.25428
▁kyllä	-9.25472
enää	-9.25524
▁liigu	-9.25539
▁palvelu	-9.25638
mpaa	-9.25704
▁jumal	-9.25711
▁yritys	-9.2576
llisest	-9.25827
▁ehkä	-9.25964
▁alueell	-9.26006
pidi	-9.26081
▁ensi	-9.26168
seid	-9.2621
ltaan	-9.26212
▁hy	-9.26327
ensä	-9.26378
uksessa	-9.26391
miseksi	-9.26462
▁or	-9.26655
▁poika	-9.26875
▁Pu	-9.27212
ukset	-9.27225
usega	-9.27397
▁väl	-9.27445
misesta	-9.27479
▁viiruse	-9.27532
▁tasa	-9.27549
▁aikaan	-9.27631
▁9	-9.27676
rre	-9.27716
kis	-9.27745
▁kehittä	-9.27784
▁Mä	-9.2782
▁mil	-9.27841
viä	-9.27986
▁Ny	-9.28006
▁Pohjois	-9.28083
▁puolue	-9.2809
▁ihmise	-9.28116
▁pari	-9.28119
▁muodo	-9.28123
▁hoita	-9.28127
▁2006	-9.28161
▁onnistu	-9.2817
▁tegeliku	-9.28313
▁Il	-9.28628
▁1.	-9.28671
▁josta	-9.28781
▁mene	-9.28811
▁käyttää	-9.28813
valt	-9.29067
ikan	-9.2942
▁jopa	-9.29445
▁kappale	-9.29514
▁Kuid	-9.29606
▁muutu	-9.29653
tavasti	-9.29712
ystä	-9.29733
▁teise	-9.2977
▁uudis	-9.29902
▁suhte	-9.29979
▁gie	-9.30039
tunut	-9.30099
lane	-9.30201
valta	-9.3049
▁neil	-9.30521
▁sp	-9.30531
▁koske	-9.30718
▁võta	-9.30773
oot	-9.31026
▁puolesta	-9.31037
tehtävi	-9.31088
▁Ii	-9.31092
▁mõtte	-9.311
ođii	-9.31103
▁juhtu	-9.31108
▁nousi	-9.31136
▁maks	-9.3118
eami	-9.31244
ssá	-9.31295
sugu	-9.31383
▁probleem	-9.31669
▁loll	-9.31693
igem	-9.31786
▁kord	-9.31842
▁guhk	-9.31859
▁väit	-9.31938
▁kirjoitta	-9.32049
▁Tuo	-9.32076
ukku	-9.32097
▁Kuu	-9.32136
▁rä	-9.32162
▁iso	-9.32192
▁kesäkuu	-9.32259
▁ek	-9.32663
▁anta	-9.32821
▁joutu	-9.32833
▁pr	-9.3288
▁teada	-9.33061
▁oleva	-9.33399
▁vee	-9.33504
▁järje	-9.33531
▁taas	-9.33588
▁liiku	-9.33642
▁ensimmäisen	-9.33752
▁paika	-9.33931
▁sõit	-9.34028
▁kansainväli	-9.34054
=	-9.34054
▁historia	-9.34054
▁hallitsi	-9.34055
ohjelma	-9.34055
▁vahvist	-9.34056
▁yhteyde	-9.34056
▁siirty	-9.34057
▁tarvi	-9.34063
▁kiinni	-9.34072
▁surma	-9.34086
▁antaa	-9.34147
kunna	-9.34165
▁meidä	-9.34166
▁heidä	-9.34182
▁ainakin	-9.34266
▁lopu	-9.34461
▁mer	-9.34464
▁liha	-9.34523
▁tulla	-9.34665
erin	-9.34676
▁hävi	-9.3495
alan	-9.35022
▁kirjoit	-9.35072
puu	-9.35152
uksesta	-9.35222
▁saanut	-9.35259
skus	-9.3536
oita	-9.35472
ttanut	-9.35617
▁head	-9.35667
▁suomalaise	-9.35671
▁kär	-9.35714
▁hetke	-9.35974
suus	-9.36118
▁paha	-9.36285
▁vuode	-9.36297
▁asjad	-9.36355
▁hui	-9.36565
▁muka	-9.36643
▁Minu	-9.36659
yyde	-9.36858
▁valmista	-9.36859
mata	-9.36929
▁máná	-9.36976
kuva	-9.37083
q	-9.37119
▁myöhemm	-9.37179
▁ođđa	-9.37179
▁mööda	-9.3718
▁kõrval	-9.3718
talouden	-9.37181
▁eará	-9.37184
▁pikku	-9.37196
▁toivo	-9.37238
▁saattaa	-9.37261
▁asunto	-9.37405
alati	-9.3743
llisi	-9.37641
▁pani	-9.37659
tieteen	-9.37701
ottelu	-9.37744
toimi	-9.37792
lased	-9.37818
▁tällä	-9.3791
▁ášši	-9.3792
▁iežas	-9.38057
▁merkit	-9.3811
▁osaa	-9.38141
esse	-9.38352
▁nädala	-9.38485
sivat	-9.38697
▁huvitav	-9.38715
last	-9.3892
▁vo	-9.38967
▁naine	-9.39024
▁voisi	-9.39223
▁eesti	-9.39276
yttä	-9.39283
aivan	-9.3929
▁käyttö	-9.39381
nnist	-9.39386
saare	-9.39494
▁puna	-9.395
nii	-9.39614
000	-9.39721
koht	-9.39881
▁pere	-9.39895
alue	-9.39923
▁rääki	-9.40013
▁Par	-9.40108
▁heinäkuu	-9.40405
▁marraskuu	-9.40405
▁põhjus	-9.40405
albumi	-9.40409
▁joulu	-9.40419
▁kerge	-9.40424
tojen	-9.40438
▁kuidagi	-9.40447
▁täpse	-9.40504
juhul	-9.40506
▁Nokia	-9.40519
▁äkki	-9.40529
ääkäri	-9.40554
ola	-9.40562
▁miten	-9.4061
▁mukana	-9.40845
▁yhteis	-9.40921
▁sisse	-9.41045
▁yhteen	-9.41049
▁aita	-9.41205
▁viesti	-9.41206
▁Bi	-9.41225
peli	-9.41267
▁joissa	-9.41338
▁mees	-9.41621
▁raske	-9.41654
▁aine	-9.41808
joiden	-9.41882
▁Suur	-9.41956
▁laaj	-9.42038
keskus	-9.42086
▁omi	-9.42088
▁mõni	-9.42119
▁toise	-9.42142
▁unn	-9.42219
▁sana	-9.42247
tsu	-9.4225
▁sure	-9.42289
▁Miks	-9.42463
▁ero	-9.42498
▁laul	-9.42592
▁soo	-9.42598
▁Mina	-9.427
▁Osa	-9.42752
▁Tois	-9.42938
▁mind	-9.42974
▁käes	-9.43141
▁hetkel	-9.43183
▁Või	-9.43204
▁ilus	-9.43234
▁tutkimukse	-9.43235
▁ajas	-9.43509
▁22	-9.43634
▁ulko	-9.43646
+	-9.43672
|	-9.43738
▁Espanja	-9.43738
▁tammikuu	-9.43739
▁toukokuu	-9.43739
▁lokakuu	-9.43739
doaimma	-9.43742
▁julge	-9.43749
▁tulevik	-9.43759
▁esiinty	-9.43791
▁inimeste	-9.43807
rje	-9.43876
▁ilman	-9.43884
neb	-9.43936
▁Gal	-9.44146
▁rii	-9.44216
▁äär	-9.44237
▁toi	-9.44273
▁hästi	-9.44274
halli	-9.44326
mmin	-9.44364
▁varsin	-9.44398
▁kuni	-9.44404
▁jatko	-9.44503
▁savu	-9.44567
▁joiden	-9.44753
▁tarkoitta	-9.44785
▁90	-9.44841
▁nakatunu	-9.44871
▁voitti	-9.44944
▁yhden	-9.45231
muti	-9.45237
tien	-9.45269
▁võtta	-9.45512
▁Oli	-9.45604
▁vahel	-9.4565
uudessa	-9.45674
▁Ise	-9.45809
34	-9.45845
▁Nä	-9.45896
▁Seda	-9.4605
▁Mus	-9.46161
▁lasta	-9.46205
▁vale	-9.46219
etakse	-9.46624
▁nyky	-9.46727
barggu	-9.46737
▁matka	-9.4684
▁näky	-9.46901
▁huoma	-9.47169
järjestelmä	-9.47187
▁täis	-9.47226
▁kuninkaa	-9.4725
▁viimase	-9.47251
▁+	-9.47256
▁Hiina	-9.47263
▁2005	-9.47274
pärast	-9.47281
liitto	-9.47329
▁arvamus	-9.47353
▁johdo	-9.47397
▁šat	-9.47398
▁28	-9.47435
▁mõne	-9.47459
▁söö	-9.47511
▁21	-9.47523
▁enti	-9.47545
▁kahju	-9.4756
▁mingit	-9.47577
ettava	-9.47584
▁tuntu	-9.47663
või	-9.47759
▁pida	-9.47763
▁mahdollisuu	-9.48007
▁kulttuuri	-9.48134
▁edes	-9.48141
▁skuvla	-9.48173
▁pol	-9.48184
▁tahaks	-9.48209
▁Vo	-9.48226
▁ongelma	-9.48264
▁koulutukse	-9.48373
▁päästä	-9.48419
▁sõna	-9.4876
▁195	-9.48764
▁isä	-9.48855
▁kalli	-9.48889
otto	-9.48952
▁päev	-9.48981
▁sija	-9.4901
väri	-9.49288
▁....	-9.4931
oste	-9.49484
▁ollee	-9.4952
▁valo	-9.50308
dele	-9.50311
joukkue	-9.50486
▁jolla	-9.50521
eaddji	-9.50727
▁yleis	-9.50727
▁õpeta	-9.50739
viroloog	-9.50758
▁boahtá	-9.50758
▁huomio	-9.50758
▁SDP	-9.50758
▁Esimerk	-9.50759
▁Italia	-9.50759
▁ferte	-9.50762
▁jäsenvaltioi	-9.50763
▁huono	-9.50766
▁šadd	-9.50769
žž	-9.50775
▁aiemmin	-9.50776
▁vms	-9.50788
▁asju	-9.50798
▁ehdot	-9.50815
▁uuri	-9.50836
▁Uusi	-9.50837
▁tänään	-9.5086
neist	-9.50896
▁prosenti	-9.50904
▁miljoona	-9.50911
▁toidu	-9.50912
▁tehty	-9.51003
Y	-9.51007
▁tarkoit	-9.51014
kauden	-9.51059
▁valmistu	-9.51082
▁meele	-9.5113
▁õlu	-9.51161
▁nykyis	-9.51238
▁toimu	-9.51332
▁kävi	-9.51335
tiete	-9.51386
▁sijaan	-9.51396
▁tosi	-9.51425
▁maini	-9.51582
▁raja	-9.51689
▁toinen	-9.51695
▁abi	-9.51754
▁teed	-9.51777
▁toime	-9.51826
▁muiden	-9.51883
▁tekita	-9.51906
▁Yle	-9.52004
paikka	-9.52059
▁toisen	-9.52072
nes	-9.52376
▁teeb	-9.52395
▁kiirem	-9.52519
ula	-9.52526
▁lähtie	-9.52606
▁Bu	-9.527
▁saad	-9.52764
▁pelaa	-9.52819
▁vil	-9.52837
▁okta	-9.52993
▁ratk	-9.53068
ojuvvo	-9.53113
▁kuningas	-9.53114
vuodesta	-9.53169
▁Euroopa	-9.53195
▁pääse	-9.53249
mpp	-9.53267
sesti	-9.53625
arvo	-9.5363
stest	-9.5376
▁yhte	-9.53914
▁Eestis	-9.5412
beal	-9.54135
▁aikaa	-9.54219
▁lento	-9.54286
▁tulos	-9.54312
poliitti	-9.54404
▁siia	-9.54456
▁suunni	-9.54461
▁ümber	-9.54462
▁ovddas	-9.54462
▁elokuu	-9.54462
guovllu	-9.54462
▁info	-9.5447
▁tegema	-9.54473
▁vaikutta	-9.54482
▁yksityis	-9.54493
laitokse	-9.54512
▁jutt	-9.54521
▁perhe	-9.54522
▁kerra	-9.54533
▁valkea	-9.54546
▁Siis	-9.54552
▁metri	-9.54568
olog	-9.54626
▁jõud	-9.54665
▁vastaava	-9.54669
▁hakata	-9.54705
lised	-9.5471
▁láv	-9.54781
johtaja	-9.5479
F	-9.54831
▁talle	-9.54901
osto	-9.54927
aiheessa	-9.54982
valtio	-9.55306
▁arve	-9.55504
▁Mii	-9.55504
▁Hea	-9.55668
▁kee	-9.55729
▁Tänä	-9.55774
▁Ru	-9.55835
▁vaati	-9.55859
alueen	-9.55998
▁pelas	-9.56152
▁levy	-9.56226
eerida	-9.56235
tused	-9.56594
kertai	-9.56702
▁pohja	-9.56734
▁Kar	-9.56885
▁Toise	-9.56897
▁ensimmäise	-9.56947
▁Iga	-9.5709
▁yle	-9.57117
▁taime	-9.57166
▁mone	-9.57254
▁haast	-9.57355
▁don	-9.57356
▁valguse	-9.5736
ston	-9.57476
▁jälle	-9.57827
▁pär	-9.57885
▁of	-9.5797
vuosina	-9.58029
▁oikeus	-9.58145
▁sámegiela	-9.58308
▁Yliopisto	-9.58308
▁komissio	-9.58308
▁puheenjohtaja	-9.58308
▁hoopis	-9.58308
▁joukko	-9.58313
▁;)	-9.58319
▁mielestä	-9.58328
▁ringi	-9.58421
▁biv	-9.58435
▁keha	-9.58446
▁hääl	-9.5846
▁tutkija	-9.5853
▁masina	-9.58553
▁pieni	-9.58565
aupunki	-9.58579
▁Var	-9.58583
*	-9.58842
▁hakkas	-9.58845
▁eba	-9.58859
▁otsi	-9.58882
▁yhteisö	-9.59729
▁Tule	-9.59757
▁álg	-9.60373
usest	-9.60417
oitus	-9.6042
▁mm	-9.60532
▁haigus	-9.60558
▁ale	-9.60789
ill	-9.60843
ká	-9.61213
▁hyvää	-9.61245
▁yrit	-9.61345
vara	-9.61569
▁õp	-9.61798
lusa	-9.61826
▁tõe	-9.61872
▁Du	-9.61875
laista	-9.62101
▁artikl	-9.62308
▁ovdal	-9.62309
▁avulla	-9.6231
▁võimalus	-9.62311
▁klassi	-9.62313
▁ožžo	-9.62322
järjestö	-9.62322
numero	-9.62326
▁ilmoitt	-9.62327
▁hoia	-9.62331
▁küsimus	-9.62391
▁Rooma	-9.62406
▁mõtet	-9.62469
▁2003	-9.62477
▁tekemä	-9.62565
▁vuoteen	-9.62573
▁johtaja	-9.6267
▁perustu	-9.62804
▁yhteistyö	-9.62844
▁eksam	-9.62926
ndada	-9.62943
palvelu	-9.62964
luvull	-9.63007
▁vast	-9.63027
▁4.	-9.63068
likku	-9.63206
▁uus	-9.63262
▁2.	-9.63286
elämä	-9.63328
▁tästä	-9.63341
istel	-9.63343
▁valgus	-9.63364
▁näha	-9.63426
▁yrittä	-9.63433
▁juures	-9.63452
▁auk	-9.63455
▁das	-9.63488
▁taso	-9.63527
▁koht	-9.63528
▁näita	-9.63757
▁annet	-9.63758
▁aut	-9.64149
–19	-9.64165
▁peli	-9.64174
ointi	-9.64569
▁lie	-9.64575
▁täit	-9.64654
juvvo	-9.64655
tilaisuu	-9.64704
kurssi	-9.64803
mättöm	-9.64855
▁Mer	-9.64923
▁varma	-9.65079
tsiooni	-9.65083
merk	-9.65431
tamaan	-9.6552
llista	-9.65568
▁25	-9.6576
▁teiste	-9.65808
▁miski	-9.6607
10	-9.66135
jõu	-9.66249
▁soovita	-9.66398
yhä	-9.66419
Ü	-9.66428
▁presidenti	-9.66475
▁prügi	-9.66475
▁rakenne	-9.66476
▁helpo	-9.66476
▁meeldi	-9.66477
▁valitsus	-9.66477
ohjelmi	-9.66479
▁tervis	-9.66479
lehti	-9.66486
▁kerro	-9.66489
▁aiheutta	-9.66496
▁haige	-9.66504
▁tehtävä	-9.66506
▁pildi	-9.6651
▁Vasur	-9.66529
▁myynti	-9.66555
▁Uude	-9.66574
▁196	-9.66595
▁New	-9.66601
▁tapahtuma	-9.66648
▁päätty	-9.66672
▁tuomit	-9.66695
juusto	-9.66697
▁koulutus	-9.66703
▁Pää	-9.66744
▁suunta	-9.66816
sopimus	-9.66959
▁kuju	-9.66961
▁surnu	-9.67001
▁maali	-9.67002
▁kerä	-9.6713
nder	-9.67171
saš	-9.67227
▁osoitta	-9.67231
vää	-9.6724
hkii	-9.67312
▁hakkab	-9.67353
llii	-9.67447
▁maitse	-9.6747
▁Kes	-9.67504
▁geat	-9.67585
laji	-9.67733
▁tunte	-9.67791
▁dii	-9.67887
eapm	-9.67891
▁Car	-9.67989
likud	-9.68021
land	-9.68096
▁km	-9.68198
TA	-9.68345
▁26	-9.68457
▁kü	-9.68546
▁ruoka	-9.68803
▁sit	-9.69153
▁huvi	-9.69277
▁taka	-9.69318
õhu	-9.69417
▁Por	-9.69592
▁oahpah	-9.69701
umis	-9.69848
▁Har	-9.70033
aalse	-9.70088
▁minkä	-9.701
▁kaua	-9.70145
▁Val	-9.70189
▁aamu	-9.7035
emmin	-9.7036
▁Im	-9.7052
ettua	-9.70546
▁muidu	-9.70612
▁tööd	-9.70774
áiggi	-9.70788
▁esittä	-9.70807
etään	-9.70809
▁koroona	-9.70821
▁Kaijasilta	-9.70823
▁Sámedikki	-9.70823
▁energia	-9.70823
▁guokte	-9.70823
▁Suomalai	-9.70823
▁ilmesty	-9.70824
▁hoito	-9.70825
▁punkti	-9.70828
▁leamaš	-9.70828
▁todella	-9.7083
▁Etelä	-9.70831
ryhmi	-9.70833
▁yleensä	-9.70834
▁läinud	-9.70837
▁jooksu	-9.70849
▁York	-9.70857
firma	-9.7086
▁viitsi	-9.70879
▁vaikea	-9.70892
▁erikois	-9.70963
▁silm	-9.7098
▁kansan	-9.70996
▁poolt	-9.71127
▁luba	-9.71137
▁odava	-9.71165
▁24	-9.71201
▁kieli	-9.71217
▁vallan	-9.7122
näytte	-9.71226
▁kaasa	-9.71276
▁rääkida	-9.71345
▁vuoro	-9.71345
55	-9.71348
▁7.	-9.7135
▁puhe	-9.71449
▁Ehk	-9.71585
▁the	-9.71633
▁miehen	-9.71693
▁cm	-9.7174
▁toisi	-9.71766
▁teho	-9.71804
▁mõned	-9.72041
▁pääsi	-9.72075
▁seksi	-9.72101
piiri	-9.72116
▁kodus	-9.72181
ville	-9.72396
VI	-9.72421
▁Luo	-9.72603
▁suhtee	-9.72635
▁juttu	-9.72763
▁sellaise	-9.72942
kausi	-9.73269
▁perä	-9.73336
Mur	-9.73398
,7	-9.73514
▁Muu	-9.73522
▁endal	-9.73527
▁40	-9.73587
▁Lä	-9.73608
▁Saar	-9.73616
▁verratt	-9.73629
-19	-9.73716
▁mahdolli	-9.7374
matka	-9.73806
▁kuuluva	-9.73838
▁Keski	-9.74057
aadi	-9.74153
▁oikeast	-9.74461
▁anna	-9.7469
áhp	-9.74774
▁ah	-9.74905
▁sivu	-9.75008
▁lõpu	-9.7509
▁áig	-9.7516
vaš	-9.75179
määri	-9.75238
▁noh	-9.75365
Finnmárkku	-9.75368
Q	-9.75368
▁telefoni	-9.75368
▁Tallinna	-9.75368
▁sosiaali	-9.75369
▁jutu	-9.75369
▁Kõik	-9.75369
▁kogemus	-9.75369
▁gaskka	-9.75371
▁tegelt	-9.75372
▁Kreika	-9.75373
▁Sámi	-9.75373
▁isännöitsijä	-9.75379
▁kansalais	-9.7538
▁Turku	-9.7538
▁Obama	-9.75381
▁kpl	-9.75381
▁Coq	-9.75386
▁hirmu	-9.75387
▁seemne	-9.75393
▁rajoit	-9.75398
▁tiistai	-9.75402
▁tilantee	-9.7541
▁sõita	-9.75412
sipuli	-9.75414
▁Tartu	-9.75414
vaikutus	-9.75419
▁Kárášjoga	-9.75446
neuvosto	-9.75473
▁bohte	-9.75474
▁bál	-9.75484
▁201	-9.75496
▁otsa	-9.75506
▁dahka	-9.75513
▁vuolg	-9.75516
▁yhteiskunna	-9.75568
▁põhi	-9.75608
▁paino	-9.75683
▁milles	-9.75847
▁kehittämis	-9.75851
eret	-9.75899
▁Viro	-9.75997
▁jälleen	-9.76063
▁háli	-9.76137
ikud	-9.76166
▁joilla	-9.76199
▁joita	-9.76282
lly	-9.76358
▁piti	-9.76454
puole	-9.7651
▁era	-9.76527
▁Pro	-9.76528
▁tuleks	-9.76534
▁luke	-9.76594
▁tegu	-9.767
▁ongelmi	-9.76807
koha	-9.76826
▁kannata	-9.77033
▁mánáid	-9.77095
▁kaitse	-9.77172
▁lamelli	-9.77235
▁arm	-9.77363
yyttä	-9.77376
vuor	-9.77562
▁fas	-9.77594
▁Itä	-9.77834
▁liittyvä	-9.77946
▁tavalise	-9.77977
▁nap	-9.77981
▁kymmen	-9.7807
▁laina	-9.78134
▁Õ	-9.7815
▁olevat	-9.78262
arve	-9.78412
▁nosta	-9.78489
▁kiri	-9.78605
▁piiri	-9.78617
▁kiir	-9.7881
▁taki	-9.78949
ža	-9.79098
▁valmis	-9.79133
ttämään	-9.79186
vaara	-9.79258
▁MI	-9.79488
▁Jär	-9.7964
kond	-9.79659
▁manna	-9.79696
ži	-9.79831
▁löyty	-9.79866
▁galge	-9.79941
▁huvita	-9.80107
▁tööta	-9.8011
▁Brysseli	-9.8013
#	-9.8013
▁mearrid	-9.8013
▁Ranskan	-9.8013
▁miljardi	-9.8013
▁sijaitsee	-9.8013
▁sijaitseva	-9.80131
▁sõida	-9.80131
▁alkuperä	-9.80131
oroonaviirus	-9.80132
vuotias	-9.80132
▁muistutta	-9.80133
▁munnje	-9.80135
minister	-9.80135
▁silloin	-9.8014
▁huhtikuu	-9.80141
▁säily	-9.80143
▁libe	-9.80145
▁ehdoll	-9.80147
▁enese	-9.80153
▁jms	-9.80156
▁jouko	-9.80158
▁edelleen	-9.80159
láhka	-9.8019
▁bear	-9.80191
▁lopul	-9.80194
▁talve	-9.80215
▁sääst	-9.80226
▁tehnyt	-9.80229
▁lähte	-9.80254
▁hullu	-9.80296
▁väike	-9.80302
▁täiesti	-9.80315
laga	-9.80373
▁Soai	-9.8039
▁35	-9.80444
mässä	-9.80484
▁erää	-9.80498
▁suku	-9.80533
ystävä	-9.80542
tulokse	-9.80627
▁lehe	-9.80641
▁koskeva	-9.807
63	-9.8075
▁reisi	-9.80803
▁tänä	-9.80839
▁galgga	-9.80876
▁liike	-9.80983
▁laajen	-9.81022
▁oikea	-9.81157
▁tap	-9.81377
oilla	-9.81409
▁arvuti	-9.81458
▁viga	-9.81483
väli	-9.8149
▁omista	-9.81581
käyttö	-9.81618
▁muoto	-9.81621
mies	-9.81626
▁erineva	-9.81683
▁teised	-9.81698
▁uude	-9.81969
▁kriisi	-9.82013
voima	-9.8211
▁Loo	-9.82247
▁eana	-9.82492
▁olemassa	-9.82687
▁Mark	-9.82784
▁ajast	-9.82947
▁parim	-9.8298
▁2000	-9.83022
▁tanki	-9.83072
▁liht	-9.83146
▁kohti	-9.83242
ehty	-9.83261
▁joutui	-9.83481
aalne	-9.83513
▁Bur	-9.8354
old	-9.83587
sinna	-9.83605
mmá	-9.83616
▁kumm	-9.83651
▁Kir	-9.83718
▁missä	-9.83903
▁kuvi	-9.84091
käytö	-9.84213
▁saku	-9.84336
▁Tark	-9.84657
▁jõua	-9.84817
▁keel	-9.8497
▁parlament	-9.85129
Britannia	-9.8513
▁Berlusconi	-9.8513
▁foorum	-9.8513
▁elokuva	-9.8513
▁toimitusjohtaja	-9.8513
▁KTM	-9.8513
▁moottori	-9.8513
▁tarpee	-9.85131
▁sairaala	-9.85131
▁keskustelu	-9.85131
▁Yhtiö	-9.85131
sõidu	-9.85133
▁hilje	-9.85135
kehitys	-9.85139
ddá	-9.8514
▁nopeast	-9.85142
▁menesty	-9.85143
▁hilja	-9.85145
guovtt	-9.8515
▁merkittävä	-9.85154
järvi	-9.85161
▁tekee	-9.85164
▁Üks	-9.85168
▁kontrolli	-9.8518
▁käyttöön	-9.85191
▁suome	-9.85246
▁media	-9.85248
▁Repo	-9.85259
▁kasvoi	-9.85277
▁Vaikka	-9.85289
▁huu	-9.85365
▁tehtud	-9.85367
▁alguses	-9.85388
ellään	-9.85392
▁laski	-9.85401
▁maaliskuuta	-9.85405
▁õppi	-9.85416
▁vaimo	-9.85499
,2	-9.85528
▁II	-9.85567
▁järjestet	-9.85683
▁leviku	-9.85685
Aasia	-9.85705
▁193	-9.85825
▁tugev	-9.85866
tuottei	-9.85874
juhla	-9.85962
sivusto	-9.86083
▁saavut	-9.86184
▁Per	-9.86251
▁perusta	-9.86263
▁kiire	-9.86266
▁Tällai	-9.86301
jää	-9.86309
▁järjestä	-9.86461
▁alg	-9.86575
▁lö	-9.86609
▁liia	-9.86748
!	-9.86926
▁kart	-9.86942
▁tank	-9.8695
▁alusta	-9.87039
▁osalta	-9.87446
▁tasu	-9.87516
uksissa	-9.87723
▁muutama	-9.87883
uksella	-9.87992
oog	-9.88039
▁malli	-9.88071
eahp	-9.88347
▁70	-9.88427
▁aik	-9.88473
▁jääd	-9.88561
vähem	-9.88618
▁Vuode	-9.88649
heti	-9.88673
▁hake	-9.8868
▁vero	-9.88742
uutis	-9.88908
▁juure	-9.8908
ejuvvo	-9.89442
soo	-9.89619
▁tavali	-9.89644
shi	-9.89682
▁pysy	-9.89727
▁ammu	-9.89874
▁700	-9.89971
sijoi	-9.89995
▁harjoit	-9.90153
▁tiede	-9.90154
eesta	-9.90361
▁füüsika	-9.9037
▁dearvvašvuođa	-9.90388
dynastia	-9.90393
▁Sámedigg	-9.90393
▁dárbbaš	-9.90393
▁kehitty	-9.90393
▁seksuaali	-9.90393
▁Eurooppa	-9.90393
▁pohjois	-9.90393
▁stáhta	-9.90393
▁myöntä	-9.90393
projekti	-9.90394
▁voimakkaa	-9.90395
kysymyksi	-9.90396
▁tarvitse	-9.904
▁poliisi	-9.90408
▁kolmanne	-9.90408
aikoina	-9.90411
▁versio	-9.90418
▁kätte	-9.90426
▁video	-9.9043
muša	-9.90431
▁Nyky	-9.90447
tutkinto	-9.90453
▁vaadata	-9.90472
▁kevät	-9.90489
▁kaiken	-9.90489
▁selvästi	-9.90536
▁otsus	-9.90543
▁kannatta	-9.90563
markkina	-9.90563
▁minema	-9.90572
▁kieltä	-9.90585
▁tavara	-9.90602
▁polnud	-9.90617
▁lapsi	-9.90641
▁suola	-9.90648
▁opin	-9.90654
▁.....	-9.90665
VA	-9.90694
uksista	-9.90712
▁todelli	-9.90713
▁Auto	-9.9074
▁minge	-9.90907
▁menne	-9.90928
▁metalli	-9.90951
▁normaali	-9.91045
▁Viime	-9.91089
▁pinna	-9.91124
husa	-9.91185
▁noor	-9.91213
istö	-9.91226
▁tekki	-9.91232
tieto	-9.91533
▁Läh	-9.91608
▁tällai	-9.91682
▁usku	-9.91725
▁paikallis	-9.9183
vend	-9.9191
▁suuli	-9.9191
▁dohk	-9.92001
päin	-9.92038
▁korost	-9.92222
▁herk	-9.92417
▁vaali	-9.92427
;	-9.92464
J	-9.92521
▁elus	-9.92738
toimisto	-9.9282
ddo	-9.92832
▁osake	-9.93017
▁daid	-9.93464
▁päälle	-9.93465
▁Kri	-9.93551
▁tuotta	-9.93918
▁60	-9.93919
▁vene	-9.94025
▁mure	-9.94217
seura	-9.94288
▁silmä	-9.94376
▁ieža	-9.94388
▁500	-9.94415
▁sopi	-9.94682
▁tapaukse	-9.94691
▁probleemi	-9.94726
▁olles	-9.94727
▁kauppa	-9.94819
▁Ruo	-9.94842
▁hiuk	-9.94895
▁täytt	-9.95071
▁jatka	-9.95124
▁tunni	-9.95643
eurooppalai	-9.95646
▁päivi	-9.95704
liito	-9.95724
▁ympäri	-9.95742
IK	-9.95749
▁keele	-9.95894
▁ainoas	-9.95928
▁korkea	-9.95939
▁hyökkä	-9.95943
päällikkö	-9.95949
▁dakkár	-9.95949
▁seitsemän	-9.95949
▁Univers	-9.95949
▁sähkö	-9.95949
▁aktiiv	-9.95949
▁rakenta	-9.95951
▁inglise	-9.95952
▁čađa	-9.95952
▁sõnu	-9.95952
▁boahti	-9.95956
▁vuostá	-9.95959
▁elekt	-9.95963
▁Euro	-9.95965
▁lyh	-9.95967
▁täyde	-9.95976
▁riigi	-9.95978
▁tilanne	-9.95985
▁joulukuu	-9.95988
kaudella	-9.9599
▁asemel	-9.95995
▁ulos	-9.96014
vaikutukse	-9.96015
▁eanet	-9.96031
▁oahpaheaddji	-9.96033
▁yhdessä	-9.96052
▁lange	-9.96081
▁huomattava	-9.96092
▁veidi	-9.96096
▁lõi	-9.96105
▁koolis	-9.96106
▁sisältä	-9.96117
fága	-9.96117
▁tähenda	-9.96159
▁rehv	-9.96175
▁orro	-9.96242
▁Helsingissä	-9.96302
lehde	-9.96308
▁internáhtta	-9.96321
▁tarkoitus	-9.96325
▁nähdä	-9.9635
▁parempi	-9.96373
▁viikko	-9.96424
▁täie	-9.96512
▁üli	-9.96537
miehi	-9.96538
xz	-9.96539
▁kuulnud	-9.96559
▁sobi	-9.9656
▁mõista	-9.96575
▁Kee	-9.96605
3-	-9.96664
▁käytetä	-9.96722
▁tähe	-9.96735
▁üh	-9.96769
▁selge	-9.96802
▁saavutta	-9.96811
▁korko	-9.96819
▁oota	-9.96847
▁manai	-9.96898
▁5.	-9.96925
▁valiku	-9.96961
▁saari	-9.9697
▁Kaup	-9.97043
▁sihk	-9.97066
▁Dál	-9.97136
▁jatku	-9.97366
▁ovttas	-9.97396
▁külva	-9.97603
▁kasutad	-9.97635
raamat	-9.97732
▁Yhdysvalloi	-9.97928
▁Kur	-9.9795
pmá	-9.9804
▁käib	-9.98182
▁Tuli	-9.98249
Õ	-9.98319
sodan	-9.98319
pohja	-9.98324
?	-9.98373
čoahkki	-9.98461
▁nuore	-9.98662
▁telli	-9.98764
▁usk	-9.98908
▁Mida	-9.98964
▁uut	-9.99053
▁hetkell	-9.99169
▁loodus	-9.99288
▁Buo	-9.99293
▁buorr	-9.99545
,8	-9.99552
▁nie	-9.99634
,4	-9.99831
▁tavoi	-10.0001
álaš	-10.0008
▁gull	-10.0015
▁testi	-10.0024
▁aihe	-10.0041
uksiin	-10.0098
▁pime	-10.0099
▁Kesk	-10.0122
ärtel	-10.0124
▁kanna	-10.0154
käytännössä	-10.0183
▁Guovdageainnu	-10.0183
▁Kahjuks	-10.0183
▁internáhta	-10.0183
▁opiskelija	-10.0183
▁inflaatio	-10.0183
▁oažžu	-10.0183
▁säännö	-10.0183
▁työskentel	-10.0183
▁Itaalia	-10.0183
vuotiaan	-10.0183
▁27.	-10.0183
▁esitteli	-10.0183
▁geahčča	-10.0183
▁tehnika	-10.0183
▁tärkei	-10.0183
▁lahenda	-10.0184
▁ráhkad	-10.0184
▁löytä	-10.0184
▁tutustu	-10.0184
▁pääministeri	-10.0184
▁hallitus	-10.0184
▁tarbi	-10.0184
hallinno	-10.0184
▁ieš	-10.0184
▁Japani	-10.0185
▁Kaikki	-10.0185
▁uudelleen	-10.0185
▁rahvas	-10.0185
▁juhli	-10.0185
▁johtu	-10.0186
▁Irani	-10.0186
▁lennu	-10.0187
▁veahk	-10.0188
▁sellai	-10.0189
▁keskitty	-10.0189
▁Rock	-10.0189
▁palun	-10.019
▁kokonais	-10.0191
tutkinno	-10.0191
▁vanema	-10.0191
▁dábála	-10.0193
▁tohi	-10.0197
▁Tähän	-10.0197
▁ajoi	-10.0197
▁siellä	-10.02
▁seuraava	-10.02
▁otse	-10.0201
▁suora	-10.0204
▁bukt	-10.0204
ympäristö	-10.0205
ttomuu	-10.0211
▁Ikea	-10.0211
▁hieno	-10.0217
▁kuhu	-10.0218
neuvo	-10.0219
▁lõpuks	-10.022
▁ex	-10.0223
▁ühte	-10.0225
▁gitta	-10.0226
▁1000	-10.0229
▁kahden	-10.0232
▁Kirja	-10.0234
▁takana	-10.0237
▁johto	-10.0245
▁esime	-10.0248
▁20.	-10.0249
▁kellegi	-10.0254
▁suoja	-10.0257
▁lugu	-10.0258
Korea	-10.0259
httá	-10.0266
▁300	-10.0267
▁laiva	-10.0273
klaa	-10.0275
▁pitki	-10.0278
▁viiden	-10.0282
▁Võib	-10.0283
▁inno	-10.0309
▁asetukse	-10.0319
▁Yksi	-10.0322
▁korva	-10.0322
▁mehe	-10.0324
▁esimese	-10.0325
,0	-10.0335
▁korja	-10.0336
nämä	-10.0348
▁päivää	-10.0348
33	-10.0351
▁suomalaisi	-10.0364
▁ráj	-10.0402
puoli	-10.0419
tõttu	-10.0423
)	-10.0425
väär	-10.043
koulu	-10.0438
▁massi	-10.0443
beaivvi	-10.0446
Euroopa	-10.0456
▁kohal	-10.0459
▁näyttä	-10.0484
▁yh	-10.0485
▁kõigil	-10.0496
▁öeld	-10.0496
▁karantiini	-10.051
US	-10.0516
TE	-10.0519
▁kand	-10.0532
▁oluli	-10.0553
▁jaksa	-10.0566
oikeuden	-10.0569
ahtti	-10.0571
▁Pekk	-10.0574
KS	-10.0594
▁palve	-10.0617
▁häiri	-10.0648
39	-10.0648
juur	-10.0725
▁korraliku	-10.0733
▁Bar	-10.0759
politiikka	-10.0766
–1	-10.0773
toiminnan	-10.0773
▁suut	-10.0779
mättä	-10.0787
▁bio	-10.0789
å	-10.0808
▁yhdysvaltalai	-10.0808
▁gravitatsioon	-10.0808
▁hyödy	-10.0808
▁perjantai	-10.0808
▁sipelga	-10.0808
▁vuosttaš	-10.0808
▁Android	-10.0808
▁Arduino	-10.0808
▁Helsinki	-10.0808
▁Iberia	-10.0808
▁Albumi	-10.0808
▁ruovttu	-10.0808
▁stuora	-10.0808
▁pyrki	-10.0808
▁gávdn	-10.0808
▁miljoni	-10.0808
▁negatiiv	-10.0808
▁pandud	-10.0808
säätiö	-10.0808
▁Belgia	-10.0808
▁syyskuu	-10.0808
▁olukord	-10.0808
▁tiety	-10.0809
▁lõpp	-10.0809
▁ihmiskaupa	-10.0809
▁juohke	-10.0809
▁Suomi	-10.0809
▁tegele	-10.0809
▁perusteell	-10.0809
▁virallise	-10.0809
▁tarkastel	-10.0809
▁gaska	-10.0809
▁hallitukse	-10.081
▁mõlema	-10.081
salaatti	-10.081
▁melko	-10.0811
▁radio	-10.0813
peenras	-10.0814
▁kaikke	-10.0815
▁Ensimmäi	-10.0815
▁vähemmä	-10.0815
▁nouss	-10.0815
▁Liná	-10.0815
▁ooda	-10.0816
▁käytettiin	-10.0817
▁rauha	-10.0818
▁valittiin	-10.082
▁täysi	-10.0821
vuoh	-10.0823
▁rock	-10.0823
▁pidä	-10.0825
▁2004	-10.0825
▁kuoli	-10.0826
vuoigatvuo	-10.0827
▁Valio	-10.0827
▁nuppi	-10.0829
▁Nüüd	-10.0834
▁tiuk	-10.0836
▁nouse	-10.0836
▁1990	-10.0839
▁muhtun	-10.0839
▁Tutki	-10.0841
▁oikei	-10.0842
▁keskusta	-10.0843
▁klaas	-10.0844
▁löytyy	-10.0846
▁maahan	-10.0846
▁käynnis	-10.0853
▁9.	-10.0854
▁meni	-10.0863
▁Iso	-10.0872
sugune	-10.0873
▁kivi	-10.0882
▁läpi	-10.0885
aegu	-10.0901
uudesta	-10.0901
▁koostu	-10.0904
tekni	-10.0908
▁For	-10.0926
▁kuukaude	-10.0937
uppakorkeakoulu	-10.094
▁Mies	-10.0941
laittei	-10.0946
▁ihmisi	-10.0948
▁jätti	-10.0953
▁kiva	-10.096
▁turu	-10.097
▁toiminna	-10.0971
tussu	-10.0976
▁kuulutuse	-10.0977
▁olbmuid	-10.1014
▁kiiruse	-10.1019
▁ovtta	-10.1023
▁tänu	-10.1034
skuvlla	-10.1044
juht	-10.1055
▁Jok	-10.1058
▁homm	-10.1071
▁Tor	-10.1083
▁Ver	-10.1104
▁191	-10.1105
sotila	-10.1135
maton	-10.1137
▁aluei	-10.1138
▁kappalee	-10.1143
neeseen	-10.1149
suoj	-10.1151
▁verra	-10.1155
▁näide	-10.1169
pol	-10.1229
▁lahk	-10.1234
AS	-10.1261
▁erinevate	-10.128
uonna	-10.1296
küm	-10.1302
▁muuttu	-10.1302
nope	-10.1318
korkeakoulu	-10.1341
▁tuttav	-10.1343
▁normaal	-10.1392
▁livčč	-10.1475
▁presidentti	-10.1475
▁turvallisuu	-10.1475
▁universum	-10.1475
▁keisari	-10.1475
▁máŋg	-10.1475
▁EKP	-10.1475
▁Praegu	-10.1475
▁myötä	-10.1475
▁suohkan	-10.1475
▁piisaval	-10.1475
▁unioni	-10.1475
▁tyttö	-10.1475
▁rahoitus	-10.1475
▁moslem	-10.1475
▁üsna	-10.1475
▁ürita	-10.1475
đđe	-10.1476
▁Toivo	-10.1476
▁Biret	-10.1476
▁päätökse	-10.1476
▁saksalai	-10.1476
▁dieđu	-10.1476
▁boađ	-10.1476
palkinto	-10.1477
▁Muidu	-10.1477
▁seamma	-10.1478
odo	-10.1478
▁kindel	-10.1479
yritykse	-10.1479
▁julkise	-10.148
▁perintei	-10.1482
▁uhri	-10.1483
▁2010	-10.1488
toimittaja	-10.1489
▁192	-10.1489
,6	-10.1492
▁borra	-10.1495
▁Kaude	-10.1495
indeksi	-10.1495
▁kovin	-10.1496
▁bussi	-10.1497
▁oahppa	-10.1497
▁luovut	-10.1497
▁täyty	-10.1498
▁orru	-10.1499
▁riski	-10.15
▁laskeutu	-10.1504
ahes	-10.1505
▁lohka	-10.1507
▁etelä	-10.1508
▁tiedekunna	-10.1512
▁algu	-10.1523
▁katki	-10.1528
▁19.	-10.1528
▁tunnista	-10.1531
▁näyttää	-10.1532
▁Tapahtuma	-10.1537
▁andme	-10.1539
▁näkyy	-10.154
99	-10.1547
▁29.	-10.1552
▁lausa	-10.1555
keskukse	-10.1559
riekt	-10.156
▁lupa	-10.1565
▁tutki	-10.1581
▁mahdollisi	-10.1585
▁suurimma	-10.1594
▁johti	-10.1596
▁uute	-10.1596
▁aihee	-10.1628
▁toimiva	-10.163
▁400	-10.163
vuotis	-10.1634
Rf	-10.165
jakso	-10.1701
annab	-10.1712
▁áigu	-10.1717
haara	-10.1726
▁jatkuva	-10.1727
▁luul	-10.1731
berg	-10.1753
ieltä	-10.1775
▁perustamis	-10.1794
▁Suome	-10.1815
markkinoi	-10.1822
▁eelmise	-10.1834
markkinoill	-10.1838
W	-10.1841
▁lähti	-10.1861
▁Meil	-10.1862
ES	-10.1866
▁tunnettu	-10.1882
▁tilli	-10.1899
▁lause	-10.1905
▁poik	-10.1933
▁ääni	-10.1951
▁maski	-10.204
,9	-10.2062
uransa	-10.2074
▁rom	-10.2095
mahdollisuuksi	-10.2099
ttoi	-10.2118
vvui	-10.2122
tutkimuksen	-10.2143
liikentee	-10.2182
▁võtt	-10.2187
▁maŋŋá	-10.2189
▁vaktsiin	-10.2189
>	-10.2189
sápmelačča	-10.2189
▁YLE	-10.2189
▁metsmaasika	-10.2189
▁mielenkiinto	-10.2189
▁neuvottelu	-10.2189
▁näkökulma	-10.2189
▁televisio	-10.2189
▁vähintään	-10.2189
▁Åkeby	-10.2189
▁õnnestu	-10.2189
▁Ipmil	-10.2189
▁makkár	-10.2189
▁Silloin	-10.2189
▁yhdeksän	-10.2189
kumppani	-10.2189
▁ainuke	-10.2189
▁stuorr	-10.2189
▁kuolema	-10.2189
▁riippu	-10.2189
▁čielg	-10.2189
rahoitukse	-10.2189
▁Romssa	-10.2189
▁sõb	-10.219
▁sierra	-10.219
▁käytössä	-10.219
▁eemal	-10.219
▁meahcc	-10.219
poliitik	-10.219
▁edellyt	-10.219
▁vankeu	-10.2191
▁liikku	-10.2191
▁väikse	-10.2191
sääntö	-10.2191
▁Ulko	-10.2191
▁Küll	-10.2191
▁mõistus	-10.2191
▁Soovi	-10.2191
▁takaisin	-10.2193
▁Toimi	-10.2193
▁aloite	-10.2193
lääkke	-10.2193
▁mitme	-10.2193
▁nousu	-10.2193
▁toteutt	-10.2194
▁parhai	-10.2194
▁Tällöin	-10.2194
▁ritari	-10.2194
▁aikaisemmi	-10.2194
▁ostja	-10.2194
▁erilaisi	-10.2195
▁kohda	-10.2195
▁tähelepan	-10.2195
▁talvi	-10.2196
▁kevade	-10.2196
▁märk	-10.2196
▁metsa	-10.2197
▁kielen	-10.2197
▁namma	-10.2198
▁eelmine	-10.2207
▁puhas	-10.2208
▁2001	-10.2211
▁näke	-10.2212
▁voitto	-10.2217
▁käydä	-10.2219
▁tulevaisuude	-10.222
▁pideva	-10.2221
▁yleisö	-10.2222
▁kiiresti	-10.2223
▁maailmansoda	-10.2226
▁riittävä	-10.2226
▁valmii	-10.2229
▁mujal	-10.2234
▁halva	-10.2236
kysymys	-10.2238
▁mõtlesin	-10.224
▁ulkopuolell	-10.2241
▁Mikko	-10.2241
asunno	-10.2246
▁31	-10.2246
▁jõuab	-10.2253
iigikogu	-10.2258
▁15.	-10.2269
▁vääri	-10.2278
▁lih	-10.2284
▁6.	-10.2289
▁järel	-10.2304
▁kannatus	-10.2315
▁julkaistu	-10.232
▁mitu	-10.2323
▁pesä	-10.2347
▁kuude	-10.2352
▁Puol	-10.2372
meren	-10.2374
▁Katai	-10.2404
▁kannal	-10.2439
toimintaa	-10.2441
▁näy	-10.2459
▁hind	-10.2478
eallá	-10.2493
▁entise	-10.2544
paperi	-10.2548
▁võet	-10.257
▁mask	-10.2627
▁yhde	-10.2634
levy	-10.2635
aalta	-10.2689
▁inim	-10.2691
valmistaja	-10.2693
▁riittä	-10.2721
sõna	-10.273
IL	-10.2737
▁erityis	-10.2749
▁järgmi	-10.2755
▁list	-10.286
▁arv	-10.2867
▁doal	-10.2896
▁jalk	-10.2903
oikeuksi	-10.2927
▁valinta	-10.2948
▁geahč	-10.2958
▁isännöinti	-10.2958
▁ruotsalai	-10.2958
asiantuntija	-10.2958
kierroksell	-10.2958
valmentaja	-10.2958
▁BMW	-10.2958
▁Kappadokia	-10.2958
▁artikkel	-10.2958
▁helppo	-10.2958
▁investeeri	-10.2958
▁kilometri	-10.2958
▁olukorra	-10.2958
▁pörssi	-10.2958
seminaari	-10.2958
é	-10.2958
’	-10.2958
▁MTV	-10.2958
▁aadress	-10.2958
▁myönteis	-10.2958
▁teooria	-10.2958
▁ymmärr	-10.2958
Finnmárkkuopmoda	-10.2958
▁musiikki	-10.2958
palkinno	-10.2958
▁gáibid	-10.2958
▁vuoigatvuođa	-10.2958
tyyppi	-10.2958
▁kahdeksa	-10.2958
▁Máná	-10.2958
▁Saaremaa	-10.2958
▁USA	-10.2958
▁kedagi	-10.2959
▁mäleta	-10.2959
▁minevik	-10.2959
▁islami	-10.2959
▁Poliisi	-10.2959
▁häpeä	-10.2959
▁matkustaja	-10.2959
▁merkittävi	-10.2959
▁põhja	-10.2959
▁harvoi	-10.2959
▁hallinto	-10.2959
▁Tammela	-10.296
uvnna	-10.296
▁muutoksi	-10.296
▁oktii	-10.296
▁Üle	-10.2961
▁kokonaan	-10.2961
▁maasika	-10.2961
▁ydin	-10.2961
tegemist	-10.2961
▁Milja	-10.2962
▁mür	-10.2962
▁arene	-10.2963
▁unusta	-10.2963
▁palja	-10.2964
▁totesi	-10.2965
▁palga	-10.2966
▁mõnda	-10.2966
▁taakse	-10.2967
▁selkeä	-10.2967
▁viikon	-10.2968
tandard	-10.2969
MX	-10.297
▁keino	-10.297
que	-10.297
▁tallin	-10.2971
▁várr	-10.2975
▁aeda	-10.2976
▁oahppi	-10.2978
▁Turki	-10.2979
▁rooli	-10.298
▁hobuse	-10.2984
▁álo	-10.2986
arvio	-10.2987
puhelim	-10.2987
▁virhe	-10.2987
▁Tieto	-10.2991
beht	-10.2997
filmi	-10.2997
▁mihin	-10.2998
mitali	-10.2999
▁ollen	-10.3
▁Ice	-10.3002
▁85	-10.3004
▁riikka	-10.3006
▁ilmeise	-10.3012
▁dadj	-10.3025
▁asetus	-10.3026
▁vaeva	-10.3026
▁Gea	-10.3028
▁ottama	-10.3028
▁tekemis	-10.3033
▁arki	-10.304
▁seleta	-10.3048
adni	-10.3051
laps	-10.3055
pankki	-10.3056
▁hoog	-10.3064
▁palkk	-10.3066
▁Sinu	-10.3074
tavoitte	-10.3087
▁Harri	-10.309
tietää	-10.3093
▁sellaisi	-10.311
beaht	-10.3116
▁selvä	-10.3145
TS	-10.3151
▁uuni	-10.3163
ž	-10.3167
▁sopiva	-10.321
kirjoi	-10.3241
▁liittyvi	-10.3282
▁doar	-10.3295
▁ovttasbarg	-10.3305
pyörä	-10.332
▁álgg	-10.3355
▁tankide	-10.3374
▁toisell	-10.3394
▁ruok	-10.3412
kesäkuu	-10.3441
henkilö	-10.3443
Suomen	-10.3444
palju	-10.3449
▁Yhdysvall	-10.3498
▁Mikkelinsaar	-10.3587
▁järjestämä	-10.3621
▁milli	-10.3639
▁tuomio	-10.3658
▁ásah	-10.367
▁syyttä	-10.3691
▁rekisteröi	-10.3743
▁suoritta	-10.3746
à	-10.3792
▁Kansainväli	-10.3792
▁kiinteistö	-10.3792
▁sosiála	-10.3792
▁todennäköis	-10.3792
`	-10.3792
ò	-10.3792
▁Microsoft	-10.3792
▁Wolters	-10.3792
▁boazodoalu	-10.3792
▁keskiviikkona	-10.3792
▁kiinnostu	-10.3792
▁mearrádusa	-10.3792
▁olmmoš	-10.3792
▁õppejõud	-10.3792
▁oaidná	-10.3792
▁vejolaš	-10.3792
▁ülikooli	-10.3792
▁kehtesta	-10.3792
▁ominaisuu	-10.3792
▁võrreld	-10.3792
▁Määttä	-10.3792
▁lõuna	-10.3792
▁ovddid	-10.3792
▁váttis	-10.3792
▁sovelleta	-10.3792
▁tyydyt	-10.3792
▁luennoi	-10.3792
pippuri	-10.3792
▁närvi	-10.3792
▁äänestä	-10.3792
▁sovelta	-10.3792
–200	-10.3792
▁háldd	-10.3792
▁kehitet	-10.3792
▁pronssi	-10.3792
▁Mõne	-10.3792
▁sijoittu	-10.3793
ravinto	-10.3793
▁siirto	-10.3793
▁ennusta	-10.3793
▁gusto	-10.3793
▁nautti	-10.3793
▁mõjuta	-10.3793
▁bures	-10.3793
▁korralda	-10.3793
▁Tegelikul	-10.3793
▁metsä	-10.3793
▁nalja	-10.3794
ttelin	-10.3794
▁putosi	-10.3794
▁Mitro	-10.3794
▁kevää	-10.3795
▁antoi	-10.3795
▁lähde	-10.3795
plána	-10.3795
▁potilas	-10.3795
▁bidja	-10.3796
▁liikkee	-10.3796
▁natsi	-10.3797
▁runsaa	-10.3797
▁paastu	-10.3797
▁parhaa	-10.3797
▁pakku	-10.3798
▁pyytä	-10.3798
ollegium	-10.3799
▁III	-10.3799
▁järk	-10.3799
▁hetki	-10.3799
▁Itse	-10.3801
▁tuhat	-10.3801
▁Tulos	-10.3802
▁rumal	-10.3803
▁liikenne	-10.3804
▁tipp	-10.3804
▁igasugu	-10.3804
▁poliittise	-10.3806
▁uhkaa	-10.3806
▁Thom	-10.3807
▁Peter	-10.3811
▁tanssi	-10.3813
▁95	-10.3813
▁avoim	-10.3815
▁Johan	-10.3816
▁Teine	-10.3817
▁áigge	-10.3821
▁Tunne	-10.3823
▁nägi	-10.3826
▁muusik	-10.3827
tyyli	-10.3828
▁älypuhelin	-10.3829
▁paksu	-10.3832
▁paikkaa	-10.3833
▁luotto	-10.3842
▁ehti	-10.3848
▁Tommi	-10.386
▁Nie	-10.3874
▁joukkuee	-10.3875
uhtte	-10.3884
▁pysyvä	-10.3901
utuva	-10.3932
▁löyd	-10.394
süsteemi	-10.3956
▁järgmise	-10.4018
häiriö	-10.4028
ajaksi	-10.4057
▁pikem	-10.4071
▁Tead	-10.4112
▁1970-	-10.4113
▁pinta	-10.4214
ffe	-10.4236
▁arst	-10.4249
▁aikoj	-10.4253
▁astu	-10.4264
▁pyör	-10.4291
teollisuu	-10.4308
tapahtuma	-10.4348
▁lamell	-10.4349
oikeus	-10.4349
(	-10.4355
kriisi	-10.4357
▁uhk	-10.4362
▁jälj	-10.439
▁Rist	-10.4404
LO	-10.444
▁merkitys	-10.4485
▁Talous	-10.4502
▁millise	-10.4562
.3.	-10.4603
▁Post	-10.4644
▁jälke	-10.4644
metsi	-10.4649
▁valmistet	-10.4692
▁http	-10.4701
://	-10.4701
www	-10.4701
▁Tampere	-10.4701
▁gávpog	-10.4701
▁humanisti	-10.4701
▁opettaja	-10.4701
▁ykkös	-10.4701
järjestykse	-10.4701
“	-10.4701
▁Akatemia	-10.4701
▁Internet	-10.4701
▁Jyväskylä	-10.4701
▁Portugali	-10.4701
▁Risperidon	-10.4701
▁Tukholma	-10.4701
▁Yhdysvaltoj	-10.4701
▁boazodoall	-10.4701
▁direktiivi	-10.4701
▁kommentoi	-10.4701
▁konkreet	-10.4701
▁ksylitoli	-10.4701
▁meditsiini	-10.4701
▁reaalsus	-10.4701
▁veebruar	-10.4701
▁vähemmistö	-10.4701
▁ettevõt	-10.4701
▁harvinai	-10.4701
▁kiinnosta	-10.4701
▁myöhä	-10.4701
▁vácc	-10.4701
▁äänestys	-10.4701
▁čájeh	-10.4701
▁aatomi	-10.4701
▁aloitti	-10.4701
▁tekijänoikeu	-10.4701
▁Laodike	-10.4701
▁Mäkelä	-10.4701
▁märts	-10.4701
▁unohta	-10.4701
▁vaikutuksi	-10.4701
▁Juohke	-10.4701
▁2...	-10.4701
▁sõltu	-10.4701
prinsessa	-10.4701
▁huippu	-10.4701
▁Venemaa	-10.4701
▁numbri	-10.4701
▁tietty	-10.4701
▁pukeutu	-10.4701
▁selvity	-10.4701
▁nieidda	-10.4701
▁nakkus	-10.4701
▁südame	-10.4701
▁oaidni	-10.4701
▁ajankohta	-10.4701
▁Lääke	-10.4701
ajoneuvo	-10.4701
▁Tutkimukse	-10.4701
▁loodud	-10.4701
▁pritsi	-10.4701
▁rakente	-10.4702
▁süüa	-10.4702
ministeriö	-10.4702
▁mängi	-10.4702
▁Joulu	-10.4702
▁báikk	-10.4702
▁Aitäh	-10.4702
▁useamm	-10.4702
▁ampu	-10.4702
▁riikide	-10.4702
▁dollari	-10.4702
sihteeri	-10.4703
▁millal	-10.4703
lbmil	-10.4703
▁nauti	-10.4703
▁oktavuođa	-10.4704
sektori	-10.4704
▁guhte	-10.4704
▁rääkimata	-10.4704
▁muutokse	-10.4705
▁kirkon	-10.4705
meedia	-10.4705
▁toisaal	-10.4705
▁muodostu	-10.4705
ideaset	-10.4706
▁sammu	-10.4707
▁fárr	-10.4707
▁näytö	-10.4708
▁Henri	-10.4708
onnettomuu	-10.4709
▁väärä	-10.4709
▁tekevä	-10.471
mikro	-10.471
▁reaalse	-10.4711
▁ostma	-10.4712
▁PIK	-10.4712
▁käitumis	-10.4713
▁Putin	-10.4713
ehpet	-10.4714
tuottee	-10.4715
päästö	-10.4721
▁máht	-10.4722
▁Star	-10.4722
▁mielessä	-10.4723
pistettä	-10.4723
▁Meie	-10.4726
MO	-10.4727
▁huhti	-10.4727
▁mennä	-10.4727
konser	-10.4728
▁geasse	-10.4729
töissä	-10.4732
▁leiuta	-10.4733
▁vähentä	-10.4736
▁suositui	-10.4737
▁oasti	-10.4737
▁totea	-10.4739
prosess	-10.4741
▁Valtio	-10.4741
▁seadus	-10.4743
▁tietoj	-10.4749
▁kilo	-10.4749
▁eurooppalaist	-10.4751
▁Pirat	-10.4752
▁ansio	-10.4754
nkielis	-10.4757
▁sotilas	-10.4765
▁metal	-10.4773
▁Paul	-10.4776
▁Sitte	-10.4784
neutr	-10.4796
luvulta	-10.4798
▁vanuse	-10.48
▁Wei	-10.4835
paketti	-10.4839
▁õie	-10.4841
▁imelik	-10.4846
llisuude	-10.4865
kakku	-10.4916
osasto	-10.495
teknologia	-10.4993
ttömän	-10.4997
▁jäljell	-10.5026
▁6,	-10.5032
hard	-10.5108
asioi	-10.5112
▁yrityksi	-10.5128
▁juhi	-10.5129
▁välttä	-10.5131
▁pahi	-10.5145
EL	-10.5165
▁kõigi	-10.5183
kentäll	-10.5202
▁taloudellis	-10.5246
▁gr	-10.5336
▁yleisest	-10.5343
ntynyt	-10.5414
joavkku	-10.5541
tiedot	-10.5629
▁kuka	-10.5642
voimi	-10.5655
ahpaheaddji	-10.5687
KUVAI	-10.5701
dilálašvuođa	-10.5701
ournála	-10.5701
▁Ariarathe	-10.5701
▁McCain	-10.5701
▁Sydow	-10.5701
▁dárogiela	-10.5701
▁erenoamá	-10.5701
▁gambiit	-10.5701
▁historjjá	-10.5701
▁maŋŋel	-10.5701
▁valuuttarahasto	-10.5701
▁viikonloppu	-10.5701
nonüüm	-10.5701
pöydä	-10.5701
▁divššohas	-10.5701
▁neljännekse	-10.5701
▁ymmärtä	-10.5701
▁árvvoštalla	-10.5701
▁UPM	-10.5701
▁gieldda	-10.5701
▁opiskelu	-10.5701
▁Thrill	-10.5701
▁váldo	-10.5701
▁buoremus	-10.5701
lávdego	-10.5701
valtuusto	-10.5701
▁rahoitta	-10.5701
▁esimerkki	-10.5701
▁Espoo	-10.5701
ealáhus	-10.5701
▁krooni	-10.5701
▁1980-	-10.5701
Amerika	-10.5701
▁voitaisiin	-10.5701
▁Boađ	-10.5701
▁üritus	-10.5701
▁nubbi	-10.5701
tuotanno	-10.5701
▁gripi	-10.5701
▁meelde	-10.5701
ISA	-10.5701
▁aloitta	-10.5701
▁Antto	-10.5701
▁golmma	-10.5701
▁yksilö	-10.5702
▁single	-10.5702
▁Kaarle	-10.5702
▁vasemma	-10.5702
▁vuođu	-10.5702
▁mestaruu	-10.5702
▁kusagil	-10.5702
▁korkein	-10.5702
▁tegutse	-10.5702
järve	-10.5702
▁Mirian	-10.5703
▁Myöhemm	-10.5703
▁muretse	-10.5703
▁Koulu	-10.5703
▁Angel	-10.5703
▁Mõni	-10.5703
▁kysely	-10.5703
▁lopetta	-10.5703
▁pyrit	-10.5704
▁yllättä	-10.5704
▁rikokse	-10.5704
▁vuosittain	-10.5704
▁kohteeks	-10.5705
▁mahtava	-10.5705
▁estää	-10.5706
▁paljastu	-10.5706
nantaja	-10.5706
▁stivr	-10.5706
▁ainoa	-10.5707
▁teoreetili	-10.5707
▁kamera	-10.5707
▁synny	-10.5707
▁kehv	-10.5707
▁postitus	-10.5707
▁äiti	-10.5708
▁Media	-10.5708
▁työvoima	-10.5708
▁tytö	-10.5708
▁tarkkail	-10.5709
▁hankki	-10.5709
▁sisälty	-10.571
▁madala	-10.571
▁lenno	-10.5711
rievtt	-10.5711
▁suostu	-10.5711
▁tietenk	-10.5712
pannull	-10.5712
▁tallenta	-10.5713
▁todeta	-10.5717
▁süüdi	-10.5718
bierg	-10.5718
▁palka	-10.5719
▁lukiolais	-10.5721
▁lenda	-10.5721
▁kasvuhoones	-10.5721
▁tunnust	-10.5722
▁tarkoituksen	-10.5728
sopuli	-10.5729
▁Hilj	-10.5731
▁valitsi	-10.5733
▁movt	-10.5733
▁viikoll	-10.5739
▁isiku	-10.5741
▁amet	-10.5741
oyota	-10.5743
▁ajatell	-10.5749
▁arvostel	-10.5751
▁tühi	-10.5752
euroopa	-10.5752
epäily	-10.5753
▁syrj	-10.5753
▁lentoliiken	-10.5758
▁tiedosto	-10.5764
▁hullem	-10.5765
▁uskliku	-10.579
▁mahdollisest	-10.5796
issui	-10.5813
▁julist	-10.5822
▁soitta	-10.5824
đui	-10.5849
▁sort	-10.5854
vtto	-10.5866
mánu	-10.5894
▁Mikkelinsaarill	-10.5955
ärsku	-10.5956
▁asenda	-10.5972
▁termi	-10.6009
▁toodet	-10.6151
valiokun	-10.6259
huonee	-10.6403
▁süsteem	-10.642
uudella	-10.643
ongelmi	-10.6458
ongelma	-10.646
máná	-10.6463
▁yhteyt	-10.6477
▁latv	-10.6486
▁yhdisty	-10.6498
kasvatada	-10.6556
▁professor	-10.6569
▁löydett	-10.6617
heim	-10.6697
immäisen	-10.6806
▁päikese	-10.6811
doaibma	-10.6811
[	-10.6812
]	-10.6812
demokraatti	-10.6812
uurlähettilä	-10.6812
▁Máhtte	-10.6812
▁brittiläi	-10.6812
▁elintarvik	-10.6812
▁fylkka	-10.6812
▁vasemmisto	-10.6812
▁vuosineljänne	-10.6812
▁Ülikooli	-10.6812
<	-10.6812
lainsäädäntö	-10.6812
menettely	-10.6812
ulkukotilo	-10.6812
▁Binderup	-10.6812
▁Huvitav	-10.6812
▁Ihmiskaup	-10.6812
▁Järnefelt	-10.6812
▁Leelotaja	-10.6812
▁Molvania	-10.6812
▁Möttölä	-10.6812
▁Neuvostoliito	-10.6812
▁Premium	-10.6812
▁Professori	-10.6812
▁Ratcliffe	-10.6812
▁Rauparaha	-10.6812
▁Seminaari	-10.6812
▁Suvatüü	-10.6812
▁Säätiö	-10.6812
▁alternatiiv	-10.6812
▁aprilli	-10.6812
▁bohcc	-10.6812
▁bártni	-10.6812
▁desinfitseeri	-10.6812
▁epäonnistu	-10.6812
▁käytännön	-10.6812
▁lullisámi	-10.6812
▁premium	-10.6812
▁prognoosi	-10.6812
▁rullnokk	-10.6812
▁senaattori	-10.6812
▁suvaitsevaisuu	-10.6812
▁tyytyväi	-10.6812
▁vaihtoehto	-10.6812
rošeavtta	-10.6812
▁Carlson	-10.6812
▁Keskustelu	-10.6812
▁Kõige	-10.6812
▁World	-10.6812
▁amerikkalais	-10.6812
▁elokuvi	-10.6812
▁helmikuu	-10.6812
▁jõulude	-10.6812
▁kreikkalai	-10.6812
▁rakennus	-10.6812
▁ämmvei	-10.6812
▁ICT	-10.6812
▁Räisä	-10.6812
▁ryhty	-10.6812
▁sähköposti	-10.6812
▁Google	-10.6812
▁golbma	-10.6812
▁Varsinais	-10.6812
▁käytettävä	-10.6812
▁oaivil	-10.6812
▁reagoi	-10.6812
anvuoigatvuođa	-10.6812
▁allergia	-10.6812
▁naimisi	-10.6812
▁stálu	-10.6812
▁modern	-10.6812
▁yhdistä	-10.6812
uringon	-10.6812
▁tasemel	-10.6812
▁Nordea	-10.6812
▁kaamera	-10.6812
▁puolusta	-10.6812
▁mootori	-10.6812
▁jälgi	-10.6812
▁maanantai	-10.6812
▁čilge	-10.6812
▁verkosto	-10.6812
▁naapuri	-10.6812
▁kõlba	-10.6812
▁Turussa	-10.6812
▁ruvnn	-10.6812
▁Yahoo	-10.6812
tõenäolise	-10.6812
▁olggo	-10.6812
▁Elvis	-10.6812
▁mieht	-10.6812
rühm	-10.6813
▁Tanska	-10.6813
▁láib	-10.6813
tüüpi	-10.6813
▁Ilmsel	-10.6813
▁püsi	-10.6813
▁tänapäeva	-10.6813
▁planeet	-10.6813
▁ehita	-10.6813
▁plaani	-10.6813
▁Terve	-10.6813
▁death	-10.6813
▁kengä	-10.6813
bálvalus	-10.6813
▁suunna	-10.6813
▁Päiv	-10.6814
mpänä	-10.6814
▁herättä	-10.6814
▁makkara	-10.6814
▁koopia	-10.6814
▁solmi	-10.6814
▁pohdi	-10.6814
▁dárb	-10.6814
▁Vuorio	-10.6814
▁potilaa	-10.6814
oahpu	-10.6815
▁Hyvä	-10.6815
▁oikeut	-10.6815
▁saatavill	-10.6815
▁sügise	-10.6815
▁männi	-10.6815
▁edistä	-10.6816
vaaleissa	-10.6816
▁gripp	-10.6816
▁Küsi	-10.6816
▁pääasia	-10.6816
▁hommiku	-10.6816
▁kytke	-10.6817
▁Pariisi	-10.6817
tyypi	-10.6817
▁Talve	-10.6818
▁Rosas	-10.6818
▁biilla	-10.6818
▁teollisuus	-10.6819
▁eräs	-10.6819
ologian	-10.682
eahci	-10.6821
▁Peale	-10.6821
▁Tekni	-10.6821
▁Oslo	-10.6821
▁Hieta	-10.6821
nstrum	-10.6823
▁hüp	-10.6824
▁Kanada	-10.6824
▁Oulu	-10.6826
▁saapui	-10.6827
▁tehdy	-10.6827
▁hulk	-10.6829
▁kielte	-10.6829
▁henge	-10.6831
▁vaadita	-10.6839
▁Liht	-10.6841
▁reiv	-10.6852
▁Ainak	-10.6855
hahmo	-10.6857
rvuti	-10.6862
▁serva	-10.6867
▁tartu	-10.6867
▁ohtlik	-10.6871
kirjoj	-10.6874
▁Pitkä	-10.6876
suhde	-10.688
▁samoi	-10.6884
▁tiloi	-10.6888
pisteen	-10.6892
▁tulkit	-10.6909
▁hausk	-10.6932
▁hakkam	-10.6956
▁Láv	-10.6959
rabas	-10.6975
▁osapuol	-10.699
uomioistui	-10.6997
viesu	-10.7003
litsee	-10.703
Georgia	-10.7116
▁pilk	-10.7126
pärase	-10.7153
álbmogi	-10.7174
kymmentä	-10.7229
poolest	-10.7236
▁työpaik	-10.727
▁You	-10.7279
▁teollis	-10.7332
haiguste	-10.7348
▁eatnami	-10.7351
▁karantiin	-10.7379
terveys	-10.7396
uoksu	-10.7423
eatnamiid	-10.7484
▁keskimäär	-10.7507
▁skuvl	-10.7589
oitto	-10.7591
kulttuuri	-10.771
muoto	-10.7713
▁oikeisto	-10.7745
▁link	-10.7745
▁tutkijoi	-10.7783
Boy	-10.7789
▁püü	-10.7809
šše	-10.7855
voittaj	-10.7872
▁perustett	-10.7897
ocke	-10.7975
oahpp	-10.7986
▁baj	-10.7988
▁maaliskuu	-10.7991
▁tulevaisuu	-10.8017
▁hobu	-10.8024
asutus	-10.8038
allinto	-10.8048
▁lukio	-10.8049
ällöin	-10.8054
▁paanika	-10.8061
guovddáš	-10.8062
sijaishallitsija	-10.8062
▁NATO	-10.8062
▁Terviseamet	-10.8062
▁englanni	-10.8062
▁höyhen	-10.8062
▁italialai	-10.8062
▁liikevaihto	-10.8062
▁tuntemattom	-10.8062
▁väitöskirja	-10.8062
▁ylioppila	-10.8062
▁álbmot	-10.8062
isualisoin	-10.8062
kierroksen	-10.8062
tepölypäiväkirja	-10.8062
▁Clinton	-10.8062
▁Gorbatšov	-10.8062
▁Leopard	-10.8062
▁Libuše	-10.8062
▁Mánná	-10.8062
▁Nikomede	-10.8062
▁Record	-10.8062
▁Sápmelačča	-10.8062
▁Tyttö	-10.8062
▁Wilson	-10.8062
▁analysoi	-10.8062
▁boaittobeal	-10.8062
▁eiseválddi	-10.8062
▁kohustuslik	-10.8062
▁kultuvrra	-10.8062
▁puolustus	-10.8062
▁sávzza	-10.8062
▁työskennellyt	-10.8062
▁venäläise	-10.8062
▁váldá	-10.8062
fálalda	-10.8062
guovddáž	-10.8062
upseeri	-10.8062
▁Khosroiani	-10.8062
▁Louramo	-10.8062
▁Robert	-10.8062
▁adnojuvvo	-10.8062
▁maahanmuuto	-10.8062
▁puutarha	-10.8062
▁rangaistus	-10.8062
▁tegevus	-10.8062
▁tingimus	-10.8062
▁työntekij	-10.8062
▁čohkká	-10.8062
▁dokument	-10.8062
▁intress	-10.8062
▁viranomais	-10.8062
ooksuja	-10.8062
▁myönnett	-10.8062
▁pehmeä	-10.8062
järjestelmi	-10.8062
käsittely	-10.8062
▁Origene	-10.8062
▁eatnama	-10.8062
▁maailmanmestar	-10.8062
▁törmä	-10.8062
▁Bysant	-10.8062
▁melkein	-10.8062
▁põhjenda	-10.8062
▁581	-10.8062
▁EMN	-10.8062
▁Mihkel	-10.8062
▁beroštumi	-10.8062
▁markkinaosuu	-10.8062
▁Pontokse	-10.8062
▁sassanidi	-10.8062
▁tuotanto	-10.8062
▁valtaistuim	-10.8062
▁Elokuva	-10.8062
▁allekirjoitta	-10.8062
▁kompone	-10.8062
▁liittovaltio	-10.8062
▁vanhemmat	-10.8062
▁Kokoomu	-10.8062
▁sibula	-10.8062
▁Kysely	-10.8062
▁mõistlik	-10.8062
▁3...	-10.8062
▁kirjailija	-10.8062
▁oranssi	-10.8062
▁pelkästä	-10.8062
▁näkemyks	-10.8062
▁jälki	-10.8062
▁vanhempi	-10.8062
▁Andre	-10.8062
▁sõbrad	-10.8062
▁tyypillise	-10.8062
▁gávtti	-10.8062
▁võõra	-10.8062
▁sisalda	-10.8062
▁Viipuri	-10.8062
▁julgus	-10.8062
▁ülesande	-10.8062
▁salaati	-10.8062
Tapiola	-10.8062
▁vuokra	-10.8062
▁geardd	-10.8063
▁ekstaasi	-10.8063
▁kurkku	-10.8063
▁käsittele	-10.8063
▁Ühe	-10.8063
light	-10.8063
filbm	-10.8063
▁seammá	-10.8063
▁Tarvit	-10.8063
▁türki	-10.8063
▁suhtautu	-10.8063
▁tõmba	-10.8063
▁Tiedä	-10.8063
▁ajattele	-10.8063
arvvašvuođabargi	-10.8063
▁ülejäänu	-10.8063
▁neliö	-10.8063
▁osittai	-10.8063
▁syksy	-10.8063
suunnittelu	-10.8064
▁paanikahoo	-10.8064
keahttá	-10.8064
▁mietti	-10.8064
▁Revon	-10.8064
ehitus	-10.8064
▁Jyr	-10.8064
▁naeru	-10.8064
▁Orion	-10.8064
▁kartuli	-10.8064
▁láhtt	-10.8064
▁variant	-10.8065
efekt	-10.8065
▁taistelu	-10.8065
▁näkö	-10.8065
▁tilantei	-10.8065
▁hallinta	-10.8066
▁Valkea	-10.8066
▁pähe	-10.8066
▁kaltaise	-10.8067
▁kokoontu	-10.8067
▁foto	-10.8067
kõrguse	-10.8067
▁areng	-10.8068
▁havaitt	-10.8069
▁edellisvuo	-10.8069
▁murha	-10.8071
vaatimukse	-10.8072
▁raputa	-10.8073
▁linnu	-10.8074
▁Kolme	-10.8075
▁väärtus	-10.8076
▁fakt	-10.8076
▁annost	-10.8079
▁siirtä	-10.8081
▁kohde	-10.8084
▁dosent	-10.8085
▁jahkása	-10.8088
▁dávj	-10.8088
▁Tavalise	-10.8091
ásahusa	-10.8091
▁kukist	-10.8093
▁nägem	-10.8098
▁arvestad	-10.8102
ommon	-10.8108
▁yksittäi	-10.8115
▁kursus	-10.8116
alueell	-10.8122
▁rajall	-10.8124
▁kehot	-10.8124
▁todist	-10.813
▁hakij	-10.8143
▁millaist	-10.8179
vahendi	-10.8213
muorai	-10.8218
litrai	-10.822
aamuna	-10.822
uovdi	-10.8239
▁kommentaar	-10.8253
missüsteem	-10.8266
▁Mutt	-10.8278
▁välttämätt	-10.8279
avoitteen	-10.83
panek	-10.8344
▁Pool	-10.8358
▁Tarkoit	-10.8392
▁põnev	-10.843
ktsioon	-10.851
▁todett	-10.8527
yksikö	-10.8567
oađi	-10.8588
▁oktag	-10.8605
outh	-10.8686
põlv	-10.8786
▁maailm	-10.8844
▁nädal	-10.8883
yhdistys	-10.8974
▁nakatu	-10.8993
▁olbmui	-10.9021
áhkis	-10.9071
yhteisö	-10.9139
ášši	-10.914
Z	-10.9141
maailma	-10.9146
koulutukse	-10.9198
paikall	-10.9302
Maria	-10.9339
arantii	-10.9368
ikaisemmi	-10.948
▁veroj	-10.9485
profess	-10.949
▁beroš	-10.949
▁Egypti	-10.949
▁georgialai	-10.949
▁käräjäoikeu	-10.949
▁luottoluokitus	-10.949
▁rangaistukse	-10.949
▁siitepöly	-10.949
Sulawesi	-10.949
goahtá	-10.949
rkkipiispa	-10.949
äänestykse	-10.949
í	-10.949
šiehtadus	-10.949
▁!!!	-10.949
▁Agricola	-10.949
▁Arabiantimali	-10.949
▁Aunesluoma	-10.949
▁CEDAW	-10.949
▁Moolenaar	-10.949
▁Penttilä	-10.949
▁Rammstein	-10.949
▁Rodrigue	-10.949
▁Tšerepanov	-10.949
▁Ukraina	-10.949
▁Vartiovuoren	-10.949
▁Veikkausliiga	-10.949
▁Ykköse	-10.949
▁asfalt	-10.949
▁buohccedivššár	-10.949
▁füüsili	-10.949
▁jurddaš	-10.949
▁jääkiekko	-10.949
▁kehitykse	-10.949
▁matemaatika	-10.949
▁maŋimu	-10.949
▁neliökilometri	-10.949
▁njeallj	-10.949
▁opiskele	-10.949
▁originaal	-10.949
▁ovddasvástádus	-10.949
▁pandeemia	-10.949
▁sihkkarast	-10.949
▁strategi	-10.949
▁velvoittava	-10.949
▁vulggii	-10.949
▁üldiselt	-10.949
▁čuovgga	-10.949
Pohjola	-10.949
▁BBC	-10.949
▁Charger	-10.949
▁Motorex	-10.949
▁apuraha	-10.949
▁ennätykse	-10.949
▁itseluottamus	-10.949
▁kohdistu	-10.949
▁oačč	-10.949
▁reegli	-10.949
▁suhdanne	-10.949
▁sukkahousu	-10.949
järjestely	-10.949
▁Light	-10.949
▁fertii	-10.949
▁ohjelmoi	-10.949
▁turkkilai	-10.949
▁Islanni	-10.949
▁Machine	-10.949
▁almmuh	-10.949
▁pysäyt	-10.949
▁Kuopio	-10.949
▁Yhtye	-10.949
▁hingamis	-10.949
▁riegád	-10.949
▁vahendaja	-10.949
▁objekt	-10.949
▁popipäev	-10.949
▁vahingo	-10.949
▁keskustella	-10.949
▁planeeri	-10.949
▁Smith	-10.949
▁footon	-10.949
▁liiklus	-10.949
▁AAA	-10.9491
▁Kangro	-10.9491
▁Pietari	-10.9491
▁eksperdi	-10.9491
▁noudatta	-10.9491
▁aiempaa	-10.9491
▁Erityise	-10.9491
▁Libya	-10.9491
▁Kirjuta	-10.9491
▁absint	-10.9491
▁hopea	-10.9491
▁deattuh	-10.9491
▁kustannuks	-10.9491
▁osoitett	-10.9491
▁sõrm	-10.9491
▁toiduaine	-10.9491
▁Nieidda	-10.9491
▁prinssi	-10.9491
▁enimmä	-10.9491
remonti	-10.9491
▁püha	-10.9491
▁suunnittele	-10.9491
merkkejä	-10.9491
▁majandus	-10.9491
▁henkilökohtai	-10.9491
▁huolehti	-10.9491
▁gramma	-10.9491
▁beasa	-10.9491
▁vaihtele	-10.9491
▁luonddu	-10.9491
▁Kuivajärv	-10.9491
▁Samuli	-10.9491
▁väestö	-10.9491
▁valitettava	-10.9491
▁rauhoit	-10.9491
▁hábme	-10.9491
▁nautinto	-10.9491
näyttely	-10.9491
▁Apple	-10.9491
▁tuhansi	-10.9492
▁opetus	-10.9492
▁evttoh	-10.9492
▁jeara	-10.9492
Black	-10.9492
▁kodanik	-10.9492
▁luento	-10.9492
▁kiinteä	-10.9492
▁musiiki	-10.9492
kyvy	-10.9492
▁rahoja	-10.9492
▁maisteri	-10.9492
▁ilmoitet	-10.9492
▁mánná	-10.9493
▁grilli	-10.9493
laatiko	-10.9493
▁Miehe	-10.9493
tuomioistuime	-10.9493
▁vähite	-10.9493
▁harju	-10.9493
▁Tasaval	-10.9493
▁pekoni	-10.9494
▁rikku	-10.9494
turnaukse	-10.9494
▁Máre	-10.9495
▁Nobel	-10.9495
▁matkustaji	-10.9496
▁rannall	-10.9496
valtuute	-10.9497
márkan	-10.9497
▁kirjee	-10.9498
▁Valgus	-10.9498
eoksessa	-10.9498
▁erinomai	-10.9499
haigla	-10.95
ansleri	-10.9502
jođiheaddji	-10.9502
▁soodust	-10.9506
▁tavaroi	-10.9509
▁varoitt	-10.951
▁ajatuksi	-10.9517
▁ulkomail	-10.952
kokemukse	-10.9521
▁tutkimuskesku	-10.9529
▁molemm	-10.9533
oody	-10.9534
▁sügav	-10.9542
▁määritel	-10.9543
vaalikone	-10.9544
innisvara	-10.9544
osakeyhtiö	-10.9545
korkkar	-10.9549
▁ajatukse	-10.9552
▁dehála	-10.9554
▁päivittäi	-10.9558
▁harjoittaj	-10.9559
tekniika	-10.956
▁suorittanei	-10.9572
▁sijoitett	-10.9589
talouspolitiikka	-10.959
aikaistyöttömyy	-10.9629
tuomari	-10.9656
internáhttaskuvl	-10.9662
▁orjuu	-10.972
paketis	-10.9729
▁beaiv	-10.9733
▁selittä	-10.9843
▁loomulik	-10.987
▁oikeude	-11.0083
suositu	-11.0104
▁vastaanott	-11.0137
yrityksille	-11.039
eddjiid	-11.071
▁internáhtt	-11.0843
suuntais	-11.1056
▁tegelik	-11.1063
▁ulkopuol	-11.1065
uođđu	-11.1083
▁Tilasto	-11.1123
▁Kárášjo	-11.1127
▁jođih	-11.1144
isännöitsij	-11.1153
hcci	-11.1155
▁Internáht	-11.1155
šuvdna	-11.1156
▁njuolg	-11.1157
▁matkust	-11.1157
е	-11.1157
transport	-11.1157
gelbbolašvuo	-11.1157
khosroidi	-11.1157
°	-11.1157
▁Gávpo	-11.1157
▁Yhdisty	-11.1157
▁arkkiteh	-11.1157
▁demokrati	-11.1157
▁jalkapallo	-11.1157
▁kommenteeri	-11.1157
▁kvaliteet	-11.1157
▁kättesaadav	-11.1157
▁maahanmuuttaji	-11.1157
▁pensioni	-11.1157
akadeemia	-11.1157
demokraati	-11.1157
divisioona	-11.1157
erussuomalais	-11.1157
struktuuri	-11.1157
vdameark	-11.1157
áŋggu	-11.1157
—	-11.1157
€	-11.1157
▁Chávez	-11.1157
▁Englanni	-11.1157
▁Evertoni	-11.1157
▁Finnjet	-11.1157
▁Fischer	-11.1157
▁Gaddafi	-11.1157
▁Group	-11.1157
▁Hollming	-11.1157
▁Häpeä	-11.1157
▁Kysymy	-11.1157
▁Käytännössä	-11.1157
▁Lennonjohtaj	-11.1157
▁Originaal	-11.1157
▁Paflagonia	-11.1157
▁Papiniidu	-11.1157
▁Perjantain	-11.1157
▁Põhjus	-11.1157
▁Ráđđehus	-11.1157
▁Science	-11.1157
▁Sähkö	-11.1157
▁Venezuela	-11.1157
▁absoluutsel	-11.1157
▁boazodoll	-11.1157
▁direktor	-11.1157
▁guorahalla	-11.1157
▁hienonnettu	-11.1157
▁horisontaali	-11.1157
▁huolestuttava	-11.1157
▁informaatio	-11.1157
▁jesuiitta	-11.1157
▁klássalanja	-11.1157
▁kuningatar	-11.1157
▁kvantarvuti	-11.1157
▁käsiteltävä	-11.1157
▁laboratooriumis	-11.1157
▁lahjoitus	-11.1157
▁mearkkaš	-11.1157
▁mikrobioloogia	-11.1157
▁monimutkai	-11.1157
▁nartsiss	-11.1157
▁nuppástu	-11.1157
▁oassálasti	-11.1157
▁paanikahäire	-11.1157
▁programmi	-11.1157
▁provinssi	-11.1157
▁põhimõtte	-11.1157
▁statistika	-11.1157
▁stuorá	-11.1157
▁sünnipäev	-11.1157
▁tiedotteessa	-11.1157
▁tuumajaam	-11.1157
▁váikkuhi	-11.1157
▁vázzi	-11.1157
▁yhdistetty	-11.1157
▁Áddjá	-11.1157
▁álbmoga	-11.1157
▁čuovvu	-11.1157
jávrri	-11.1157
rõõmu	-11.1157
ymposiumi	-11.1157
▁Departemeant	-11.1157
▁Duodecim	-11.1157
▁IMF	-11.1157
▁NHL	-11.1157
▁Pärnu	-11.1157
▁Radiohead	-11.1157
▁Reutersi	-11.1157
▁Tradeka	-11.1157
▁Windows	-11.1157
▁dákkár	-11.1157
▁gohčod	-11.1157
▁jalkapalloilija	-11.1157
▁komposti	-11.1157
▁kypsy	-11.1157
▁lähdekoodi	-11.1157
▁länsimais	-11.1157
▁mustasukkaisuu	-11.1157
▁organisaatio	-11.1157
▁ortodoksi	-11.1157
▁pöördu	-11.1157
▁ruokavalio	-11.1157
▁sijoittaja	-11.1157
▁smávva	-11.1157
▁velkakatto	-11.1157
▁vuođđo	-11.1157
▁váhnem	-11.1157
lääketieteellise	-11.1157
paigalda	-11.1157
veljeskunna	-11.1157
▁Ajamasin	-11.1157
▁aurinko	-11.1157
▁ehdokkai	-11.1157
▁tasapaino	-11.1157
▁vállje	-11.1157
Ranskassa	-11.1157
▁Wikimedia	-11.1157
▁korkeude	-11.1157
▁öelnud	-11.1157
▁eteenpäin	-11.1157
▁jávka	-11.1157
▁kustannus	-11.1157
▁paprika	-11.1157
▁reguleeri	-11.1157
▁sukupolv	-11.1157
elinkeino	-11.1157
▁Hearrá	-11.1157
▁Ontario	-11.1157
▁Taloude	-11.1157
▁hyönteis	-11.1157
▁report	-11.1157
▁kreivi	-11.1157
▁välittömä	-11.1157
sykologi	-11.1157
▁SAK	-11.1157
básár	-11.1157
▁Ruotsalai	-11.1157
▁japanilais	-11.1157
▁álggahuvv	-11.1157
▁luokituksen	-11.1157
yhtymä	-11.1157
▁filmma	-11.1157
▁ranniko	-11.1157
pyyntö	-11.1157
▁Lontoos	-11.1157
▁itsetunto	-11.1157
▁kenraali	-11.1157
▁mekanism	-11.1157
▁õhtul	-11.1157
menetelmä	-11.1157
▁olevikus	-11.1157
▁Kärs	-11.1157
▁kotisivu	-11.1157
▁roomalais	-11.1157
▁čáppa	-11.1157
kirjoittaja	-11.1157
meahttu	-11.1157
▁Armenia	-11.1157
▁pidemmä	-11.1157
kauppoja	-11.1157
paikkoja	-11.1157
▁Hoskins	-11.1157
▁badjel	-11.1157
▁kruunu	-11.1157
▁álgoálbmog	-11.1157
▁Litium	-11.1157
▁Volvo	-11.1157
▁päässy	-11.1157
▁ulottu	-11.1157
▁lahingu	-11.1157
▁laittoma	-11.1157
▁tytär	-11.1157
▁tuhande	-11.1157
▁vihdoin	-11.1157
▁hidastu	-11.1157
▁supistu	-11.1157
▁hooaja	-11.1157
▁bahá	-11.1157
▁määra	-11.1157
▁Itävalla	-11.1157
▁perustuslai	-11.1157
kokkuvõt	-11.1157
▁urhe	-11.1158
▁tiedä	-11.1158
▁Palvelu	-11.1158
▁märga	-11.1158
▁porno	-11.1158
▁ruskea	-11.1158
▁armastus	-11.1158
▁valloitt	-11.1158
nharmaa	-11.1158
▁suohtas	-11.1158
áigodaga	-11.1158
▁tutkimuksi	-11.1158
▁yksikkö	-11.1158
▁muunnelm	-11.1158
▁haigestunu	-11.1158
▁nautinno	-11.1158
▁ühiskon	-11.1158
▁pädev	-11.1158
sõbranna	-11.1158
▁monipuolis	-11.1158
vierailu	-11.1158
▁märgi	-11.1158
▁Stáll	-11.1158
▁stress	-11.1159
▁näytell	-11.1159
▁monitieteis	-11.1159
▁omistusasu	-11.1159
komplek	-11.116
▁targem	-11.116
▁njuolggadusai	-11.116
havainno	-11.1161
▁linnoit	-11.1161
ozihan	-11.1161
▁Paikall	-11.1162
▁alhais	-11.1162
▁lapsuude	-11.1163
▁hankal	-11.1163
▁hedelm	-11.1164
valvonta	-11.1164
näyttö	-11.1166
▁čalmm	-11.1166
▁kopioi	-11.1166
▁keskuspank	-11.1168
▁rinnall	-11.1168
▁luotettav	-11.117
aupunginteatteri	-11.1171
kaupunginosa	-11.1172
ráđi	-11.1172
▁pitkäaikais	-11.118
▁kumpik	-11.1187
▁Tilastokesku	-11.1199
▁talouksi	-11.1201
▁väkilu	-11.123
ihmisoikeuksi	-11.1247
vaatimust	-11.1248
▁osuude	-11.1314
argojoavk	-11.1439
▁euroaluee	-11.1534
oikeistolai	-11.1616
beaivv	-11.1942
kirjallisuu	-11.1947
▁hupm	-11.1966
pelaaja	-11.2179
▁maailmanlaajui	-11.2194
looduslik	-11.2234
▁čoahkk	-11.2239
tarkoitukse	-11.2287
yhdistyks	-11.2343
kyljyks	-11.2416
▁tieteellis	-11.2442
uuhun	-11.2492
▁Georg	-11.2608
▁osoitt	-11.2773
Ä	-11.2808
kõige	-11.2809
biodiversiteetti	-11.2923
▁Tapahtu	-11.296
tieteellisen	-11.2965
otitalousvähenny	-11.2978
▁boahtte	-11.3019
prosent	-11.3066
kasvuhoone	-11.3115
kontroll	-11.3136
teatteri	-11.3144
▁teoree	-11.3146
▁njealj	-11.3146
▁beassá	-11.3156
▁Tiedot	-11.3157
áddejumi	-11.3157
ι	-11.3157
ρ	-11.3157
▁Khosro	-11.3157
▁maanviljel	-11.3157
ainsäädännö	-11.3157
humanistitohtori	-11.3157
▁Härkö	-11.3157
▁Plotino	-11.3157
▁Stuorra	-11.3157
▁duođašt	-11.3157
▁sügavkülm	-11.3157
▁täytäntöön	-11.3157
elklaagri	-11.3157
konsortio	-11.3157
suntorakentamis	-11.3157
~	-11.3157
ääkaupunkiseudul	-11.3157
▁Bithynia	-11.3157
▁Divššohas	-11.3157
▁Fredrik	-11.3157
▁Guovddá	-11.3157
▁Lönnrot	-11.3157
▁Prügi	-11.3157
▁Põldo	-11.3157
▁Yliluonnollis	-11.3157
▁akatemiatutkija	-11.3157
▁almmolaš	-11.3157
▁ammatillise	-11.3157
▁apurahoj	-11.3157
▁deaivvad	-11.3157
▁dáhpáhuva	-11.3157
▁englantilai	-11.3157
▁epideemia	-11.3157
▁hooldekodu	-11.3157
▁kaubanduskeskus	-11.3157
▁kauppakamari	-11.3157
▁kilpaile	-11.3157
▁komentotila	-11.3157
▁kommunist	-11.3157
▁kritisoi	-11.3157
▁kuvitteelli	-11.3157
▁nissona	-11.3157
▁oađđi	-11.3157
▁organism	-11.3157
▁perustuslaki	-11.3157
▁planeedi	-11.3157
▁playlisti	-11.3157
▁raportti	-11.3157
▁täytäntöönpano	-11.3157
▁vuodentakaise	-11.3157
▁vázze	-11.3157
▁áhčč	-11.3157
▁ülemaailm	-11.3157
▁čuoiga	-11.3157
aboratorio	-11.3157
lämpötila	-11.3157
mielenosoitukse	-11.3157
mielisyyte	-11.3157
tehnoloogi	-11.3157
terveydenhuollo	-11.3157
▁Albert	-11.3157
▁GitHubi	-11.3157
▁Kalifornia	-11.3157
▁Kilpailu	-11.3157
▁Kokonais	-11.3157
▁Köklot	-11.3157
▁Lutenblag	-11.3157
▁Porsche	-11.3157
▁SARS	-11.3157
▁Samsung	-11.3157
▁Urheilu	-11.3157
▁Viestintä	-11.3157
▁Vladimir	-11.3157
▁Wahlbeck	-11.3157
▁alkoholi	-11.3157
▁antibioott	-11.3157
▁avioliito	-11.3157
▁backlinkk	-11.3157
▁departement	-11.3157
▁english	-11.3157
▁gažaldaga	-11.3157
▁geatnegasvuo	-11.3157
▁gáibádusa	-11.3157
▁impuls	-11.3157
▁internet	-11.3157
▁jienastuslogu	-11.3157
▁järgneva	-11.3157
▁kongress	-11.3157
▁myymäläauto	-11.3157
▁müügikuulutus	-11.3157
▁organisašuvnna	-11.3157
▁potilasohjaukse	-11.3157
▁puolustukse	-11.3157
▁pääkaupungi	-11.3157
▁simulaator	-11.3157
▁subjekti	-11.3157
▁ságastalla	-11.3157
▁testamentti	-11.3157
▁täpsusta	-11.3157
▁uhcc	-11.3157
▁universitehta	-11.3157
▁vapaaehtois	-11.3157
▁yliluonnollis	-11.3157
▁youtube	-11.3157
puheenvuoro	-11.3157
tietokonepeli	-11.3157
witteriss	-11.3157
▁Stáhta	-11.3157
▁Tšeljabinsk	-11.3157
▁graafi	-11.3157
▁hoiusel	-11.3157
▁krõbin	-11.3157
▁kuningasgambiit	-11.3157
▁myönsi	-11.3157
▁näppäin	-11.3157
▁praktilise	-11.3157
▁viivästy	-11.3157
▁üpris	-11.3157
▁Linux	-11.3157
▁RAY	-11.3157
▁kirjelda	-11.3157
▁lülita	-11.3157
▁remondi	-11.3157
▁LHC	-11.3157
▁Pelander	-11.3157
▁Teknologia	-11.3157
▁ameerik	-11.3157
▁hoolimat	-11.3157
▁Üldi	-11.3157
▁üleüld	-11.3157
vddeš	-11.3157
▁Koroona	-11.3157
▁nauhoit	-11.3157
akuutusyhtiö	-11.3157
katsauksessa	-11.3157
▁báhc	-11.3157
▁iOS	-11.3157
▁oainná	-11.3157
mattoman	-11.3157
▁norjalai	-11.3157
▁opmoda	-11.3157
▁porukall	-11.3157
▁syöksyi	-11.3157
▁kosmokse	-11.3157
materiaali	-11.3157
▁kotitalouksi	-11.3157
etwork	-11.3157
▁Hollanni	-11.3157
▁Aamuleh	-11.3157
▁Váld	-11.3157
kaitsevahend	-11.3157
vaikuttei	-11.3157
esittely	-11.3157
▁luonnolli	-11.3157
▁lühi	-11.3157
▁foori	-11.3157
rakennukse	-11.3157
luettelo	-11.3157
▁vanhempa	-11.3157
koistyötapahtuma	-11.3157
▁unohtu	-11.3157
▁Liesjärv	-11.3157
▁materjal	-11.3157
▁lahendus	-11.3157
▁Enamuse	-11.3157
▁Nicol	-11.3157
kultuur	-11.3157
▁fatnas	-11.3157
▁toteutet	-11.3157
▁náital	-11.3157
havainto	-11.3158
▁stuori	-11.3158
▁kursori	-11.3158
▁siirryt	-11.3158
arrastajat	-11.3158
oabbá	-11.3158
▁sõidet	-11.3158
▁ensisijais	-11.3158
▁Stivr	-11.3158
pitoisuu	-11.3158
gilvvu	-11.3158
valmiude	-11.3158
▁konvenšuv	-11.3158
▁säädet	-11.3159
oomikute	-11.3159
а	-11.5657
л	-11.5657
р	-11.5657
т	-11.5657
ø	-11.5657
ż	-11.5657
«	-11.5657
́	-11.5657
ς	-11.5657
О	-11.5657
‘	-11.5657
ā	-11.5657
&	-11.8643
@	-11.8645
в	-11.899
ά	-11.899
ν	-11.899
с	-11.899
ō	-11.899
ο	-11.899
А	-11.899
о	-11.899
„	-11.899
⁄	-11.899
島	-11.899
釣	-11.899
魚	-11.899
"	-12.365
ო	-12.399
ь	-12.399
ε	-12.399
ი	-12.399
θ	-12.399
ό	-12.399
^	-12.399
±	-12.399
è	-12.399
α	-12.399
δ	-12.399
х	-12.399
ר	-12.399
•	-12.399
😀	-12.399
Ž	-12.399
台	-13.3969
ḥ	-13.397
ر	-13.3971
ا	-13.3972
ր	-13.3973
ա	-13.3974
С	-13.3975
τ	-13.3976
Δ	-13.3977
ù	-13.3978
ë	-13.3979
ņ	-13.398
ū	-13.3981
Š	-13.3982
»	-13.3983
Ö	-13.3984
ŧ	-13.3985
Č	-13.3986
Å	-13.3987
Á	-13.3988
%	-13.3989
”	-13.399
π	-13.399
г	-13.399
н	-13.399
ц	-13.399
ш	-13.399
ვ	-13.399
რ	-13.399
ს	-13.399
æ	-13.399
υ	-13.399
я	-13.399
Ա	-13.399
آ	-13.399
ὐ	-13.399
ń	-13.399
ó	-13.399
$	-13.399
\	-13.399
§	-13.399
®	-13.399
¶	-13.399
À	-13.399
É	-13.399
Î	-13.399
×	-13.399
Ø	-13.399
ã	-13.399
ç	-13.399
ð	-13.399
ć	-13.399
ğ	-13.399
ī	-13.399
ı	-13.399
ł	-13.399
ř	-13.399
Ś	-13.399
ş	-13.399
ǎ	-13.399
Ε	-13.399
Λ	-13.399
Μ	-13.399
έ	-13.399
η	-13.399
κ	-13.399
μ	-13.399
σ	-13.399
ω	-13.399
Б	-13.399
Н	-13.399
б	-13.399
д	-13.399
ж	-13.399
з	-13.399
и	-13.399
й	-13.399
к	-13.399
м	-13.399
п	-13.399
у	-13.399
ч	-13.399
щ	-13.399
ъ	-13.399
э	-13.399
ю	-13.399
տ	-13.399
א	-13.399
ט	-13.399
ت	-13.399
ა	-13.399
ნ	-13.399
ხ	-13.399
群	-13.399
諸	-13.399
閣	-13.399
魏	-13.399
🌴	-13.399
🍹	-13.399
💜	-13.399
😁	-13.399
😭	-13.399
🙂	-13.399
🤔	-13.399
ú	-13.399
ё	-13.399
尖	-13.399
ŋ	-13.3991
ф	-13.3991
ы	-13.3991
