<unk>	0
<s>	0
</s>	0
▁	-2.55164
,	-3.1945
▁.	-3.38476
ны	-4.03864
ӧ	-4.17497
а	-4.46085
с	-4.50068
ыс	-4.54478
ӧн	-4.5596
▁да	-4.73548
ын	-4.77432
ъяс	-4.96371
сӧ	-4.97121
ысь	-4.97572
▁...	-5.1526
▁и	-5.15304
-	-5.16989
—	-5.16989
ас	-5.20646
лӧн	-5.26136
н	-5.29523
м	-5.29776
кӧ	-5.44198
яс	-5.44562
в	-5.46545
и	-5.49976
▁нин	-5.53384
і	-5.54839
ӧс	-5.54881
са	-5.55652
▁вылӧ	-5.58216
▁мый	-5.61819
ис	-5.65068
▁эз	-5.71424
ыд	-5.71928
▁сійӧ	-5.74976
ӧсь	-5.7525
▁во	-5.80018
жӧ	-5.82784
ӧм	-5.84639
▁?	-5.85352
к	-5.87418
д	-5.89007
▁оз	-5.90291
▁не	-5.96251
тӧм	-5.96344
▁на	-5.9744
▁К	-5.99772
лі	-5.9993
ліс	-6.01263
лысь	-6.01615
кӧй	-6.05002
▁!	-6.06258
іс	-6.08964
▁став	-6.09126
лы	-6.14608
г	-6.15483
я	-6.17655
▁бӧр	-6.22778
▁э	-6.22807
ла	-6.26332
сь	-6.27324
мын	-6.29521
ы	-6.2967
▁кӧ	-6.31944
джык	-6.32072
▁ло	-6.32668
▁сы	-6.32851
л	-6.33418
ӧй	-6.36402
▁кор	-6.36726
▁И	-6.38954
тӧг	-6.39998
▁вӧл	-6.40558
р	-6.40877
ся	-6.41892
ик	-6.42239
▁к	-6.42445
▁зэ	-6.44341
▁мед	-6.44991
▁идралӧм	-6.45786
▁тайӧ	-6.46089
▁вӧ	-6.47723
з	-6.48075
▁пу	-6.48878
▁Но	-6.52859
й	-6.53405
тӧ	-6.53934
▁вылын	-6.5401
нӧй	-6.54508
▁код	-6.57059
ь	-6.57671
▁С	-6.58112
ан	-6.58272
ш	-6.6194
ыны	-6.62002
▁уна	-6.62162
▁ыджыд	-6.62637
лань	-6.63588
▁удж	-6.64976
▁А	-6.65107
т	-6.6768
▁сэтшӧм	-6.68808
▁дзик	-6.69212
▁шу	-6.70349
▁В	-6.70424
▁ве	-6.71207
▁но	-6.7174
▁ко	-6.72424
▁п	-6.74422
▁миян	-6.74451
▁нӧ	-6.74616
▁Кы	-6.75185
ӧдз	-6.75291
▁П	-6.75326
▁дін	-6.75662
▁пыр	-6.75991
ні	-6.76835
▁му	-6.77056
▁урожай	-6.77924
▁вермы	-6.78375
▁вӧр	-6.78507
▁ва	-6.78609
▁ю	-6.79248
▁ме	-6.79279
кӧд	-6.80643
ӧма	-6.81856
▁с	-6.83175
ӧдіс	-6.83197
▁кыдз	-6.83603
▁Д	-6.83848
▁сӧ	-6.83997
▁выл	-6.83997
▁ку	-6.84345
▁кы	-6.85235
▁вӧв	-6.85688
▁быд	-6.8717
▁шонді	-6.87915
▁Тайӧ	-6.87939
▁Мый	-6.87961
ка	-6.88357
▁юр	-6.88585
▁ӧти	-6.8986
авны	-6.89923
тор	-6.90159
▁ён	-6.90206
лун	-6.92416
▁гор	-6.93138
ю	-6.93476
▁тӧд	-6.93865
▁тэ	-6.94458
▁мӧд	-6.94646
ті	-6.94991
ва	-6.96175
ст	-6.97665
ль	-6.98156
▁ичӧт	-6.99009
▁чери	-6.99028
▁моз	-6.99112
▁лун	-6.99456
ч	-7.00204
нас	-7.00615
▁водз	-7.01301
да	-7.03331
▁керка	-7.03483
ж	-7.04636
▁видз	-7.06905
сянь	-7.07303
▁б	-7.07338
п	-7.07521
▁Ме	-7.08779
▁кок	-7.09165
о	-7.09747
▁О	-7.10156
ӧдӧм	-7.10395
▁ки	-7.10494
ныс	-7.10648
▁Э	-7.11508
▁вӧсна	-7.11512
▁турун	-7.11524
▁колхозъяс	-7.11597
▁важ	-7.11622
▁мукӧд	-7.11656
на	-7.12113
▁кык	-7.12167
▁сикт	-7.12952
▁сэ	-7.13957
ам	-7.14481
▁по	-7.15271
▁орд	-7.1558
▁кол	-7.15754
▁мун	-7.17332
▁Ва	-7.19407
▁кодь	-7.19609
тіс	-7.19927
ент	-7.20078
ог	-7.20545
▁видзӧд	-7.208
лӧ	-7.20915
ӧд	-7.21035
у	-7.21673
сны	-7.2242
▁вой	-7.22745
ма	-7.22967
▁Во	-7.23566
шта	-7.23667
▁у	-7.23848
▁бур	-7.24629
▁пожӧм	-7.25167
дз	-7.256
A	-7.25794
▁быттьӧ	-7.25794
▁ӧдйӧ	-7.25826
▁друг	-7.25829
▁морт	-7.25906
▁Ваньӧ	-7.25995
▁том	-7.26079
▁найӧ	-7.26175
▁яг	-7.26195
кодь	-7.26692
сся	-7.26944
▁бура	-7.27109
ад	-7.27526
ськӧ	-7.28637
▁г	-7.29024
▁ни	-7.29489
лас	-7.29922
тъяс	-7.30312
▁мы	-7.31727
▁за	-7.32472
▁ас	-7.32481
ов	-7.32532
▁кут	-7.32893
▁Б	-7.33042
▁га	-7.33384
лӧм	-7.33635
▁бок	-7.33653
тны	-7.33868
▁Ми	-7.3463
аяс	-7.34667
▁Та	-7.3497
ьяс	-7.35534
йӧн	-7.35563
▁Н	-7.35572
дорӧ	-7.36068
ян	-7.36118
лӧма	-7.3677
▁в	-7.37506
е	-7.38835
ра	-7.38963
▁ка	-7.38981
▁сылы	-7.39001
▁Кыдз	-7.39015
▁лои	-7.39317
ным	-7.40191
вӧй	-7.4021
▁син	-7.40765
a	-7.4246
▁Ворошилов	-7.4246
▁абу	-7.4246
▁сідз	-7.42462
▁ёрт	-7.42463
▁жалит	-7.42472
▁места	-7.42474
▁пипу	-7.4248
▁чукӧр	-7.42526
▁председательяс	-7.42565
фер	-7.42615
▁Не	-7.42625
▁кутіс	-7.42881
▁шо	-7.42956
▁лыд	-7.43647
▁тӧв	-7.43917
▁сай	-7.43982
▁У	-7.43988
▁воис	-7.44192
▁татшӧм	-7.44527
▁зэр	-7.44831
▁выв	-7.45017
▁кутшӧм	-7.46681
▁пон	-7.46955
▁та	-7.48242
▁па	-7.48331
▁Сэ	-7.50177
ель	-7.50563
▁Ас	-7.50646
▁дор	-7.51909
▁ту	-7.54101
чес	-7.54163
▁вы	-7.54461
мӧм	-7.5506
сиг	-7.5583
▁мен	-7.56042
▁ше	-7.5681
ня	-7.56947
▁Мед	-7.57049
ть	-7.57298
▁ну	-7.58091
во	-7.58561
ъя	-7.59139
ръяс	-7.59294
▁кӧн	-7.59538
▁з	-7.60548
он	-7.60853
ійӧ	-7.6097
:	-7.6246
«	-7.6246
»	-7.6246
▁виччысь	-7.6246
▁район	-7.6246
▁берег	-7.62461
▁Ӧти	-7.62463
▁сьӧкыд	-7.62492
иг	-7.6254
▁машина	-7.62562
▁югыд	-7.62613
▁куль	-7.62679
дырйи	-7.62706
▁Р	-7.63036
▁синъяс	-7.63481
▁аддзы	-7.6407
▁выль	-7.64318
га	-7.64591
▁туй	-7.6503
▁кеж	-7.65312
▁ор	-7.65323
▁синм	-7.65549
аліс	-7.66024
▁Г	-7.66212
ур	-7.66826
ли	-7.67108
кньыдик	-7.67608
▁едж	-7.67818
▁горт	-7.67968
тысь	-7.67975
дор	-7.68144
▁олӧм	-7.68422
▁весь	-7.69022
▁ли	-7.70426
▁сэк	-7.71244
▁ба	-7.71948
▁йыл	-7.72233
▁а	-7.7257
▁пи	-7.73234
▁Т	-7.74236
▁вом	-7.74403
▁вын	-7.74565
къяс	-7.75007
ӧдчис	-7.75337
ысьяс	-7.75692
ин	-7.76077
▁Ло	-7.76226
▁Шо	-7.7638
ӧдыс	-7.7642
▁се	-7.76884
тас	-7.76953
▁ним	-7.77251
уйт	-7.78145
▁со	-7.78994
б	-7.79516
джыд	-7.79774
▁тыр	-7.79878
им	-7.80051
діс	-7.80593
▁ж	-7.81196
ым	-7.82195
▁пла	-7.82355
▁рыт	-7.8436
ді	-7.84584
▁тшӧт	-7.84781
вны	-7.85252
▁кымӧр	-7.85364
бӧ	-7.85389
▁Ч	-7.85391
ыджыд	-7.85477
чӧ	-7.85562
ьӧ	-7.856
мъяс	-7.85784
шӧр	-7.87126
▁Е	-7.8739
–	-7.8746
▁1	-7.8746
▁Павел	-7.8746
▁тыдовтчис	-7.8746
▁Зэр	-7.8746
ігмоз	-7.8746
▁Микит	-7.87462
сюрӧ	-7.87462
▁командир	-7.87492
▁книга	-7.87504
▁Ӧд	-7.87522
▁лёк	-7.87522
▁кытчӧ	-7.87529
▁нэм	-7.87534
▁чӧж	-7.87538
▁страна	-7.87577
▁сьӧд	-7.87589
ыштіс	-7.87602
▁нянь	-7.87602
▁сир	-7.87608
▁кузя	-7.87718
▁пӧв	-7.87792
ар	-7.87906
▁машинаяс	-7.87958
рук	-7.88088
▁сынӧд	-7.88112
▁л	-7.88176
▁пытшк	-7.88201
▁позь	-7.88268
▁керкаяс	-7.88277
▁гажа	-7.88297
▁мӧдіс	-7.88432
▁пырис	-7.88476
▁Быд	-7.88615
▁пожӧмъяс	-7.88642
▁олӧмыс	-7.88644
▁гӧгӧр	-7.89141
▁йӧз	-7.89214
ит	-7.89356
▁броневик	-7.89394
та	-7.89585
▁паськыд	-7.89656
▁ми	-7.89875
▁то	-7.89939
▁велӧд	-7.89962
▁эм	-7.90104
айта	-7.90184
мас	-7.9036
мы	-7.90426
ӧдны	-7.90637
▁дыр	-7.90782
▁шог	-7.91306
▁Тӧд	-7.9132
кутшӧм	-7.91597
▁дзеб	-7.91855
▁ныр	-7.9187
▁ӧт	-7.92108
ота	-7.92371
▁о	-7.92462
▁Кӧ	-7.92521
▁узь	-7.92584
нитіс	-7.92764
▁торъяс	-7.92988
▁вевтт	-7.93478
▁до	-7.93791
▁пӧрӧд	-7.93821
▁Вӧр	-7.94477
▁уси	-7.94591
▁н	-7.94676
ей	-7.95152
▁кост	-7.95349
▁кат	-7.95401
йӧ	-7.95478
▁би	-7.95507
▁лоис	-7.96029
▁быр	-7.96253
тыр	-7.96346
▁Пе	-7.96452
▁кар	-7.97013
ор	-7.9755
▁Л	-7.97911
▁шуд	-7.985
итіс	-7.99033
ылын	-8.00317
гӧн	-8.00331
▁весьт	-8.00488
▁матӧ	-8.00497
▁Став	-8.01181
▁дер	-8.0184
ара	-8.01856
рӧч	-8.03494
аш	-8.03783
▁нуӧд	-8.03971
ал	-8.04818
▁М	-8.05974
▁сьӧлӧм	-8.06149
▁ун	-8.06214
ннӧй	-8.06323
▁ув	-8.06936
рӧ	-8.09062
дзи	-8.09857
▁бое	-8.10209
▁Ве	-8.10551
ув	-8.10736
▁м	-8.10985
▁мӧдӧдчи	-8.11198
пырысь	-8.11513
▁д	-8.11764
▁т	-8.11918
▁ке	-8.12226
ник	-8.12303
чӧм	-8.12333
кӧн	-8.12481
▁Ко	-8.12896
▁тшӧ	-8.12937
тса	-8.13085
ьыс	-8.13407
но	-8.13508
ун	-8.13575
видзӧ	-8.141
мӧд	-8.1439
▁ков	-8.14859
дзыс	-8.15234
узь	-8.15964
ъ	-8.16073
дьӧ	-8.16514
▁некод	-8.16553
▁олӧмӧ	-8.16572
ястӧ	-8.1686
ру	-8.18412
ялӧм	-8.18956
▁йылы	-8.19137
▁вел	-8.1939
▁Мен	-8.19768
ъясыс	-8.19827
шкӧ	-8.19853
▁колхозник	-8.20028
▁гӧгӧрво	-8.20251
▁враг	-8.20273
▁ӧшинь	-8.20318
чи	-8.20665
рожай	-8.20683
▁ныв	-8.20748
2	-8.20793
9	-8.20793
грезд	-8.20793
▁Армия	-8.20793
▁Ефремович	-8.20793
▁Свежов	-8.20793
▁большеви	-8.20793
▁кажитч	-8.20793
▁разведка	-8.20793
▁должен	-8.20794
▁Х	-8.20794
▁казьты	-8.20794
▁лэдз	-8.20794
▁вошӧмъяс	-8.20794
▁колхозница	-8.20795
▁воськов	-8.20796
▁Татшӧм	-8.20796
▁судта	-8.20799
▁кыссьӧ	-8.20808
▁Сталин	-8.20809
▁Гриш	-8.20822
▁переулок	-8.20825
▁Митя	-8.20829
мунӧ	-8.20843
▁Сідз	-8.20849
▁сёй	-8.20852
▁зонка	-8.20873
▁Иван	-8.20893
▁пасьтала	-8.20893
▁тыдалӧ	-8.20894
ольск	-8.20914
▁рок	-8.20917
▁эрд	-8.20925
▁школа	-8.20932
▁асыв	-8.20933
▁Коми	-8.20959
▁пӧвст	-8.20963
етш	-8.20967
▁сулаліс	-8.21005
▁сельс	-8.21014
▁котыр	-8.21043
▁шерыс	-8.21057
▁озыр	-8.21111
▁дзоридз	-8.21119
▁вежон	-8.21141
▁руд	-8.21177
▁краснӧй	-8.2122
рни	-8.21223
▁шоныд	-8.21234
ччӧн	-8.21274
▁морӧс	-8.21321
▁Кодъяс	-8.21329
раснӧй	-8.21407
▁врагъяс	-8.2148
▁дум	-8.21569
▁муніс	-8.21602
▁кыз	-8.21643
▁мор	-8.21654
▁сулалӧ	-8.21665
▁бу	-8.21673
▁кос	-8.21682
▁Со	-8.21726
▁оліс	-8.21766
▁тӧдса	-8.22058
▁шы	-8.2218
▁тэрмась	-8.22233
▁мелі	-8.22307
▁ті	-8.22396
ыв	-8.22494
▁петны	-8.22713
▁кольӧм	-8.22864
▁мо	-8.22906
▁тыш	-8.22957
▁кыск	-8.23026
▁понд	-8.23034
▁пуяс	-8.23086
▁Туй	-8.2321
дж	-8.23233
йтӧ	-8.23339
▁кымын	-8.23392
ышт	-8.23474
▁Том	-8.2356
▁потш	-8.23582
тӧдз	-8.23599
▁висьтал	-8.23632
льӧм	-8.23644
▁Сы	-8.23764
▁от	-8.23764
▁ста	-8.23776
сьӧма	-8.23929
льки	-8.23995
ныд	-8.24052
асис	-8.24275
▁тӧр	-8.24335
▁пом	-8.24522
▁мич	-8.25034
▁ӧтка	-8.25185
▁пес	-8.25194
▁туп	-8.25205
▁помас	-8.25251
овтӧм	-8.25521
став	-8.25598
▁лымй	-8.25997
▁нинӧм	-8.26086
▁че	-8.26324
▁кӧт	-8.26633
▁война	-8.26847
кта	-8.26954
▁пур	-8.27057
▁Оз	-8.27103
▁сер	-8.275
▁локті	-8.27848
▁вудж	-8.28637
сьӧ	-8.28662
▁вот	-8.28668
▁Лу	-8.28801
длӧ	-8.28819
▁бой	-8.29079
▁вож	-8.2923
▁ловъя	-8.29576
кыда	-8.29624
анін	-8.2971
охо	-8.29767
▁шӧр	-8.29804
▁Ви	-8.29843
▁ви	-8.30101
▁рытъя	-8.30125
▁кай	-8.30169
тур	-8.30281
ась	-8.30365
▁кый	-8.30504
ӧмъяс	-8.3156
сти	-8.31584
овлӧ	-8.32125
▁лэчч	-8.32128
лӧй	-8.32337
жъяс	-8.32493
▁вешй	-8.32504
ёк	-8.32757
▁вир	-8.32923
▁об	-8.33118
ін	-8.33261
ӧр	-8.33346
▁ар	-8.33361
▁сувтӧд	-8.33604
сьыны	-8.33839
▁гӧрд	-8.34215
ер	-8.34258
▁Ш	-8.34999
ӧг	-8.36071
▁воӧ	-8.36291
▁юалі	-8.36323
тш	-8.36522
▁кӧм	-8.36946
.	-8.37106
▁пет	-8.37356
▁тэч	-8.37496
тша	-8.37544
тчӧ	-8.37816
▁ул	-8.38329
ди	-8.38396
аа	-8.38703
▁мур	-8.38843
райт	-8.39154
▁пӧр	-8.39663
▁бо	-8.3967
би	-8.39678
ядь	-8.39723
яй	-8.39751
▁шум	-8.39789
едводдза	-8.40122
▁кыр	-8.40319
дӧ	-8.40615
▁тша	-8.40631
▁инд	-8.40693
▁асла	-8.40796
▁сыл	-8.41287
янь	-8.41291
▁паныд	-8.4136
гыд	-8.41464
▁ылӧ	-8.41846
выв	-8.42784
ыш	-8.43141
▁Ма	-8.43421
▁вок	-8.4364
▁дж	-8.44109
лӧмаӧс	-8.44126
ъяса	-8.44198
ыль	-8.44385
ко	-8.44622
ъясӧ	-8.44983
▁ш	-8.45546
▁вет	-8.45655
▁сор	-8.45701
▁ӧ	-8.46288
гр	-8.47401
рд	-8.47483
▁діна	-8.47602
▁вӧлӧм	-8.479
▁ӧн	-8.48283
ом	-8.48587
гыр	-8.49187
▁пета	-8.49404
▁эн	-8.49655
еда	-8.5011
ок	-8.50327
тя	-8.50542
ай	-8.50933
▁петі	-8.51673
ӧра	-8.51833
▁ӧд	-8.51924
▁пӧт	-8.52172
быд	-8.52454
бо	-8.52576
лыс	-8.53339
тка	-8.54143
ки	-8.5493
вет	-8.5522
▁сьӧм	-8.55276
чис	-8.55737
▁пы	-8.56051
▁ч	-8.56916
торъяс	-8.57738
рӧс	-8.58177
ре	-8.58449
гору	-8.58734
▁гӧ	-8.58881
улӧ	-8.58916
ба	-8.5907
инас	-8.59349
пыр	-8.59827
▁тш	-8.60069
бӧр	-8.60368
▁ковт	-8.60466
пон	-8.6078
чысь	-8.61405
▁ок	-8.61437
ем	-8.61883
ика	-8.61936
▁звер	-8.62212
ӧти	-8.62351
ымын	-8.62989
лан	-8.63214
▁тра	-8.63488
татшӧм	-8.63771
уна	-8.6385
че	-8.6396
▁лым	-8.63983
пӧ	-8.64013
ана	-8.64113
чард	-8.64178
▁при	-8.64786
ӧдзыд	-8.65007
▁сэс	-8.65079
кин	-8.65207
йи	-8.65351
▁пукт	-8.65888
вер	-8.66482
▁вӧч	-8.66668
дыр	-8.66671
спе	-8.6668
▁из	-8.67336
оз	-8.67482
▁босьт	-8.67787
▁тай	-8.68052
▁век	-8.68581
▁кад	-8.68755
ӧвет	-8.68835
ни	-8.68898
▁олӧ	-8.69099
▁гаж	-8.694
▁ачы	-8.69615
гды	-8.69648
▁чуж	-8.69726
▁нек	-8.69745
▁ты	-8.69784
тчӧм	-8.69787
ръя	-8.6981
▁гиж	-8.70057
▁сик	-8.70247
▁пывсян	-8.70311
▁председатель	-8.70423
▁чорыд	-8.70591
▁посньыд	-8.70629
роневик	-8.70636
ыліс	-8.70682
ӧдчыны	-8.70682
▁пасьта	-8.70728
▁общественно	-8.70793
(	-8.70793
)	-8.70793
0	-8.70793
4	-8.70793
5	-8.70793
Ы	-8.70793
войвывсянь	-8.70793
механизатор	-8.70793
▁Й	-8.70793
▁Колхозник	-8.70793
▁Колхозъяс	-8.70793
▁Пешкинъяс	-8.70793
▁Ю	-8.70793
▁жугласьӧ	-8.70793
▁лэпт	-8.70793
▁настроение	-8.70793
▁посёлок	-8.70793
▁пулемёт	-8.70793
▁сьӧктаммӧ	-8.70793
▁торпыригъяс	-8.70793
▁эшкын	-8.70793
▁трудодень	-8.70794
▁ыпъял	-8.70794
8	-8.70794
▁гӧгӧрбок	-8.70794
▁дзользь	-8.70794
▁ветлӧдлі	-8.70794
▁кӧлуй	-8.70794
▁тормоз	-8.70794
▁армия	-8.70794
ще	-8.70794
▁пӧлыньт	-8.70794
▁Иваныч	-8.70794
▁старик	-8.70794
эбӧс	-8.70795
▁ӧвтыштіс	-8.70795
▁вуграсьны	-8.70795
▁Миха	-8.70796
▁Аддз	-8.70796
▁енэж	-8.70797
▁шензи	-8.70797
▁котӧрт	-8.70797
▁граница	-8.70797
прият	-8.70797
▁содт	-8.70797
▁тьӧтка	-8.70797
▁жугӧд	-8.70798
▁ворота	-8.70798
▁кле	-8.70798
▁успех	-8.708
▁дзирдал	-8.708
▁шыдӧсъяс	-8.708
▁ход	-8.70801
▁перво	-8.70801
▁кольччӧ	-8.70801
▁сарай	-8.70802
ственн	-8.70802
▁каттьыс	-8.70804
▁тӧдчан	-8.70805
▁улич	-8.70805
▁Чужӧмы	-8.70806
▁миритч	-8.70807
▁дозмӧр	-8.70808
▁веськалӧ	-8.7081
▁югъял	-8.70812
▁тышкась	-8.70813
тусьӧсь	-8.70818
▁сёян	-8.70819
▁решит	-8.70822
▁мастер	-8.70823
товка	-8.70825
асьӧм	-8.70826
▁Льӧм	-8.70833
▁совъяс	-8.70837
▁сісь	-8.70838
▁надзӧн	-8.70839
▁белӧйяс	-8.7084
бльӧ	-8.70845
▁серти	-8.70846
▁бергӧдч	-8.70848
▁чечч	-8.70851
▁вартӧм	-8.70855
▁шемӧс	-8.70855
ружи	-8.70864
мобил	-8.70891
▁парма	-8.70897
▁бадь	-8.70898
▁колана	-8.70899
лавнӧй	-8.70902
▁пемыд	-8.70905
▁йывсьы	-8.70906
▁Морт	-8.70911
▁коймӧд	-8.70912
▁мичлун	-8.7092
▁нюж	-8.70929
исьмӧ	-8.70936
▁тӧлыс	-8.70938
▁пуляяс	-8.70944
луч	-8.70945
▁Ен	-8.70952
▁шыб	-8.70953
▁сёрнитіс	-8.70954
цияяс	-8.70956
▁посньыдик	-8.70959
▁ӧткодь	-8.70962
▁Синъяс	-8.70963
▁катша	-8.70966
▁дзирыд	-8.70969
боро	-8.70992
▁Чери	-8.70999
▁гымаліс	-8.71008
▁чорыдджык	-8.71014
руг	-8.71036
▁маті	-8.71049
кис	-8.71057
▁аддзис	-8.71061
▁ырк	-8.71064
▁сюсь	-8.71084
▁веж	-8.71101
▁пукаліс	-8.71115
▁босьтіс	-8.71117
▁пельӧс	-8.71122
▁кыпыд	-8.71122
▁визув	-8.71124
▁социали	-8.71133
лывлӧ	-8.71135
гыль	-8.71139
▁кытш	-8.71144
▁вуза	-8.71159
эрыб	-8.7116
▁восьса	-8.71166
▁гӧгӧрвотӧм	-8.71166
▁сяр	-8.71206
▁Гӧг	-8.71221
▁Колӧ	-8.71237
▁лӧг	-8.7125
▁лыддьӧдл	-8.71271
▁пыдӧс	-8.71282
▁прои	-8.71293
гымавны	-8.71316
тыштіс	-8.71323
▁лый	-8.71338
▁кулӧм	-8.7135
▁Уна	-8.71353
▁кып	-8.71373
▁пывсянъясы	-8.71384
▁При	-8.71406
▁вотӧс	-8.71412
▁горзі	-8.7145
▁гӧгӧрвоис	-8.71451
▁тыда	-8.71456
▁Кӧч	-8.71459
▁Ду	-8.71471
▁перй	-8.71471
▁поп	-8.71475
▁чӧв	-8.7149
▁гижӧд	-8.71543
▁меным	-8.71552
адейт	-8.71565
▁видзӧдл	-8.71617
▁пӧлӧс	-8.71621
▁босьтӧ	-8.71625
▁кодзув	-8.71652
▁ӧшиньяс	-8.71697
▁аск	-8.71751
▁шой	-8.71842
дмӧм	-8.71856
нэжы	-8.7186
▁кӧсй	-8.71868
▁чужӧм	-8.71884
▁парти	-8.71899
▁повзьӧдчӧ	-8.71945
▁чӧ	-8.72004
▁ню	-8.72022
▁видзӧдлас	-8.72027
▁ӧтар	-8.72042
▁увъяс	-8.72077
▁Гым	-8.72089
▁колхозникъяс	-8.72094
▁лӧсьӧдч	-8.72139
▁визул	-8.72165
раг	-8.72217
▁локтӧ	-8.72236
влы	-8.72247
▁водзсьы	-8.72257
▁паськӧд	-8.72259
▁туис	-8.72393
▁чут	-8.72524
▁ӧш	-8.72526
▁воин	-8.72583
▁пась	-8.72612
▁кись	-8.72624
▁зон	-8.72661
▁мыйта	-8.72704
кля	-8.72716
▁Код	-8.72779
уз	-8.72784
кыдз	-8.72877
▁пукал	-8.72907
▁писькӧдч	-8.72908
хоз	-8.72935
▁кияс	-8.73023
▁ачым	-8.73041
▁ассьы	-8.73043
▁сюр	-8.73045
част	-8.73068
▁вун	-8.73167
каз	-8.73197
▁петкӧдлы	-8.73246
▁верми	-8.73345
▁Война	-8.73383
лӧз	-8.73536
▁кыйи	-8.73633
▁шур	-8.73637
теп	-8.73641
▁паськӧм	-8.73697
няліс	-8.73772
▁Сюр	-8.73859
▁лог	-8.73897
▁Пет	-8.73967
▁вермыв	-8.7412
дъяс	-8.74185
кы	-8.74197
▁быдмӧм	-8.74199
▁гы	-8.74211
шар	-8.743
▁висьтав	-8.7432
▁пов	-8.74333
▁мыйла	-8.74337
тадз	-8.74381
▁Кор	-8.74704
▁ле	-8.74743
мӧ	-8.74759
▁пызь	-8.74806
дышт	-8.74818
▁тырмы	-8.74921
▁нывка	-8.74972
нь	-8.75063
▁верм	-8.75169
▁доз	-8.75205
▁лэба	-8.75206
▁го	-8.75247
сьны	-8.75273
▁Сен	-8.75387
ля	-8.75412
▁вайӧм	-8.75449
▁Гыр	-8.75491
ство	-8.75614
▁джын	-8.75621
▁Мур	-8.75653
▁казялі	-8.75761
▁кой	-8.75772
ров	-8.75777
▁Шог	-8.7589
сть	-8.75911
▁ӧдъяс	-8.75983
▁васӧ	-8.75994
ылі	-8.7603
▁увтч	-8.76038
град	-8.76088
▁вӧръяс	-8.76116
▁веськӧд	-8.76229
пур	-8.76387
▁лыддьы	-8.76436
▁вылі	-8.7651
▁Ла	-8.76589
▁югӧр	-8.76704
▁пар	-8.76722
▁кымӧртор	-8.76858
яти	-8.76866
▁йӧй	-8.76897
▁кӧр	-8.76933
▁Паськ	-8.76979
▁сам	-8.77063
сӧвет	-8.77223
▁прав	-8.77234
по	-8.77282
тчӧма	-8.77356
▁быдӧн	-8.77359
▁уськӧдч	-8.77455
▁пукс	-8.77607
▁мам	-8.77649
ыслы	-8.77765
▁удиті	-8.77796
▁кер	-8.78083
ёль	-8.78216
йыс	-8.78281
▁пе	-8.7831
▁нур	-8.7852
радӧ	-8.78554
▁де	-8.7857
▁пырыс	-8.78603
▁джень	-8.78665
▁спе	-8.78718
▁чин	-8.78726
асан	-8.78838
джыкъяс	-8.78929
▁гра	-8.78994
▁пӧч	-8.79121
инӧ	-8.79192
сим	-8.7938
▁торйӧ	-8.79399
каыс	-8.79427
али	-8.7945
▁са	-8.79451
еыс	-8.79461
водит	-8.79585
май	-8.79669
▁сӧв	-8.79748
▁матыстч	-8.79765
тані	-8.79798
час	-8.80141
▁зверь	-8.80216
бр	-8.80295
испо	-8.807
зац	-8.80759
пк	-8.80766
▁босьтӧма	-8.8089
регы	-8.81046
итель	-8.8112
дан	-8.8112
ӧдӧ	-8.81138
▁Тӧ	-8.81245
▁лоа	-8.81259
▁песӧм	-8.81496
▁Му	-8.81837
яд	-8.81846
▁ӧтна	-8.81953
бе	-8.81995
▁асланы	-8.82028
йысь	-8.82068
▁пыд	-8.82288
▁колхоз	-8.82438
▁пӧрысь	-8.82545
▁пель	-8.82642
▁р	-8.82752
▁тӧдӧ	-8.82761
▁быдм	-8.82952
из	-8.82971
тар	-8.83805
▁кыв	-8.83869
тӧма	-8.84076
ите	-8.84199
▁я	-8.8428
▁стра	-8.84336
▁меды	-8.84566
▁Мӧд	-8.84898
нов	-8.8493
▁Пар	-8.85209
зьӧд	-8.85431
род	-8.85634
зы	-8.8595
▁За	-8.8596
аза	-8.86187
▁рас	-8.86394
▁петав	-8.8711
арти	-8.87334
ччи	-8.87346
▁кутчыс	-8.87642
▁Сп	-8.87715
кӧм	-8.87823
алӧ	-8.88125
бді	-8.88362
▁пуксь	-8.88373
▁пӧ	-8.88784
ск	-8.88792
ышта	-8.88865
тчис	-8.88872
ткаяс	-8.8888
ина	-8.88907
▁выла	-8.89021
▁мӧдӧдчис	-8.89048
▁лэччи	-8.89382
итӧ	-8.89475
▁пӧрт	-8.89564
инъясӧ	-8.89767
му	-8.89976
▁вевт	-8.89997
мис	-8.90019
▁дз	-8.90098
адӧ	-8.90139
ой	-8.90297
▁Пу	-8.90334
▁Кут	-8.90395
▁сет	-8.90541
▁дед	-8.90736
аыс	-8.90954
▁виж	-8.91203
ец	-8.91249
▁тур	-8.91346
етр	-8.91718
йӧдл	-8.91809
яліс	-8.92091
▁олан	-8.92466
▁сул	-8.92556
▁помась	-8.926
▁чыш	-8.9264
х	-8.9302
гӧ	-8.93343
зь	-8.93508
▁Меды	-8.9376
ать	-8.93937
ралан	-8.94361
удж	-8.94726
▁кӧдз	-8.94851
овск	-8.95028
▁пырысь	-8.95145
ты	-8.95334
▁карт	-8.95536
пас	-8.9592
ав	-8.96091
▁петӧм	-8.96311
▁пӧж	-8.9656
▁гоз	-8.96561
▁Ту	-8.9668
дон	-8.96696
▁сулал	-8.96896
▁висьӧ	-8.9692
кор	-8.97187
▁шп	-8.97519
▁ня	-8.9767
зм	-8.97909
ясь	-8.97932
▁дой	-8.9794
▁На	-8.98215
лав	-8.98288
алӧм	-8.98535
▁пал	-8.98563
аг	-8.98585
▁ср	-8.98834
▁пр	-8.98963
▁вешйы	-8.99748
▁ву	-9.00132
акт	-9.00388
ддяс	-9.0078
лит	-9.01037
▁тун	-9.01463
▁вера	-9.01619
▁йӧр	-9.02338
▁пыз	-9.02903
▁нимкод	-9.02938
ӧдысь	-9.03305
▁кывт	-9.0361
▁уджав	-9.03936
бор	-9.04092
сям	-9.04373
▁тӧдма	-9.04383
ойд	-9.0484
екта	-9.05059
шӧ	-9.05171
▁тшӧк	-9.05236
▁Вӧ	-9.05315
жа	-9.05412
▁лыс	-9.0546
▁ӧз	-9.06153
чик	-9.06415
▁тор	-9.06697
кай	-9.06853
нит	-9.07051
ылыс	-9.0709
нді	-9.07189
▁вось	-9.07194
ӧръ	-9.07198
чин	-9.07329
▁ыл	-9.08219
кывъяс	-9.09194
цен	-9.10199
▁паныда	-9.1233
▁шӧ	-9.12553
▁сэт	-9.12611
естнӧ	-9.12621
за	-9.1313
шка	-9.13931
▁Ставс	-9.14025
инъяс	-9.14135
▁ча	-9.14274
▁эс	-9.14543
▁миянлы	-9.15121
од	-9.15276
▁лол	-9.15804
льк	-9.16344
ӧтка	-9.16397
шйис	-9.17039
лов	-9.17611
▁гр	-9.18281
▁Сэн	-9.18312
зан	-9.18354
▁ге	-9.18418
ӧвар	-9.18518
ме	-9.18573
▁мус	-9.1871
▁То	-9.18765
▁ц	-9.19679
соб	-9.19948
кыд	-9.20309
▁ре	-9.20388
▁жу	-9.21092
▁ставс	-9.21352
ортӧдз	-9.214
вы	-9.21593
рӧдӧм	-9.22035
втӧдзы	-9.22125
льч	-9.22164
утшӧм	-9.22436
▁вер	-9.22863
кни	-9.22865
▁Вой	-9.23262
▁лов	-9.24953
▁вӧчӧ	-9.25266
аннӧй	-9.25443
какы	-9.25527
▁шед	-9.2553
бар	-9.25662
тин	-9.25897
▁неб	-9.26499
раяс	-9.26506
▁гӧрдӧд	-9.28018
ышӧд	-9.29184
зъяс	-9.29304
мет	-9.29344
▁ветл	-9.2958
ышъя	-9.29716
▁петкӧд	-9.29753
▁Ку	-9.30709
▁пуктӧ	-9.30757
мит	-9.30879
▁мӧда	-9.31113
ыда	-9.32722
▁кител	-9.32897
ыр	-9.33047
ӧтыр	-9.33961
ул	-9.34138
уч	-9.35453
дел	-9.35495
▁вынс	-9.35618
▁По	-9.35691
▁ра	-9.3583
▁чаш	-9.36251
дзӧ	-9.36295
льӧдч	-9.36842
▁вӧй	-9.371
ох	-9.37339
авка	-9.38248
идз	-9.38288
▁коръя	-9.38653
▁арл	-9.38706
кан	-9.38876
ча	-9.39397
ри	-9.39618
сьл	-9.39783
▁Лы	-9.40222
си	-9.40224
дра	-9.40289
▁гыма	-9.40721
▁воо	-9.40782
▁пест	-9.40882
▁Сі	-9.40978
▁сувт	-9.40992
дӧм	-9.41088
ука	-9.42257
сса	-9.42571
▁ком	-9.42673
▁ула	-9.42888
▁ё	-9.43665
▁миянл	-9.437
рӧн	-9.43906
▁локт	-9.44085
▁су	-9.45032
го	-9.45164
ышл	-9.45335
▁ф	-9.456
▁лэб	-9.45671
сера	-9.46367
гтыр	-9.46447
ива	-9.46919
ӧчны	-9.47176
ясыс	-9.48205
▁дзебс	-9.4832
масьӧм	-9.48791
ён	-9.49258
інӧ	-9.49367
дь	-9.49393
▁весьтӧ	-9.4995
каяс	-9.50114
▁улы	-9.50632
▁каза	-9.50732
орг	-9.51243
▁стр	-9.51308
тул	-9.51601
ляяс	-9.51698
рш	-9.51941
ыри	-9.52079
рдым	-9.5222
▁Дж	-9.52316
рти	-9.52421
▁босьтӧм	-9.52757
пи	-9.53109
▁чи	-9.53141
нъяс	-9.5347
рма	-9.53533
▁кута	-9.5415
суд	-9.54756
чьясл	-9.54764
▁Па	-9.55387
мтӧ	-9.55399
▁кил	-9.55517
виж	-9.55954
ыстчыліс	-9.56169
▁сувтӧ	-9.56278
▁вур	-9.56386
▁удит	-9.56459
▁Ул	-9.56562
идзӧ	-9.56853
ил	-9.57091
нитӧ	-9.57526
▁тӧдлӧ	-9.58204
акар	-9.58381
пу	-9.58557
▁аддз	-9.59027
▁поз	-9.59141
гӧръяс	-9.59217
▁сая	-9.59379
ӧдліс	-9.59506
се	-9.59808
окъяс	-9.60186
▁казя	-9.60207
ӧръяс	-9.60222
вевт	-9.60397
паськыд	-9.6047
код	-9.60521
рыт	-9.60617
куй	-9.60796
масис	-9.60808
вит	-9.60967
шуд	-9.61039
вылын	-9.61066
▁Пась	-9.61174
гӧгӧр	-9.612
ия	-9.61803
итчӧм	-9.61847
шед	-9.62038
▁лыддьыс	-9.62089
шнӧ	-9.62241
ком	-9.62302
пом	-9.62374
тшис	-9.62417
▁Озы	-9.6245
видзысь	-9.62517
пель	-9.62886
евич	-9.63052
▁брон	-9.63132
быр	-9.63563
бур	-9.63645
йӧз	-9.6375
паськӧм	-9.64154
онъяс	-9.64171
С	-9.6419
яйт	-9.64386
▁св	-9.64744
▁тэрмас	-9.65183
ула	-9.65221
кыр	-9.65467
▁Сю	-9.65653
▁матыс	-9.65666
▁Ро	-9.66603
зьысь	-9.66615
шыд	-9.66669
нӧ	-9.66755
вол	-9.66883
еннӧ	-9.66984
▁доры	-9.67028
▁пытш	-9.67228
▁машин	-9.67237
ковт	-9.67346
..	-9.6756
▁прӧ	-9.6776
▁лӧсьӧд	-9.6779
иян	-9.6789
лалӧм	-9.67962
▁повзьӧд	-9.67972
ньӧ	-9.67975
еськыд	-9.68061
▁броневи	-9.68146
зыр	-9.68471
йков	-9.68488
джын	-9.68645
▁кодзу	-9.68836
▁юӧ	-9.68971
кымын	-9.69175
▁сю	-9.69242
▁паськ	-9.69404
▁Вань	-9.6953
▁сёрни	-9.69839
циалист	-9.69932
▁сё	-9.70021
школ	-9.7022
пӧрыс	-9.70312
▁Ӧ	-9.70414
про	-9.70427
эт	-9.70445
▁веськ	-9.70534
кодя	-9.70575
омандир	-9.70615
тавлі	-9.70634
▁самӧ	-9.70643
ывсян	-9.7066
ереулок	-9.70664
▁бергӧд	-9.70665
▁красн	-9.7069
ция	-9.70748
лё	-9.70773
▁команд	-9.70789
Я	-9.70793
3	-9.70793
6	-9.70793
;	-9.70793
e	-9.70793
o	-9.70793
y	-9.70793
Ф	-9.70793
Ц	-9.70793
Ж	-9.70794
ение	-9.70796
аниза	-9.70814
ница	-9.70817
аци	-9.7082
ьышт	-9.70865
мӧрыс	-9.7087
втт	-9.70871
одзув	-9.70888
▁ду	-9.70893
▁Тэ	-9.70907
▁вуграс	-9.70911
▁пере	-9.70994
▁Гри	-9.70995
дзӧді	-9.71021
▁успе	-9.71062
▁ӧшин	-9.71068
▁сёр	-9.71107
ытшка	-9.71109
▁висьт	-9.71126
ень	-9.71144
▁нэ	-9.71158
елӧйяс	-9.71215
ывла	-9.71253
оймӧд	-9.71293
▁сьӧл	-9.71322
ывлан	-9.71345
▁воӧм	-9.71372
пор	-9.71427
▁Че	-9.71433
стро	-9.71487
▁йыв	-9.71496
▁сёрнит	-9.715
▁Мор	-9.71543
ешит	-9.71615
▁Чу	-9.71661
▁повз	-9.71683
▁дзор	-9.71688
▁вай	-9.71756
▁Чер	-9.71841
иц	-9.71861
ех	-9.71915
атель	-9.71947
▁лыддьӧ	-9.71988
ерма	-9.72016
ӧдъя	-9.72017
▁коль	-9.72066
чер	-9.72194
ыдалӧ	-9.72351
тчыны	-9.72409
▁горз	-9.72443
уди	-9.72516
астер	-9.72582
▁бер	-9.72629
оддза	-9.72673
тра	-9.72912
въясӧ	-9.72962
▁шер	-9.73055
мӧс	-9.73087
ласьӧ	-9.7311
анди	-9.73114
ддьӧ	-9.7314
зон	-9.73189
рччӧ	-9.73212
усьӧ	-9.73219
рто	-9.73245
▁бол	-9.7325
▁кады	-9.73264
▁ры	-9.73623
▁Мо	-9.73932
каӧ	-9.74001
вин	-9.74044
▁пывс	-9.74105
ек	-9.74299
ети	-9.74432
каясыс	-9.7444
лок	-9.74485
водз	-9.74928
мйы	-9.75051
▁мел	-9.75105
ири	-9.75159
▁чук	-9.75267
ясӧ	-9.7532
пӧсь	-9.7542
ерыс	-9.75591
льз	-9.75651
▁быдмӧ	-9.75792
▁кокн	-9.76071
октӧ	-9.76303
▁Мы	-9.76326
зя	-9.76434
ерка	-9.76577
дорыс	-9.76581
кас	-9.76627
гад	-9.76634
озъяс	-9.76787
лін	-9.76973
▁гым	-9.77012
ӧмтор	-9.77293
длы	-9.77415
талин	-9.77686
▁идрал	-9.77791
▁Бы	-9.77866
ьӧма	-9.77996
шті	-9.78144
▁юг	-9.78306
йӧма	-9.78344
окт	-9.78552
коп	-9.78608
ывъяс	-9.7863
гала	-9.78815
▁Вад	-9.78915
адь	-9.79148
▁вуг	-9.79293
▁кокнь	-9.79672
орыд	-9.79888
рига	-9.79916
иньяс	-9.80137
▁Чо	-9.80192
посн	-9.80523
▁пот	-9.80601
то	-9.80921
жын	-9.80923
кӧрм	-9.81114
▁зэрӧ	-9.81182
▁тат	-9.81213
ич	-9.81213
▁бурӧ	-9.81274
онт	-9.81666
ро	-9.81862
▁шон	-9.82339
сис	-9.82812
▁пӧл	-9.83085
▁кот	-9.83517
арӧ	-9.8357
ёнк	-9.83648
зни	-9.83657
ыдик	-9.83661
не	-9.83701
чча	-9.83726
▁пем	-9.83764
ӧмъясыс	-9.83967
кеж	-9.84126
зял	-9.84403
▁Ке	-9.84459
син	-9.84961
сьӧм	-9.85144
лист	-9.85281
кт	-9.85395
ык	-9.85514
▁Бе	-9.85574
шин	-9.8561
ве	-9.86001
аньӧ	-9.86181
къя	-9.86379
кар	-9.86457
гла	-9.86553
▁пук	-9.86564
іястӧ	-9.87181
ырӧн	-9.87871
шас	-9.87921
ьӧкыд	-9.87974
ти	-9.88489
ыкн	-9.89345
▁лэбы	-9.89405
мав	-9.89504
▁рӧм	-9.89654
ери	-9.89797
ӧсъяс	-9.89981
чарда	-9.90067
чор	-9.90287
ья	-9.90444
жай	-9.90546
▁ылыс	-9.9144
женьыд	-9.91541
▁некодӧ	-9.91633
ович	-9.9173
ччы	-9.91783
▁шыд	-9.91821
ове	-9.92395
▁йӧ	-9.92473
тшс	-9.92644
мыш	-9.93262
пӧл	-9.93286
▁лыдд	-9.93509
трак	-9.9373
урун	-9.9399
ӧсъясс	-9.94002
талӧ	-9.9425
нига	-9.94453
▁ля	-9.94495
арш	-9.95209
▁Сьӧ	-9.96826
▁лӧн	-9.9688
уляяс	-9.97373
над	-9.98129
тьӧ	-9.98665
▁си	-9.9885
▁ді	-9.98982
льяс	-9.99017
ытӧм	-9.99231
▁кымӧ	-9.99567
льӧ	-9.997
ды	-9.9971
лӧмъяс	-10.0023
стъяс	-10.003
йл	-10.0055
маяс	-10.0071
рем	-10.0077
яла	-10.0087
▁шуӧ	-10.0097
фр	-10.0143
▁ваӧ	-10.0161
длань	-10.0165
мӧма	-10.0254
сӧс	-10.0257
ура	-10.0343
▁ус	-10.0357
▁уджа	-10.0387
ӧдлӧ	-10.0407
▁пырӧ	-10.0488
кыс	-10.0537
▁ов	-10.0549
едь	-10.0557
втӧм	-10.0639
▁жал	-10.0661
ен	-10.067
ваӧ	-10.0745
ако	-10.0806
▁ид	-10.0853
сьта	-10.0894
елӧй	-10.0938
▁х	-10.0977
зис	-10.0981
сійӧ	-10.1035
лӧмыс	-10.1089
яя	-10.1118
иті	-10.1155
▁вор	-10.1203
▁дол	-10.1214
ши	-10.1217
арм	-10.1263
▁гымал	-10.1306
▁Вес	-10.1338
гыс	-10.1381
▁Выл	-10.143
дін	-10.1494
ксьы	-10.1592
▁видзӧ	-10.1631
▁вывс	-10.1639
▁лу	-10.1737
гъяс	-10.1844
▁уд	-10.1902
▁ся	-10.2102
▁Пӧ	-10.2174
асъя	-10.2214
ми	-10.2234
дъясӧ	-10.2363
изв	-10.2519
тчы	-10.2519
драл	-10.2713
ччӧ	-10.2726
мыс	-10.2743
дас	-10.28
▁петкӧдл	-10.2817
гор	-10.2925
оши	-10.2941
▁дон	-10.3269
▁Ка	-10.328
рым	-10.3297
ӧб	-10.3349
асьны	-10.3462
наӧ	-10.3532
рт	-10.363
ту	-10.3672
▁лы	-10.3999
йясл	-10.4015
▁кока	-10.4242
ыл	-10.4243
▁бӧ	-10.4245
▁сула	-10.4313
▁ст	-10.4385
▁Гӧ	-10.443
▁суд	-10.4453
▁войт	-10.449
лъяс	-10.4531
онді	-10.4663
зик	-10.4743
ыг	-10.4776
ойвыв	-10.4829
ырысь	-10.4846
жав	-10.4858
нин	-10.4961
вн	-10.4962
гре	-10.5106
оді	-10.5173
оръя	-10.528
▁кул	-10.5353
мтӧм	-10.5554
нти	-10.5576
▁неко	-10.5822
пӧлӧ	-10.5878
▁Ба	-10.5945
въяс	-10.597
орд	-10.6031
ондіс	-10.6086
ськӧдчис	-10.6219
ыдыс	-10.6407
сӧн	-10.6418
▁вес	-10.6514
ес	-10.6526
▁кыд	-10.6576
кӧс	-10.6773
▁сьӧлӧмы	-10.6798
▁Го	-10.6805
▁сын	-10.6815
до	-10.7026
дир	-10.7282
чч	-10.7341
тч	-10.745
▁ин	-10.7509
ша	-10.7555
нъясна	-10.7853
тшка	-10.793
еб	-10.7965
рег	-10.814
ат	-10.8153
ван	-10.8179
вояс	-10.8237
аба	-10.8358
ц	-10.8378
▁ур	-10.8439
бит	-10.8492
▁куз	-10.8585
ясс	-10.868
овт	-10.8708
ніс	-10.8713
зи	-10.8801
▁вос	-10.889
одъяс	-10.9012
арӧс	-10.902
рӧд	-10.919
▁лэччы	-10.9299
сьӧмӧ	-10.933
рас	-10.9363
хн	-10.9424
этш	-10.9439
кая	-10.9738
нан	-10.9742
▁ша	-10.9829
ерн	-10.9838
ьӧсь	-11.0007
рӧст	-11.0199
йт	-11.0377
аснӧй	-11.049
ияс	-11.0507
ста	-11.0727
Ю	-11.091
Й	-11.0911
Х	-11.0912
щ	-11.0913
1	-11.0914
Р	-11.0915
З	-11.0916
Э	-11.0917
Ш	-11.0918
У	-11.0919
Е	-11.092
Ӧ	-11.0921
ф	-11.0922
емд	-11.0922
Ч	-11.0923
О	-11.0924
Б	-11.0925
Д	-11.0926
Л	-11.0927
Г	-11.0928
И	-11.0929
!	-11.093
А	-11.0931
?	-11.0932
Н	-11.0933
П	-11.0934
Т	-11.0935
ё	-11.0936
В	-11.0937
М	-11.0938
К	-11.0939
рны	-11.094
э	-11.094
