<unk>	0
<s>	0
</s>	0
▁,	-3.21447
▁	-3.39543
▁.	-3.52197
е	-3.56965
и	-3.82372
а	-3.8351
▁в	-4.02738
▁и	-4.27371
я	-4.58787
▁не	-4.60263
ы	-4.62989
▁на	-4.64888
у	-4.65554
о	-4.65566
й	-4.68729
▁с	-4.71447
▁"	-4.71993
м	-4.84027
х	-4.93682
ой	-5.02629
ть	-5.13659
▁что	-5.16408
▁-	-5.16666
ю	-5.19818
т	-5.2143
ли	-5.26469
ов	-5.32283
-	-5.47584
▁по	-5.4785
ся	-5.50825
ая	-5.51351
.	-5.5171
—	-5.52245
▁!	-5.53861
▁за	-5.55694
ом	-5.59967
▁В	-5.61735
ей	-5.64437
▁:	-5.70526
▁это	-5.75476
го	-5.79676
ь	-5.79797
▁у	-5.82833
▁к	-5.88004
▁С	-5.92595
ет	-5.95157
▁как	-5.95786
▁К	-5.9614
▁)	-5.97795
▁из	-6.00093
▁А	-6.0233
▁он	-6.02777
л	-6.02948
▁И	-6.03024
▁от	-6.0626
▁...	-6.10092
▁был	-6.10296
▁я	-6.12331
▁так	-6.12341
но	-6.12816
н	-6.14344
▁(	-6.17258
▁о	-6.18613
же	-6.22554
ого	-6.24593
сь	-6.2645
тся	-6.26641
▁а	-6.28044
▁все	-6.28994
▁то	-6.30871
▁?	-6.3224
▁@	-6.33709
ых	-6.35274
ка	-6.36817
для	-6.36879
ла	-6.38695
▁до	-6.40898
▁По	-6.43984
ую	-6.45592
`	-6.45841
xxxxxx	-6.47174
▁М	-6.48726
ми	-6.48962
ый	-6.49794
его	-6.50931
их	-6.5103
▁Я	-6.51602
то	-6.55158
▁бы	-6.55225
ами	-6.56983
в	-6.57523
шь	-6.58612
▁П	-6.60317
к	-6.61921
▁же	-6.62743
ки	-6.63588
с	-6.67684
ко	-6.68447
▁На	-6.7221
▁да	-6.72442
ий	-6.73459
з	-6.73777
ем	-6.747
▁вы	-6.76087
▁#	-6.76615
ют	-6.7693
▁при	-6.77887
▁но	-6.79767
ить	-6.80972
ько	-6.81053
▁раз	-6.81446
▁про	-6.82984
▁Д	-6.84651
▁которы	-6.85258
▁будет	-6.88135
г	-6.90267
▁Не	-6.90903
▁У	-6.92338
ни	-6.92664
р	-6.95557
▁Л	-6.95691
▁ты	-6.96291
▁меня	-6.96632
ок	-6.96994
▁Но	-6.97929
▁2	-6.98368
▁О	-6.98577
ный	-6.99192
на	-6.99513
▁п	-6.99564
ах	-6.9966
▁сво	-7.00662
▁человек	-7.01149
ень	-7.02618
▁во	-7.03755
ться	-7.06086
▁ли	-7.06402
▁тол	-7.08755
ны	-7.09263
огда	-7.10774
▁Он	-7.11088
ен	-7.13741
▁За	-7.14812
ные	-7.15626
▁люд	-7.1582
▁когда	-7.16115
▁под	-7.1646
ам	-7.17833
▁друг	-7.18489
▁мне	-7.20052
▁ес	-7.2165
▁Т	-7.2234
уже	-7.23523
▁Р	-7.25402
▁т	-7.26783
▁Г	-7.28038
есть	-7.28045
ло	-7.28342
му	-7.29381
▁без	-7.30162
▁об	-7.30874
▁со	-7.3107
▁3	-7.31263
▁том	-7.31517
▁Н	-7.32065
д	-7.32517
ось	-7.34361
ать	-7.34496
ра	-7.35331
еще	-7.36871
ё	-7.3718
▁лет	-7.37519
▁мы	-7.37818
▁1	-7.39314
ят	-7.39556
▁ни	-7.39573
п	-7.39861
▁Да	-7.40097
▁кто	-7.40511
ва	-7.41573
де	-7.42035
ас	-7.42772
ку	-7.42885
▁буду	-7.43467
▁;	-7.43942
ись	-7.45208
те	-7.45433
▁Б	-7.4602
▁котор	-7.46641
▁Это	-7.47132
▁там	-7.47294
сть	-7.48963
ст	-7.49287
ее	-7.49482
▁мест	-7.49986
▁==	-7.50534
▁Как	-7.50563
▁где	-7.50594
▁5	-7.5065
от	-7.51434
y	-7.51489
▁теб	-7.51709
ля	-7.51733
▁нас	-7.53012
ным	-7.53581
▁врем	-7.54254
▁этом	-7.54837
ение	-7.549
ного	-7.56485
ПР	-7.56574
▁год	-7.57183
С	-7.57348
▁чтоб	-7.5832
можно	-7.58622
▁пол	-7.58872
▁прост	-7.58912
ев	-7.58952
час	-7.59178
▁оч	-7.59447
▁себ	-7.59865
ск	-7.60459
лся	-7.60511
им	-7.60793
▁эти	-7.60964
▁сил	-7.61467
б	-7.61689
▁Ес	-7.61885
▁Вы	-7.6212
–	-7.62547
▁потом	-7.62712
того	-7.63082
ые	-7.63509
ения	-7.63736
Д	-7.63916
▁г	-7.64233
ски	-7.65291
▁стран	-7.65882
▁может	-7.67022
бы	-7.67209
не	-7.67249
▁Е	-7.67278
▁больше	-7.67444
▁голов	-7.67943
ым	-7.69793
ж	-7.70461
T	-7.7144
*	-7.71441
▁жизни	-7.71499
▁России	-7.715
▁чем	-7.71538
или	-7.71577
o	-7.73516
▁после	-7.73586
▁4	-7.73712
ое	-7.74431
ите	-7.74581
ерь	-7.75055
▁день	-7.75283
▁свои	-7.75517
▁де	-7.75634
▁им	-7.76202
▁люб	-7.7633
▁Убейд	-7.76639
▁сказал	-7.77118
s	-7.77214
▁их	-7.77918
▁пока	-7.78329
▁года	-7.7833
ность	-7.79851
ф	-7.80095
▁мир	-7.80126
▁над	-7.80444
роме	-7.80625
R	-7.81202
вер	-7.81216
▁нескольк	-7.81656
▁боле	-7.81891
▁э	-7.82002
▁мо	-7.82613
▁дела	-7.82926
ков	-7.82955
да	-7.8357
ль	-7.83776
▁Так	-7.84315
ник	-7.84784
▁больш	-7.85988
▁нет	-7.86055
▁одно	-7.8608
▁http	-7.86465
://	-7.86466
«	-7.86466
▁два	-7.8654
▁Все	-7.86559
▁/	-7.86765
▁против	-7.86968
▁втор	-7.87316
▁д	-7.87684
ста	-7.87875
та	-7.89647
▁групп	-7.89854
▁сам	-7.90061
▁10	-7.91677
»	-7.92021
▁один	-7.92062
▁Одна	-7.92337
▁всё	-7.92518
▁теп	-7.92564
ия	-7.92827
▁одна	-7.93277
ие	-7.93548
▁надо	-7.93581
▁м	-7.93877
▁тво	-7.94608
ась	-7.95759
ал	-7.96289
▁тем	-7.96422
▁ещ	-7.96551
дет	-7.96897
ского	-7.97237
▁Ч	-7.97896
k	-7.97903
▁вмест	-7.97904
▁перед	-7.98096
▁дел	-7.98371
▁пере	-7.98473
ил	-7.98533
▁ведь	-7.98764
ном	-7.98937
▁ник	-7.99156
ему	-7.99821
▁Жириновск	-8.01252
ров	-8.01304
▁При	-8.01354
▁200	-8.01546
▁дол	-8.01637
ям	-8.02908
чи	-8.0337
ш	-8.0355
ит	-8.03867
▁!!!	-8.04147
▁Восток	-8.0416
жу	-8.04264
▁должн	-8.04523
▁стал	-8.04786
нии	-8.04831
ч	-8.04843
▁словам	-8.04927
ности	-8.0512
▁7	-8.05297
▁дет	-8.05796
▁них	-8.05925
▁Ты	-8.06369
5	-8.06779
▁други	-8.07524
▁суд	-8.07757
ед	-8.07766
▁ваш	-8.079
▁парти	-8.08019
ще	-8.08162
4	-8.08226
ебя	-8.08492
вать	-8.08508
▁б	-8.08764
ке	-8.10046
сти	-8.10706
▁орган	-8.10818
▁Ирак	-8.10838
▁жизнь	-8.10849
▁ряд	-8.11699
▁20	-8.12162
▁уж	-8.12446
▁всего	-8.12774
ания	-8.1294
ому	-8.13383
▁ре	-8.13436
a	-8.14476
ос	-8.14731
▁первы	-8.15207
ше	-8.15353
▁тебе	-8.15679
▁самы	-8.16701
▁компани	-8.16926
▁хоч	-8.1774
▁протокол	-8.17967
▁Яблок	-8.1797
ну	-8.18041
▁заявил	-8.1809
▁народ	-8.18375
▁три	-8.18699
▁зна	-8.19724
ц	-8.20095
йте	-8.20224
▁нужн	-8.20289
ты	-8.2112
▁работ	-8.21313
▁город	-8.22106
8	-8.22129
Х	-8.2213
u	-8.22316
ут	-8.2238
▁хорош	-8.22814
3	-8.23524
▁само	-8.23816
▁ко	-8.24017
ру	-8.24214
▁нов	-8.24336
▁совет	-8.24398
ость	-8.24513
Ы	-8.2453
▁какой	-8.24545
▁те	-8.25377
▁власти	-8.25659
▁сезон	-8.25661
▁месяц	-8.25679
ния	-8.25892
▁ниче	-8.2618
У	-8.26349
▁перв	-8.2698
▁работа	-8.2702
▁чего	-8.27152
▁страны	-8.27461
▁ж	-8.27919
ин	-8.28788
ви	-8.28942
ре	-8.29526
▁Бог	-8.29869
▁Ш	-8.29907
▁пар	-8.30002
ции	-8.30085
Ф	-8.30333
ле	-8.31421
ти	-8.31583
▁Во	-8.31917
▁говорит	-8.32794
А	-8.33802
▁след	-8.33937
▁исчез	-8.33988
▁Украин	-8.33989
▁депутат	-8.33989
▁процесс	-8.33989
▁женщин	-8.33989
▁литератур	-8.3399
▁редак	-8.34028
▁президент	-8.34165
▁кра	-8.34832
▁решение	-8.35269
▁рас	-8.35328
▁р	-8.35467
▁наш	-8.3549
▁видео	-8.35551
▁много	-8.35839
▁вопрос	-8.36007
▁деньг	-8.3602
будь	-8.365
ями	-8.36728
лет	-8.36779
▁6	-8.36881
▁наши	-8.37789
▁Что	-8.3788
▁ил	-8.37916
ри	-8.38224
ду	-8.38279
▁вам	-8.38448
ер	-8.38511
▁Мн	-8.38779
ция	-8.38854
бо	-8.39223
▁мнени	-8.39697
▁жив	-8.39709
▁эт	-8.39913
за	-8.39985
▁час	-8.40402
0	-8.41371
▁культур	-8.42094
ча	-8.42231
▁Пер	-8.42344
▁явля	-8.42379
▁пред	-8.42828
она	-8.42887
▁труд	-8.42937
▁многи	-8.4308
ab	-8.4308
▁процент	-8.43081
▁проект	-8.43081
▁результат	-8.43081
lo	-8.43095
▁программ	-8.43127
▁Ник	-8.43152
▁сдела	-8.43233
▁помощь	-8.43241
▁всем	-8.43393
▁Сер	-8.43753
▁культуры	-8.44091
▁кажды	-8.44141
▁убейдск	-8.44203
▁получил	-8.44337
кой	-8.4439
▁Главн	-8.44635
▁давн	-8.45152
нужно	-8.45832
▁чере	-8.46343
▁л	-8.46464
ец	-8.46645
1	-8.47007
всегда	-8.47105
▁та	-8.47166
али	-8.47252
▁города	-8.47301
▁офис	-8.47446
це	-8.4761
чему	-8.48226
есь	-8.48545
ает	-8.48938
чн	-8.49512
▁дума	-8.5006
▁Мы	-8.50256
ги	-8.50491
ила	-8.50537
▁вид	-8.50838
▁ра	-8.51241
▁дом	-8.51247
щих	-8.51421
ообще	-8.5167
ком	-8.51783
▁проблем	-8.51867
▁разн	-8.52053
▁Сам	-8.52373
6	-8.52901
i	-8.53015
_	-8.5308
▁Категория	-8.5308
▁Москв	-8.5308
▁комнат	-8.5308
▁выброс	-8.53082
▁0,	-8.53084
▁Путин	-8.53091
▁молод	-8.53096
▁Ю	-8.53111
▁Россия	-8.53143
▁информаци	-8.53163
▁считает	-8.53172
▁хотел	-8.53182
▁минут	-8.53185
▁выбор	-8.53188
нны	-8.53259
▁закон	-8.53265
▁пост	-8.53344
▁дн	-8.53469
вшие	-8.53515
ент	-8.53606
▁бо	-8.53625
рез	-8.53665
АР	-8.53767
▁пор	-8.53839
йти	-8.53864
▁действи	-8.53879
▁семь	-8.54122
чем	-8.54169
▁Вас	-8.54294
▁рук	-8.54471
▁дня	-8.54498
зад	-8.54596
▁От	-8.55672
афе	-8.56148
О	-8.56213
▁кого	-8.56667
вой	-8.56687
га	-8.57504
жа	-8.57593
ор	-8.58037
ек	-8.58903
▁ч	-8.58904
▁цен	-8.5945
▁12	-8.60305
И	-8.60395
▁мысл	-8.60508
ство	-8.60785
ющих	-8.61169
▁одн	-8.61233
ука	-8.61583
▁наше	-8.61634
ниц	-8.61751
▁тех	-8.62477
▁ну	-8.62518
чу	-8.6314
скольк	-8.63233
ца	-8.63325
▁30	-8.63348
осточно	-8.63673
ства	-8.63892
▁конкурс	-8.64191
▁язык	-8.64192
▁решил	-8.64192
▁около	-8.64192
▁машин	-8.64207
тем	-8.6425
он	-8.64293
▁фаз	-8.64308
▁бор	-8.64326
▁Жен	-8.64342
▁мозг	-8.64437
▁газет	-8.64504
▁ст	-8.64682
▁лучше	-8.64793
▁кому	-8.6499
ерия	-8.6501
▁мл	-8.65103
ТО	-8.65252
▁часть	-8.65429
2	-8.65748
ском	-8.65774
ЕР	-8.65847
▁могу	-8.65857
▁Про	-8.66153
▁глаз	-8.66544
▁говоря	-8.66759
▁ин	-8.67454
▁видел	-8.67522
e	-8.67648
во	-8.67805
имо	-8.67861
▁19	-8.67869
▁баба	-8.68034
▁стол	-8.68246
ма	-8.69088
▁дома	-8.69101
▁войн	-8.69345
ско	-8.69354
▁погиб	-8.70046
)	-8.70162
▁Об	-8.70461
▁ноч	-8.70996
▁ш	-8.71044
друг	-8.711
НАС	-8.71301
НО	-8.71333
▁смотре	-8.71915
▁американск	-8.72046
7	-8.72104
уда	-8.7224
▁15	-8.72571
пример	-8.73008
▁Х	-8.73052
помни	-8.73058
ировать	-8.73174
которы	-8.732
@	-8.73271
альны	-8.73481
▁тип	-8.73544
до	-8.73546
▁Вам	-8.73769
В	-8.74169
▁Над	-8.74458
▁утр	-8.74743
дит	-8.74849
лю	-8.75172
Е	-8.75237
тельно	-8.75321
ью	-8.75435
едь	-8.75448
▁Ж	-8.75521
ибо	-8.75632
ости	-8.75845
▁мало	-8.75972
бря	-8.76011
ова	-8.76131
▁истори	-8.76639
Й	-8.76657
круг	-8.76674
▁Эр	-8.7669
▁Александр	-8.76691
▁автобус	-8.76691
▁кастрюл	-8.76691
▁праздник	-8.76691
▁российско	-8.76691
▁солдат	-8.76691
▁документ	-8.76691
▁турнир	-8.76692
▁особенно	-8.76692
▁Киотск	-8.76693
▁дву	-8.76695
▁здесь	-8.76696
▁борьб	-8.76696
▁фото	-8.76702
▁последни	-8.76705
▁Кажд	-8.76712
▁дорог	-8.76734
▁рот	-8.76806
▁ним	-8.76819
▁огон	-8.76819
▁выборах	-8.76841
▁миллион	-8.7697
тоже	-8.77024
▁Тол	-8.7703
▁конечно	-8.7703
▁план	-8.7704
К	-8.77133
▁Жириновского	-8.7715
КО	-8.77154
▁ма	-8.77166
▁член	-8.77213
▁девушк	-8.7727
▁Месопотамия	-8.77333
▁стен	-8.77344
▁никак	-8.77369
▁времен	-8.7742
▁сотрудник	-8.77508
▁знает	-8.77598
▁Ц	-8.77834
▁хочет	-8.77857
Ж	-8.77871
ход	-8.77921
▁начал	-8.77969
нувш	-8.7809
▁ше	-8.78112
▁счастье	-8.78114
▁пропитк	-8.7825
▁стар	-8.7832
менно	-8.78339
▁мам	-8.78597
▁сме	-8.78765
▁поиска	-8.78809
ают	-8.78898
▁ход	-8.79056
овать	-8.79985
енко	-8.79986
▁карт	-8.80046
числе	-8.80546
нно	-8.80554
▁мое	-8.80635
кан	-8.80838
чен	-8.8097
▁50	-8.80982
▁глав	-8.81123
цев	-8.8228
▁н	-8.82914
▁област	-8.83124
▁главны	-8.83181
ёт	-8.83374
▁движени	-8.83384
ад	-8.8375
▁сама	-8.83909
▁З	-8.84058
▁сделал	-8.8423
▁образ	-8.84379
▁кар	-8.84462
▁две	-8.85055
тр	-8.86257
▁созда	-8.86455
▁вод	-8.86644
▁числ	-8.86717
▁Ф	-8.87241
▁ка	-8.87353
ры	-8.87358
изм	-8.87434
Я	-8.87476
НА	-8.87982
▁пос	-8.88364
вший	-8.88375
▁199	-8.88609
▁часто	-8.88646
▁Ле	-8.8869
▁душ	-8.88742
▁своем	-8.8891
иков	-8.88958
▁мен	-8.89052
би	-8.89296
чение	-8.8961
▁основно	-8.89713
▁сторон	-8.89783
ща	-8.89898
вают	-8.89975
)))	-8.90035
ирует	-8.90079
▁сто	-8.90303
стер	-8.90491
др	-8.9081
спект	-8.90833
тут	-8.90942
nov	-8.90976
ski	-8.90976
▁Депутат	-8.90976
▁абсолютн	-8.90976
▁количество	-8.90976
▁лошад	-8.90976
▁мальчик	-8.90976
▁чемпионат	-8.90976
▁Телль	-8.90976
▁клуба	-8.90976
▁отмеча	-8.90976
▁керамик	-8.90977
▁четвер	-8.90977
▁операци	-8.90978
инск	-8.90979
▁организаци	-8.90979
▁быстр	-8.90987
ri	-8.9099
▁Амур	-8.90998
▁любовь	-8.91
▁вечер	-8.9101
▁самолет	-8.91027
▁лидер	-8.91029
▁пес	-8.91034
▁веществ	-8.91072
▁администраци	-8.91128
▁точно	-8.91185
▁забот	-8.91206
▁боевиков	-8.91259
▁политик	-8.91353
▁Ма	-8.91461
▁итог	-8.91521
▁меньше	-8.91855
▁состояни	-8.91899
эй	-8.91903
▁игра	-8.91905
▁тако	-8.91948
вал	-8.92064
ту	-8.92067
Л	-8.92315
аты	-8.92428
▁встреч	-8.92528
▁сахара	-8.92572
ол	-8.92737
▁кор	-8.92743
▁постави	-8.92803
езд	-8.93144
ерез	-8.93297
▁необходимо	-8.93325
▁16	-8.93359
▁акци	-8.93394
ию	-8.93509
▁добави	-8.9351
▁июл	-8.93555
щё	-8.94074
кажет	-8.94213
▁ночь	-8.94428
ально	-8.94544
▁дед	-8.94585
эл	-8.94651
▁лицо	-8.94709
мере	-8.94758
▁Ин	-8.94876
▁прода	-8.95013
лив	-8.95043
нова	-8.95086
▁кот	-8.95501
▁пример	-8.95501
▁То	-8.95722
▁момент	-8.95932
▁з	-8.96057
лей	-8.96076
▁сок	-8.96205
▁призна	-8.9622
▁Хо	-8.96325
▁говорил	-8.96674
▁пре	-8.97011
▁кажд	-8.97478
▁этим	-8.97578
жн	-8.97632
▁8	-8.97962
▁голосов	-8.98318
▁взят	-8.98387
▁военны	-8.98791
чески	-8.98906
▁Те	-8.9939
▁ид	-8.99549
иц	-8.99624
ЕМ	-9.00113
ете	-9.00135
▁Чтоб	-9.00405
ует	-9.00575
Б	-9.00587
думать	-9.01293
бу	-9.01348
жи	-9.01627
вших	-9.01799
уют	-9.02235
▁ЗА	-9.02264
уб	-9.02284
50	-9.02293
вш	-9.02549
▁сер	-9.0262
э	-9.028
▁которо	-9.02816
▁Люб	-9.02943
▁баб	-9.02984
▁201	-9.0314
вести	-9.03162
▁получит	-9.03208
▁че	-9.03343
9	-9.03433
род	-9.03517
S	-9.03563
тора	-9.03703
P	-9.03732
c	-9.03902
пис	-9.04158
;	-9.04185
:	-9.04234
30	-9.04378
шей	-9.04816
▁твои	-9.05008
▁сказа	-9.05036
▁пр	-9.05371
нил	-9.05399
▁недел	-9.05719
ится	-9.05836
этот	-9.06132
нуть	-9.06241
▁проводи	-9.06572
нец	-9.06595
▁Им	-9.06597
h	-9.066
смотр	-9.06667
▁Прив	-9.06891
обой	-9.06993
▁чита	-9.07332
▁Зв	-9.07387
g	-9.07613
Мухамм	-9.07643
&	-9.07643
q	-9.07643
▁Зюганов	-9.07643
▁атмосфер	-9.07643
▁обнаружен	-9.07643
▁реклам	-9.07643
▁сможет	-9.07643
▁территори	-9.07643
▁фильм	-9.07643
▁прошло	-9.07643
▁получает	-9.07644
▁рассказал	-9.07644
Z	-9.07644
▁Спас	-9.07644
▁собственн	-9.07644
▁Дементьев	-9.07644
▁событи	-9.07644
равоохранительны	-9.07644
▁январ	-9.07645
▁систем	-9.07645
▁Между	-9.07645
▁участник	-9.07646
▁центр	-9.07646
▁малыш	-9.07646
▁стакан	-9.07646
▁запись	-9.07647
▁улиц	-9.07652
▁бизнес	-9.07654
▁билет	-9.07655
ot	-9.07659
▁тысяч	-9.07665
▁пыта	-9.07671
▁котором	-9.07674
▁глубин	-9.07675
▁почт	-9.07675
▁устройств	-9.07679
▁понял	-9.07682
▁свет	-9.07744
▁режим	-9.07744
▁лимон	-9.07751
▁точк	-9.07764
▁22	-9.07792
▁Парти	-9.07794
▁удал	-9.07821
нима	-9.07855
▁диск	-9.07865
▁Потом	-9.07926
▁черт	-9.07985
▁представител	-9.08007
▁бед	-9.0801
▁команд	-9.08018
▁I	-9.08028
▁опыт	-9.0803
жды	-9.08151
▁Тогда	-9.08205
должен	-9.08224
ходит	-9.08246
▁бар	-9.08373
▁сегодня	-9.08393
▁согласн	-9.08461
▁хороши	-9.08475
▁побед	-9.08572
▁буде	-9.08757
▁НЕ	-9.08815
▁случае	-9.0885
АМ	-9.08886
▁форм	-9.08935
▁пят	-9.08937
▁Тра	-9.09028
ня	-9.09105
▁тяжелы	-9.09174
стат	-9.09176
давать	-9.09245
▁воз	-9.09247
оры	-9.09263
▁Дел	-9.09308
вшим	-9.09403
▁своим	-9.09519
опасност	-9.09528
▁Ваш	-9.09554
▁Под	-9.09642
мы	-9.09831
▁дополнительны	-9.09886
▁общественн	-9.09909
▁находит	-9.09952
▁таки	-9.1001
щим	-9.10047
оды	-9.10056
▁пуст	-9.10188
▁нуж	-9.10246
▁Че	-9.10352
всем	-9.10464
много	-9.10638
▁цвет	-9.10738
чь	-9.10782
▁делают	-9.10792
▁ум	-9.10893
▁ф	-9.11032
▁мужчина	-9.11156
ик	-9.1125
еды	-9.1137
▁сп	-9.11645
▁Само	-9.11651
дали	-9.11682
▁уголовно	-9.11708
▁главно	-9.11775
▁Ко	-9.118
▁успел	-9.11802
▁уход	-9.11822
▁создани	-9.11898
▁сел	-9.12091
ба	-9.1214
▁прав	-9.12277
▁Ещ	-9.12655
ками	-9.12939
кладыва	-9.13048
▁пи	-9.131
▁полно	-9.13391
▁голос	-9.13452
▁знакомы	-9.13464
▁данны	-9.13558
онов	-9.13579
▁считают	-9.13641
▁мал	-9.14091
Са	-9.14095
росл	-9.14189
▁стоит	-9.14316
▁американски	-9.14336
мент	-9.14403
ши	-9.14435
▁чу	-9.14487
▁любимы	-9.14565
ивает	-9.15145
ации	-9.15421
20	-9.15602
▁причин	-9.16145
речь	-9.16773
r	-9.16918
гро	-9.17361
М	-9.18233
че	-9.18317
▁внимани	-9.18718
служ	-9.19149
▁част	-9.19274
▁пром	-9.19299
арь	-9.19435
▁вер	-9.19826
▁ор	-9.20212
бил	-9.20238
▁кон	-9.20269
сы	-9.20708
▁продолжа	-9.20847
▁Кли	-9.20913
▁доби	-9.21289
▁слов	-9.22293
вет	-9.2236
▁знал	-9.22608
чист	-9.22639
▁обще	-9.22839
▁мужчин	-9.23526
▁ответ	-9.23576
▁парн	-9.23967
▁виде	-9.24301
верн	-9.24412
тел	-9.24486
ён	-9.24535
▁Пол	-9.246
▁ме	-9.24675
нег	-9.24756
▁Един	-9.24893
▁связ	-9.25058
▁стать	-9.2508
p	-9.25136
мер	-9.25171
анк	-9.25336
▁обществ	-9.25415
▁принцип	-9.25439
▁сахар	-9.25518
▁состоя	-9.25552
порт	-9.25716
ительны	-9.2604
▁перво	-9.26067
ьте	-9.26114
▁серд	-9.26128
▁Месопотами	-9.26585
▁лично	-9.26646
огласн	-9.26654
сё	-9.26668
егодня	-9.26711
шки	-9.26711
▁выше	-9.26717
▁очеред	-9.27118
▁газ	-9.27124
брать	-9.27212
▁благо	-9.27406
ционально	-9.27499
▁ради	-9.27593
Ь	-9.27613
▁кандидат	-9.27634
▁Белковск	-9.27643
▁съе	-9.27643
[	-9.27643
▁Радуев	-9.27643
▁Фрадков	-9.27643
▁ЭТО	-9.27643
▁американц	-9.27643
▁ингаляци	-9.27643
▁крупны	-9.27643
▁между	-9.27643
▁озабочен	-9.27643
▁политтехнолог	-9.27643
▁российски	-9.27643
▁смартфон	-9.27643
▁смысл	-9.27643
▁экономик	-9.27643
▁экран	-9.27643
▁Истори	-9.27643
▁помога	-9.27643
▁представлен	-9.27643
▁сироп	-9.27643
▁финанс	-9.27643
▁англ	-9.27643
▁услуг	-9.27643
▁слишко	-9.27643
▁ситуаци	-9.27643
▁губернатор	-9.27644
▁огромн	-9.27645
▁убеди	-9.27645
▁увиде	-9.27645
▁террорист	-9.27647
▁средств	-9.27648
▁контракт	-9.27648
▁московск	-9.27648
▁интернет	-9.27649
▁бандит	-9.27649
▁Гражданск	-9.27652
одок	-9.27652
▁половин	-9.27654
▁сократ	-9.27654
▁период	-9.27656
▁тренировк	-9.27658
ленд	-9.27659
▁жоп	-9.27661
▁канал	-9.27663
▁шанс	-9.27663
▁предложени	-9.27664
▁трех	-9.27664
▁книг	-9.27666
▁участи	-9.27667
снул	-9.27668
▁судьб	-9.27672
▁действительно	-9.27682
▁196	-9.27684
▁кандидатур	-9.27691
▁заложник	-9.27692
▁Владимир	-9.27693
▁мотив	-9.27696
▁рублей	-9.27696
▁путь	-9.27704
▁преступник	-9.27705
▁Дэв	-9.27707
▁Один	-9.27709
▁высот	-9.27715
▁рамк	-9.2772
▁войск	-9.27728
▁ванил	-9.27739
▁пиш	-9.27755
▁Жири	-9.2776
▁100	-9.27775
▁нападени	-9.27794
▁сбор	-9.278
▁жертв	-9.27807
▁имена	-9.27812
▁древн	-9.27818
▁значит	-9.2782
▁2000	-9.27838
▁больно	-9.27873
збирател	-9.279
▁подчеркнул	-9.27901
▁Хаджи	-9.27941
▁находил	-9.27959
▁Теп	-9.27974
▁дво	-9.27984
ём	-9.28014
▁тепл	-9.28014
▁може	-9.28024
▁заявлени	-9.28089
▁производств	-9.28122
▁русски	-9.28125
▁ВСЕ	-9.28128
▁))	-9.2813
▁правд	-9.28145
▁КАК	-9.28146
▁спас	-9.2817
▁понима	-9.28193
▁возможно	-9.28194
▁спор	-9.28264
▁Мари	-9.28302
▁:)	-9.28307
▁кило	-9.28325
▁мед	-9.28393
▁соответству	-9.2842
▁плохо	-9.28435
▁занима	-9.2864
ведени	-9.28722
▁сын	-9.28816
идор	-9.29086
реди	-9.29132
▁Гор	-9.29138
▁утра	-9.29165
▁МО	-9.29174
▁вернуть	-9.29187
рым	-9.29229
▁развити	-9.294
▁жител	-9.29461
▁сайт	-9.29514
▁бесплатно	-9.29816
▁скор	-9.29818
▁оружие	-9.29995
40	-9.30125
▁лег	-9.3024
▁проблема	-9.30274
▁проводит	-9.3035
▁бег	-9.3042
▁детств	-9.3053
▁класс	-9.30689
апель	-9.30711
▁цел	-9.30763
▁обо	-9.31009
▁партий	-9.31055
▁плен	-9.31242
зывают	-9.31286
▁проч	-9.31473
▁Мож	-9.31608
ления	-9.3167
▁границе	-9.31822
▁куда	-9.31837
▁НА	-9.31863
▁поэт	-9.31914
▁пришл	-9.31925
щи	-9.31946
▁суб	-9.31977
ева	-9.31983
▁9	-9.31997
жно	-9.32017
▁слова	-9.32095
▁серьезны	-9.32258
▁198	-9.32258
▁выиграл	-9.32362
▁лучши	-9.32446
▁сильно	-9.3245
▁Дет	-9.32491
▁хотя	-9.32669
ическ	-9.32721
обычно	-9.3275
▁каждо	-9.32754
шла	-9.32792
вает	-9.32795
▁вышл	-9.32839
▁кож	-9.32946
▁эта	-9.32972
▁любит	-9.33008
▁раст	-9.33052
ович	-9.3316
нять	-9.33196
Р	-9.33199
▁вещ	-9.33214
▁открыл	-9.33277
лить	-9.33717
аш	-9.33726
▁ошибк	-9.33814
▁выйд	-9.34013
щик	-9.3456
ически	-9.35113
▁бе	-9.35161
▁сами	-9.35183
▁отда	-9.3521
▁сложн	-9.3527
куда	-9.35367
▁Гу	-9.35415
вку	-9.3553
▁иска	-9.35698
▁таким	-9.36034
чер	-9.36037
нут	-9.36204
дут	-9.36245
▁дети	-9.36362
пост	-9.36492
нас	-9.36511
▁Лен	-9.36641
нтов	-9.36844
нию	-9.3694
▁Мо	-9.36949
ечк	-9.36967
▁ней	-9.36984
ья	-9.36988
▁красив	-9.37097
▁связан	-9.37195
▁оста	-9.3741
▁метр	-9.37669
▁Ха	-9.37703
ждени	-9.37784
▁регион	-9.3783
ТЕ	-9.37876
d	-9.3791
▁гор	-9.38171
УТ	-9.38227
▁тр	-9.38354
▁говор	-9.38422
▁части	-9.38508
▁гр	-9.38536
чик	-9.38568
сии	-9.38738
дро	-9.38841
бира	-9.38936
лад	-9.39022
▁дор	-9.39047
енно	-9.39144
▁духовн	-9.39206
ывать	-9.39243
▁....	-9.39596
КИ	-9.39685
16	-9.3969
тек	-9.39888
▁Нов	-9.39951
m	-9.40471
▁становит	-9.40642
▁свой	-9.40664
▁бесед	-9.40926
▁люби	-9.40998
ерс	-9.41143
▁правительств	-9.41245
ель	-9.41435
▁чуд	-9.41639
поминает	-9.4191
▁названи	-9.41922
етров	-9.42165
▁25	-9.42261
▁хот	-9.42292
▁новы	-9.42659
▁общ	-9.42719
▁бр	-9.4277
▁Лучш	-9.4279
▁продолж	-9.43044
сток	-9.43503
овсе	-9.43646
▁столь	-9.43742
▁мог	-9.43853
00	-9.43956
нет	-9.4399
альн	-9.44034
нер	-9.44117
▁любим	-9.44125
чит	-9.44128
▁журналист	-9.44149
аф	-9.44525
▁военно	-9.44529
бел	-9.44609
станет	-9.44692
▁могл	-9.44792
▁готов	-9.45247
▁ошиб	-9.45327
ению	-9.45534
▁нем	-9.45754
▁склад	-9.46022
▁руководител	-9.46208
▁переста	-9.46371
ушки	-9.46572
ованн	-9.46683
тик	-9.46798
ительн	-9.47024
▁глаза	-9.47179
лер	-9.47239
пер	-9.47861
▁либ	-9.47875
▁интерес	-9.47961
B	-9.48536
N	-9.48542
ряд	-9.4858
класс	-9.48875
▁ок	-9.48896
новом	-9.48986
рит	-9.49033
l	-9.49622
▁мои	-9.49728
▁счасть	-9.49736
▁син	-9.49765
акци	-9.49861
таки	-9.49907
част	-9.50015
ди	-9.50064
ссии	-9.50207
аль	-9.50208
▁иск	-9.51028
▁ту	-9.51129
ссы	-9.51239
▁традици	-9.51338
▁спец	-9.51405
каза	-9.51408
▁кип	-9.5172
▁игр	-9.51812
▁ру	-9.51833
▁Саш	-9.51955
%	-9.52092
▁боль	-9.52117
▁боевик	-9.52123
жать	-9.52164
нта	-9.52178
щени	-9.52209
лабо	-9.52228
чего	-9.52394
▁местно	-9.52403
▁Пар	-9.52441
▁проход	-9.52448
▁Бы	-9.52517
▁После	-9.52535
рузья	-9.52585
▁жидк	-9.52608
▁пути	-9.52641
грам	-9.52642
▁повстан	-9.52643
▁Львов	-9.52643
▁СП	-9.52643
▁Сироп	-9.52643
▁Федераци	-9.52643
▁Харьков	-9.52643
▁впечатлени	-9.52643
▁лягушк	-9.52643
▁миллиардов	-9.52643
▁пистолет	-9.52643
▁пригласил	-9.52643
▁россиян	-9.52643
▁тариф	-9.52643
▁терроризм	-9.52643
▁тысячелети	-9.52643
▁цивилизаци	-9.52643
►	-9.52643
▁Турци	-9.52643
▁Возможно	-9.52643
▁предполага	-9.52643
▁арест	-9.52643
▁религи	-9.52643
▁тренер	-9.52643
▁корабл	-9.52644
▁публикаци	-9.52644
▁Кремл	-9.52644
▁Госдумы	-9.52644
▁заседа	-9.52644
▁сентябр	-9.52644
▁ладон	-9.52644
▁роман	-9.52644
авказ	-9.52644
▁Сильн	-9.52645
▁фикс	-9.52645
▁эксперт	-9.52645
▁обвинени	-9.52645
▁совершенн	-9.52645
▁коллег	-9.52646
▁обеща	-9.52647
▁ракет	-9.52647
▁идиот	-9.52648
▁посадк	-9.52648
▁издани	-9.52649
▁Питер	-9.52652
▁Побед	-9.52652
▁позволя	-9.52654
новение	-9.52654
▁Перес	-9.52655
▁подбор	-9.52659
▁раскоп	-9.52659
▁произошл	-9.5266
▁мелк	-9.52662
▁больниц	-9.52663
▁!!!!	-9.52663
▁информационн	-9.52664
▁нарко	-9.52665
▁северокорейски	-9.52668
▁наличи	-9.52669
▁район	-9.52671
петрозаводск	-9.52672
▁милици	-9.52674
▁убиты	-9.52678
▁нефть	-9.52678
▁заплатил	-9.52678
▁фирм	-9.52679
ИЯ	-9.52681
▁выс	-9.52684
▁задач	-9.5269
плюс	-9.5269
▁поздн	-9.52691
▁ЦЕ	-9.52694
▁мастер	-9.52696
▁хвата	-9.52696
▁просьб	-9.52696
▁взял	-9.52697
▁обучени	-9.52711
▁условия	-9.52714
▁жалоб	-9.52724
▁красн	-9.52728
рождени	-9.52729
верх	-9.52732
▁печа	-9.52734
▁возник	-9.52738
▁различн	-9.52738
▁нижн	-9.52754
▁начинает	-9.52754
чения	-9.52756
▁каса	-9.52771
▁Сав	-9.52771
▁площад	-9.52774
▁Единственн	-9.52792
▁качеств	-9.52792
▁17	-9.52797
горел	-9.528
▁основным	-9.52801
▁ноябр	-9.52806
▁выдел	-9.52807
▁Михаил	-9.52812
▁модул	-9.52821
▁потер	-9.52821
▁гости	-9.52831
▁Петров	-9.52836
▁ощу	-9.52841
▁учены	-9.52844
▁остров	-9.52847
▁природ	-9.52848
▁Ази	-9.52869
▁нажати	-9.52883
▁сообщил	-9.52895
итай	-9.52901
▁женско	-9.52903
▁авиа	-9.52911
тики	-9.52916
фор	-9.52917
▁черно	-9.52939
▁кончик	-9.5295
▁мн	-9.52962
▁факт	-9.52972
обирае	-9.52982
▁масл	-9.52983
сомне	-9.53025
▁заболевания	-9.5304
▁истин	-9.53053
rce	-9.53055
▁автор	-9.53071
зор	-9.53093
▁Ша	-9.53127
▁поселения	-9.53139
▁путешествия	-9.53155
▁финал	-9.53166
шел	-9.53179
▁букв	-9.53184
▁служб	-9.53188
▁экс	-9.53209
▁ветеран	-9.53246
▁умира	-9.53265
▁Одно	-9.53273
▁отношени	-9.53275
▁V	-9.53275
▁A	-9.53275
▁завтра	-9.53275
▁способ	-9.53275
▁принято	-9.53275
▁гуля	-9.53277
▁стату	-9.53317
▁Стер	-9.53359
▁Рост	-9.53361
▁памятник	-9.53367
▁участвова	-9.53401
▁Дед	-9.53415
80	-9.53417
▁36	-9.53479
ехал	-9.53515
▁разум	-9.53525
▁мил	-9.53536
анс	-9.53542
▁плать	-9.53588
▁18	-9.53596
▁здани	-9.53623
▁мг	-9.53642
▁настроени	-9.53677
▁подготовк	-9.53683
▁изменени	-9.53683
▁Наст	-9.53701
▁проходил	-9.53715
▁скажу	-9.53738
▁ненави	-9.53773
▁корж	-9.53793
реду	-9.53794
▁спин	-9.53801
▁влияни	-9.53881
ировани	-9.53914
▁обязан	-9.53922
▁решени	-9.53944
▁основани	-9.5395
идер	-9.53959
▁бород	-9.54005
▁обеспечени	-9.54025
▁остальн	-9.54038
▁будуще	-9.5405
ратор	-9.54144
олето	-9.54164
▁кров	-9.54165
▁цель	-9.54179
ыве	-9.54226
▁бою	-9.54275
АЗ	-9.54306
▁чувства	-9.5433
пит	-9.54344
рут	-9.5437
▁обид	-9.54405
ивают	-9.54431
▁)))	-9.54432
▁имею	-9.5444
полезно	-9.54457
тветственност	-9.5451
теля	-9.54511
▁тело	-9.5454
▁Дума	-9.54585
бот	-9.54695
▁це	-9.54756
врал	-9.54782
▁мар	-9.54791
трое	-9.54795
вшей	-9.5495
дне	-9.55011
аров	-9.55062
▁ар	-9.55109
▁очередн	-9.55123
лок	-9.5514
ечь	-9.55152
▁руководство	-9.5516
ТВ	-9.55288
▁лиц	-9.55344
▁подобны	-9.55406
▁Просто	-9.55572
▁группировк	-9.55627
▁отста	-9.55696
троп	-9.55875
▁настоящи	-9.55878
▁полага	-9.56102
▁порядк	-9.56104
▁захват	-9.56176
▁применение	-9.56198
ньше	-9.56264
▁Шн	-9.56288
недель	-9.56357
▁пользу	-9.56404
▁говори	-9.56547
▁получи	-9.56594
▁источника	-9.56639
▁прямо	-9.56644
▁желани	-9.5682
ировал	-9.5699
▁проведени	-9.5699
души	-9.56994
▁Люби	-9.57197
▁ша	-9.57214
▁Ху	-9.57228
▁Игор	-9.57324
▁девочка	-9.57344
слав	-9.57617
27	-9.5784
ики	-9.5789
▁тё	-9.57904
▁пожарны	-9.57967
▁право	-9.57975
▁настояще	-9.58067
лым	-9.58191
ред	-9.58397
дом	-9.58474
▁конце	-9.58677
фин	-9.58721
▁P	-9.59088
▁фе	-9.59137
▁научны	-9.5916
▁вооруженны	-9.59212
▁Север	-9.59366
ыгля	-9.59466
ток	-9.59504
▁13	-9.59674
▁Мет	-9.59737
▁прави	-9.59784
▁земле	-9.59863
▁списк	-9.5998
▁каких	-9.59987
шн	-9.60026
ческо	-9.60035
пр	-9.60185
▁крути	-9.60593
ёв	-9.60614
000	-9.60639
▁ху	-9.60659
▁жил	-9.60736
▁11	-9.60788
парк	-9.608
мп	-9.60826
чин	-9.60931
тур	-9.60968
▁бес	-9.61013
ация	-9.61329
льно	-9.61732
▁промышленно	-9.61735
▁шо	-9.61753
▁журналиста	-9.61938
▁попал	-9.62103
енеральн	-9.62117
пад	-9.62471
▁права	-9.62541
▁вс	-9.62585
▁широк	-9.62615
▁хороше	-9.62653
ена	-9.62708
▁активн	-9.62973
▁ног	-9.63058
зу	-9.63301
ывает	-9.63454
▁стала	-9.63481
▁пора	-9.63486
инств	-9.63499
▁первым	-9.635
▁извест	-9.63763
лы	-9.63811
тор	-9.63878
становить	-9.64306
ших	-9.64365
▁дал	-9.64701
по	-9.64711
▁иракск	-9.64717
▁дохл	-9.64939
нков	-9.6495
ТА	-9.65134
▁нич	-9.65282
лова	-9.65309
▁правительство	-9.65501
▁фр	-9.65529
▁гру	-9.65659
ожд	-9.65749
▁образу	-9.65756
▁отказал	-9.65817
лос	-9.65937
▁название	-9.6611
КА	-9.66121
▁выход	-9.66248
▁0	-9.66271
▁проис	-9.66412
▁Ой	-9.66599
▁Выб	-9.66682
▁Дж	-9.66726
▁Ба	-9.66823
кер	-9.67031
▁стро	-9.67185
▁составит	-9.67196
тела	-9.67472
ейши	-9.67487
▁вра	-9.67612
▁бел	-9.68227
▁ак	-9.69085
ься	-9.69136
движения	-9.69229
станут	-9.69259
▁требова	-9.69595
▁офиса	-9.69641
▁разда	-9.69672
ТЫ	-9.69706
ойдет	-9.69752
лени	-9.69776
вин	-9.70056
▁мот	-9.70064
ление	-9.70304
▁вне	-9.70492
▁разу	-9.70672
▁начала	-9.70964
▁дохлы	-9.71165
дин	-9.71397
▁век	-9.71505
ститут	-9.71815
▁замеч	-9.719
зон	-9.72104
ере	-9.72163
рд	-9.72208
вы	-9.72705
▁S	-9.72733
▁голосова	-9.72809
форму	-9.72921
тель	-9.73007
▁поднима	-9.73145
▁кап	-9.73252
вск	-9.73292
▁актив	-9.73415
▁встрети	-9.73415
пор	-9.73521
▁тур	-9.73529
лег	-9.73649
льше	-9.73703
▁верит	-9.73755
оп	-9.74302
▁момента	-9.74337
очи	-9.74388
очно	-9.74417
Т	-9.74484
инов	-9.74603
водят	-9.7483
онны	-9.74834
яю	-9.75289
▁ребен	-9.75296
всю	-9.75315
ера	-9.75431
рки	-9.75519
этом	-9.75532
▁подойд	-9.75581
тен	-9.75709
▁крут	-9.76357
▁призыв	-9.76693
▁создал	-9.76771
бега	-9.76906
▁бере	-9.77082
▁защит	-9.77306
дж	-9.77354
▁объедини	-9.77368
▁Северн	-9.77381
▁красивы	-9.77494
жен	-9.77526
нные	-9.77658
цию	-9.77985
▁Перв	-9.78118
▁серьезн	-9.78232
▁решен	-9.78707
▁попа	-9.78759
▁па	-9.78781
знать	-9.78814
▁другом	-9.78883
▁деле	-9.78969
▁14	-9.78972
рно	-9.7942
▁направлен	-9.79592
▁ГД	-9.79786
▁Чу	-9.79788
▁маск	-9.80132
▁Известия	-9.80132
▁спис	-9.80176
▁друзья	-9.80214
ника	-9.80252
эн	-9.80401
уп	-9.80422
▁полу	-9.80591
варе	-9.80715
са	-9.80718
цеп	-9.8078
ич	-9.80781
ников	-9.81131
▁ген	-9.81192
зды	-9.81235
тана	-9.81278
▁24	-9.81358
чка	-9.81381
▁политическ	-9.81764
▁храни	-9.81778
вала	-9.8191
терски	-9.81964
начала	-9.82023
знаком	-9.82188
ание	-9.8219
желани	-9.82222
Г	-9.82278
▁Из	-9.82279
Ц	-9.82349
убейдск	-9.82358
лены	-9.82392
шли	-9.82398
семь	-9.82401
против	-9.82473
▁поезд	-9.82483
,	-9.825
Убейд	-9.82511
19	-9.82516
!	-9.82601
▁Ум	-9.82623
аци	-9.82663
дя	-9.82722
▁внутренне	-9.82798
▁граждан	-9.8296
пуст	-9.82981
▁челове	-9.83027
шать	-9.8306
овым	-9.8315
ечно	-9.83253
тали	-9.83255
енные	-9.83259
ЕТ	-9.83359
ума	-9.8336
казывает	-9.83437
▁пап	-9.83559
нным	-9.83626
теп	-9.83693
пять	-9.83715
щу	-9.83969
▁Одн	-9.84011
▁пла	-9.84035
оро	-9.84104
скор	-9.84213
полне	-9.84445
▁залив	-9.84457
лучил	-9.84645
▁Андре	-9.84677
le	-9.84684
▁Дум	-9.84714
▁материал	-9.84779
▁отказыва	-9.84886
▁конц	-9.84938
▁отдел	-9.84956
▁норм	-9.84969
▁предпринима	-9.84976
▁плох	-9.85071
▁уста	-9.85086
▁светл	-9.85111
▁обсужда	-9.85268
жение	-9.85281
▁представи	-9.85307
▁холод	-9.85397
w	-9.85433
чества	-9.85449
▁взгляд	-9.85485
▁пассажир	-9.85507
▁блю	-9.8551
оскрес	-9.85533
ающи	-9.8566
огу	-9.85677
ющие	-9.85692
▁зло	-9.85723
контроль	-9.85726
очны	-9.85739
ографи	-9.85877
b	-9.85898
▁реб	-9.85941
ключа	-9.85951
ИК	-9.85954
▁принадлеж	-9.85958
ОНИ	-9.85966
актическ	-9.85967
креатив	-9.85976
▁мощн	-9.85976
YouTube	-9.85976
ower	-9.85976
zerofat	-9.85976
Петербург	-9.85976
госпитализирован	-9.85976
отланд	-9.85976
▁Архангельск	-9.85976
▁Владивосток	-9.85976
▁ЗЕТИЛОВ	-9.85976
▁Интерфакс	-9.85976
▁Константин	-9.85976
▁Нефтехимик	-9.85976
▁Отечество	-9.85976
▁Цыганов	-9.85976
▁Шарапов	-9.85976
▁Явлинск	-9.85976
▁армян	-9.85976
▁аэропорт	-9.85976
▁британск	-9.85976
▁вариант	-9.85976
▁выступлени	-9.85976
▁гаранти	-9.85976
▁гардероб	-9.85976
▁гастарбайтер	-9.85976
▁госдум	-9.85976
▁диспетчер	-9.85976
▁дыхательны	-9.85976
▁евро	-9.85976
▁единоросс	-9.85976
▁использу	-9.85976
▁кирпич	-9.85976
▁коммерчески	-9.85976
▁комплект	-9.85976
▁ленточк	-9.85976
▁наставник	-9.85976
▁остеохондроз	-9.85976
▁представлял	-9.85976
▁премьер	-9.85976
▁секунд	-9.85976
▁совершил	-9.85976
▁спортсмен	-9.85976
▁сыграл	-9.85976
▁улыба	-9.85976
▁улыбк	-9.85976
▁уничтож	-9.85976
▁утвержден	-9.85976
👍	-9.85976
коричнев	-9.85976
▁Касьянов	-9.85976
▁Справедлив	-9.85976
▁автомат	-9.85976
▁акцент	-9.85976
▁превращает	-9.85976
▁улыбну	-9.85976
▁экстремист	-9.85976
зрывн	-9.85977
▁Дацюк	-9.85977
▁возраст	-9.85977
▁парламент	-9.85977
▁помогл	-9.85977
двигат	-9.85977
▁США	-9.85977
▁изменить	-9.85977
▁размести	-9.85977
▁Жизн	-9.85977
▁Ллойд	-9.85977
▁Огромн	-9.85977
▁Филлип	-9.85977
▁властям	-9.85977
▁кабине	-9.85977
▁характер	-9.85977
▁Донецк	-9.85977
▁грузинск	-9.85977
▁комментари	-9.85977
▁красот	-9.85977
▁поселка	-9.85977
▁приглаш	-9.85977
▁религиозн	-9.85977
▁удиви	-9.85977
▁цукат	-9.85977
▁Алекс	-9.85977
▁либерал	-9.85977
▁суперлиг	-9.85977
ерсидск	-9.85977
▁Министр	-9.85977
▁намечен	-9.85977
▁обвиня	-9.85977
▁Взросл	-9.85977
▁юмор	-9.85977
▁витамин	-9.85977
▁пакет	-9.85977
▁получаю	-9.85977
▁Вмест	-9.85977
▁интер	-9.85977
▁карман	-9.85978
▁увидит	-9.85978
▁Арави	-9.85978
▁Расска	-9.85978
▁Соедин	-9.85978
ительски	-9.85978
▁ложк	-9.85978
▁русско	-9.85978
▁аренд	-9.85978
агдад	-9.85978
августа	-9.85979
▁ПРАВ	-9.85979
▁холодильник	-9.85979
▁театр	-9.85979
▁арестован	-9.85979
▁приложени	-9.85979
▁Подбор	-9.8598
▁дурако	-9.8598
▁понравил	-9.8598
▁слабе	-9.8598
▁флаг	-9.8598
▁похорон	-9.8598
▁электрич	-9.8598
▁здоров	-9.8598
▁препарат	-9.8598
▁противоположн	-9.8598
▁Иванов	-9.85981
▁пожалуй	-9.85981
▁дерев	-9.85982
ладун	-9.85982
▁меша	-9.85982
▁урок	-9.85983
▁строчк	-9.85983
▁!!!!!	-9.85985
▁кричи	-9.85985
▁Австрали	-9.85986
▁инвестици	-9.85986
▁труп	-9.85987
▁растоп	-9.85988
▁украинск	-9.85988
▁обмен	-9.85988
▁крыш	-9.85988
▁физическ	-9.85988
▁переговор	-9.85989
▁собак	-9.85989
▁вредн	-9.85991
кинул	-9.85991
▁цар	-9.85992
языч	-9.85992
▁заберу	-9.85992
▁Европейск	-9.85993
▁находивши	-9.85993
▁дипломат	-9.85995
▁митинг	-9.85995
▁мышц	-9.85995
▁зависимост	-9.85996
▁поддержк	-9.85997
li	-9.85998
▁кухн	-9.85999
▁Земл	-9.86
▁Кубк	-9.86001
▁баз	-9.86002
ЛЬ	-9.86004
ризаци	-9.86005
▁Стол	-9.86005
▁потерян	-9.86005
▁трасс	-9.86005
it	-9.86006
▁размещен	-9.86006
▁зонд	-9.86006
▁клоун	-9.86007
▁начнет	-9.86009
▁манер	-9.86009
▁существова	-9.8601
▁штат	-9.8601
▁завоев	-9.86011
ГА	-9.86012
▁мечт	-9.86012
▁медлен	-9.86014
▁рост	-9.86014
▁распо	-9.86014
▁потрати	-9.86015
▁башн	-9.86016
▁разговор	-9.86016
▁пропуск	-9.86016
агентств	-9.86017
▁нереальн	-9.86019
▁узнал	-9.86019
▁кофейный	-9.86021
▁мяс	-9.86021
ЛЯ	-9.86022
еглинк	-9.86027
▁принял	-9.86027
▁обман	-9.86034
▁миф	-9.86035
УР	-9.86037
▁рейс	-9.86038
▁допуска	-9.8604
gr	-9.8604
▁носител	-9.8604
▁отчим	-9.8604
▁рыб	-9.86041
▁сидит	-9.86044
▁плеч	-9.86045
ol	-9.86046
▁Лично	-9.86046
▁оценива	-9.86046
▁оказал	-9.86047
▁сменил	-9.86048
▁яблок	-9.86048
▁последне	-9.8605
▁корреспондент	-9.86051
▁занял	-9.86052
▁коньяк	-9.86053
▁попытал	-9.86054
▁ИЗ	-9.86055
▁преподаватель	-9.86056
▁крайне	-9.86056
26	-9.86059
▁квартир	-9.86061
ведениям	-9.86064
новь	-9.86064
РА	-9.86065
▁нарядны	-9.86066
▁почита	-9.86066
▁жизненн	-9.86068
▁кадр	-9.86073
ранск	-9.86078
▁захвачен	-9.86079
▁возможны	-9.86082
▁Виде	-9.86085
▁брак	-9.86087
чников	-9.86095
▁заслу	-9.86099
▁открыти	-9.86104
▁южн	-9.86104
▁женски	-9.86106
▁потерял	-9.86109
▁миг	-9.86123
▁пляс	-9.86124
овременн	-9.86126
историческ	-9.8613
▁Бар	-9.86131
▁посмотре	-9.86133
▁исламски	-9.86143
▁радикал	-9.86163
▁назначи	-9.86164
▁Больш	-9.86166
▁устра	-9.86167
▁Барак	-9.86177
конструкци	-9.86181
▁спать	-9.86182
▁Давай	-9.86184
▁1000	-9.86186
▁Цел	-9.8619
▁свид	-9.86234
▁тус	-9.86239
▁завершен	-9.8624
▁тобой	-9.86247
огре	-9.86249
▁уров	-9.86252
▁контрольны	-9.86255
▁реальн	-9.86256
▁гол	-9.86263
▁распространя	-9.86265
▁чай	-9.86278
▁случай	-9.86282
▁стейк	-9.86284
▁полета	-9.86288
▁отметил	-9.86293
▁записал	-9.86295
▁определить	-9.86299
▁курс	-9.863
бужден	-9.86307
▁повод	-9.86309
▁православны	-9.86316
▁поступить	-9.86322
▁Донбасс	-9.86325
▁щас	-9.86332
нрави	-9.86334
лажда	-9.86356
▁Наход	-9.86379
онар	-9.86393
тификаци	-9.86401
шенно	-9.8641
▁инг	-9.86413
▁бл	-9.86444
▁высок	-9.86445
мосе	-9.86448
▁ходить	-9.86449
▁отст	-9.86461
▁скот	-9.86462
▁отмыва	-9.86483
▁Крут	-9.86498
▁Роб	-9.86519
▁специалист	-9.86534
▁Среди	-9.86535
нуться	-9.86544
▁родно	-9.86544
▁пилота	-9.86547
▁успех	-9.86558
▁организованн	-9.86566
позици	-9.86567
▁Юри	-9.86568
▁грех	-9.86576
▁пропал	-9.86601
фир	-9.86615
описан	-9.86617
▁сметан	-9.86641
▁массово	-9.86654
▁снего	-9.86682
вания	-9.86692
▁обязатель	-9.86705
налог	-9.86719
▁сообщает	-9.86741
▁враг	-9.86749
▁рож	-9.8675
▁столкн	-9.86772
льз	-9.86795
зьми	-9.86801
рики	-9.86806
▁полици	-9.86808
▁памят	-9.86812
▁внук	-9.86813
▁высше	-9.86818
АЛИ	-9.86838
▁счет	-9.86847
▁стави	-9.86863
▁масса	-9.86895
▁ангар	-9.869
▁коалици	-9.86902
▁усили	-9.86911
▁террористическ	-9.86917
▁равно	-9.8692
▁достойны	-9.86924
▁РАН	-9.86924
▁пресс	-9.8694
▁197	-9.86941
твор	-9.86951
▁раствор	-9.8697
▁внешност	-9.86995
▁западн	-9.87025
▁высказыва	-9.87035
▁Бол	-9.87037
▁большим	-9.87043
▁партия	-9.87057
▁чисты	-9.8706
▁называет	-9.87063
▁поздравлени	-9.8707
▁плат	-9.8708
▁Буду	-9.87089
▁всяки	-9.87105
ИН	-9.87152
▁читает	-9.87177
▁высказывани	-9.87192
конча	-9.87218
▁проходит	-9.87227
▁ПРИ	-9.87233
▁стыд	-9.87247
▁Лимон	-9.87263
▁палестинцам	-9.87281
an	-9.87291
▁Буш	-9.8732
▁разведк	-9.8734
90	-9.87375
АВ	-9.87432
пети	-9.87458
▁раздел	-9.87464
бежал	-9.87473
Ай	-9.87496
бит	-9.87499
▁ле	-9.87518
▁194	-9.87642
дят	-9.87692
ЧИ	-9.87727
▁ищу	-9.87744
▁состоял	-9.87757
▁мат	-9.87771
тябр	-9.87835
▁планиру	-9.87943
▁нормальн	-9.87952
▁звук	-9.87982
▁покупа	-9.87988
туры	-9.88002
▁воева	-9.88015
▁смогу	-9.88019
on	-9.88049
▁Миро	-9.88061
▁полученн	-9.88094
▁Лин	-9.88126
сходя	-9.88145
▁ВЫ	-9.88173
▁зубк	-9.88173
▁уровн	-9.88184
ласть	-9.88293
урс	-9.88311
клад	-9.88318
▁напря	-9.88327
▁старт	-9.88361
лимпиад	-9.88367
▁действующе	-9.88476
▁поступил	-9.8851
▁займ	-9.88524
▁директор	-9.88528
▁промы	-9.88539
орон	-9.88541
▁папа	-9.88559
пущен	-9.88615
▁приятн	-9.88659
▁провел	-9.88671
70	-9.88732
▁заяв	-9.88804
▁Кор	-9.88809
стей	-9.88837
▁удар	-9.88867
▁влия	-9.88872
▁гражданск	-9.88899
▁являю	-9.88941
▁Коре	-9.89053
▁Сил	-9.8911
▁изби	-9.89113
сим	-9.89128
▁сторонник	-9.89141
▁хо	-9.8916
люблю	-9.89166
▁умею	-9.89168
СИ	-9.89186
▁шт	-9.89211
▁относит	-9.89228
▁внутренн	-9.89258
▁существу	-9.89324
▁лев	-9.89342
лд	-9.89345
▁Май	-9.89427
▁ап	-9.89474
сидел	-9.89488
зап	-9.89498
нежны	-9.89505
▁банк	-9.89598
▁обрати	-9.8961
пера	-9.89702
бов	-9.89771
▁Кер	-9.89824
▁прием	-9.8989
ЕН	-9.89901
▁Израиль	-9.90126
жить	-9.9033
юбовь	-9.90333
▁присоедин	-9.90336
▁энергия	-9.90364
▁политически	-9.90372
▁Пав	-9.90372
▁область	-9.90381
▁устал	-9.90381
ИМ	-9.90382
уга	-9.90414
▁мужикам	-9.9048
ды	-9.90539
такой	-9.90632
▁лай	-9.90657
ган	-9.90664
▁НИ	-9.90679
▁перер	-9.90783
▁Давн	-9.90815
▁Буд	-9.90822
▁жела	-9.90866
▁принципам	-9.90921
▁пять	-9.9108
охи	-9.91081
определен	-9.91092
▁оконча	-9.91166
истов	-9.91176
нес	-9.91291
▁образовани	-9.91334
▁ог	-9.91346
ьян	-9.91409
▁статья	-9.91432
▁фа	-9.91457
▁Тем	-9.91509
▁исследования	-9.91518
юда	-9.9154
цов	-9.91544
утка	-9.91627
▁Го	-9.91633
▁вкус	-9.91668
▁привлечени	-9.91742
▁сообща	-9.91838
▁выраж	-9.91838
▁выбрать	-9.91893
▁произой	-9.91899
▁уверен	-9.91941
▁B	-9.91949
▁N	-9.91975
▁слушать	-9.91992
ины	-9.92008
▁следственны	-9.92084
риста	-9.92089
овски	-9.92093
▁кг	-9.92156
▁Хороши	-9.92163
плы	-9.92189
▁приходи	-9.92243
леш	-9.92311
▁сопротивление	-9.92356
ЛО	-9.92449
▁Ана	-9.92464
▁принимать	-9.92635
станци	-9.92666
▁компания	-9.92671
▁принимал	-9.92719
▁мис	-9.92777
▁выходны	-9.92778
решк	-9.92792
ниве	-9.92906
ци	-9.93142
▁матч	-9.93158
▁побег	-9.93186
очь	-9.93265
▁прик	-9.93281
ытый	-9.93322
тельны	-9.93427
▁чувство	-9.93493
▁основн	-9.9383
номер	-9.93846
▁Ак	-9.9387
▁посяг	-9.93923
▁потребност	-9.93988
▁гон	-9.94094
▁спорт	-9.94235
▁треть	-9.94235
ового	-9.94317
▁Уж	-9.94404
▁вай	-9.94409
▁камен	-9.94524
▁Джо	-9.94525
▁чё	-9.94659
оче	-9.94698
рить	-9.94854
нки	-9.95021
ывали	-9.95069
▁остал	-9.95273
▁поз	-9.95457
▁мор	-9.95537
34	-9.95549
▁руководителя	-9.95697
эр	-9.957
▁Вод	-9.95709
▁груст	-9.95784
стерс	-9.95902
▁подписа	-9.95946
▁типов	-9.95974
▁предполож	-9.95989
▁товарища	-9.96026
ственны	-9.9603
▁известны	-9.96099
▁живы	-9.96196
▁Оч	-9.96294
ночны	-9.96542
▁каждом	-9.96701
цу	-9.96798
▁Ант	-9.96947
▁местн	-9.96976
▁мост	-9.97019
зем	-9.97022
пье	-9.97258
ельно	-9.97267
▁готовы	-9.97291
▁иностран	-9.97318
▁еду	-9.97414
▁лечени	-9.97774
РОВ	-9.97892
олод	-9.97926
▁слабост	-9.97971
ведом	-9.98199
чувствую	-9.98275
▁ума	-9.98412
▁Ши	-9.98444
▁купи	-9.98875
▁Бога	-9.98908
▁Тво	-9.99024
▁встреча	-9.99036
▁необходимы	-9.99122
бом	-9.99353
▁ЖИ	-9.99412
▁Бо	-9.99498
дки	-9.99601
▁сери	-9.9975
▁Тр	-9.9998
▁види	-9.99984
▁федеральны	-9.99986
▁Бу	-10.0004
▁собрал	-10.0023
▁сильны	-10.0051
▁вел	-10.0132
▁Наш	-10.0135
ворить	-10.0159
тура	-10.0274
тили	-10.0286
руж	-10.0288
шеч	-10.0296
▁заказа	-10.0319
тивны	-10.0322
груз	-10.0327
ОБ	-10.0394
владе	-10.0409
▁поступ	-10.0418
вая	-10.0426
▁внимание	-10.043
▁областно	-10.0439
особо	-10.0445
▁Таки	-10.0452
новости	-10.0496
орда	-10.0503
▁убил	-10.051
ких	-10.0517
равда	-10.0533
▁вери	-10.0539
▁наруш	-10.0548
▁состав	-10.0549
▁выстави	-10.0558
пен	-10.0581
▁отличн	-10.0586
▁чест	-10.0603
Ч	-10.0617
любил	-10.0617
чет	-10.064
▁требовал	-10.0661
ским	-10.0686
ием	-10.0709
▁содержа	-10.0721
▁блюд	-10.0736
▁могил	-10.0744
точни	-10.0754
град	-10.0775
▁учи	-10.08
рск	-10.0823
▁един	-10.0831
бер	-10.0832
▁Ро	-10.0841
▁поступа	-10.0868
▁секретно	-10.0875
руд	-10.0876
щей	-10.0887
ирован	-10.09
▁сло	-10.0908
оке	-10.0918
▁Заб	-10.0926
▁появл	-10.0933
АТЫ	-10.0957
явлени	-10.0991
озд	-10.0992
ножк	-10.0994
иды	-10.1003
послед	-10.1007
▁предпринимател	-10.1017
начальн	-10.1018
нок	-10.1024
удов	-10.1053
▁ще	-10.1081
сель	-10.1083
зн	-10.1091
одой	-10.1099
▁региона	-10.1104
точн	-10.1111
рад	-10.1114
уем	-10.1119
▁нынешне	-10.1132
ТИ	-10.114
правлять	-10.1142
оговор	-10.1171
▁роди	-10.1185
▁спал	-10.1214
▁голосу	-10.1219
So	-10.1235
▁вызва	-10.1247
▁прив	-10.1271
оров	-10.1281
▁нос	-10.1286
44	-10.1286
▁иракски	-10.1292
айс	-10.13
▁превратил	-10.1315
▁куп	-10.1348
тнес	-10.1349
АТЬ	-10.1386
▁уби	-10.139
▁заказ	-10.1414
ркин	-10.1425
▁ближайш	-10.1438
▁немц	-10.1455
▁белы	-10.1471
ственно	-10.1487
жик	-10.1489
еров	-10.1495
▁предлагае	-10.1499
ЛА	-10.1529
▁называ	-10.1546
шу	-10.1547
▁сделан	-10.1554
бре	-10.156
обу	-10.157
▁Ур	-10.1606
ТЬ	-10.1646
▁таков	-10.1651
ЖК	-10.1656
тику	-10.1696
▁принима	-10.172
▁генерал	-10.173
▁Куд	-10.1731
▁Максима	-10.1741
▁считаю	-10.1777
▁китайск	-10.1788
дает	-10.1844
ляр	-10.1859
рин	-10.1869
▁теннис	-10.1872
льф	-10.1881
▁жал	-10.1897
▁привод	-10.1905
M	-10.1909
ВАТЬ	-10.1912
▁беспоко	-10.1956
▁похищен	-10.1959
▁Хот	-10.1962
12	-10.1974
анч	-10.1991
▁воспринима	-10.2032
гроз	-10.2033
аша	-10.2034
▁организова	-10.2049
▁расс	-10.2055
▁Ир	-10.2062
▁шест	-10.2077
вост	-10.2082
дил	-10.2092
осуд	-10.2094
жд	-10.2104
ОС	-10.2114
вно	-10.2119
▁признан	-10.2126
▁слабо	-10.2131
▁Ар	-10.2138
женным	-10.2145
▁государственно	-10.2145
нение	-10.2152
▁откры	-10.2154
▁успе	-10.216
сом	-10.2178
▁Ск	-10.2179
довольств	-10.2186
ейс	-10.2191
▁Древн	-10.22
лон	-10.221
▁замети	-10.2225
гей	-10.2239
ОР	-10.2255
83	-10.2275
щать	-10.2275
ужин	-10.2276
▁земл	-10.2277
АК	-10.228
▁Эт	-10.228
▁сделае	-10.2323
▁знаком	-10.2324
es	-10.2341
▁телеканал	-10.236
▁свобод	-10.2368
▁Южн	-10.237
▁вопроса	-10.2375
шни	-10.2397
бир	-10.2404
▁потреб	-10.2411
лба	-10.245
▁третье	-10.2452
рен	-10.2453
писал	-10.2499
очка	-10.2512
▁границ	-10.2518
нера	-10.254
лагает	-10.2565
▁сравни	-10.2575
рта	-10.2579
▁подход	-10.2588
▁картин	-10.2594
ro	-10.2606
▁Глав	-10.2613
▁основ	-10.2621
t	-10.2628
ёл	-10.2632
▁сопротивлени	-10.2635
рик	-10.2638
▁42	-10.265
▁Хорош	-10.2662
▁настой	-10.2664
пре	-10.2667
▁военн	-10.2723
▁выигра	-10.273
▁городск	-10.2733
анов	-10.2734
▁гре	-10.2738
▁сек	-10.2742
▁приход	-10.2767
▁бол	-10.2781
▁определ	-10.2794
▁источник	-10.2808
▁государственн	-10.2817
▁распространен	-10.2825
▁понят	-10.283
▁слуша	-10.2832
▁применени	-10.2833
▁дополнительн	-10.2839
тия	-10.2849
▁археологи	-10.2869
▁показа	-10.2877
тюр	-10.2882
бар	-10.2898
ставит	-10.29
люби	-10.2901
▁мужика	-10.2904
демократ	-10.2915
▁реша	-10.2918
▁энерги	-10.2921
▁Фили	-10.2927
дер	-10.2931
▁исследовани	-10.2935
▁оружи	-10.2944
нтон	-10.2945
▁фон	-10.2954
зван	-10.2968
▁поряд	-10.297
рис	-10.2984
ерт	-10.2991
▁польз	-10.3016
дня	-10.302
онер	-10.304
прав	-10.3054
/	-10.3057
▁ожида	-10.3057
вод	-10.3062
▁обрат	-10.3066
▁выбра	-10.308
▁инста	-10.3081
▁торт	-10.3087
▁поездк	-10.3096
▁призы	-10.3103
▁развит	-10.3103
▁35	-10.3104
▁сиде	-10.3108
наче	-10.3123
думал	-10.3138
▁избе	-10.3138
учил	-10.314
▁кам	-10.3143
грос	-10.3144
медвед	-10.315
▁бан	-10.3154
зрени	-10.3169
влечения	-10.3174
дал	-10.3178
L	-10.3179
▁верхн	-10.3182
летел	-10.319
директор	-10.3195
▁образован	-10.3196
втор	-10.3197
ущенн	-10.3199
приятн	-10.32
ГД	-10.3207
▁смог	-10.3208
очередно	-10.3209
тер	-10.3213
пов	-10.3214
▁существ	-10.3226
сон	-10.3229
разу	-10.3233
▁привлеч	-10.3238
▁Южно	-10.3238
первы	-10.3244
инста	-10.3244
НЕ	-10.3248
25	-10.3249
▁Фа	-10.3255
студи	-10.3257
ворц	-10.3258
перед	-10.3261
▁коммунист	-10.3264
пле	-10.3269
буду	-10.327
баба	-10.3275
оль	-10.3277
работ	-10.3279
▁пропит	-10.328
ссе	-10.3281
▁собра	-10.329
▁внесен	-10.3296
▁Прост	-10.3319
▁бисквит	-10.3323
▁мирово	-10.3327
конч	-10.3338
мина	-10.3342
означ	-10.3356
▁проведен	-10.3359
▁опро	-10.3363
ертолет	-10.3363
шан	-10.3369
ологически	-10.3381
город	-10.3381
▁арми	-10.3381
▁велик	-10.3382
▁L	-10.3386
стально	-10.3393
сси	-10.3393
▁молч	-10.3397
▁добро	-10.3399
ующим	-10.3403
клон	-10.3409
▁трав	-10.3413
▁Сте	-10.3414
пят	-10.3415
сфе	-10.3416
▁мод	-10.3416
▁микрово	-10.3416
сследования	-10.3422
планировал	-10.3422
вели	-10.3428
БН	-10.3431
▁прохо	-10.3432
шествия	-10.3436
▁ране	-10.3439
▁обл	-10.3439
полам	-10.344
возможн	-10.3448
питыва	-10.345
▁удивля	-10.3467
▁коммун	-10.3474
▁путешестви	-10.3486
▁поселени	-10.3486
убийств	-10.3487
▁счита	-10.3489
гнут	-10.349
аких	-10.3495
добр	-10.3496
▁эксп	-10.3503
▁бук	-10.3504
ШИ	-10.3505
▁делаю	-10.3508
▁охран	-10.3509
ирает	-10.352
▁скры	-10.352
▁План	-10.3524
▁формировани	-10.3528
▁Ответ	-10.3538
▁информ	-10.3542
ворит	-10.3548
▁ветер	-10.355
онечно	-10.3552
▁масс	-10.3553
▁берег	-10.3554
ерман	-10.3556
рейд	-10.3558
отрудник	-10.3561
нд	-10.3563
▁отмет	-10.3566
ратн	-10.3569
▁Класс	-10.3569
ажда	-10.357
порож	-10.3574
исх	-10.3574
▁Оп	-10.3576
голк	-10.3577
полни	-10.3577
▁исследова	-10.3581
▁Миха	-10.3582
▁матери	-10.3583
▁кофе	-10.3583
степен	-10.3584
▁здрав	-10.3585
▁национал	-10.3585
фри	-10.3586
▁Макс	-10.3586
спорт	-10.3587
редставител	-10.3587
кисло	-10.359
ждать	-10.359
етрозаводск	-10.3591
ступит	-10.3592
▁руковод	-10.3593
гранич	-10.3594
▁тренир	-10.3594
изнес	-10.3594
уководство	-10.3595
урналист	-10.3595
▁музык	-10.3596
улли	-10.3596
re	-10.3596
психологи	-10.3596
▁профессионал	-10.3597
спор	-10.3597
▁телеви	-10.3597
▁исп	-10.3597
ментьев	-10.3597
▁офиц	-10.3597
ционно	-10.3598
▁инве	-10.3598
▁эксперимент	-10.3598
insta	-10.3598
евангел	-10.3598
квалифицирова	-10.3598
ресмо	-10.3598
▁Сплошн	-10.3598
▁бесхозн	-10.3598
▁груднич	-10.3598
▁диаметр	-10.3598
▁подтвержд	-10.3598
▁полицейск	-10.3598
▁приумнож	-10.3598
▁прогноз	-10.3598
▁соглаш	-10.3598
▁стандартн	-10.3598
▁увеличил	-10.3598
▁яблочник	-10.3598
$	-10.3598
E	-10.3598
H	-10.3598
avo	-10.3598
yavlinsky	-10.3598
Анджелес	-10.3598
ГОТОВИТ	-10.3598
Пресс	-10.3598
грессивн	-10.3598
декватны	-10.3598
зависимы	-10.3598
коррупци	-10.3598
олыбель	-10.3598
ппарат	-10.3598
рекоменд	-10.3598
реодоле	-10.3598
ступает	-10.3598
трясающе	-10.3598
▁978-5-	-10.3598
▁MotoGP	-10.3598
▁БУДЕТ	-10.3598
▁ВЫЛЕТ	-10.3598
▁Гонконг	-10.3598
▁Добави	-10.3598
▁Кизляр	-10.3598
▁Организ	-10.3598
▁ПОДА	-10.3598
▁Побудительны	-10.3598
▁Подробности	-10.3598
▁Президент	-10.3598
▁Приглаш	-10.3598
▁Рекоменд	-10.3598
▁СПИД	-10.3598
▁Смотри	-10.3598
▁Собянин	-10.3598
▁Супербайка	-10.3598
▁Типичн	-10.3598
▁Убе́йд	-10.3598
▁Успешн	-10.3598
▁Фаллудж	-10.3598
▁Финлянди	-10.3598
▁Хабаровск	-10.3598
▁Эйфелев	-10.3598
▁Эх	-10.3598
▁Юганскнефтегаз	-10.3598
▁Янукович	-10.3598
▁адвокат	-10.3598
▁адрес	-10.3598
▁ассимилирова	-10.3598
▁асфальт	-10.3598
▁банкрот	-10.3598
▁белоленточников	-10.3598
▁восстанов	-10.3598
▁восторг	-10.3598
▁впечатлил	-10.3598
▁вступлени	-10.3598
▁вынужден	-10.3598
▁гарантирован	-10.3598
▁госпитал	-10.3598
▁джихад	-10.3598
▁джойстик	-10.3598
▁ебабельна	-10.3598
▁законодательств	-10.3598
▁зафиксирован	-10.3598
▁зашкали	-10.3598
▁индивиду	-10.3598
▁инцидент	-10.3598
▁итальян	-10.3598
▁катастроф	-10.3598
▁конкурен	-10.3598
▁корпус	-10.3598
▁лондонски	-10.3598
▁магазин	-10.3598
▁мальчиш	-10.3598
▁мероприяти	-10.3598
▁микрофон	-10.3598
▁мотоцикл	-10.3598
▁мультфильм	-10.3598
▁нефтепровод	-10.3598
▁обстрел	-10.3598
▁объявлени	-10.3598
▁объясня	-10.3598
▁обыгра	-10.3598
▁опаздывал	-10.3598
▁оптимиз	-10.3598
▁отсутств	-10.3598
▁пиндос	-10.3598
▁поблагодарил	-10.3598
▁подоконник	-10.3598
▁поздравил	-10.3598
▁показывай	-10.3598
▁пообеща	-10.3598
▁превыси	-10.3598
▁предсезонн	-10.3598
▁предъявлен	-10.3598
▁приезжа	-10.3598
▁присутствие	-10.3598
▁присутствовал	-10.3598
▁проголосует	-10.3598
▁прокурора	-10.3598
▁профессор	-10.3598
▁процедур	-10.3598
▁развернул	-10.3598
▁расстояни	-10.3598
▁рейтинг	-10.3598
▁реорганиз	-10.3598
▁республик	-10.3598
▁русофоб	-10.3598
▁свяжет	-10.3598
▁скепти	-10.3598
▁совершени	-10.3598
▁соперниц	-10.3598
▁соревнования	-10.3598
▁социализм	-10.3598
▁социальн	-10.3598
▁спонсор	-10.3598
▁стратеги	-10.3598
▁телефон	-10.3598
▁тимбилдинг	-10.3598
▁убейдоподобн	-10.3598
▁ублюдо	-10.3598
▁устроил	-10.3598
▁фермент	-10.3598
▁фестивал	-10.3598
▁эвакуирова	-10.3598
▁экипаж	-10.3598
▁энергети	-10.3598
👑	-10.3598
👪	-10.3598
😁	-10.3598
😂	-10.3598
▁Луганск	-10.3598
▁грядущи	-10.3598
▁ежедневно	-10.3598
▁изменяе	-10.3598
▁инвалид	-10.3598
▁коллекци	-10.3598
▁космическ	-10.3598
▁незаметн	-10.3598
▁поджог	-10.3598
▁роспис	-10.3598
▁съезда	-10.3598
▁теракт	-10.3598
▁узнавал	-10.3598
▁экспедици	-10.3598
еждународно	-10.3598
имволик	-10.3598
оказательств	-10.3598
фрукт	-10.3598
▁Алтай	-10.3598
▁Витяз	-10.3598
▁Говоря	-10.3598
▁Медвед	-10.3598
▁Напиш	-10.3598
▁ПОЗДРАВЛ	-10.3598
▁азербайджан	-10.3598
▁затрудн	-10.3598
▁капитал	-10.3598
▁награжден	-10.3598
▁отвеча	-10.3598
▁полноценно	-10.3598
▁привлек	-10.3598
▁приобрел	-10.3598
▁прозрачн	-10.3598
▁противоречи	-10.3598
▁проясня	-10.3598
▁совершае	-10.3598
▁стимул	-10.3598
▁таблетки	-10.3598
▁удивлен	-10.3598
rand	-10.3598
́	-10.3598
ЕЗОН	-10.3598
ПЕТ	-10.3598
весна	-10.3598
говарива	-10.3598
россов	-10.3598
▁КОМПЛЕКТ	-10.3598
▁Российск	-10.3598
▁закономерн	-10.3598
▁напиш	-10.3598
▁обсуди	-10.3598
▁пионерско	-10.3598
▁симпатичн	-10.3598
▁фигур	-10.3598
▁харьков	-10.3598
одвинск	-10.3598
ращива	-10.3598
▁бридж	-10.3598
▁приняты	-10.3598
▁титул	-10.3598
ондон	-10.3598
▁Комитет	-10.3598
▁вулкан	-10.3598
▁диван	-10.3598
▁сыновья	-10.3598
O	-10.3598
ptz	-10.3598
дмосков	-10.3598
ерватив	-10.3598
▁Виктор	-10.3598
▁Карели	-10.3598
▁Макаров	-10.3598
▁Француз	-10.3598
▁подробно	-10.3598
▁сигнал	-10.3598
▁телегони	-10.3598
▁белорусско	-10.3598
▁отравлен	-10.3598
▁пропавши	-10.3598
429-	-10.3598
пешит	-10.3598
стоятель	-10.3598
▁+7	-10.3598
▁комитет	-10.3598
▁кричат	-10.3598
▁озеро	-10.3598
▁приступ	-10.3598
▁трейдер	-10.3598
▁Груз	-10.3598
▁конгрессмен	-10.3598
вергают	-10.3598
тесн	-10.3598
▁Европ	-10.3598
▁воздух	-10.3598
▁спрос	-10.3598
▁хлеб	-10.3598
▁барьер	-10.3598
▁госпо	-10.3598
▁сенатора	-10.3598
ижегородск	-10.3598
терапи	-10.3598
▁Надежд	-10.3598
ллюстр	-10.3598
худш	-10.3598
▁недостатк	-10.3598
▁разруш	-10.3598
▁синтез	-10.3598
наехавши	-10.3598
скульптура	-10.3598
▁вероятно	-10.3598
▁звон	-10.3598
▁небрит	-10.3598
▁обнаружил	-10.3598
▁Tou	-10.3598
▁Ближн	-10.3598
▁осуществля	-10.3598
▁рассужд	-10.3598
▁бонус	-10.3598
▁жестокост	-10.3598
▁покрытие	-10.3598
▁сожале	-10.3598
РОЧН	-10.3598
надоб	-10.3598
▁креп	-10.3598
art	-10.3598
церков	-10.3598
▁Мороз	-10.3598
▁выживани	-10.3598
учреждени	-10.3598
▁Досто	-10.3598
▁бенз	-10.3598
▁КОМ	-10.3598
▁закрывают	-10.3598
▁калош	-10.3598
▁отчаян	-10.3598
▁разведчика	-10.3598
▁ложек	-10.3598
▁объективн	-10.3598
▁свеже	-10.3598
▁попул	-10.3598
▁аборт	-10.3598
▁предвыборн	-10.3598
▁распредел	-10.3598
водител	-10.3598
▁Победител	-10.3598
▁земледельц	-10.3598
▁размеща	-10.3598
опознан	-10.3598
ступивше	-10.3598
торгов	-10.3598
▁гимн	-10.3598
гунов	-10.3598
▁спокойн	-10.3598
елорусс	-10.3598
▁командиров	-10.3598
▁порезан	-10.3598
▁Девушк	-10.3598
▁базар	-10.3598
▁идеале	-10.3598
▁страже	-10.3598
▁телевидени	-10.3598
▁заложниц	-10.3598
▁писател	-10.3598
▁потерпе	-10.3598
▁космо	-10.3598
▁состоит	-10.3598
ww	-10.3598
▁записать	-10.3598
аршрут	-10.3598
▁сказочн	-10.3598
▁сочетание	-10.3598
▁выраст	-10.3598
▁предсто	-10.3598
▁профессиональны	-10.3598
величива	-10.3598
возмезд	-10.3598
▁кредит	-10.3598
▁франц	-10.3598
pet	-10.3598
▁Центрально	-10.3598
▁взросл	-10.3598
▁фамили	-10.3598
стрелив	-10.3598
▁засели	-10.3598
▁расположен	-10.3598
▁Отдельн	-10.3598
морье	-10.3598
▁поймет	-10.3598
▁помогу	-10.3598
▁Беро	-10.3598
▁идеально	-10.3598
кримин	-10.3598
▁отечественно	-10.3598
▁регистраци	-10.3598
▁недоум	-10.3598
▁Актер	-10.3598
▁Древнейши	-10.3598
▁концерт	-10.3599
▁Греци	-10.3599
▁захоче	-10.3599
▁досто	-10.3599
▁шоколад	-10.3599
▁следующе	-10.3599
▁застр	-10.3599
▁поддержа	-10.3599
▁Касп	-10.3599
ретически	-10.3599
en	-10.3599
ПУС	-10.3599
волюционн	-10.3599
▁крупнейш	-10.3599
▁побежда	-10.3599
▁ауди	-10.3599
▁стесня	-10.3599
окруж	-10.3599
АЮ	-10.3599
▁халаф	-10.3599
▁Сдела	-10.3599
▁Париже	-10.3599
▁плыву	-10.3599
РОЖ	-10.3599
▁неожиданно	-10.3599
▁предложи	-10.3599
крутил	-10.3599
▁вернул	-10.3599
Гавр	-10.3599
▁опусте	-10.3599
▁Жуко	-10.3599
▁портал	-10.3599
▁воздушн	-10.3599
▁революци	-10.3599
▁поцел	-10.3599
▁универ	-10.3599
▁вопию	-10.3599
▁средн	-10.3599
▁Голос	-10.3599
▁роз	-10.3599
▁хохл	-10.3599
▁кусочк	-10.3599
▁решить	-10.3599
▁бюджет	-10.3599
▁Инг	-10.3599
▁апрел	-10.3599
озвуч	-10.3599
▁слух	-10.3599
▁горяч	-10.3599
оккейн	-10.3599
игнори	-10.3599
▁предмет	-10.3599
▁страст	-10.3599
продук	-10.36
▁экскурсовод	-10.36
▁евре	-10.36
▁Насири	-10.36
▁благодар	-10.36
▁крест	-10.36
▁эпи	-10.36
разил	-10.36
▁музыкальны	-10.36
ирилл	-10.36
▁ключ	-10.36
▁Биб	-10.36
,2	-10.36
просил	-10.36
▁компром	-10.36
▁опуска	-10.36
арабск	-10.36
▁зовё	-10.36
▁акционер	-10.36
▁доверя	-10.36
ишин	-10.36
▁ведомств	-10.36
▁претен	-10.36
▁возглавля	-10.36
▁обвини	-10.36
▁Жан	-10.36
ируют	-10.36
БОР	-10.3601
▁Серёж	-10.3601
▁клиник	-10.3601
НЫ	-10.3601
▁принадлежащ	-10.3601
▁СТР	-10.3601
▁муж	-10.3601
ЯТ	-10.3601
▁желательно	-10.3601
▁обязанност	-10.3601
чёны	-10.3601
▁свинь	-10.3601
▁Жела	-10.3601
▁Глобальн	-10.3601
▁морожен	-10.3601
▁отведенн	-10.3601
▁хозяйк	-10.3601
▁прикольн	-10.3601
▁Елен	-10.3601
▁путинско	-10.3601
▁восхи	-10.3601
▁записи	-10.3601
▁крем	-10.3601
БУЛ	-10.3601
▁90-	-10.3601
▁контр	-10.3601
▁положени	-10.3601
▁похож	-10.3602
ГИ	-10.3602
▁давлени	-10.3602
▁приобретени	-10.3602
граничени	-10.3602
ИТЬ	-10.3602
▁ранн	-10.3602
ЧИК	-10.3602
▁аналити	-10.3602
▁12,	-10.3602
▁рынк	-10.3602
ышк	-10.3602
▁срок	-10.3602
рплат	-10.3602
▁еврейски	-10.3602
▁позитив	-10.3602
▁Реш	-10.3602
дража	-10.3602
▁основател	-10.3602
bra	-10.3602
наслед	-10.3602
▁доводит	-10.3602
▁двадцат	-10.3602
are	-10.3602
▁психологическ	-10.3602
▁отправит	-10.3602
▁концовк	-10.3603
АТ	-10.3603
▁командовани	-10.3603
▁шумерско	-10.3603
▁пластик	-10.3603
▁логик	-10.3603
▁Водител	-10.3603
▁Урай	-10.3603
▁уважа	-10.3603
ижнекамск	-10.3603
▁турецкие	-10.3603
▁предстал	-10.3603
▁заключительн	-10.3603
▁включает	-10.3603
▁управл	-10.3603
▁переходн	-10.3603
▁закончил	-10.3604
▁Сири	-10.3604
▁Цвет	-10.3604
pe	-10.3604
пляш	-10.3604
ros	-10.3604
вати	-10.3604
увшин	-10.3604
▁роли	-10.3604
▁придё	-10.3604
▁Газ	-10.3604
▁устаре	-10.3604
▁взб	-10.3604
▁Блин	-10.3604
▁выступил	-10.3604
▁прожив	-10.3604
▁свят	-10.3604
▁осты	-10.3604
▁изоля	-10.3604
▁Каза	-10.3605
арев	-10.3605
▁участк	-10.3605
▁школьн	-10.3605
▁слез	-10.3605
▁чудесны	-10.3605
▁жидкость	-10.3606
исправ	-10.3606
▁упусти	-10.3606
▁внутр	-10.3606
друз	-10.3606
▁желт	-10.3606
▁1/	-10.3606
▁Инди	-10.3606
▁центрально	-10.3606
функци	-10.3606
▁ботани	-10.3607
годили	-10.3607
кушал	-10.3607
▁кислот	-10.3607
▁храм	-10.3607
ЧЕ	-10.3607
аген	-10.3607
▁Причин	-10.3607
циста	-10.3607
▁сообществ	-10.3607
▁использовала	-10.3607
ОГО	-10.3607
▁засыпае	-10.3608
▁персон	-10.3608
▁Русск	-10.3608
▁смир	-10.3608
▁кругов	-10.3608
▁выходц	-10.3608
▁клетк	-10.3608
▁стул	-10.3608
▁друж	-10.3608
реплен	-10.3608
▁сложил	-10.3608
ивен	-10.3608
▁86	-10.3608
▁выпусти	-10.3609
▁отдельн	-10.3609
▁Лав	-10.3609
▁объясни	-10.3609
▁подошл	-10.3609
▁написан	-10.3609
▁голод	-10.3609
болк	-10.3609
▁жилье	-10.361
сир	-10.361
▁сказк	-10.361
егас	-10.361
▁суров	-10.361
▁автодром	-10.361
▁апельсин	-10.361
▁Никол	-10.361
▁избавля	-10.3611
▁пятер	-10.3611
▁сумм	-10.3611
▁Стар	-10.3611
станавлива	-10.3611
▁заря	-10.3611
▁приличны	-10.3612
под	-10.3612
▁Арте	-10.3612
▁автомобиль	-10.3612
▁концентраци	-10.3612
▁мошеннич	-10.3612
УМ	-10.3612
▁разработ	-10.3612
▁закончит	-10.3612
▁Изд	-10.3612
▁приподн	-10.3613
▁приобрет	-10.3613
▁показатель	-10.3613
▁прекра	-10.3613
▁Молоде	-10.3613
▁загадочн	-10.3613
▁ухажива	-10.3613
▁передач	-10.3613
вард	-10.3613
▁скач	-10.3613
▁трет	-10.3614
▁конф	-10.3614
▁штор	-10.3614
нька	-10.3614
▁задани	-10.3614
АЙ	-10.3614
▁указан	-10.3614
везе	-10.3614
▁переправить	-10.3615
▁ребят	-10.3615
▁реализ	-10.3615
▁силовик	-10.3615
▁конверт	-10.3615
▁важн	-10.3615
прята	-10.3616
▁борол	-10.3616
▁представляе	-10.3616
▁поддержива	-10.3616
▁подчинен	-10.3616
радуй	-10.3617
▁Бур	-10.3617
▁снят	-10.3617
▁Бывает	-10.3617
▁смотрится	-10.3617
▁зарубежн	-10.3617
ренни	-10.3617
▁исламист	-10.3618
▁технологи	-10.3619
▁комп	-10.3619
▁Мысл	-10.3619
УК	-10.3619
▁масштаб	-10.3619
▁живу	-10.362
▁родину	-10.362
▁парад	-10.362
▁присе	-10.362
▁усилен	-10.3621
смотрите	-10.3621
ригинал	-10.3621
▁Став	-10.3621
УСН	-10.3621
▁вывод	-10.3621
▁понтонн	-10.3622
▁Иран	-10.3622
▁принес	-10.3622
▁сегодняшн	-10.3622
▁столети	-10.3622
етыре	-10.3622
▁Последн	-10.3622
▁гнать	-10.3623
непло	-10.3623
убашк	-10.3623
▁могучи	-10.3624
▁молок	-10.3624
угал	-10.3624
▁плоск	-10.3624
▁Россию	-10.3624
▁закрыт	-10.3625
▁привел	-10.3625
союз	-10.3625
тву	-10.3626
▁Год	-10.3626
▁Классно	-10.3626
▁удерж	-10.3626
▁манипуляци	-10.3626
еличи	-10.3626
▁население	-10.3627
▁воспитанник	-10.3627
броси	-10.3627
бата	-10.3627
▁гражданин	-10.3627
▁показала	-10.3627
свойств	-10.3628
держава	-10.3628
▁исключен	-10.3628
▁свальн	-10.3628
▁максимальн	-10.3629
▁несет	-10.363
▁сыр	-10.363
квад	-10.363
умышленн	-10.363
▁недавн	-10.3631
геста	-10.3631
епортаж	-10.3631
▁стру	-10.3631
стрем	-10.3632
▁постепенн	-10.3632
▁тревож	-10.3632
▁Порт	-10.3632
лочко	-10.3633
▁художник	-10.3633
▁46	-10.3633
ьшив	-10.3633
▁порожд	-10.3634
выжат	-10.3634
▁столиц	-10.3634
▁разбира	-10.3635
ирующи	-10.3635
▁наход	-10.3636
▁страниц	-10.3636
▁пира	-10.3637
▁солнц	-10.3637
▁Бели	-10.3637
ующая	-10.3638
▁моча	-10.3639
▁Бес	-10.3639
ходим	-10.3639
инга	-10.364
▁сорт	-10.364
▁плакат	-10.364
▁спирулин	-10.3641
▁помеша	-10.3641
▁улетел	-10.3642
▁37	-10.3642
товски	-10.3642
▁отпусти	-10.3643
дца	-10.3643
▁плит	-10.3643
▁тесто	-10.3643
▁ничто	-10.3644
▁электро	-10.3644
▁предупрежд	-10.3644
▁оценк	-10.3644
▁Национально	-10.3644
▁сада	-10.3644
▁отним	-10.3644
инк	-10.3645
чудес	-10.3645
▁гад	-10.3645
стров	-10.3646
▁запе	-10.3646
▁колон	-10.3646
опрос	-10.3647
▁конс	-10.3649
▁спел	-10.3649
▁окна	-10.3649
нгуш	-10.3651
енцев	-10.3652
▁чувствуе	-10.3652
▁громк	-10.3652
▁Дья	-10.3652
▁отдых	-10.3653
чивает	-10.3653
▁Тай	-10.3654
▁завод	-10.3654
▁пел	-10.3654
▁45	-10.3655
▁следующи	-10.3656
совеща	-10.3656
▁обрез	-10.3657
▁проспект	-10.3658
▁цикл	-10.3659
▁старик	-10.3659
манско	-10.366
▁облак	-10.3661
▁стойк	-10.3661
действенно	-10.3661
▁Зим	-10.3662
▁Зна	-10.3662
▁краск	-10.3662
▁пьян	-10.3662
▁штр	-10.3663
▁Сохрани	-10.3663
▁Лад	-10.3664
▁берегов	-10.3664
жида	-10.3665
▁рассматрива	-10.3666
тягивающи	-10.3666
▁смогли	-10.3666
пропаганд	-10.3668
▁ужас	-10.3669
ажнейши	-10.3669
формат	-10.3669
▁изменил	-10.3669
▁фактическ	-10.3669
▁захвативши	-10.367
▁wi	-10.367
УЗН	-10.367
▁прекрасны	-10.367
ЛЮ	-10.3671
▁детски	-10.3671
ецепт	-10.3672
декс	-10.3672
▁Добр	-10.3673
▁Планет	-10.3674
УЮ	-10.3674
▁пассажирски	-10.3675
▁строят	-10.3675
▁фал	-10.3676
▁Воскрес	-10.3676
повтори	-10.3676
истическ	-10.3677
▁поможет	-10.3678
номар	-10.3678
▁взглядом	-10.3678
▁ковр	-10.368
▁ПО	-10.368
▁разрешени	-10.3682
МОЖ	-10.3682
берг	-10.3683
▁гром	-10.3683
▁элегантно	-10.3683
ЯЕМ	-10.3684
ллин	-10.3684
естниц	-10.3684
▁кипят	-10.3685
гид	-10.3687
▁Урук	-10.3687
рохи	-10.3687
▁кладе	-10.3687
▁моск	-10.3687
▁хам	-10.3688
▁охранник	-10.3688
▁улучш	-10.3688
▁штан	-10.369
▁хал	-10.3692
▁рабоч	-10.3693
▁начать	-10.3693
▁сотн	-10.3694
▁имеет	-10.3694
воз	-10.3695
мерз	-10.3697
▁массаж	-10.3697
талкива	-10.3697
▁холодн	-10.3698
▁северо	-10.3699
▁сцена	-10.3701
▁придума	-10.3701
▁сущности	-10.3701
оленя	-10.3701
▁добра	-10.3702
▁акт	-10.3702
▁отверн	-10.3703
нья	-10.3703
▁13.	-10.3703
▁слышал	-10.3703
▁верси	-10.3703
сламск	-10.3704
жига	-10.3705
▁уступи	-10.3705
▁дл	-10.3706
▁агро	-10.3706
▁смотря	-10.3706
▁Втор	-10.3707
▁Гос	-10.3709
▁использовани	-10.3711
▁возвращени	-10.3712
фим	-10.3713
▁СМ	-10.3713
▁назначени	-10.3713
▁мудр	-10.3714
▁буль	-10.3714
▁обсуждали	-10.3714
▁гер	-10.3715
▁рассчитыва	-10.3716
▁пиво	-10.3717
▁копе	-10.3718
▁руками	-10.3719
катер	-10.372
▁погод	-10.3722
хмат	-10.3723
иску	-10.3723
%-	-10.3724
▁поехал	-10.3724
▁Мас	-10.3726
▁миз	-10.3727
▁коробк	-10.3727
▁Меня	-10.3728
▁формирования	-10.3729
▁Чер	-10.3729
▁удивляет	-10.373
тизирова	-10.3733
▁запа	-10.3734
▁чел	-10.3735
▁советски	-10.3736
рга	-10.3736
▁повыша	-10.3737
вич	-10.3738
▁рассматривал	-10.3741
▁пед	-10.3743
пресси	-10.3744
▁1980	-10.3745
ИЩЕ	-10.3745
инам	-10.3747
▁Мото	-10.3749
▁появи	-10.3751
▁выгодн	-10.3751
медля	-10.3753
шены	-10.3754
▁предостав	-10.3754
реждени	-10.3755
▁злоб	-10.3756
осознанн	-10.3758
▁сообщения	-10.3759
ратар	-10.376
баров	-10.376
▁выну	-10.3761
огич	-10.3763
▁творчес	-10.3763
воню	-10.3763
илье	-10.3764
▁ипоте	-10.3764
▁Прош	-10.3764
▁текст	-10.3765
▁частей	-10.3765
▁дик	-10.3765
▁протест	-10.3765
▁священн	-10.3765
▁остановлен	-10.3765
▁анализ	-10.3765
▁волшеб	-10.3765
▁ремонт	-10.3765
▁реагирую	-10.3765
▁структура	-10.3765
▁❤	-10.3765
▁зла	-10.3765
▁свидетельств	-10.3765
ыкаю	-10.3765
▁коммент	-10.3766
▁компетен	-10.3766
▁близ	-10.3766
▁укра	-10.3766
▁хрон	-10.3767
▁Анна	-10.3767
▁оценит	-10.3768
▁ведущи	-10.3769
▁дебат	-10.377
мечательно	-10.3771
▁меха	-10.3771
▁губам	-10.3771
исты	-10.3772
▁Показ	-10.3776
▁ранены	-10.3777
▁сбер	-10.3778
склонн	-10.3778
▁радостно	-10.3779
▁Бас	-10.3779
НИМ	-10.378
▁имеющ	-10.3783
▁барн	-10.3784
луч	-10.3786
▁травм	-10.3787
▁игров	-10.3788
2/	-10.3789
ргие	-10.379
▁трудно	-10.3792
вском	-10.3795
▁сбега	-10.3797
▁самоубий	-10.3799
авите	-10.3802
▁отделени	-10.3803
▁доброт	-10.3805
▁материалы	-10.3805
туальны	-10.3806
нарушения	-10.3807
▁ранени	-10.3808
▁погибши	-10.3808
▁арх	-10.3809
▁накоп	-10.3809
сфер	-10.3811
▁объявил	-10.3811
тихо	-10.3812
▁рассказывал	-10.3812
лоп	-10.3812
▁Андрея	-10.3814
▁выпал	-10.3815
▁вытянут	-10.3815
хер	-10.3816
▁пер	-10.3816
ленн	-10.3818
▁Мин	-10.3819
▁блок	-10.3819
▁пло	-10.3821
▁Сме	-10.3822
▁нового	-10.3824
▁пределам	-10.3825
▁Пример	-10.3825
▁котен	-10.3826
▁ВК	-10.3827
▁прида	-10.3828
жают	-10.3828
▁Ген	-10.3829
▁кипя	-10.3831
▁грани	-10.3831
▁вправ	-10.3835
▁поб	-10.3837
▁вертолет	-10.3838
▁лже	-10.3838
уль	-10.3839
▁броне	-10.3841
▁уча	-10.3843
▁упра	-10.3846
0-	-10.3847
▁наполн	-10.3852
▁запре	-10.3853
▁доста	-10.3853
▁отказывает	-10.3855
довать	-10.3855
ешанн	-10.3857
▁наук	-10.3857
▁специал	-10.3859
▁живот	-10.3861
огуб	-10.3864
▁Пал	-10.3864
▁грунт	-10.3865
тираю	-10.3867
▁модел	-10.3867
значен	-10.3867
плеснул	-10.3869
рашн	-10.3871
волнова	-10.3871
льги	-10.3871
▁ручк	-10.3871
при	-10.3877
▁СУ	-10.3878
▁молча	-10.3878
зачат	-10.3879
▁бисквита	-10.388
▁армии	-10.388
▁спи	-10.3883
▁редк	-10.3886
▁подал	-10.3887
▁окружающ	-10.3888
▁подруг	-10.3895
▁десяти	-10.3896
зна	-10.3896
▁миним	-10.3898
▁традиция	-10.3901
ДЕ	-10.3901
▁реже	-10.3903
▁бля	-10.3903
▁личност	-10.3903
▁семейн	-10.3904
рды	-10.3904
▁достав	-10.3908
▁Рек	-10.3911
▁велико	-10.3911
▁запланирова	-10.3915
▁юб	-10.3915
ирования	-10.3925
▁движущ	-10.3926
▁30-	-10.3926
▁Дне	-10.3928
никам	-10.3929
▁выставк	-10.3931
ПОР	-10.3931
▁дев	-10.3938
вол	-10.3938
ссен	-10.3941
остоян	-10.3942
▁бежа	-10.3943
зат	-10.3945
личны	-10.3945
катал	-10.3947
рошенны	-10.3953
▁Але	-10.3954
▁книжк	-10.3955
▁поту	-10.396
▁лас	-10.3965
▁студ	-10.3965
▁град	-10.3965
▁обращ	-10.3966
▁чашк	-10.3968
▁интересов	-10.3972
урил	-10.3973
▁десят	-10.3976
▁диа	-10.398
едине	-10.3984
▁Хол	-10.3988
▁Шей	-10.399
▁Гош	-10.399
сади	-10.3991
гита	-10.3996
имает	-10.3997
ибир	-10.3997
▁государства	-10.4
ситет	-10.4001
▁хол	-10.4003
▁скуч	-10.4003
смотрел	-10.4004
▁идея	-10.4007
▁светло	-10.4016
▁установи	-10.4017
▁пада	-10.402
сона	-10.402
▁дина	-10.4021
▁двор	-10.403
▁произведения	-10.4037
▁насил	-10.4039
рина	-10.4041
удовлетворен	-10.4042
▁Мил	-10.4043
▁составил	-10.4047
▁Род	-10.4049
▁европейск	-10.405
▁интересно	-10.4051
полевы	-10.4056
▁поединк	-10.4058
▁наверн	-10.4058
▁покой	-10.4059
▁стира	-10.406
▁хер	-10.4062
дох	-10.4064
▁медвед	-10.4067
▁поставил	-10.4071
▁делает	-10.4075
ующие	-10.4077
▁сильне	-10.4079
▁кач	-10.4081
▁назвал	-10.4083
▁коммунистам	-10.4086
▁сердеч	-10.4088
rd	-10.4091
ожеств	-10.4095
▁мушк	-10.4096
▁Прох	-10.4098
▁воль	-10.41
▁веру	-10.41
▁случая	-10.4102
▁живет	-10.4107
▁писал	-10.4108
▁зачист	-10.4112
ляют	-10.4116
▁зависи	-10.4117
здо	-10.4119
▁создан	-10.4122
▁жди	-10.4123
▁завяза	-10.413
ятель	-10.413
▁Много	-10.4133
спомни	-10.4133
▁скромны	-10.4138
▁зрени	-10.4139
восток	-10.4141
гки	-10.4145
▁свал	-10.4147
итри	-10.4148
несенны	-10.4148
▁верхни	-10.4149
атор	-10.415
▁чае	-10.4153
▁оправда	-10.4154
▁20-	-10.4158
▁МЕ	-10.416
▁дог	-10.4162
▁море	-10.4167
▁рес	-10.4178
РБ	-10.418
▁вещани	-10.4181
▁упр	-10.4186
▁жир	-10.4191
▁Сот	-10.4192
▁выступаю	-10.4196
ственн	-10.42
▁ожидал	-10.42
▁сознание	-10.4204
НК	-10.4219
▁Иде	-10.4221
▁Официальны	-10.4222
▁утверждал	-10.4224
обра	-10.4224
▁развивае	-10.4224
▁мировом	-10.4225
▁интересн	-10.423
ивы	-10.4235
нски	-10.4236
▁купо	-10.4238
195	-10.4242
▁заливаю	-10.4246
сыпать	-10.4246
крыл	-10.4248
▁10-	-10.4259
▁Le	-10.4259
▁сокраща	-10.426
▁раскр	-10.4265
▁обор	-10.427
преж	-10.427
▁Заяв	-10.427
▁изде	-10.4272
▁ДЕ	-10.4278
ветки	-10.4282
▁неуда	-10.4283
▁Кир	-10.4289
▁Покаж	-10.4295
новным	-10.4295
▁тер	-10.4296
▁расч	-10.4297
▁бедны	-10.43
▁Польш	-10.4312
▁утрат	-10.4313
вого	-10.4324
емократическ	-10.4329
лами	-10.4339
▁связь	-10.4339
Нью	-10.4344
pr	-10.4345
▁ослаби	-10.4348
мывает	-10.435
лайн	-10.4353
▁подарк	-10.4359
▁мыш	-10.4372
тори	-10.4375
оставленны	-10.4377
олорад	-10.4378
▁отмени	-10.4389
▁ред	-10.439
▁Единств	-10.4418
▁недо	-10.4425
▁лак	-10.4427
▁вес	-10.4439
общения	-10.4451
▁жена	-10.4457
▁Кэ	-10.4458
ДН	-10.4462
ипер	-10.4463
▁века	-10.4467
▁иску	-10.4468
▁деш	-10.4471
▁появил	-10.4474
вице	-10.4476
▁уголко	-10.4483
▁Сообщ	-10.4498
иологическ	-10.4502
▁творит	-10.4504
цип	-10.4504
▁Эти	-10.451
▁доль	-10.4513
▁Пока	-10.4514
▁реч	-10.4522
▁похищенны	-10.4525
▁похищени	-10.4528
▁палестински	-10.4546
эш	-10.4547
▁фотка	-10.4548
ставших	-10.4552
▁остан	-10.4557
чей	-10.4562
▁показан	-10.4568
▁фи	-10.4581
ill	-10.4592
советск	-10.4595
тин	-10.4597
▁жду	-10.4603
▁зд	-10.4618
▁5-	-10.4622
▁друзьям	-10.4629
▁Известиям	-10.463
▁Веч	-10.4632
горю	-10.4638
ставил	-10.4638
▁проиграл	-10.4639
▁назва	-10.4641
▁распространени	-10.4643
▁настойк	-10.4651
33	-10.4661
▁перез	-10.4666
фотографир	-10.4688
▁ан	-10.4698
еньк	-10.4699
екс	-10.4708
шумер	-10.4709
ующи	-10.4722
злет	-10.4731
▁направлени	-10.4735
елен	-10.4738
ствовать	-10.4742
▁картинк	-10.475
▁окно	-10.4757
▁сравн	-10.4758
▁неверн	-10.477
верен	-10.4793
▁шоко	-10.4804
одним	-10.4825
вижу	-10.4828
агон	-10.4839
▁учил	-10.4839
отлож	-10.4846
аленьк	-10.4861
▁сос	-10.4878
51	-10.4881
▁мак	-10.4886
▁бабуш	-10.4923
рий	-10.4935
зно	-10.4938
▁Вор	-10.4953
to	-10.4953
▁решаю	-10.4956
дем	-10.4961
▁поездка	-10.4963
▁кло	-10.4977
▁свободно	-10.4997
каменно	-10.5001
▁Приготов	-10.5008
▁телеканала	-10.501
орож	-10.5036
▁Лев	-10.5038
снова	-10.5041
th	-10.5046
АСТВО	-10.5049
дума	-10.5057
очкам	-10.5059
▁дале	-10.5061
▁прогул	-10.5065
▁городски	-10.5073
ывают	-10.5074
пити	-10.5075
▁смаз	-10.5082
кобы	-10.5124
▁проща	-10.5126
очном	-10.5143
▁упо	-10.5156
атриот	-10.5157
генов	-10.5164
▁частот	-10.5171
▁передал	-10.5183
▁заключи	-10.5184
▁Павл	-10.5187
защитн	-10.5198
▁Волг	-10.5199
▁проб	-10.5203
▁заметил	-10.5203
▁Древни	-10.5214
крыва	-10.5216
▁доволь	-10.5234
▁справедливо	-10.5245
▁Америка	-10.5254
▁создава	-10.526
▁единственны	-10.5268
айка	-10.5285
▁яс	-10.529
веселы	-10.5295
щин	-10.5298
▁человечески	-10.5308
олба	-10.5318
▁Саши	-10.5319
ацию	-10.5321
ывал	-10.5325
вязан	-10.5327
▁опубликован	-10.5356
▁минист	-10.5356
▁официально	-10.5359
▁помн	-10.5364
▁организовал	-10.5364
ожить	-10.5372
ровала	-10.5379
▁техни	-10.5386
▁обня	-10.5397
коп	-10.5416
▁партиям	-10.5421
▁север	-10.5431
остн	-10.5444
▁Южны	-10.5444
больш	-10.5445
▁воспринимать	-10.5445
▁выполни	-10.5458
▁сон	-10.5477
шедше	-10.5532
▁матча	-10.5543
кушк	-10.5545
реческ	-10.5557
сосуд	-10.5557
▁выходя	-10.5562
▁беспокоит	-10.5563
▁называть	-10.5565
▁группиров	-10.5582
манов	-10.5592
▁Археологи	-10.5597
Mi	-10.5618
ующ	-10.5629
▁напряжен	-10.5632
валивает	-10.564
чистк	-10.5641
жалост	-10.5642
▁маска	-10.5651
▁Кот	-10.5655
▁нож	-10.5665
анным	-10.5668
еннисист	-10.5671
олот	-10.5674
▁ребенк	-10.5676
▁АП	-10.5687
▁сош	-10.5692
▁открыва	-10.5693
вши	-10.5698
▁ухо	-10.5699
▁ссыл	-10.5729
исков	-10.5745
грози	-10.575
▁китайски	-10.5802
▁дум	-10.5818
слыши	-10.5819
▁Запад	-10.5828
вом	-10.586
▁вар	-10.5864
▁вспом	-10.5874
▁Максим	-10.5878
▁Бад	-10.59
▁подходя	-10.5929
мысля	-10.5946
шир	-10.5952
340	-10.5957
ОД	-10.5979
▁Коб	-10.6
ложенны	-10.6002
▁дем	-10.6012
▁Горо	-10.6032
урна	-10.6039
дни	-10.6043
▁стрел	-10.6064
▁подари	-10.6069
ложен	-10.6078
▁случи	-10.6118
▁выясни	-10.6121
▁освои	-10.6128
верхност	-10.6157
▁поднимаю	-10.6158
▁объединить	-10.6163
▁всп	-10.6183
▁конкретны	-10.6187
▁замеча	-10.6202
Ага	-10.621
фь	-10.6232
▁лед	-10.6234
▁пальце	-10.6258
▁Лучши	-10.6267
▁государственны	-10.6297
транспорте	-10.6308
▁Ус	-10.6319
▁Первы	-10.6322
унда	-10.6324
▁ближайши	-10.6334
▁освобожден	-10.6357
▁жё	-10.6367
▁спо	-10.6373
жалел	-10.6389
▁сильн	-10.6391
▁единственно	-10.6394
▁единственн	-10.6405
клю	-10.645
▁играл	-10.645
ированны	-10.6455
змер	-10.6457
▁Красно	-10.6481
жек	-10.6516
▁превратили	-10.6534
▁подвод	-10.6554
▁упомина	-10.6558
▁ожива	-10.659
▁парня	-10.6638
ительност	-10.6676
▁вызвал	-10.6684
▁попытка	-10.6692
▁предлага	-10.6715
▁зелено	-10.6722
авит	-10.6727
▁встретил	-10.6735
▁Жириновском	-10.6758
ou	-10.6769
▁материально	-10.6804
ГОДН	-10.6816
▁нынешн	-10.6847
▁хр	-10.6848
▁смотрел	-10.6871
▁отправля	-10.6902
▁беседа	-10.6955
риг	-10.6975
леч	-10.6979
работал	-10.6979
ураль	-10.698
ЛИ	-10.7037
ow	-10.7059
ЧА	-10.7089
онец	-10.7172
▁Восточно	-10.7174
ёж	-10.7181
▁Суд	-10.7204
▁Марк	-10.7271
▁предпринимателе	-10.7281
ОЕ	-10.73
▁секретн	-10.7307
другом	-10.7308
do	-10.7314
ртик	-10.7317
▁строг	-10.732
кино	-10.7391
ческ	-10.7402
АЕТ	-10.7412
▁едино	-10.7444
10	-10.7454
▁ответа	-10.748
получ	-10.7485
вое	-10.7502
духовност	-10.7522
▁Новы	-10.7526
▁Прав	-10.7528
om	-10.7566
чудо	-10.7579
▁Приб	-10.7586
▁ходил	-10.7629
ильник	-10.7636
ЕВА	-10.765
oc	-10.7657
дебн	-10.7687
▁нарушен	-10.7695
ВАЛ	-10.7706
почем	-10.7771
ладель	-10.7772
▁капл	-10.7772
▁Зав	-10.7806
or	-10.7807
▁необходим	-10.7811
▁задержан	-10.7825
блюда	-10.7892
wa	-10.7901
▁взятк	-10.7912
ИТ	-10.793
▁причина	-10.7987
▁отлич	-10.804
▁буд	-10.809
▁ванн	-10.8101
▁отказали	-10.8109
ценю	-10.8118
▁матче	-10.814
ГОД	-10.8152
▁особ	-10.8159
вязанн	-10.8165
▁материальн	-10.8174
▁акк	-10.8182
▁Восточн	-10.8198
▁подар	-10.8224
летаю	-10.823
естр	-10.8279
▁зак	-10.8288
сегда	-10.8328
ёнк	-10.8357
▁подводн	-10.8479
▁ожив	-10.8488
▁жен	-10.851
ировала	-10.8521
▁кош	-10.8534
▁Красн	-10.854
▁новост	-10.8546
▁зелен	-10.8548
стречал	-10.855
йца	-10.8579
▁Подру	-10.8581
▁явк	-10.8587
▁ворова	-10.8594
▁мес	-10.868
▁освобожд	-10.8697
▁пожал	-10.8723
думы	-10.8749
▁транспорт	-10.8755
судом	-10.8808
ктив	-10.8828
уду	-10.883
могател	-10.8899
▁конкретн	-10.891
ничь	-10.899
майк	-10.8993
▁осво	-10.9029
▁Вол	-10.905
▁Ста	-10.9052
▁попытк	-10.9055
▁докт	-10.9074
▁широки	-10.9134
рывает	-10.9138
▁происхо	-10.9143
▁федеральн	-10.917
▁стил	-10.9229
▁появ	-10.9258
фра	-10.926
▁пальц	-10.9286
▁слыш	-10.93
стрелк	-10.9362
любите	-10.9418
▁продолжит	-10.9422
Западно	-10.9431
вяза	-10.9436
▁промышленн	-10.9448
▁водк	-10.9465
▁слож	-10.9479
▁ответит	-10.9481
009	-10.9512
разлуч	-10.9512
▁настоящ	-10.9538
сылк	-10.9556
силен	-10.9594
ИР	-10.9606
▁завед	-10.9613
▁леч	-10.9613
▁мини	-10.9623
пуск	-10.9663
прис	-10.9671
▁чувств	-10.9692
ic	-10.9713
▁развалив	-10.9721
▁открыв	-10.9755
пец	-10.9762
▁напряженн	-10.9786
▁собран	-10.9815
шедш	-10.9823
дор	-10.9841
▁иностранн	-10.9843
▁вып	-10.986
▁северн	-10.9888
Н	-10.9891
вел	-10.9924
сход	-10.996
▁выполн	-10.9969
чувству	-11.0029
▁уд	-11.008
▁официальн	-11.0088
▁опубликованн	-11.0092
крыт	-11.0098
▁человеческ	-11.0177
ВНИК	-11.019
еселы	-11.0192
▁предположи	-11.0203
▁товарищ	-11.0204
▁лучш	-11.0229
смерт	-11.0243
▁Америк	-11.0254
авари	-11.0264
▁справедлив	-11.0268
лечения	-11.0294
▁заключ	-11.0366
лучени	-11.0369
▁переч	-11.04
▁Патри	-11.0411
▁вооруженн	-11.0415
головно	-11.0438
▁научн	-11.0451
оночн	-11.0456
гляд	-11.046
▁известн	-11.05
▁уголовн	-11.0519
▁соответств	-11.0553
прогулк	-11.0565
ВО	-11.0575
СТВО	-11.0591
▁Остав	-11.0615
▁юг	-11.0634
▁сообщ	-11.0654
риготовлени	-11.0662
АН	-11.0694
▁бабл	-11.079
▁Новос	-11.0798
БР	-11.0799
▁выясн	-11.085
блема	-11.0869
▁обычн	-11.0897
кин	-11.0897
▁старател	-11.0908
красиво	-11.0926
▁пожарн	-11.0938
▁Фил	-11.1131
пала	-11.1138
РО	-11.116
▁выстав	-11.1165
рхеологическ	-11.1172
окажу	-11.1179
инали	-11.1184
▁добав	-11.1197
ИЕ	-11.1219
рослав	-11.1221
▁фотографи	-11.123
▁шум	-11.1241
яснил	-11.1267
пленны	-11.1273
il	-11.1274
▁проигра	-11.1321
подходящ	-11.1339
he	-11.1346
цвета	-11.1361
▁случа	-11.1372
▁следственн	-11.1384
назван	-11.1391
02	-11.1407
▁произо	-11.1422
ражени	-11.1485
▁уверенн	-11.1495
▁фотк	-11.1497
▁палестинск	-11.1509
003	-11.1572
▁прям	-11.1593
кусны	-11.1601
▁задум	-11.1618
▁захвати	-11.1627
держиваю	-11.1654
▁объедин	-11.1713
▁содерж	-11.1731
поставлен	-11.1831
разд	-11.1833
▁Бере	-11.1838
кончательн	-11.1853
▁БЛ	-11.1866
чаль	-11.1873
▁ослаб	-11.189
▁отмен	-11.192
97	-11.1939
соединил	-11.1957
▁проведе	-11.1983
атологи	-11.2003
понятн	-11.2009
зраильск	-11.2021
▁опасно	-11.2021
астер	-11.2059
просмотр	-11.2065
92	-11.2081
ага	-11.2101
шиб	-11.2135
▁развива	-11.2146
▁утвержда	-11.2147
▁Официальн	-11.2151
▁дове	-11.2152
сыпа	-11.2168
▁сознани	-11.219
▁девочк	-11.2212
▁сокращ	-11.2214
▁выступа	-11.2221
дарил	-11.223
З	-11.2245
правил	-11.2254
▁руководств	-11.2254
n	-11.2273
унк	-11.2273
марк	-11.2295
▁подобн	-11.2316
▁скромн	-11.2329
▁встрет	-11.234
▁оправд	-11.2345
▁худо	-11.2377
усе	-11.2383
▁действ	-11.2432
▁набра	-11.2435
ург	-11.2436
▁пользова	-11.2451
▁непос	-11.2451
▁попыт	-11.2454
ar	-11.2481
карел	-11.2481
▁завис	-11.2485
▁девоч	-11.2489
▁тяже	-11.2489
▁поедин	-11.2516
▁европей	-11.2523
▁выигр	-11.2534
▁удовлетвор	-11.2541
▁относ	-11.2545
апряг	-11.2548
▁произведени	-11.2551
▁Муж	-11.2552
▁бесплатн	-11.2595
▁обяза	-11.2599
▁выходн	-11.2601
▁государств	-11.2625
воритель	-11.2643
▁воспит	-11.2649
▁олимпи	-11.2655
скучн	-11.2661
иверси	-11.267
капа	-11.2685
▁меньш	-11.2706
98	-11.2721
mo	-11.2723
ращать	-11.2724
рошен	-11.2742
▁книж	-11.2749
терн	-11.2797
▁покуп	-11.28
▁зву	-11.2803
▁выбр	-11.2812
▁подвес	-11.2819
▁движу	-11.2827
ителям	-11.2831
▁возвра	-11.2837
опти	-11.2858
▁сотрудни	-11.2861
свободи	-11.2876
Ю	-11.2886
▁скаж	-11.2894
сур	-11.2901
разм	-11.2908
95	-11.2948
леснула	-11.295
▁девуш	-11.2951
▁Мар	-11.2952
▁окружаю	-11.2954
▁300	-11.2955
лезно	-11.2956
МЕН	-11.2963
▁подпис	-11.2964
бычно	-11.2982
удрост	-11.3
▁распростран	-11.3006
лучши	-11.3008
▁подготов	-11.3014
▁изменен	-11.3015
ресе	-11.3015
▁зуб	-11.3018
▁брон	-11.3019
▁гран	-11.3025
▁настроен	-11.3029
...	-11.303
▁руч	-11.3036
▁паль	-11.3056
▁предела	-11.306
тянуты	-11.3062
▁рассказыва	-11.3069
▁развед	-11.307
▁палестинц	-11.307
▁объяви	-11.3071
сматривает	-11.3073
емейны	-11.3075
▁образова	-11.3085
ca	-11.3097
бор	-11.3102
▁обеспечен	-11.3118
▁держ	-11.3134
▁наибол	-11.3136
тракто	-11.3142
говор	-11.3144
оцени	-11.3152
есплатны	-11.3153
▁поздравл	-11.3153
видн	-11.3164
▁Приме	-11.317
зелено	-11.3174
интересов	-11.3179
апретит	-11.318
блок	-11.318
интересно	-11.3181
победи	-11.3181
свидетельств	-11.3182
волшеб	-11.3182
структура	-11.3182
ремонт	-11.3182
❤	-11.3182
компетен	-11.3182
остановлен	-11.3182
реагирую	-11.3182
ведущи	-11.3182
священн	-11.3182
Анна	-11.3182
анализ	-11.3182
хрон	-11.3183
радостно	-11.3184
одно	-11.3189
ипоте	-11.3189
известн	-11.3189
ранены	-11.319
существ	-11.319
протест	-11.319
▁внешн	-11.3192
▁осозна	-11.3199
слуша	-11.32
прома	-11.32
веден	-11.3201
образован	-11.3204
польз	-11.3204
▁убейд	-11.3207
ставляют	-11.3208
▁ислам	-11.3213
опыт	-11.3214
коммент	-11.3215
ахар	-11.3218
террористическ	-11.3221
раствор	-11.3221
достойны	-11.3221
нормальн	-11.3222
ангар	-11.3222
меха	-11.3224
памят	-11.3225
РАН	-11.3227
коалици	-11.3227
▁выгод	-11.323
местно	-11.323
текст	-11.323
Щ	-11.3231
▁Росси	-11.3231
проб	-11.3235
устал	-11.3237
завтра	-11.3238
A	-11.3238
V	-11.3238
принято	-11.3238
способ	-11.3239
отношени	-11.3239
факт	-11.3239
режде	-11.324
▁участв	-11.3241
скажу	-11.3244
памятник	-11.3245
близ	-11.3245
усили	-11.3246
русски	-11.3247
производств	-11.3248
▁повыш	-11.3249
сайт	-11.325
принцип	-11.325
команд	-11.325
встреч	-11.3253
равно	-11.3253
I	-11.3255
вид	-11.3255
Ш	-11.3255
земле	-11.3257
политик	-11.3261
миллион	-11.3262
гуля	-11.3263
мозг	-11.3265
выбор	-11.3269
президент	-11.3269
печ	-11.3272
прост	-11.3274
кновен	-11.3275
хорош	-11.3275
▁полез	-11.3276
деньг	-11.3279
парти	-11.3279
ЖИ	-11.328
боле	-11.3281
(	-11.3281
глав	-11.3286
▁ВМЕ	-11.3287
▁жизн	-11.3289
▁чаш	-11.3289
компани	-11.3291
▁использова	-11.3291
▁обеспеч	-11.3297
доль	-11.3297
слу	-11.3298
ступил	-11.3302
движ	-11.3303
36	-11.3308
18	-11.3316
оцвет	-11.3319
конечно	-11.332
▁помощ	-11.3323
занима	-11.3324
сама	-11.3324
▁губ	-11.3331
▁сущност	-11.3338
▁угол	-11.3341
15	-11.3355
пред	-11.336
▁пилот	-11.3364
требов	-11.3365
▁короб	-11.3369
▁привлечен	-11.3369
родолжай	-11.3378
ерхни	-11.3379
▁заболевани	-11.3379
вещ	-11.338
▁элегантн	-11.3383
▁Хадж	-11.3385
▁победит	-11.3386
▁разреш	-11.3386
алкива	-11.3388
ce	-11.3389
плат	-11.3393
▁поможе	-11.3396
▁сцен	-11.3398
НЯ	-11.3404
лестн	-11.3407
▁подчеркну	-11.3408
етеран	-11.3408
▁глу	-11.3409
▁тяжел	-11.3412
ЗН	-11.3415
▁Путе	-11.3418
▁Бесс	-11.3419
зменил	-11.3419
творчес	-11.342
кипе	-11.342
тифика	-11.3423
запад	-11.3423
сточник	-11.3423
нятн	-11.3428
ожь	-11.3432
ропаганд	-11.3434
▁рассчит	-11.344
f	-11.359
z	-11.3597
🎄	-11.3598
'	-11.3598
<	-11.3598
G	-11.3598
K	-11.3598
U	-11.3598
W	-11.3598
X	-11.3598
\	-11.3598
j	-11.3598
©	-11.3598
☝	-11.3598
♥	-11.3598
✔	-11.3598
❄	-11.3598
🌼	-11.3598
🍫	-11.3598
🍰	-11.3598
🍷	-11.3598
🎂	-11.3598
🎵	-11.3598
🐩	-11.3598
👶	-11.3598
👼	-11.3598
💜	-11.3598
💪	-11.3598
📌	-11.3598
🔥	-11.3598
😃	-11.3598
😉	-11.3598
😊	-11.3598
😌	-11.3598
😹	-11.3598
😺	-11.3598
😻	-11.3598
🙀	-11.3598
🙈	-11.3598
🤩	-11.3598
J	-11.3598
📚	-12.6661
😸	-12.6662
😍	-12.6663
Y	-12.6664
F	-12.6665
]	-12.6666
+	-12.6667
v	-12.6668
ъ	-12.6669
Э	-12.667
=	-12.6671
#	-12.6672
?	-12.6673
щ	-12.6674
П	-12.6675
"	-12.6676
x	-12.6677
