<unk>	0
<s>	0
</s>	0
▁	-2.25208
.	-2.95074
t	-3.21127
n	-3.71455
s	-3.91184
,	-4.00909
▁ja	-4.00943
i	-4.23529
▁lea	-4.39274
e	-4.49144
a	-4.67187
in	-4.69113
▁leat	-4.79274
it	-4.83226
▁go	-4.98989
id	-4.99433
á	-5.02139
ii	-5.09071
o	-5.20206
at	-5.33209
?	-5.41019
▁lei	-5.43961
u	-5.57695
ahte	-5.6476
š	-5.69934
-	-5.73062
▁ledje	-5.79279
▁maid	-5.83045
▁ii	-5.83713
án	-5.83987
an	-5.8939
d	-5.91625
▁dan	-5.93144
go	-5.98381
▁de	-6.03108
▁So	-6.03742
et	-6.08419
is	-6.1168
!	-6.12819
▁sámi	-6.15523
mii	-6.16744
▁Mun	-6.19266
▁gal	-6.25831
ái	-6.28039
▁su	-6.30363
ge	-6.31655
▁Dat	-6.33601
▁dat	-6.33808
son	-6.34703
▁b	-6.35002
edje	-6.35736
▁muht	-6.37327
as	-6.3748
ui	-6.42487
▁mielde	-6.44844
▁Ja	-6.45172
▁M	-6.46197
▁eai	-6.48555
▁Dá	-6.48574
▁birra	-6.48975
▁ollu	-6.49253
laš	-6.54505
▁galg	-6.54707
_	-6.5518
▁nu	-6.56081
iid	-6.59712
hta	-6.61287
▁lean	-6.61799
▁mu	-6.62308
▁D	-6.63588
je	-6.65249
▁dán	-6.65378
ba	-6.66788
:	-6.6682
▁sáhttá	-6.69829
▁jagi	-6.71969
ga	-6.72335
on	-6.73891
▁dah	-6.78345
▁buo	-6.78379
▁dá	-6.78641
▁dušš	-6.78708
▁S	-6.79043
▁mun	-6.79931
▁Lea	-6.80039
▁olbmo	-6.81164
čča	-6.84686
▁maiddá	-6.86012
▁Ii	-6.86443
▁do	-6.87971
us	-6.88835
▁iežas	-6.91198
ppe	-6.91649
▁sii	-6.92765
▁l	-6.92878
▁B	-6.92987
▁dál	-6.93044
▁Sii	-6.93476
iin	-6.93506
▁Muht	-6.94248
l	-6.94278
ma	-6.943
▁eará	-6.96192
▁d	-6.98555
de	-6.98613
▁Go	-7.01492
ut	-7.03989
jit	-7.04968
▁ge	-7.05297
▁máná	-7.0761
▁boahtá	-7.09182
▁du	-7.09951
▁ođđa	-7.10424
▁sámegiela	-7.14463
▁ožžo	-7.17085
▁ovdal	-7.17141
ide	-7.17423
▁skuvlla	-7.18968
▁Dan	-7.19603
gui	-7.20374
▁De	-7.20632
▁unn	-7.20972
▁O	-7.20991
▁vai	-7.21292
▁min	-7.23154
▁geat	-7.23818
▁leamaš	-7.25599
▁guokte	-7.25653
▁Sámedikki	-7.28089
es	-7.28212
▁bohte	-7.30306
ođii	-7.30554
h	-7.30612
▁Sámi	-7.30691
▁Kárášjoga	-7.30881
▁m	-7.30988
▁sin	-7.31389
gu	-7.31991
▁o	-7.32689
▁Mi	-7.32864
▁dearvvašvuođa	-7.33056
▁s	-7.34058
▁skuvla	-7.3419
▁gaskka	-7.34341
os	-7.34789
▁vel	-7.34979
▁munnje	-7.34999
▁Soai	-7.35583
aš	-7.36403
▁V	-7.3643
▁hui	-7.36969
▁ášši	-7.38024
▁Do	-7.3804
mis	-7.38582
▁galge	-7.38926
;	-7.39901
▁internáhtta	-7.41655
da	-7.42096
▁Finnmárkku	-7.42183
▁dahka	-7.42476
uin	-7.42517
sa	-7.42605
▁g	-7.44926
34	-7.45164
▁okta	-7.45468
▁vuo	-7.45548
▁fas	-7.45708
▁mánáid	-7.45768
▁das	-7.46381
▁E	-7.47331
▁r	-7.47538
▁rá	-7.47575
▁juo	-7.47715
▁manna	-7.48448
▁Sámedigg	-7.4953
hkii	-7.50079
▁daid	-7.50115
#	-7.50719
&	-7.50719
▁dakkár	-7.5077
▁orro	-7.51047
▁eanet	-7.5158
▁ferte	-7.52292
alle	-7.52423
▁buorr	-7.5249
▁barg	-7.52635
llii	-7.53305
don	-7.53905
uvvo	-7.54229
lusa	-7.54634
▁mat	-7.54663
▁ere	-7.547
r	-7.55166
▁guovllu	-7.55355
▁ieža	-7.55398
▁Dál	-7.55571
aid	-7.55765
ot	-7.56249
▁oažžu	-7.56734
▁gitta	-7.56757
▁Guovdageainnu	-7.57129
ve	-7.58113
▁jo	-7.58807
na	-7.59195
▁oahpaheaddji	-7.59718
vuođa	-7.60169
▁ovddas	-7.6086
▁dábála	-7.61362
▁mi	-7.6142
▁šadd	-7.61437
▁ovttas	-7.62799
▁vuosttaš	-7.62863
▁Liná	-7.6287
▁juohke	-7.63033
▁muhtun	-7.63105
mi	-7.63157
▁stuora	-7.63267
igu	-7.63289
▁Maid	-7.63297
▁stáhta	-7.63496
▁G	-7.63803
gas	-7.64226
▁barggu	-7.64535
▁Norgga	-7.65368
▁mo	-7.67441
▁eana	-7.67553
▁Á	-7.67819
▁vuostá	-7.68987
▁Biret	-7.69532
▁seamma	-7.69544
▁galgga	-7.70066
▁manai	-7.70086
▁duo	-7.70098
ege	-7.70281
▁miel	-7.70434
j	-7.70887
nje	-7.71119
▁Mus	-7.72102
ahtti	-7.72481
v	-7.7315
ja	-7.73394
▁geavah	-7.73819
ain	-7.73958
▁girjji	-7.74458
saš	-7.7467
▁Ea	-7.75962
▁sihk	-7.76095
▁ovtta	-7.76274
inna	-7.76382
▁Romssa	-7.76662
▁Ipmil	-7.76662
▁sierra	-7.76673
▁makkár	-7.76696
ai	-7.76962
▁maŋŋá	-7.77239
▁šat	-7.77329
min	-7.77398
▁gii	-7.77643
▁internáhta	-7.78432
beaivvi	-7.79437
uid	-7.80031
▁A	-7.81706
lle	-7.82009
▁Mo	-7.82145
▁ek	-7.82542
▁nuppi	-7.83047
▁skuvllas	-7.84137
▁álo	-7.84491
g	-7.8468
▁da	-7.84773
▁oktii	-7.84797
▁Le	-7.84862
▁áiggi	-7.85961
la	-7.86292
▁bear	-7.86654
▁olbmuid	-7.8679
▁L	-7.87053
▁vuoigatvuođa	-7.87067
▁Mu	-7.87551
▁boahti	-7.87669
▁ráj	-7.87838
dje	-7.87871
▁sáhtte	-7.88435
▁gos	-7.90621
▁mearrid	-7.90754
Finnmárkkuopmoda	-7.91109
lu	-7.91623
▁j	-7.91989
▁sis	-7.91998
▁olmmoš	-7.92688
▁bures	-7.92709
▁dás	-7.92962
▁boazodoalu	-7.92987
lágan	-7.93271
▁Máná	-7.93901
▁dohk	-7.9483
▁R	-7.94902
hte	-7.95598
▁áigge	-7.95799
▁dieđu	-7.96485
il	-7.96738
▁dárbbaš	-7.96958
▁orru	-7.98398
mus	-7.98733
▁Ollu	-7.98748
▁man	-7.9882
▁Buo	-7.99142
eapm	-7.99314
dne	-7.99732
▁bo	-8.00089
▁so	-8.00869
me	-8.00915
▁vu	-8.01194
okte	-8.01206
(	-8.01778
)	-8.01778
▁Juohke	-8.01782
▁áigu	-8.01932
▁stuorra	-8.01962
▁váldi	-8.01971
▁guhte	-8.01993
▁Nu	-8.02111
▁Das	-8.02126
▁oktavuođa	-8.02262
▁oaidná	-8.02392
▁bidja	-8.02396
▁dalle	-8.0283
▁guhká	-8.03207
▁há	-8.03302
k	-8.03493
▁Gal	-8.03722
▁mann	-8.03916
ojuvvo	-8.04193
▁šatta	-8.04745
dde	-8.05057
dego	-8.05224
▁várr	-8.05434
álaš	-8.0578
▁bukt	-8.06152
▁eam	-8.06739
▁gá	-8.06932
▁sáht	-8.07251
▁mas	-8.07922
3	-8.08365
▁fága	-8.08874
láhka	-8.08906
▁nama	-8.09171
▁geahčča	-8.09221
▁Al	-8.09731
▁gaska	-8.09878
▁dii	-8.10205
▁vuolg	-8.10367
đa	-8.10437
bbo	-8.10481
oai	-8.10538
▁láhka	-8.10745
bu	-8.10995
▁vejolaš	-8.11085
llu	-8.11102
▁oahppi	-8.11272
lačča	-8.11395
▁erenoamá	-8.11784
▁ieš	-8.11804
▁vaikko	-8.11841
▁vuođu	-8.11911
▁movt	-8.12114
▁ovddid	-8.12246
▁oasti	-8.12253
un	-8.12618
▁nubbi	-8.12916
▁mearrádusa	-8.12959
▁K	-8.13144
ži	-8.13154
eami	-8.13304
át	-8.13416
▁maŋŋel	-8.13756
▁In	-8.1387
uhtte	-8.13871
▁buoremus	-8.14311
▁golmma	-8.14569
dda	-8.14977
▁Da	-8.15327
alaš	-8.15663
▁sámiid	-8.1568
▁dáid	-8.15756
▁Dii	-8.161
▁áššiid	-8.16213
▁din	-8.16486
kki	-8.16816
juvvo	-8.16977
▁historjjá	-8.17669
▁bargu	-8.17982
sii	-8.18426
ejuvvo	-8.19362
▁namma	-8.19425
▁čállá	-8.19564
▁olle	-8.19627
▁Man	-8.19753
▁dus	-8.20043
▁oahpp	-8.20087
▁nieidda	-8.20161
▁oaidni	-8.20631
▁dárogiela	-8.20998
▁barga	-8.2111
m	-8.21393
▁J	-8.21616
▁I	-8.21909
▁váttis	-8.22329
ike	-8.22758
▁Oslo	-8.22891
▁Máhtte	-8.22904
▁boađ	-8.22919
▁golbma	-8.23092
▁sá	-8.23394
▁stálu	-8.23525
jiide	-8.2381
▁čađa	-8.23883
▁ea	-8.24101
gá	-8.24455
mat	-8.24507
guovtto	-8.24668
▁čálli	-8.24675
žž	-8.24808
00	-8.24858
ddi	-8.24926
▁bártni	-8.25114
▁áiggu	-8.2538
▁diht	-8.25427
▁olggo	-8.25551
▁láv	-8.25985
▁moai	-8.26393
▁lullisámi	-8.26424
▁N	-8.26503
▁bargga	-8.26595
▁doaimma	-8.26856
kte	-8.26905
▁sull	-8.27113
▁skuvl	-8.27355
▁die	-8.27602
di	-8.2775
▁luonddu	-8.27941
skuvlla	-8.28297
miid	-8.29817
▁gu	-8.30053
0	-8.30724
▁guhk	-8.3078
abas	-8.31222
áiggi	-8.31881
▁váld	-8.32259
barggu	-8.32412
▁reiv	-8.32442
▁P	-8.3264
▁gea	-8.32711
logu	-8.32808
gat	-8.33275
▁álg	-8.33647
▁19	-8.34012
en	-8.34083
pmi	-8.34199
▁meahcc	-8.34369
▁máksi	-8.34579
▁Na	-8.34721
▁mieht	-8.34967
gis	-8.34997
▁máŋg	-8.35168
▁kultur	-8.35294
▁Sápmelačča	-8.35389
▁boaittobeal	-8.35412
▁Mánná	-8.35439
▁Tom	-8.35458
▁dávj	-8.35504
▁sosiála	-8.3577
ne	-8.35882
keahttá	-8.36068
▁čielga	-8.36072
▁adnojuvvo	-8.3611
▁lahka	-8.36374
▁kultuvrra	-8.3638
▁gávtti	-8.36409
le	-8.36759
▁jahkása	-8.36771
▁soai	-8.37081
▁Muhtum	-8.37202
▁Sus	-8.37302
▁oidne	-8.37421
▁eatnama	-8.37548
▁Olbmo	-8.37616
▁gili	-8.37826
or	-8.38348
▁bi	-8.39857
gga	-8.40045
dni	-8.40123
▁oahppan	-8.40483
ka	-8.41296
usa	-8.41639
▁vár	-8.41795
dái	-8.41806
▁giela	-8.41839
▁moa	-8.42199
▁gusto	-8.42231
miin	-8.42324
▁livčč	-8.4233
beht	-8.4286
te	-8.43256
aga	-8.43357
▁gieldda	-8.43649
▁oktag	-8.43847
vu	-8.43905
siid	-8.4432
ás	-8.44745
▁Bu	-8.44784
pmá	-8.44848
▁šadda	-8.45292
▁muital	-8.45499
ku	-8.47125
lit	-8.47148
▁nuora	-8.47152
al	-8.47301
▁lohka	-8.47583
ohko	-8.47749
▁sápmelačča	-8.47918
▁gull	-8.48012
▁ru	-8.48241
▁ohc	-8.48308
er	-8.48362
▁ruhta	-8.48364
▁árvvoštalla	-8.48423
▁Du	-8.48502
▁olbmui	-8.48634
ehpet	-8.48947
đui	-8.48989
▁Gu	-8.49565
–	-8.49675
▁Pippi	-8.49675
▁ovddasvástádus	-8.49675
▁sihkkarast	-8.49675
▁vulggii	-8.49675
▁buohccedivššár	-8.49683
▁fertii	-8.49695
▁vihtta	-8.49699
▁eat	-8.49739
▁Nieidda	-8.49748
▁maŋimu	-8.49782
met	-8.4979
▁oppa	-8.49791
▁čuovgga	-8.49813
▁njeallj	-8.49829
▁U	-8.50022
▁gille	-8.50254
tui	-8.50303
▁Doai	-8.50338
álačča	-8.50438
▁danne	-8.50585
▁Deanu	-8.50591
▁dáhpáhuvv	-8.50642
▁deattuh	-8.50724
▁gáhkuid	-8.50771
▁lokte	-8.50982
▁lanja	-8.51171
▁mánná	-8.5128
▁beasa	-8.51376
▁luo	-8.51492
▁oahpahusa	-8.5158
▁máŋgga	-8.51645
▁livčče	-8.52042
▁sisa	-8.52046
▁muitala	-8.52463
beali	-8.52546
▁lága	-8.52567
ža	-8.5315
▁sávzza	-8.5342
▁dili	-8.5377
▁vuoigatvuo	-8.53977
dasa	-8.54206
áhka	-8.5495
htii	-8.54965
▁f	-8.54969
▁v	-8.55005
▁divššohasa	-8.55265
vvon	-8.55315
▁gávdno	-8.55406
▁riekt	-8.55407
▁Gea	-8.55502
▁viesu	-8.55526
▁váldá	-8.55762
▁dadj	-8.56006
▁sut	-8.56048
liid	-8.56338
daga	-8.56641
▁gávdn	-8.56815
▁Eat	-8.58229
vaš	-8.58369
lohká	-8.5874
▁20	-8.59027
▁háliid	-8.59333
skuvllas	-8.59364
▁báikk	-8.59844
▁bukte	-8.60346
illi	-8.60683
ta	-8.60818
▁danin	-8.60837
▁sáme	-8.61193
▁ruvnn	-8.61218
vuo	-8.61625
▁manne	-8.61779
▁oa	-8.6206
▁ráhkadi	-8.62293
▁atn	-8.62945
▁le	-8.62955
▁geavahi	-8.63012
▁ol	-8.63114
▁Kárášjo	-8.63497
▁álge	-8.63499
▁hea	-8.63556
idda	-8.63887
▁seammá	-8.64454
▁di	-8.64538
▁dálá	-8.64993
ras	-8.65268
▁ean	-8.65505
dat	-8.65671
anvuoigatvuođa	-8.65956
▁biilla	-8.66025
▁buohka	-8.66043
▁add	-8.66317
▁Áddjá	-8.66341
▁guorahalla	-8.66342
▁smávva	-8.66342
▁Ruoŧa	-8.66343
▁Jesus	-8.66344
▁berre	-8.66346
▁čáppa	-8.6635
▁bahá	-8.66353
▁jiena	-8.66354
▁dákkár	-8.66375
▁Por	-8.66378
▁Hearrá	-8.66392
▁Ráđđehus	-8.66392
▁filmma	-8.66393
▁gearga	-8.66422
▁garra	-8.6643
▁suohtas	-8.66438
gelbbolašvuo	-8.66449
▁oasi	-8.66517
tiin	-8.66558
▁čohkká	-8.66732
▁oassi	-8.66747
b	-8.66826
▁mana	-8.66843
▁álbmoga	-8.66862
▁orui	-8.66955
▁dadja	-8.66956
áŋggu	-8.67128
▁luohká	-8.67286
▁goass	-8.67318
sta	-8.67433
▁ráđđe	-8.67457
▁Internáhtta	-8.67633
▁12	-8.67644
▁meahcce	-8.67761
▁diibm	-8.6781
▁dut	-8.67853
▁láve	-8.67877
▁muitt	-8.67974
▁váhnem	-8.68046
▁geasse	-8.68275
lohku	-8.68328
▁geain	-8.68426
men	-8.68631
▁liiko	-8.68667
▁meara	-8.68856
▁lohkan	-8.68942
▁Lá	-8.68985
ea	-8.69024
▁doar	-8.6926
f	-8.69407
▁dovde	-8.69446
▁guovddáš	-8.69537
▁ulbmil	-8.69681
▁journála	-8.69724
▁internáhtt	-8.69839
▁stuorá	-8.69899
amas	-8.70005
▁dakk	-8.70136
ama	-8.7045
▁vi	-8.70471
▁vara	-8.70492
▁giella	-8.71111
ppa	-8.71224
▁čuo	-8.71241
▁Stáll	-8.71653
▁bohcco	-8.71729
▁álgo	-8.71738
▁dilálašvuođa	-8.72239
▁Juo	-8.72394
▁č	-8.72437
▁Mann	-8.72561
▁vá	-8.72623
▁viss	-8.72971
▁suohkana	-8.73033
▁Boađ	-8.73098
▁dain	-8.73124
▁doaimmaid	-8.73336
kán	-8.73526
eaddji	-8.73527
iga	-8.73541
▁veahk	-8.73746
heasta	-8.73948
issui	-8.74057
▁fertej	-8.74163
▁oktan	-8.74307
▁guhki	-8.74333
đii	-8.74561
dus	-8.74592
▁oassálasti	-8.74923
ivrras	-8.75053
▁Sp	-8.7514
tta	-8.7522
▁máks	-8.75404
ke	-8.75629
▁čađah	-8.75683
det	-8.75913
vva	-8.76113
▁bu	-8.7612
lui	-8.76243
riekt	-8.76335
doaimma	-8.76513
▁gáibid	-8.7669
eadni	-8.76707
emiin	-8.77177
vái	-8.77419
▁bivdi	-8.77489
▁Eana	-8.7758
▁čáll	-8.77927
▁buore	-8.7827
hpa	-8.78451
nsen	-8.7868
oahpaheaddji	-8.79081
▁čeahp	-8.79132
▁Ánd	-8.79288
ŋa	-8.79386
si	-8.79439
▁váikkuhi	-8.79603
▁goar	-8.79939
▁vázzi	-8.80136
▁spá	-8.80145
▁unnit	-8.80184
▁klássalanja	-8.80277
gođii	-8.80727
▁ruovttus	-8.81074
▁boast	-8.81505
▁njuolggadusa	-8.81534
lot	-8.81774
husa	-8.81935
dan	-8.82011
innii	-8.82179
▁Galg	-8.82281
lde	-8.82518
aba	-8.82643
re	-8.82715
▁maŋŋ	-8.83352
diht	-8.83423
▁F	-8.83835
▁ásah	-8.83959
kti	-8.84
okto	-8.84111
áš	-8.84187
idis	-8.84707
▁gáhku	-8.84829
du	-8.84922
▁dehála	-8.85094
lá	-8.85098
▁Bi	-8.85472
▁bál	-8.85886
▁geava	-8.85908
▁nuoraid	-8.8607
alačča	-8.86106
▁njuolg	-8.86159
▁fylkka	-8.8623
lávdego	-8.86262
▁geahčč	-8.86289
▁universitehta	-8.86341
▁jienastuslogu	-8.86341
▁ustib	-8.86343
▁Álttá	-8.86343
▁Stuorra	-8.86344
▁bálkest	-8.86345
▁viellja	-8.86346
▁Stáhta	-8.86355
▁veahkeh	-8.86355
▁uksa	-8.86366
▁besse	-8.86368
▁viežž	-8.86378
▁náital	-8.86385
▁lohp	-8.864
▁dađi	-8.8642
▁nuorra	-8.86472
▁ráhkaduvvo	-8.86499
▁Tur	-8.86516
▁ovttasbarggu	-8.86544
▁riikkaid	-8.86662
▁juogad	-8.8668
lobi	-8.86733
▁duohta	-8.86799
▁almmolaš	-8.86822
tet	-8.86849
lin	-8.86869
▁Áigg	-8.87047
▁oro	-8.87051
▁Gár	-8.87214
▁ovdan	-8.87286
▁duhta	-8.87309
▁diev	-8.87443
httá	-8.87516
oh	-8.87563
▁Máre	-8.87631
▁Ju	-8.87648
▁uhcc	-8.87702
▁ohppiid	-8.87717
▁juolgg	-8.87762
▁mearriduvvo	-8.87799
giella	-8.879
igga	-8.87954
▁nanne	-8.87981
tti	-8.88228
▁vázze	-8.88253
▁dárbbaša	-8.88273
▁heait	-8.88315
ár	-8.8834
▁máhtte	-8.88414
easkka	-8.88451
▁Jos	-8.88556
▁Leat	-8.88641
▁bivd	-8.88721
▁Nil	-8.88741
dáf	-8.88799
▁oidno	-8.89015
▁gáf	-8.89056
▁váccii	-8.89131
▁eatnami	-8.89269
hki	-8.89287
▁duddjo	-8.89297
▁Heast	-8.89297
▁dárb	-8.89623
▁dáhpáhuva	-8.89816
▁bargojoavk	-8.89939
▁vugii	-8.8997
▁oahppa	-8.90078
▁gáibádusa	-8.90115
hken	-8.90174
▁guv	-8.90371
▁viess	-8.90897
▁ruovttusiid	-8.90985
▁masa	-8.91342
▁ráhkad	-8.91375
▁čilge	-8.9148
▁guovtti	-8.91553
▁Ean	-8.91757
▁doaibma	-8.91863
▁nissona	-8.91917
▁oađđi	-8.9201
huvvo	-8.92036
▁ruo	-8.92204
rrái	-8.92224
▁Gii	-8.92262
ala	-8.92369
dá	-8.92778
▁beroštumi	-8.92927
▁Maŋŋ	-8.92928
▁stá	-8.9306
▁mie	-8.93184
vtta	-8.93642
ra	-8.9365
hto	-8.93717
lmmas	-8.93736
▁olbmá	-8.93846
▁laga	-8.93965
▁dovdda	-8.94046
▁jávka	-8.94101
▁He	-8.94139
jo	-8.9425
▁organisašuvnna	-8.94278
▁fá	-8.9443
▁jurddaš	-8.9483
▁Nupp	-8.95051
▁dahke	-8.95207
▁hár	-8.9523
▁šiehtadus	-8.95523
hčči	-8.95565
▁nj	-8.95737
▁dálu	-8.95849
▁vállje	-8.96065
▁váldo	-8.96319
▁guhkk	-8.96417
jiid	-8.96972
1	-8.97096
▁láhtt	-8.97125
stii	-8.97405
am	-8.97465
plána	-8.97667
▁ro	-8.97744
▁h	-8.97823
goahtá	-8.97993
hii	-8.98215
5	-8.98278
▁čájeh	-8.98447
▁addi	-8.9851
▁Guovddá	-8.98571
vačča	-8.9874
▁gustoj	-8.9876
mušaid	-8.98812
▁riegád	-8.98842
šil	-8.98939
▁šadde	-8.99255
ahpaheaddji	-8.9928
▁gearddi	-8.99291
las	-8.99316
šše	-8.99322
▁oainná	-8.99515
ena	-8.99716
mu	-8.99748
▁Mis	-8.99845
ahkki	-8.99925
▁boahtte	-8.99973
▁vuoit	-8.99977
dii	-8.99984
▁saji	-9.00564
eatnamiid	-9.00638
▁muorra	-9.00673
ha	-9.00848
▁Mana	-9.00978
rut	-9.01037
girjji	-9.01246
Norgga	-9.01283
avi	-9.01471
pa	-9.0151
▁vuolgá	-9.01525
vvi	-9.01656
ttii	-9.01863
▁geatnegasvuo	-9.02094
hat	-9.02137
áhkis	-9.02263
▁Boađá	-9.02301
▁Die	-9.0233
vuoigatvuo	-9.02577
y	-9.03098
dilálašvuođa	-9.03182
▁áig	-9.03233
mmá	-9.03331
▁ald	-9.03551
ahká	-9.03578
viesu	-9.03649
▁doala	-9.03657
sit	-9.03708
jus	-9.03852
▁buori	-9.0392
▁eatnamiid	-9.04173
sse	-9.04355
đe	-9.044
ri	-9.04557
▁rádj	-9.04957
olaš	-9.05152
▁just	-9.05456
▁boazodoallo	-9.05459
▁ruovttu	-9.05642
▁čuovvu	-9.0574
▁gohčod	-9.05877
▁deaivvad	-9.05949
gi	-9.05954
▁re	-9.06005
▁Su	-9.06008
▁stuor	-9.06028
▁beroš	-9.06054
▁gie	-9.06157
ká	-9.06162
▁fitn	-9.0636
▁nuppástu	-9.06451
ige	-9.06619
▁doaimmai	-9.0669
imus	-9.06776
▁jus	-9.0691
oahpu	-9.06925
▁eall	-9.06947
hka	-9.07102
▁muhtum	-9.07372
▁Vuoig	-9.07396
▁badjel	-9.07477
jagi	-9.0753
▁dieđ	-9.07625
▁plána	-9.07688
▁geahča	-9.08081
▁boar	-9.08389
nna	-9.08441
▁soa	-9.08494
▁sk	-9.08623
▁liegga	-9.08743
▁áhči	-9.08784
doalu	-9.08937
vuogi	-9.09057
▁eane	-9.09097
akka	-9.09521
etne	-9.09574
▁oahpaha	-9.09614
já	-9.09746
uoraid	-9.09897
▁fárre	-9.10292
giid	-9.10468
▁geas	-9.10537
▁beaiv	-9.10653
▁hukse	-9.10763
▁doai	-9.1081
▁vuođđo	-9.10861
▁oahpahus	-9.10893
▁geađg	-9.10967
ol	-9.11145
ávj	-9.11153
▁borramuša	-9.11178
▁fuolah	-9.1127
7	-9.11285
rošeavtta	-9.11308
▁hábme	-9.11312
▁197	-9.11318
▁álbmot	-9.11334
▁Harry	-9.11341
Potter	-9.11341
bearráigeahčči	-9.11341
ä	-9.11341
▁boazoorohaga	-9.11341
▁priváhta	-9.11341
CD	-9.11341
▁Trosterud	-9.11341
▁Niillas	-9.11341
▁giđđa	-9.11341
▁čuvge	-9.11341
▁sárdnu	-9.11342
▁lasiha	-9.11342
▁Filbma	-9.11343
▁Gonagas	-9.11343
▁beavddi	-9.11343
▁vuđola	-9.11344
▁Skuvla	-9.11346
▁fápmu	-9.11346
▁váilevaš	-9.11347
▁Biera	-9.11348
▁jerre	-9.11348
▁Lárin	-9.11348
▁bálvaleaddji	-9.11352
▁earret	-9.11355
▁joatk	-9.11357
▁Áilu	-9.11361
▁Gaska	-9.11362
▁Ovdal	-9.11363
▁ovddasteaddji	-9.11366
▁Ánne	-9.11368
▁fanas	-9.11368
▁dahkkojuvvo	-9.11373
▁addojuvvo	-9.1138
▁dáhpáhusa	-9.1138
▁luossagu	-9.1138
▁Ohc	-9.11381
ossodaga	-9.11391
▁boares	-9.11397
▁Boahtá	-9.11397
▁guoskka	-9.11404
▁vuollái	-9.11405
▁Gieldda	-9.11417
▁politihkkar	-9.11423
▁vuođđuduvv	-9.11427
▁gáibiduvvo	-9.11431
▁čáhc	-9.11438
buođu	-9.11453
▁Departemeantta	-9.11458
▁Eará	-9.11461
▁dáhtu	-9.11462
▁Suoma	-9.11462
▁Dábála	-9.11469
bileaht	-9.11469
▁joatkkaskuvlla	-9.11471
▁oaiviliid	-9.11508
▁elliid	-9.1151
▁poartta	-9.11523
▁gaskaneas	-9.1155
▁goarru	-9.1155
▁badjeolbm	-9.11576
▁guhkes	-9.11592
van	-9.11595
▁nie	-9.11596
njealját	-9.11604
▁beassá	-9.11616
ád	-9.11626
▁eahket	-9.11677
▁ásahan	-9.11755
▁deanu	-9.1176
▁lu	-9.11803
vvui	-9.11809
▁buvtt	-9.11815
▁searv	-9.11861
▁eahked	-9.1195
ssá	-9.11976
muitalusaid	-9.12084
▁gažaldaga	-9.12121
▁ovttasbarg	-9.12183
▁radio	-9.12184
▁Ledje	-9.12374
▁ovttasbargo	-9.1239
▁vuolggah	-9.12503
▁daja	-9.12564
▁oaivvi	-9.1257
hpet	-9.12576
▁čuovga	-9.1261
▁lágiduvvo	-9.12691
ddjejuvvo	-9.12771
▁Dovd	-9.12849
▁prošeavtta	-9.12878
aportta	-9.1293
▁Gávpot	-9.12969
guovllu	-9.13004
▁lo	-9.1301
▁borran	-9.13062
▁dálv	-9.13064
▁govd	-9.13103
▁Be	-9.13132
jes	-9.13171
▁jávoh	-9.13183
▁bár	-9.13191
▁ce	-9.13225
▁nieid	-9.1329
▁vil	-9.13316
▁Ieš	-9.13356
▁kurssa	-9.13428
▁mihti	-9.13441
▁Bea	-9.13456
▁hálddašan	-9.13564
▁ga	-9.1365
▁básár	-9.13684
▁Sáme	-9.13769
▁ásahus	-9.13792
▁Máŋga	-9.13857
▁dutkan	-9.13871
▁geavaheami	-9.13919
▁eiseválddiid	-9.13929
▁fálalda	-9.13933
▁ná	-9.13991
internáhttaskuvl	-9.14131
▁vujii	-9.14277
▁ráfi	-9.14344
dju	-9.14398
▁muitali	-9.14431
▁Bá	-9.14471
kas	-9.14575
▁áhčis	-9.14707
ohcamii	-9.14765
▁sámegiel	-9.14783
▁gávpog	-9.1479
▁gávpogi	-9.14793
▁Vuostta	-9.14935
▁sáv	-9.1495
laga	-9.14978
▁luotta	-9.1501
▁18	-9.15023
▁filbm	-9.15042
▁heaju	-9.15057
dis	-9.15091
▁vázzá	-9.1526
idja	-9.15321
▁gulle	-9.15494
▁hálle	-9.15578
▁eiseválddi	-9.15663
▁hávd	-9.15703
▁ihtt	-9.15708
▁gárvv	-9.15712
▁uvssa	-9.15818
uvvan	-9.15905
ála	-9.1618
ddu	-9.16288
▁hámi	-9.16296
vtto	-9.16366
be	-9.16392
▁Divššohas	-9.16454
aikko	-9.16496
▁girj	-9.16666
▁bierggu	-9.168
addi	-9.1681
beal	-9.17012
▁loga	-9.17087
▁suo	-9.17122
áibba	-9.1713
▁suohkan	-9.17183
▁gieđa	-9.17211
▁dárogiel	-9.17225
▁čearu	-9.1735
▁guoll	-9.17356
▁dolo	-9.17512
▁oainn	-9.17531
▁Muit	-9.17579
▁váidal	-9.17584
▁An	-9.17727
lbma	-9.17735
asa	-9.17817
▁borra	-9.17919
nu	-9.1799
▁oainnu	-9.18438
ideaset	-9.18443
hearggi	-9.18833
htta	-9.19394
▁čoahkk	-9.19461
gohte	-9.19609
usaid	-9.19634
▁Seamm	-9.19637
oaffar	-9.19734
akkár	-9.19777
oš	-9.19798
6	-9.19846
su	-9.19877
▁jođiheaddji	-9.20051
▁váiba	-9.20132
▁háliida	-9.20313
▁vuos	-9.2054
oazosápmelaččaid	-9.20594
▁váccá	-9.20881
▁lass	-9.21028
▁joavkku	-9.21041
dnu	-9.21048
▁sáni	-9.21061
▁bora	-9.21305
▁lágidi	-9.21402
▁hálida	-9.21654
hkki	-9.2177
uvve	-9.2188
guovddáž	-9.21892
eahppi	-9.21979
▁dola	-9.21989
▁vis	-9.2199
▁alla	-9.22164
z	-9.22295
goahti	-9.22313
▁lá	-9.2243
▁fa	-9.22472
▁vuovdi	-9.22533
▁galggaš	-9.22545
▁vuorr	-9.22772
bbi	-9.22997
▁ealli	-9.23002
▁Si	-9.23018
▁sp	-9.23172
asiid	-9.23192
vdameark	-9.23456
tevaš	-9.23745
tte	-9.23828
ádus	-9.23925
▁vurd	-9.23925
eappo	-9.24024
▁200	-9.24069
▁ohca	-9.24076
▁c	-9.24368
sápmelačča	-9.24455
sen	-9.24509
htti	-9.246
▁geahčai	-9.24663
▁vuol	-9.24853
riggodagaid	-9.2504
▁áhčč	-9.25049
▁gi	-9.25197
válddii	-9.25225
▁boaht	-9.25279
easta	-9.2539
ealáhusa	-9.25449
▁álggu	-9.25528
kta	-9.25575
▁bivdd	-9.2563
uoigatvuo	-9.25799
▁Láv	-9.25896
arvvašvuođabargi	-9.26065
▁internáht	-9.2615
eam	-9.2623
httu	-9.26422
oađi	-9.26469
ásahusa	-9.26799
sáme	-9.26807
loš	-9.26816
▁čájeha	-9.26841
.00	-9.27039
▁geardd	-9.27399
lága	-9.27408
▁boa	-9.27456
▁attá	-9.27466
▁diehtá	-9.27531
▁dieht	-9.27928
▁atná	-9.27976
asgi	-9.27984
báiki	-9.28041
kkis	-9.28294
▁fámu	-9.2841
šii	-9.28602
▁sádde	-9.28657
hppi	-9.28681
lassi	-9.28695
▁ealáhus	-9.29006
▁bea	-9.29147
▁beaivv	-9.2927
▁listta	-9.29398
▁máksá	-9.29428
▁lihk	-9.30031
▁Bo	-9.30051
▁boahtim	-9.30154
lanja	-9.30361
jávrri	-9.30446
▁T	-9.30479
▁má	-9.3053
vuoigatvuođa	-9.30776
bargiid	-9.30853
ddiid	-9.31065
eng	-9.31164
▁beassa	-9.31172
ji	-9.31236
▁álggahi	-9.31362
▁heaj	-9.31425
▁meahci	-9.31428
riija	-9.3154
▁divššohas	-9.31575
▁lágid	-9.31684
▁dearva	-9.32186
▁H	-9.32259
▁lohk	-9.32279
gaska	-9.32499
áddejumi	-9.32521
▁čálle	-9.32561
▁a	-9.32685
▁ču	-9.32701
▁háv	-9.3277
2	-9.32904
▁čoahkkimi	-9.33161
▁Jus	-9.33265
▁álgoálbmog	-9.33609
jođiheaddji	-9.33694
▁far	-9.33707
bi	-9.33777
deami	-9.33795
▁boazodoall	-9.33865
▁bohcc	-9.33871
muša	-9.34026
▁barge	-9.34027
▁doal	-9.34149
Man	-9.34158
olačča	-9.34998
Finnmárkku	-9.35005
▁dási	-9.351
guoddi	-9.35102
asta	-9.35222
gilvvu	-9.35255
▁álgg	-9.35432
▁burii	-9.35515
▁gávpogii	-9.3565
J	-9.35817
▁bargo	-9.35856
ppiid	-9.35862
bott	-9.35921
hku	-9.35969
▁mán	-9.361
▁čohkke	-9.3618
▁bovd	-9.36292
kto	-9.36364
▁mávss	-9.36418
▁árv	-9.36457
tne	-9.36563
▁Č	-9.36733
▁johti	-9.36787
vvan	-9.36794
ime	-9.36855
beaivv	-9.36971
▁máht	-9.36996
eh	-9.37337
▁báhc	-9.37377
▁hupm	-9.37422
▁gádd	-9.37529
▁bis	-9.37602
Ell	-9.37724
▁veahkk	-9.37738
▁báikki	-9.37838
hppa	-9.38196
bivdu	-9.38239
▁Lo	-9.38271
▁Ke	-9.38405
▁bie	-9.38507
▁vie	-9.38507
rá	-9.3867
▁nis	-9.38803
▁Čuo	-9.38825
▁bassa	-9.38979
▁rievtt	-9.39093
▁nal	-9.39107
doaibma	-9.39131
ske	-9.39265
▁ságastalla	-9.39296
čč	-9.39814
hkku	-9.39828
▁Oahpa	-9.39872
▁Ferte	-9.39929
▁doalla	-9.40012
▁eamiálbmogi	-9.40026
▁láibu	-9.40125
doavttir	-9.40188
lávdegotti	-9.40277
hčče	-9.40608
olli	-9.40653
▁olbmuide	-9.40834
vet	-9.4135
ná	-9.41491
git	-9.41603
▁deaŧala	-9.41745
▁báik	-9.41761
▁sáhtt	-9.41819
▁sist	-9.4191
▁hál	-9.41914
giela	-9.42024
ah	-9.42036
▁hálddaša	-9.42088
▁Olbm	-9.42174
▁liik	-9.42222
mearri	-9.42398
▁he	-9.42712
▁árra	-9.42863
ásaš	-9.4294
hkat	-9.43141
ski	-9.43203
oahpp	-9.43303
heapm	-9.43551
bálvalus	-9.43597
▁márkan	-9.43606
astá	-9.4369
▁čájehi	-9.43838
▁1	-9.43879
▁dárogi	-9.43951
▁sámegi	-9.43973
▁Váld	-9.44173
▁johtti	-9.44282
▁dis	-9.44371
bargu	-9.44417
geađggi	-9.44448
▁oktavuo	-9.44472
kkel	-9.44487
vddeš	-9.44489
ilbmi	-9.44615
▁Stivr	-9.44654
▁Sámemiššuvdna	-9.44674
ologiija	-9.44674
▁1982	-9.44674
▁Hámmárfe	-9.44674
▁IL	-9.44674
▁Isabellá	-9.44674
▁Olmmoš	-9.44674
▁doaktárii	-9.44674
▁dárkile	-9.44674
▁gulahalla	-9.44674
▁kommišuvnna	-9.44674
▁lákcagáhk	-9.44674
▁pedagogihka	-9.44674
▁studeantta	-9.44674
▁viššal	-9.44674
▁Š	-9.44674
▁goappaš	-9.44675
▁loavdag	-9.44675
▁miellagiddeva	-9.44675
▁ođasmahtti	-9.44675
▁čájáhus	-9.44675
▁šuhkoládagáhk	-9.44675
▁ceavz	-9.44675
▁eamiálbmot	-9.44675
gráfa	-9.44675
▁skohter	-9.44675
▁čovdos	-9.44675
▁Eŋgel	-9.44675
mentára	-9.44675
▁jorba	-9.44675
▁Juhán	-9.44675
▁Gerge	-9.44675
▁Smierru	-9.44675
▁čuožžu	-9.44675
▁gohččo	-9.44676
▁mállás	-9.44676
meahttu	-9.44676
▁áviisa	-9.44676
▁diŋgga	-9.44676
▁jorgal	-9.44676
▁galbmo	-9.44676
▁ávdnasii	-9.44676
▁Davviriikkai	-9.44676
▁dearvvasvuođa	-9.44676
▁Troms	-9.44676
▁sártn	-9.44677
▁váimmui	-9.44677
▁guođoh	-9.44677
▁čujuh	-9.44677
▁Juovla	-9.44677
▁fuobmá	-9.44677
▁lunddola	-9.44678
▁velggola	-9.44681
▁oappá	-9.44683
▁gánda	-9.44687
▁aktiiv	-9.44687
▁mediai	-9.44687
▁ovddabeal	-9.44687
▁čierast	-9.44688
▁čuovvo	-9.4469
▁diekkár	-9.44691
▁geassemánu	-9.44693
▁Smiervuona	-9.44694
▁Jáhkob	-9.44697
▁heitto	-9.44701
▁silbba	-9.44701
▁biddjojuvvo	-9.44704
▁Sáhttá	-9.44705
mas	-9.44706
▁girdi	-9.4471
▁dorski	-9.44711
▁láhč	-9.44712
▁Gáivuona	-9.44713
▁gávnna	-9.44715
ck	-9.44715
▁surggii	-9.44717
▁fásta	-9.44718
▁Badj	-9.4472
▁jođ	-9.4472
▁dudno	-9.44723
▁10	-9.44726
▁vahág	-9.44728
▁sáhpán	-9.44728
mehter	-9.4473
▁fuođđ	-9.44731
▁giks	-9.44734
hččan	-9.44735
▁ruđa	-9.44742
▁ovddastuvvo	-9.44742
▁hábmejuvvo	-9.44743
▁boanda	-9.44743
▁čuoigga	-9.4475
▁fierbm	-9.44754
▁čoavd	-9.44754
▁nágg	-9.44765
▁Guovtti	-9.44771
▁vástid	-9.44779
gŋu	-9.44791
▁arvá	-9.4482
▁Sara	-9.44832
▁osku	-9.44875
▁Oahpp	-9.44891
▁mearra	-9.44898
▁gozihan	-9.44912
▁givssid	-9.4492
▁deavd	-9.44926
▁boazodoallolága	-9.44936
▁Eli	-9.44957
▁dassá	-9.44962
ŋgal	-9.44973
▁moar	-9.44976
stobui	-9.44995
▁dohkke	-9.44999
▁sáhtiime	-9.45
▁Lága	-9.45006
▁dáža	-9.45021
▁Álgo	-9.45022
▁Jea	-9.45023
muvrra	-9.45026
▁vuoittu	-9.45051
▁fidn	-9.45055
▁Bargiidbelloda	-9.45068
▁čoagg	-9.45112
▁para	-9.45114
lkkii	-9.45127
eassážiid	-9.45167
kuvlavázzi	-9.45179
▁vuoiŋŋast	-9.45194
▁smiehttan	-9.45197
▁šattuid	-9.45205
▁boađus	-9.45212
▁sáhttibe	-9.45241
kantuvr	-9.45265
▁buđeh	-9.45297
▁lávej	-9.45339
▁boahtteáiggi	-9.4535
▁sullasa	-9.4537
▁oamast	-9.45396
šuvnna	-9.4549
▁árte	-9.45533
ábbá	-9.45542
▁eatnamii	-9.45551
▁Máŋgga	-9.45556
njárgga	-9.45575
▁sáhtáš	-9.45588
▁Duo	-9.45599
▁riikka	-9.45605
▁guoss	-9.4568
▁gietk	-9.45688
▁veahá	-9.45723
ilis	-9.45725
▁nago	-9.4576
▁Ol	-9.4578
▁viđa	-9.45805
▁fákt	-9.45818
▁čiehk	-9.45849
▁diimmu	-9.45854
▁Arv	-9.45859
▁guoskeva	-9.45903
▁lonuh	-9.45913
▁gáhtte	-9.4592
ašuvv	-9.46
▁Barg	-9.46104
váldi	-9.46134
▁jođihi	-9.46153
om	-9.46187
▁orgána	-9.46221
bohtosiid	-9.46226
▁luođ	-9.46258
▁čuov	-9.46263
▁boazodolliid	-9.46292
vnnas	-9.46337
▁gođđ	-9.46365
dima	-9.46385
▁manaime	-9.46428
žža	-9.46493
▁lasse	-9.46498
▁váttisvuođa	-9.46622
▁nuoraidskuvlla	-9.46668
fitnodagai	-9.46727
▁buolaš	-9.4675
latnja	-9.46777
▁eavttuid	-9.46835
▁gátti	-9.46955
▁Dieđu	-9.46984
dagaid	-9.47045
▁čoask	-9.47104
mánáideaset	-9.47112
tuvrra	-9.47203
▁sáhtii	-9.47219
▁ávkkástallami	-9.47221
▁bearral	-9.47285
▁čiŋa	-9.47289
▁geavahuvvo	-9.47303
▁mearridan	-9.47368
▁Dearvvašvuođa	-9.47377
▁jienast	-9.47411
▁oačč	-9.47426
▁serve	-9.47427
▁juovlab	-9.47459
▁duoddar	-9.47475
buo	-9.47507
▁boađá	-9.47516
iidahtt	-9.47552
▁biss	-9.47575
▁Arn	-9.47587
mmat	-9.47632
▁gándda	-9.47632
▁bušeaht	-9.47675
▁boraspire	-9.47677
▁buhtadusa	-9.47686
▁proseassa	-9.47692
▁hálddašeami	-9.47701
▁birge	-9.47706
▁lahtuid	-9.47931
▁čuvvo	-9.47944
▁servodaga	-9.48017
▁dutkamiid	-9.48046
ksa	-9.48053
▁biillai	-9.48057
▁dárbbu	-9.48109
▁bidj	-9.48143
▁ri	-9.48154
▁Ann	-9.48248
▁Sir	-9.48303
hahtti	-9.48408
▁jearr	-9.48442
ana	-9.48607
▁vuord	-9.48665
išgođii	-9.48842
▁dutkam	-9.48881
▁lieggan	-9.48925
▁eaktodáhtola	-9.48938
▁biso	-9.48958
▁gova	-9.49004
▁e	-9.4909
▁Muital	-9.49131
▁gorrojuvvo	-9.49137
▁suohkanstivr	-9.49148
▁evttohus	-9.49161
iigu	-9.49191
▁jea	-9.49212
▁vahkku	-9.49291
▁Máhte	-9.49335
stit	-9.49364
▁hoahpu	-9.49367
▁bassi	-9.49548
▁juhka	-9.49562
▁dieđui	-9.49615
▁veaj	-9.49634
▁oabbá	-9.49689
▁eatni	-9.49714
▁ruhtad	-9.49747
▁vahku	-9.49754
lus	-9.49782
▁riekte	-9.49799
▁jápmi	-9.49858
vuodjimi	-9.49913
▁oaidn	-9.50023
filbma	-9.50121
▁láveji	-9.50172
set	-9.50174
▁áigo	-9.50238
▁gula	-9.5032
▁geaidn	-9.50349
▁njuni	-9.50349
ija	-9.504
▁ealu	-9.50439
▁fárrii	-9.50495
▁dovda	-9.50518
▁fertebe	-9.50548
pmás	-9.50583
emus	-9.50666
▁Okt	-9.50682
▁ođđasi	-9.50764
▁váikkuha	-9.50784
eallu	-9.5079
▁gehčč	-9.50854
▁beroštumiid	-9.50881
▁goddá	-9.50949
▁sihkk	-9.51057
▁Lávv	-9.51058
ldojuvvo	-9.51445
▁jeara	-9.51565
▁bissu	-9.51626
skat	-9.51751
▁háliidi	-9.51765
▁oastá	-9.51789
▁dáb	-9.51878
▁lađđas	-9.52096
▁varra	-9.5214
lbmil	-9.52169
▁dovd	-9.52183
▁čo	-9.52253
▁isidi	-9.5226
▁gávdna	-9.52513
hko	-9.52517
▁beale	-9.52537
▁muhtumi	-9.52679
ráđi	-9.52685
rekt	-9.52693
▁Vuo	-9.52705
eallim	-9.5287
▁fitna	-9.53059
▁čál	-9.53195
joh	-9.53228
▁beaivváž	-9.53271
vde	-9.53313
hpp	-9.53323
▁máhtt	-9.53334
▁siva	-9.53353
▁čoahkkima	-9.53395
departementa	-9.53419
▁buolli	-9.5342
▁hupme	-9.53425
ris	-9.53451
riid	-9.53481
▁186	-9.5372
▁199	-9.53899
▁áigodaga	-9.53953
doarjaga	-9.54079
llái	-9.54326
▁att	-9.54413
ádaga	-9.545
▁beal	-9.54537
listu	-9.54546
adni	-9.54583
▁goađi	-9.54682
▁gield	-9.54797
▁sabeh	-9.54881
▁báhkka	-9.54922
▁Var	-9.54927
▁heaja	-9.5494
márkanii	-9.55077
▁daga	-9.5508
uolgga	-9.55138
mánu	-9.55289
čázi	-9.55311
▁guoddi	-9.55366
▁Čo	-9.55668
staga	-9.55782
▁gusa	-9.5591
▁Jo	-9.55985
▁dal	-9.56252
▁Sis	-9.5628
▁gárt	-9.56474
anne	-9.56597
▁bald	-9.56656
▁guolástea	-9.56673
▁golgg	-9.56815
▁vuvd	-9.5695
▁njuolggadusai	-9.57025
▁juoi	-9.57036
▁bivde	-9.5705
amen	-9.57127
▁guoli	-9.57294
eddjiid	-9.57297
▁eask	-9.57373
sis	-9.57474
▁rikk	-9.57501
bb	-9.57604
▁dehál	-9.57916
assii	-9.57932
▁álgoálbmogi	-9.58007
▁či	-9.58035
ivuođa	-9.58321
tnii	-9.58337
allá	-9.58367
▁ruvnnu	-9.58386
mes	-9.58526
▁Gos	-9.58599
rat	-9.58724
anvuoigatvuo	-9.58736
▁gulla	-9.58971
▁buohkaid	-9.59081
baji	-9.59467
▁stál	-9.59551
▁mánáide	-9.6011
iime	-9.60122
nat	-9.60252
▁bivdo	-9.60285
▁dujii	-9.60335
▁gul	-9.60359
▁farg	-9.60378
dd	-9.60675
▁lág	-9.60788
▁Vis	-9.60903
▁háldd	-9.60997
▁bálval	-9.61102
botta	-9.61119
▁stuorr	-9.61278
ŋg	-9.6135
▁guovddáž	-9.61364
▁Sil	-9.62078
han	-9.62136
ara	-9.62173
▁Oll	-9.62245
▁lotti	-9.62282
adde	-9.62378
ika	-9.62497
▁guđe	-9.62571
▁vái	-9.62623
▁Ell	-9.62841
ejo	-9.62848
álbmogi	-9.62926
saji	-9.63046
va	-9.631
▁álbmogii	-9.63187
ádden	-9.63354
▁Ná	-9.6339
bea	-9.6343
▁ráđi	-9.63447
▁oahpah	-9.63495
▁dárbbašla	-9.63542
▁oaivila	-9.63599
▁bearraša	-9.63652
▁almmuha	-9.63697
to	-9.63697
▁goit	-9.63918
▁ovddast	-9.64015
▁áigum	-9.64132
▁vearr	-9.64171
▁oahpahan	-9.64289
▁orrun	-9.64383
▁dearv	-9.64407
ggan	-9.64464
▁Ándd	-9.6448
vdn	-9.64519
▁no	-9.6454
iide	-9.64614
eanu	-9.64736
▁dahk	-9.64908
▁čuoiga	-9.65001
aide	-9.65023
▁nammada	-9.65213
▁sápmelaččaid	-9.65564
▁viehk	-9.65622
llojuvvo	-9.65656
▁Li	-9.65912
ž	-9.65938
vss	-9.66092
vrras	-9.66186
▁á	-9.66588
▁roa	-9.6661
▁Sá	-9.66694
ze	-9.67207
julggii	-9.67323
vá	-9.67434
osiid	-9.67878
▁stuori	-9.68138
hc	-9.68181
▁vásihi	-9.68373
▁čuoigan	-9.68375
▁mánái	-9.68376
▁gápmag	-9.68478
ssa	-9.6848
lis	-9.68618
adaga	-9.68773
▁juohk	-9.68834
gieđahallam	-9.68917
▁muora	-9.68957
nbarggu	-9.68981
aidd	-9.69098
▁fatnas	-9.6913
▁Ru	-9.69268
fága	-9.69364
▁jođih	-9.69371
▁álgá	-9.6956
▁bá	-9.69586
▁al	-9.70112
vuovddi	-9.70189
erejuvvo	-9.70194
tihka	-9.70278
▁Vi	-9.70351
iena	-9.70508
▁ba	-9.706
▁rievtti	-9.70665
05	-9.707
▁bargg	-9.71063
httin	-9.71203
birrasi	-9.71236
li	-9.71253
▁bargam	-9.71455
vtt	-9.71688
▁biv	-9.71713
▁duođa	-9.71888
▁dul	-9.71906
▁ođđas	-9.72095
astta	-9.721
▁17	-9.72138
▁čađahi	-9.72177
ozihan	-9.72425
gielddaid	-9.7244
▁iđi	-9.72628
alu	-9.72825
▁si	-9.72858
ádusa	-9.73292
▁mearkkaša	-9.73471
vdda	-9.73551
▁Is	-9.73738
nupp	-9.7387
ahttá	-9.73984
▁Ái	-9.74011
▁bel	-9.74222
▁dáig	-9.74318
đ	-9.74356
▁beak	-9.74565
▁geavahan	-9.74764
▁rohkadall	-9.74934
pi	-9.7522
eame	-9.75286
iŋŋ	-9.75462
▁geahč	-9.75617
gosa	-9.75717
ami	-9.75995
rron	-9.76321
ar	-9.76414
do	-9.76484
▁Muhtu	-9.7651
▁lávl	-9.76706
▁Lulli	-9.76719
▁joht	-9.76998
árvo	-9.77018
aime	-9.77052
bálvalusa	-9.77257
ohcan	-9.77287
miella	-9.77349
dán	-9.77386
osaji	-9.77789
▁vii	-9.77894
geainnu	-9.77927
▁dubme	-9.78146
máná	-9.78177
appo	-9.78225
▁fi	-9.78395
fit	-9.78407
uide	-9.78628
▁dagah	-9.78658
▁vára	-9.78795
tii	-9.79063
osa	-9.79145
sk	-9.7916
▁ásahusa	-9.792
tit	-9.79221
▁čalmmi	-9.79379
▁p	-9.79659
▁heive	-9.79687
▁fárr	-9.79742
htte	-9.7978
▁sabehii	-9.79942
ov	-9.80049
▁duođala	-9.80158
▁duođai	-9.8016
▁se	-9.80269
▁bearrašii	-9.80322
ehkki	-9.80339
inniid	-9.80416
▁rea	-9.80562
oahti	-9.80729
▁matematihk	-9.80782
ste	-9.81169
tasiid	-9.8157
▁álggahuvv	-9.81634
áigodaga	-9.81774
gaid	-9.81781
Nordlys	-9.82547
O	-9.82559
čoahkkimii	-9.82658
TV	-9.82712
erru	-9.82719
šiehtadus	-9.83107
▁ásahuvv	-9.83159
girj	-9.83358
ddejuvvo	-9.83368
bierggu	-9.83372
bártni	-9.83464
veall	-9.83563
journála	-9.83594
▁almmuh	-9.83956
đđe	-9.84033
ulbmil	-9.8407
rru	-9.84077
guovddáš	-9.84189
▁oll	-9.84244
áigge	-9.84422
▁meannud	-9.84424
▁čear	-9.84605
ahpas	-9.84663
pmán	-9.84683
rievtti	-9.84738
▁bargguid	-9.84746
tregistrere	-9.84846
ursa	-9.8492
▁lassán	-9.84948
áššiid	-9.84963
iv	-9.84973
▁nammad	-9.85003
▁Stál	-9.85014
ima	-9.85097
▁bearraš	-9.85207
▁fuol	-9.8536
ere	-9.85452
▁niegu	-9.85466
▁bái	-9.85523
bargii	-9.85582
guovlluid	-9.8571
▁oahpaheddjii	-9.85741
▁šiehtad	-9.85868
▁gáibidi	-9.86033
vuovdi	-9.86252
mánáide	-9.86258
▁na	-9.86267
▁dikšu	-9.86328
nis	-9.86419
▁joavkkui	-9.86427
▁sámeskuvl	-9.86431
lea	-9.86645
▁boazodoll	-9.86762
fálalda	-9.86765
ttos	-9.86834
▁Val	-9.87049
istan	-9.87089
luotta	-9.87131
▁194	-9.87133
▁stivrra	-9.87191
▁jáhkk	-9.87416
▁jápm	-9.8757
doaimmaid	-9.87585
joavkku	-9.87654
ahahtti	-9.87693
asttu	-9.87721
ohppii	-9.87848
geaži	-9.87887
▁galggaše	-9.87966
el	-9.88029
▁Oahpah	-9.88044
▁heakka	-9.88058
▁mea	-9.88337
▁fuo	-9.88358
eap	-9.8853
ušš	-9.8866
eahpit	-9.88687
▁Vai	-9.88742
▁riegáda	-9.88743
▁dáhp	-9.88873
birrasii	-9.88931
▁jurdag	-9.89061
ssii	-9.8921
kan	-9.89304
leagi	-9.89344
▁suova	-9.89372
▁Lái	-9.89422
▁nubb	-9.89423
haga	-9.89785
he	-9.89959
birgej	-9.90072
ig	-9.90129
▁lahk	-9.90171
▁munn	-9.90214
▁juovla	-9.90298
áššis	-9.90343
▁meannudi	-9.90403
▁dáidd	-9.90411
▁deattu	-9.9056
▁Ál	-9.90668
bmá	-9.90838
bas	-9.9085
hket	-9.90967
▁láib	-9.90975
▁Gávpo	-9.91069
hkkeli	-9.91267
▁dáss	-9.9141
vnna	-9.9142
▁nohk	-9.91572
▁veh	-9.91744
agas	-9.91856
▁gažalda	-9.9187
▁evttoh	-9.91962
uvvoj	-9.92047
mihtto	-9.92075
ggái	-9.92108
▁Há	-9.92168
kkas	-9.92202
ál	-9.92435
▁njealj	-9.92469
alis	-9.92619
▁geaid	-9.9262
▁ál	-9.92653
▁uhci	-9.92676
lgá	-9.92696
hkkeg	-9.92733
▁sosiálala	-9.92894
vttohus	-9.92962
▁guosk	-9.92991
▁boazo	-9.93075
djiid	-9.93097
▁čielg	-9.93223
ačáz	-9.93266
guovtt	-9.93592
oabbá	-9.93612
▁boahtteáig	-9.93664
dna	-9.93699
čalmmi	-9.93713
internáhta	-9.93773
▁buđe	-9.93813
▁gárv	-9.93852
▁baj	-9.93857
▁eŋgel	-9.93947
bellodaga	-9.94036
vtte	-9.9405
addan	-9.94193
▁jurdda	-9.94366
▁Departemeant	-9.94409
dási	-9.94472
▁oaččui	-9.94489
áhpáhuvv	-9.94508
argojoavk	-9.94524
ournála	-9.94545
doallo	-9.94558
▁konvenšuv	-9.94565
oaittobeal	-9.94567
▁eavttu	-9.94573
▁fier	-9.94584
ehkos	-9.94592
▁klássa	-9.94592
ø	-9.94596
beivvii	-9.94639
▁biddjo	-9.94644
▁kultuvr	-9.94652
▁Olmmái	-9.9466
aŧ	-9.94665
digge	-9.94668
uošš	-9.94673
w	-9.94674
▁spesialis	-9.94674
buohccedikš	-9.94674
doavtter	-9.94674
▁Konvenšuvdna	-9.94674
▁fulkkeža	-9.94674
▁guimmiideaset	-9.94674
▁gulaskudda	-9.94674
/	-9.94674
dulvade	-9.94674
hotealla	-9.94674
sisaboahtu	-9.94674
å	-9.94674
▁Abram	-9.94674
▁Divttasvuona	-9.94674
▁Girkonjárgga	-9.94674
▁Hearvadál	-9.94674
▁Hálddašan	-9.94674
▁Máhttájeaddji	-9.94674
▁Universitehta	-9.94674
▁Vearrámus	-9.94674
▁bihtáidbargam	-9.94674
▁bustávai	-9.94674
▁darfegoađ	-9.94674
▁fievrr	-9.94674
▁friddja	-9.94674
▁ipmárdusa	-9.94674
▁konkrehta	-9.94674
▁logaldalla	-9.94674
▁lávvordaga	-9.94674
▁máilmmi	-9.94674
▁oaivegávpogi	-9.94674
▁olgguldas	-9.94674
▁petromá	-9.94674
▁politiija	-9.94674
▁profehta	-9.94674
▁riikaráji	-9.94674
▁roasmmohuv	-9.94674
▁sisttisdoall	-9.94674
▁skuvladiimmu	-9.94674
▁skábmamán	-9.94674
▁vanhurskkis	-9.94674
▁váldovuoittu	-9.94674
▁Ávdugas	-9.94674
▁álbmotmeahci	-9.94674
▁árgabeaivvi	-9.94674
▁čoakkalmas	-9.94674
▁čuoččuh	-9.94674
▁Mávssu	-9.94675
▁Njuolggadusa	-9.94675
▁Vuolgi	-9.94675
▁kuráhtor	-9.94675
▁njealjehas	-9.94675
▁seaŋgga	-9.94675
ddasvástideaddji	-9.94675
dovdomearkka	-9.94675
uonddureserváhta	-9.94675
▁Girjji	-9.94675
▁Swann	-9.94675
▁belloda	-9.94675
▁bihtáidlohka	-9.94675
▁geasseoroha	-9.94675
▁gievkkan	-9.94675
▁morašt	-9.94675
▁pedagogihkka	-9.94675
hoavda	-9.94675
▁ganjal	-9.94675
▁čuožžil	-9.94675
▁Ruošša	-9.94675
▁báhtar	-9.94675
▁eatnanmu	-9.94675
▁jahkedieđáhusa	-9.94675
▁vielja	-9.94675
▁herggii	-9.94675
▁heargevuodji	-9.94675
▁čuoggá	-9.94675
▁Giella	-9.94675
▁vástádusa	-9.94675
▁cummá	-9.94675
▁hálešt	-9.94675
▁Luonddugáhtten	-9.94675
▁soahpamuša	-9.94675
▁geafes	-9.94676
▁máinnašu	-9.94676
▁Anders	-9.94676
▁delegašuv	-9.94676
▁áviissa	-9.94676
▁Liiko	-9.94676
▁láigoh	-9.94676
alljodaga	-9.94676
▁institu	-9.94676
▁servodateallim	-9.94677
▁gávppi	-9.94677
▁Ruonáea	-9.94677
▁rahča	-9.94677
▁moddje	-9.94677
merke	-9.94677
▁suomagiela	-9.94677
▁duopmár	-9.94678
▁cukcas	-9.94678
▁1949	-9.94678
▁ealihi	-9.94678
▁badján	-9.94679
▁njulge	-9.94679
▁guovžža	-9.94679
konfereans	-9.94679
▁Márjjá	-9.94679
▁fávl	-9.94679
▁formála	-9.94679
▁liekkas	-9.9468
▁suodjalanplánai	-9.9468
▁rohkká	-9.9468
▁ovdaolbmo	-9.94681
stohp	-9.94681
▁nohkkan	-9.94681
▁ruovttumátkki	-9.94682
▁botnj	-9.94682
dieđáhus	-9.94682
▁namuhi	-9.94682
▁šiega	-9.94682
resursa	-9.94682
▁almennehii	-9.94683
buvttad	-9.94683
▁noađđ	-9.94683
▁fulkkii	-9.94684
▁vikkai	-9.94684
▁Ieža	-9.94684
valáštallansearv	-9.94684
.03.	-9.94685
▁guldal	-9.94685
elefu	-9.94685
▁Geainnu	-9.94685
▁luohttámuš	-9.94685
▁vuošša	-9.94685
▁čuorvv	-9.94686
▁luohttevaš	-9.94686
▁hearvásvuođa	-9.94686
▁dieđih	-9.94687
▁kino	-9.94687
▁lubme	-9.94687
duogá	-9.94687
▁Riekt	-9.94688
vilbeall	-9.94688
▁stipe	-9.94688
guohtun	-9.94688
▁buorideaddji	-9.94688
rámma	-9.9469
▁bagad	-9.9469
▁siskkáldas	-9.9469
▁hárján	-9.94691
▁dievddu	-9.94691
doahpagi	-9.94692
▁verddevuođa	-9.94692
▁tuoll	-9.94692
▁siđai	-9.94693
bávččas	-9.94694
ohtolat	-9.94694
▁sirdi	-9.94694
▁geasuh	-9.94696
▁oapma	-9.94696
▁oppanassii	-9.94697
▁Erenoamá	-9.94699
▁soahke	-9.947
▁várrepresideant	-9.947
▁kilo	-9.947
▁luossa	-9.94701
ohallami	-9.94701
▁eahpid	-9.94701
▁Vuolgg	-9.94702
▁beahtahal	-9.94703
▁sotnabeaiv	-9.94704
▁árbevi	-9.94706
▁Bivd	-9.94707
▁niegad	-9.94708
▁alddis	-9.94709
▁sosiálafága	-9.9471
▁álki	-9.9471
▁ealgga	-9.94711
▁Riev	-9.94712
▁Lávvarda	-9.94713
▁Stivrra	-9.94714
čilgehus	-9.94714
▁mielddus	-9.94714
▁Internáht	-9.94715
▁Ruđa	-9.94717
▁Boanda	-9.9472
▁čivg	-9.94721
▁geahččaluvvo	-9.94721
▁rihkku	-9.94722
▁láhpp	-9.94724
hasaid	-9.9473
▁dieđihuvvo	-9.94732
▁sohkanam	-9.94734
▁Geava	-9.94736
▁orohaga	-9.94737
▁dárkkist	-9.94737
50	-9.9474
▁Guolle	-9.94744
▁ordne	-9.94744
▁goallossá	-9.94745
▁nealgude	-9.94748
▁Dárogiel	-9.94748
▁ovdánahtt	-9.94749
▁gerge	-9.94751
ør	-9.94753
▁opmodagaid	-9.94755
▁evttohasa	-9.94756
▁doaibmabiju	-9.94758
▁nannos	-9.94761
málle	-9.94761
billist	-9.94761
▁almmuhuvvo	-9.94763
▁dolvo	-9.94763
▁195	-9.94765
▁Ovdameark	-9.94768
▁Goalmmá	-9.94769
▁boles	-9.94773
▁Davvi	-9.94773
▁ánssá	-9.94777
▁basad	-9.94778
▁hilba	-9.94783
▁bartta	-9.94784
▁heahp	-9.94786
▁buohcce	-9.94788
ym	-9.94789
▁eahpe	-9.94794
▁Aar	-9.94797
▁viehkali	-9.948
▁vulge	-9.948
▁neahtta	-9.94802
▁čohk	-9.94813
▁deastta	-9.94813
▁gávpeolbm	-9.94813
gaskkust	-9.94814
▁spábba	-9.94815
▁čilgejuvvo	-9.94816
▁sátne	-9.94817
14	-9.94823
uovttus	-9.94825
▁fylkkagieldda	-9.94826
eheimme	-9.94828
▁1970-	-9.94848
▁suorgg	-9.94849
▁gurut	-9.9485
▁Ránu	-9.94852
▁duođaštan	-9.94855
buktagii	-9.94858
▁Haviikka	-9.9487
▁Atte	-9.94871
▁turistta	-9.94873
▁állan	-9.94877
▁oar	-9.94877
▁nákkis	-9.94892
easkár	-9.94894
gullevašvuo	-9.94895
bálkká	-9.94899
▁boradan	-9.94907
šjoga	-9.94923
▁Kri	-9.9493
▁Suodj	-9.94933
▁árvali	-9.94934
▁Beaskka	-9.9496
▁albma	-9.9496
▁láibb	-9.94964
▁muitaluvvo	-9.94965
▁Boazodoall	-9.94965
▁gáff	-9.94974
▁váilu	-9.9498
▁ovddeš	-9.94987
▁heastta	-9.95002
šteaddji	-9.9501
▁bázii	-9.95016
▁bajásša	-9.95016
▁beassážii	-9.95022
▁ovddiduvvo	-9.95022
▁Leahppi	-9.95023
▁čuold	-9.95032
▁álbmotčoahkki	-9.95036
▁mearkkašu	-9.9504
eaiggá	-9.95045
▁Čáje	-9.95046
▁ustit	-9.95054
▁botne	-9.95054
▁buhtis	-9.9506
▁tálai	-9.95062
▁Lehpet	-9.95065
ruittu	-9.95066
▁ovttalágan	-9.95069
lmas	-9.95082
▁ortneg	-9.9509
fuolaheami	-9.95092
▁bajás	-9.95094
iskkad	-9.95095
▁čalmmeh	-9.95099
▁Vásti	-9.95102
oahttal	-9.95113
rievdadus	-9.95113
▁geige	-9.95121
▁Hans	-9.95126
▁borgg	-9.95129
▁galgabe	-9.95134
▁seavdnjad	-9.95135
▁krist	-9.95137
▁Boa	-9.95138
▁konvenšuvdna	-9.95145
▁sohka	-9.95149
▁álgoálbmot	-9.95158
▁oaččuime	-9.9516
árvvoštallojuvvo	-9.9517
▁Stuora	-9.95194
▁Johan	-9.95206
stáhtainternáhta	-9.95207
▁buorideddjii	-9.95211
▁deaddi	-9.95217
áidna	-9.95218
▁mánáidgárde	-9.95223
geahp	-9.9523
▁cealkámušai	-9.95257
▁boald	-9.9526
▁Dork	-9.95262
▁máidnasii	-9.95281
▁oarj	-9.95282
buohccevies	-9.95283
▁Opp	-9.95302
▁joddu	-9.95336
▁meassam	-9.95337
▁vealláji	-9.95337
▁mátke	-9.95353
▁virggi	-9.95361
arro	-9.95365
▁geavaheaddji	-9.95371
▁loktan	-9.95371
▁boaldin	-9.95386
▁čieža	-9.95393
▁Almma	-9.95403
▁eŋgela	-9.95407
▁gohcc	-9.9542
oste	-9.95459
▁geassá	-9.95468
▁divod	-9.95483
▁skuvlav	-9.955
▁Nj	-9.95501
halai	-9.95507
ssážii	-9.95516
▁Nie	-9.95524
▁vear	-9.9553
buvssa	-9.95571
erošt	-9.9559
bodd	-9.95591
▁duođaštusai	-9.95609
▁diehtojuohkin	-9.95619
itehta	-9.95621
▁skuvlaáigoda	-9.95632
▁virg	-9.95634
▁Will	-9.95646
▁Ášše	-9.95646
▁Isak	-9.95664
em	-9.95686
▁čohkkáje	-9.95689
ttar	-9.95707
ŋu	-9.95712
▁rehkenasti	-9.95762
▁áŋgiri	-9.95773
▁Váldo	-9.95776
▁guovtt	-9.95797
▁mátkk	-9.95805
rtihkkal	-9.9581
iiggáid	-9.95856
morra	-9.95868
▁guott	-9.9587
▁áigá	-9.95899
▁departement	-9.959
▁vuođđogeađg	-9.95904
▁dáinna	-9.95909
▁n	-9.95939
muorai	-9.95951
▁vuorb	-9.95985
▁suor	-9.95991
▁sihta	-9.95994
▁bass	-9.96018
dett	-9.96031
▁heađ	-9.96049
▁nuorta	-9.96057
▁váldojuvv	-9.96068
▁Čál	-9.96073
▁vuordá	-9.96126
▁áirasii	-9.96137
▁imaštall	-9.96154
▁bussá	-9.96174
▁lihkahala	-9.96224
▁Lihk	-9.96228
▁iešguđet	-9.96265
eimme	-9.96293
▁Máreh	-9.963
čiekčan	-9.96322
▁Tron	-9.96331
eahp	-9.96335
▁70	-9.96347
lasttai	-9.9639
▁180	-9.9639
allaskuvlla	-9.96405
vnnj	-9.96406
▁surg	-9.96415
▁ohpp	-9.96418
rrá	-9.96425
čiega	-9.96426
ávvarda	-9.96465
▁guovtte	-9.96489
guovd	-9.96534
▁čálii	-9.96551
talla	-9.96593
lihtu	-9.96667
▁riikkačoahkkimi	-9.96686
▁oast	-9.96732
▁johttisám	-9.9675
▁Eatna	-9.96756
▁basse	-9.96758
▁sudno	-9.96762
▁juhkk	-9.968
mb	-9.96818
váivv	-9.96821
▁Veah	-9.96828
▁álggii	-9.9684
djás	-9.96849
▁riikkain	-9.96849
seaidn	-9.96852
emáná	-9.96891
▁sadjásašlahtuid	-9.96895
▁davviguovl	-9.96909
hálddahus	-9.97079
fálaldaga	-9.97111
stá	-9.97115
▁Iŋg	-9.97152
▁sánii	-9.97156
▁áhká	-9.97171
▁Far	-9.97172
▁luoitád	-9.97187
fe	-9.9726
c	-9.97292
▁guovlu	-9.973
▁buhtismeahttumi	-9.97306
▁vuosttalda	-9.97351
▁rávv	-9.97379
ros	-9.97424
▁juollud	-9.97497
▁riekteáddejumii	-9.9756
▁dihto	-9.97564
▁Ásahu	-9.9757
▁sámepolitihka	-9.9764
pmas	-9.97714
gáldo	-9.97725
▁tem	-9.9776
▁Sear	-9.97761
ksen	-9.97854
dáhtola	-9.97917
▁juoiga	-9.9794
▁jávr	-9.97952
alla	-9.97969
isttii	-9.98041
lgoriik	-9.98056
▁rivv	-9.98072
▁juksami	-9.98076
▁earrás	-9.98102
prográmma	-9.98106
▁logi	-9.9822
ovt	-9.98275
▁vuolgga	-9.9831
▁árran	-9.98335
ávki	-9.98386
▁Guosseviesu	-9.98478
odahk	-9.98484
▁Rama	-9.98522
▁Munno	-9.98578
▁searve	-9.98604
▁muohta	-9.98638
ostuvv	-9.9873
▁Sto	-9.98829
▁4	-9.98885
hkkasi	-9.9895
ttis	-9.99068
▁goike	-9.99206
lev	-9.99217
▁goldn	-9.99237
ofága	-9.99326
áig	-9.99363
soa	-9.99377
obbal	-9.99415
▁departemeantta	-9.99507
ttir	-9.9951
uhcc	-9.99547
▁gáržžiduvvo	-9.99587
▁čakča	-9.99591
eahci	-9.99618
▁dulko	-9.99628
ddui	-9.99641
▁Leme	-9.99646
▁deaŧal	-9.99657
▁jándor	-9.9966
šeidde	-9.99691
▁čielggad	-9.99722
▁miellaht	-9.99776
barg	-9.99782
▁njálmm	-9.99819
▁doaimmah	-9.99822
▁sieđg	-9.99898
▁teavstta	-9.99907
▁psyk	-9.99926
▁hear	-9.99938
▁seahkka	-9.99952
▁skeaŋkka	-9.99961
▁girk	-9.99981
▁Trøndelag	-9.99983
nas	-9.99999
bbá	-10.0001
▁Dutk	-10.0001
▁Di	-10.0005
▁oaivil	-10.0007
▁Sáht	-10.0019
▁Mátt	-10.0021
▁biras	-10.0022
▁Vuolle	-10.0023
▁Iŋggá	-10.0025
▁borre	-10.0027
▁suovas	-10.0031
▁Áhku	-10.0038
▁boradet	-10.0044
▁sisdoalu	-10.0047
▁doaivvu	-10.0047
pos	-10.0065
vealahea	-10.0071
▁jurdagii	-10.0072
▁ránu	-10.0076
▁stivrras	-10.0077
▁beall	-10.0079
▁buohcci	-10.008
▁1980	-10.008
ttet	-10.0085
▁stivra	-10.0099
ččaid	-10.0115
muttu	-10.0117
▁duorg	-10.0118
▁bierg	-10.013
▁oađđen	-10.0135
▁lahttu	-10.0155
olb	-10.0158
▁Riid	-10.0159
lak	-10.0174
▁viidoda	-10.0175
▁čohkk	-10.0175
ddá	-10.0177
▁seammás	-10.0184
▁eaktud	-10.0184
▁heakkas	-10.0184
▁álggahuvvoj	-10.0188
▁boastta	-10.0193
vvas	-10.0193
▁álggahuvvo	-10.0194
oađ	-10.0198
▁háli	-10.02
talo	-10.0204
áhtaid	-10.0205
hea	-10.0231
▁Álbmo	-10.025
argolávdegotti	-10.0254
▁geahpp	-10.0254
▁Buolbmág	-10.0259
eana	-10.0262
ttai	-10.0262
áikk	-10.0265
dikki	-10.0266
▁2.	-10.0272
▁jáhku	-10.0273
aseabbo	-10.0275
▁dagu	-10.0276
▁eamiálbmog	-10.0276
44	-10.0283
rvalu	-10.0283
mučča	-10.0285
áldu	-10.0287
his	-10.029
nála	-10.029
ohtalus	-10.0301
▁nuor	-10.0304
▁njuoska	-10.0317
▁doarjja	-10.0331
▁stivrralaht	-10.0332
▁Ferteb	-10.0334
issona	-10.0344
▁jahke	-10.0344
▁jám	-10.0354
▁dálon	-10.0356
▁godd	-10.0363
allam	-10.0363
▁suokkarda	-10.0365
▁prinsihpala	-10.0373
▁Váil	-10.0374
▁dikšumi	-10.0376
▁čohkkede	-10.0388
bá	-10.0394
der	-10.0398
▁váldd	-10.0401
alusa	-10.0404
▁ságastallamii	-10.0414
tojuvvo	-10.0424
eddjii	-10.0428
▁Hel	-10.0433
▁dulka	-10.0438
▁Ev	-10.0438
▁oahpaheddjiid	-10.0447
▁lohkki	-10.0459
▁fárreh	-10.0464
ásahus	-10.048
▁jáhkki	-10.0483
skko	-10.0494
▁hálla	-10.0496
uostta	-10.0512
kk	-10.0517
▁ruovtto	-10.0521
▁goikad	-10.0531
állu	-10.054
▁oađđá	-10.0547
▁jie	-10.0551
jehkos	-10.0562
lggi	-10.0566
▁láhtti	-10.0571
oji	-10.0572
▁sápmelaš	-10.0585
▁eallin	-10.059
▁oru	-10.0594
▁Dárbba	-10.0599
lassánea	-10.065
mma	-10.065
mánni	-10.0651
▁geavv	-10.0655
lvvui	-10.0657
▁ášš	-10.067
bus	-10.0676
▁Máht	-10.068
▁nuppástuht	-10.0683
▁dovdd	-10.0684
lii	-10.0684
stahtti	-10.0693
▁iešmearridea	-10.0697
▁jávrri	-10.0702
▁lihka	-10.0702
▁dor	-10.0703
▁láibum	-10.0712
bme	-10.0731
▁bist	-10.0739
bbai	-10.0746
láiggi	-10.0756
▁Finnmárko	-10.0785
muš	-10.0786
ihtabe	-10.0792
▁báhce	-10.0799
▁2	-10.0802
▁almmi	-10.0814
▁Ber	-10.0818
▁TV	-10.0821
▁main	-10.0828
▁gohčoduvv	-10.083
gai	-10.0833
▁Nordlys	-10.0842
ierru	-10.0848
áseabbo	-10.0871
bli	-10.0872
▁čuovvul	-10.0873
gáš	-10.0884
olle	-10.0889
▁nan	-10.0904
luid	-10.0905
▁opmoda	-10.0915
▁godde	-10.0919
áhce	-10.093
▁me	-10.095
▁ráv	-10.0967
▁mávssola	-10.0979
▁doallam	-10.1022
llui	-10.1038
▁rivg	-10.1056
ahusa	-10.1064
atematihkka	-10.1074
▁áige	-10.1074
▁ráppi	-10.1077
iehtá	-10.1079
▁nor	-10.1092
▁dássása	-10.1119
áhkká	-10.1132
▁eadná	-10.115
▁vásáhusai	-10.1152
▁joga	-10.1187
▁háll	-10.1189
▁lie	-10.1199
iehka	-10.1206
▁seahk	-10.1212
▁gus	-10.1215
▁berošta	-10.122
▁str	-10.122
▁buorida	-10.122
▁heiveh	-10.1224
ira	-10.1259
oŋai	-10.126
▁viidás	-10.1266
▁rievd	-10.1275
99	-10.1277
▁diŋgoj	-10.1278
elas	-10.1281
aša	-10.1288
divvun	-10.1291
▁Muhti	-10.1323
main	-10.1334
▁biis	-10.1347
čoahkkima	-10.1353
lihkka	-10.136
▁bok	-10.1361
▁duoj	-10.1369
▁áigg	-10.1379
▁beatnagi	-10.1379
▁fuomáš	-10.1385
ihk	-10.1412
hke	-10.1435
▁veahkke	-10.144
▁ruovttustivr	-10.1445
▁vákki	-10.1452
▁dagaha	-10.1453
▁gurpa	-10.1466
hkkái	-10.1487
▁dálkk	-10.1494
▁16	-10.1496
pera	-10.1499
doaimmaha	-10.1503
▁Hea	-10.152
▁luoht	-10.1531
▁dálkki	-10.1542
bierg	-10.1543
▁fatnasii	-10.1545
▁oli	-10.1549
▁geainnu	-10.1556
▁beaivvá	-10.1564
nala	-10.1577
easet	-10.1578
▁ráid	-10.1578
▁meannuda	-10.1613
vás	-10.1622
hkkojuvvo	-10.1625
viess	-10.1646
jell	-10.1683
▁hárjehalla	-10.1689
▁muit	-10.1695
▁jearahalla	-10.1704
nai	-10.171
ččaide	-10.1721
▁borrá	-10.173
htt	-10.1737
▁geavahanvuoiga	-10.1752
nassii	-10.1769
alit	-10.1773
▁dálk	-10.1802
▁ju	-10.1817
▁áddejumi	-10.1825
p	-10.1839
▁riev	-10.1853
▁láhk	-10.186
oalmmá	-10.1865
▁Sk	-10.1865
vár	-10.1883
▁iešmearridan	-10.1906
▁guo	-10.192
▁gask	-10.1927
▁lági	-10.1938
ket	-10.1954
ierra	-10.1956
▁dorvv	-10.1958
vuođaid	-10.1964
▁Dás	-10.2007
ietna	-10.2012
vos	-10.2029
▁Heai	-10.2033
▁bii	-10.2049
há	-10.2053
vis	-10.2054
▁bott	-10.2061
eriija	-10.2061
hildu	-10.2073
gárddi	-10.2076
▁mearkkaš	-10.2093
ven	-10.2097
lliid	-10.2103
fu	-10.2109
▁rom	-10.2112
▁oasála	-10.2113
opmodahk	-10.2115
registrerem	-10.2126
lge	-10.2128
lla	-10.214
▁áj	-10.2159
▁liggej	-10.2169
stad	-10.2187
eamidi	-10.2188
ges	-10.2196
heami	-10.2201
▁gease	-10.2215
▁bálv	-10.2235
duvvo	-10.2258
artta	-10.229
▁nieiddaid	-10.23
iehtta	-10.2311
fara	-10.235
▁vur	-10.2356
▁mearrádus	-10.237
uorus	-10.2382
dollii	-10.2387
▁meahcástea	-10.2391
▁17.	-10.2392
mmas	-10.2398
uorrav	-10.2424
▁Pe	-10.2431
▁sutt	-10.2436
▁Dálu	-10.2437
ačča	-10.245
let	-10.2457
▁riggodaga	-10.2474
bih	-10.2481
▁badjela	-10.2498
▁mill	-10.2501
▁bálvalusa	-10.2501
joga	-10.2515
viidoda	-10.2534
▁leame	-10.2543
▁ija	-10.2553
▁Soa	-10.2558
iiva	-10.2573
▁dáin	-10.2573
álddahusa	-10.2574
▁maŋ	-10.2577
▁vuostái	-10.2617
▁in	-10.2626
ihke	-10.2637
ccai	-10.2648
▁Dáidd	-10.265
▁lanjaid	-10.2657
ruoŧa	-10.2661
▁guora	-10.2663
▁uhca	-10.269
▁buođđ	-10.2691
▁láhtte	-10.2701
▁čalmm	-10.2701
▁dea	-10.2742
▁Er	-10.2773
▁listt	-10.2775
dálu	-10.2785
▁ásahuvvo	-10.2797
▁heaht	-10.2798
▁vuođđud	-10.2805
ašuvnna	-10.2813
sá	-10.2828
vvá	-10.2843
▁atne	-10.2846
má	-10.2875
nvejolašvuo	-10.2926
▁350	-10.2936
kt	-10.294
▁mies	-10.2944
vi	-10.2987
sát	-10.3007
▁vásih	-10.3008
▁báhki	-10.3022
geatnegasvuođa	-10.3024
oaks	-10.3042
ihtto	-10.3056
emin	-10.3092
▁vier	-10.3096
▁ši	-10.3101
▁ipmirdi	-10.3105
▁geahččal	-10.3107
▁Guhk	-10.3153
▁ama	-10.3189
idan	-10.3212
julgg	-10.3214
ngotti	-10.323
▁gullo	-10.3252
ttu	-10.3273
▁hálii	-10.329
▁mearrádusai	-10.3293
hk	-10.3301
▁ra	-10.3305
▁sárg	-10.3309
inere	-10.3312
rte	-10.3316
▁áss	-10.3328
eatnat	-10.3334
orru	-10.3341
▁jaska	-10.3351
oa	-10.3351
žil	-10.3353
▁ráhkisvuo	-10.3377
▁ma	-10.3381
iváldi	-10.3403
dagai	-10.3405
oria	-10.343
▁vuolgg	-10.3455
rre	-10.3465
hkan	-10.3483
▁olg	-10.3492
rgi	-10.3494
vierui	-10.3504
cc	-10.3516
▁vuovdá	-10.354
▁gápmagii	-10.3556
▁Guo	-10.3574
▁dil	-10.3619
▁unnitlo	-10.3643
oma	-10.3666
ill	-10.3666
šuvnnai	-10.3691
uro	-10.3696
truvnn	-10.3706
▁mih	-10.3706
▁namah	-10.3707
ssi	-10.3738
▁35	-10.3746
▁Eam	-10.3754
álgga	-10.3769
▁oassálast	-10.3774
▁Laht	-10.379
▁giel	-10.379
tibe	-10.3794
inni	-10.3797
vttá	-10.3819
▁hást	-10.3844
đi	-10.3851
dame	-10.3869
▁áššii	-10.3872
lág	-10.3873
ik	-10.3876
▁vuođđuda	-10.388
vvir	-10.3898
▁Ri	-10.3911
▁vuoli	-10.3911
K	-10.3916
▁vearro	-10.392
▁Bur	-10.3923
▁vuovdd	-10.3929
riegádan	-10.3942
skuvla	-10.3942
▁huksen	-10.3946
áppa	-10.3993
tein	-10.4016
▁gol	-10.4023
▁jurddašan	-10.4045
ab	-10.4049
▁nuppiid	-10.4055
evaš	-10.4062
tmma	-10.4064
▁par	-10.4072
▁maŋá	-10.4075
▁buor	-10.4085
▁Mat	-10.4088
tihuvvo	-10.4097
age	-10.4109
▁Vuov	-10.4128
▁báikkii	-10.4146
uheapm	-10.4195
pm	-10.4195
▁Se	-10.4208
oaivá	-10.4217
8	-10.4245
ore	-10.4247
aris	-10.4248
▁gáibida	-10.4251
▁Áhč	-10.4253
đas	-10.4256
▁Suov	-10.4272
mearka	-10.4281
htá	-10.4298
▁ipmird	-10.4304
rv	-10.4314
▁Dain	-10.4335
jah	-10.435
▁meahcáste	-10.4364
ram	-10.4377
▁iežá	-10.4389
▁bovde	-10.4391
vejolašvuođa	-10.4414
▁uhc	-10.4453
áfu	-10.4468
▁log	-10.4477
▁suohkanii	-10.4486
dili	-10.4489
mánn	-10.449
st	-10.4495
nčoahkki	-10.4502
▁duodj	-10.4549
kat	-10.4563
ria	-10.4573
▁rie	-10.4581
▁olmm	-10.4588
taid	-10.4593
ilea	-10.4605
bottu	-10.4614
ána	-10.4618
▁huik	-10.4658
nvuoigatvuo	-10.4672
▁áigub	-10.4687
▁nuppii	-10.47
▁plán	-10.4702
▁veahka	-10.4708
▁oahpaheaddj	-10.4714
bbe	-10.4732
njuolggadus	-10.4734
▁vácc	-10.4748
dj	-10.4756
ld	-10.4771
ddas	-10.4774
ealáhus	-10.4779
vssá	-10.4781
▁ovda	-10.4789
stallan	-10.4799
▁ovddi	-10.4815
vvo	-10.4823
▁ášše	-10.4844
tná	-10.4844
iála	-10.4852
▁nja	-10.4865
skan	-10.4879
ekt	-10.4881
aláhusdoaimmahea	-10.4914
uopmá	-10.4935
gii	-10.4943
▁gilvv	-10.4943
▁njo	-10.4951
amma	-10.4957
▁vuostála	-10.4972
▁bivdu	-10.4982
ohisvuo	-10.5018
ssuid	-10.502
olu	-10.5022
▁girjj	-10.5028
▁gall	-10.503
▁ráhkis	-10.5046
▁gáržži	-10.5158
▁meahcie	-10.5171
eallá	-10.5195
oahpa	-10.5208
▁njá	-10.5213
▁prinsi	-10.5222
▁ráb	-10.523
rve	-10.5231
nnj	-10.5235
vdd	-10.5273
hárjehallan	-10.5275
▁dieđá	-10.5307
▁Jud	-10.531
za	-10.533
▁Gov	-10.535
isvuođa	-10.5355
ttat	-10.5363
▁sáhtti	-10.5367
ora	-10.5394
kkár	-10.5397
johtimi	-10.5402
▁olbmái	-10.5403
▁áhččá	-10.5412
jui	-10.5432
▁huksej	-10.5439
▁soahp	-10.5442
jin	-10.5442
almmá	-10.5449
árbb	-10.5456
▁jearahall	-10.5477
ovdna	-10.5484
▁ligge	-10.5489
ávcc	-10.5519
▁gieđahalla	-10.553
ráđđ	-10.555
mo	-10.5557
▁guolást	-10.5562
▁ho	-10.5593
▁suohkani	-10.5597
bbu	-10.5602
miela	-10.5604
▁Orr	-10.5607
ema	-10.5616
fi	-10.5616
ára	-10.5635
▁golg	-10.564
▁diva	-10.5644
juvvoj	-10.5657
▁hálid	-10.5678
bivd	-10.5681
▁badje	-10.5692
▁St	-10.5703
▁fuomáši	-10.5723
▁Má	-10.5729
▁suhtt	-10.5772
ohpa	-10.5787
▁čoahkkimii	-10.5789
uheame	-10.579
rj	-10.5802
ti	-10.581
sas	-10.5812
▁čadn	-10.5819
▁pe	-10.5824
lbmot	-10.5836
▁buht	-10.584
beall	-10.5854
▁guovlluid	-10.5854
ruš	-10.5863
▁rievttála	-10.5864
iŋgojit	-10.5886
▁gidd	-10.5909
▁3	-10.5921
anbáik	-10.5948
▁gieđahall	-10.5963
igoahtá	-10.5973
opmodat	-10.5987
sala	-10.5996
▁giehta	-10.5996
▁fáll	-10.6008
agi	-10.6018
▁čie	-10.6036
rje	-10.6044
hkk	-10.606
▁čilg	-10.6064
alus	-10.6065
▁hearg	-10.6081
njá	-10.6083
▁nisson	-10.6088
▁sávzzai	-10.6106
njoavkku	-10.6125
pe	-10.6125
uorru	-10.6126
orgán	-10.6131
imm	-10.6151
▁9	-10.6161
dássásaš	-10.6161
uohta	-10.6162
lahttu	-10.6169
▁dol	-10.617
▁bálvalus	-10.6173
▁viidáse	-10.618
departement	-10.6199
ága	-10.6201
ll	-10.6205
vnnu	-10.6208
gotti	-10.6229
▁ásai	-10.6244
lohkamii	-10.6248
anprográmma	-10.6273
gg	-10.628
uige	-10.6294
▁árvvoštallami	-10.6299
eliid	-10.6377
▁válddi	-10.6377
searv	-10.6393
▁hil	-10.642
▁lanjai	-10.6421
▁vásáhus	-10.6424
▁dutk	-10.6425
▁válljej	-10.6427
aksi	-10.6427
ássa	-10.644
▁muor	-10.6442
gátti	-10.6467
▁iđ	-10.6473
ástuvv	-10.6494
eahkki	-10.6497
▁Dáht	-10.6499
seahka	-10.6508
▁vállj	-10.6536
ášši	-10.6614
pp	-10.663
lb	-10.6634
▁váil	-10.6637
kkiid	-10.6669
▁beatnag	-10.6709
eallje	-10.6751
estad	-10.6757
▁čađahe	-10.6764
▁beaivváži	-10.6773
ngilvvu	-10.6813
▁lađđasi	-10.6827
▁earáid	-10.6839
olit	-10.6843
▁váid	-10.6846
▁lullisám	-10.6855
ása	-10.6858
ussii	-10.6859
▁geahččali	-10.6873
▁Divššohasa	-10.6899
ktas	-10.6905
pmasii	-10.6905
uolleg	-10.6911
▁Oa	-10.6938
ovu	-10.6941
▁Álbmot	-10.6945
ađi	-10.695
▁buoll	-10.6952
lái	-10.6953
▁sápmela	-10.6963
▁bisu	-10.698
ágaid	-10.6985
llus	-10.6992
▁Áig	-10.702
▁čea	-10.7048
ivv	-10.7058
60	-10.7061
▁Gul	-10.7062
đđ	-10.7069
olbmo	-10.7082
ledje	-10.7085
▁olaha	-10.7095
▁Dear	-10.7098
▁luos	-10.712
▁deh	-10.7133
agiid	-10.7145
ivas	-10.7159
asálaččaid	-10.7167
ruh	-10.7171
▁čáz	-10.7183
▁gálv	-10.7183
álbmog	-10.7217
lažž	-10.722
▁ái	-10.7223
▁dav	-10.7243
▁Gil	-10.7256
iŋg	-10.7262
básár	-10.7268
▁riv	-10.7269
ska	-10.7289
▁buoridi	-10.7325
▁ca	-10.7341
evá	-10.7343
▁borramuš	-10.7344
hild	-10.7352
▁oahpás	-10.741
▁goikada	-10.7433
So	-10.746
gárvvu	-10.746
▁dast	-10.7464
▁suokkard	-10.7465
kka	-10.7466
▁gil	-10.7482
▁árvvoštallam	-10.7483
▁báhkk	-10.7507
▁vuoi	-10.7532
▁dolloj	-10.7534
▁muorai	-10.7535
hálla	-10.7535
lei	-10.7548
▁gáibádus	-10.755
80	-10.7572
▁maŋŋe	-10.7572
▁varr	-10.7585
▁geatnegas	-10.7586
sto	-10.7587
ázzi	-10.7597
sti	-10.7599
▁oalg	-10.761
lka	-10.7612
▁rii	-10.7614
▁doaibm	-10.7621
▁čielgg	-10.7625
▁eami	-10.7659
uskk	-10.7667
▁Buolbmá	-10.7676
▁divvu	-10.7702
márkan	-10.7702
▁njuosk	-10.7714
▁geahppase	-10.7717
▁Oro	-10.7729
vgg	-10.774
▁iež	-10.7751
▁doarjj	-10.7771
▁Mol	-10.7781
▁gorrojuvv	-10.7785
ame	-10.779
▁huks	-10.7815
eará	-10.7818
lkkas	-10.7824
▁eaktu	-10.7828
sko	-10.7847
ebeall	-10.7849
▁eaktodáht	-10.7851
▁Vá	-10.7852
ođđa	-10.7855
uvssa	-10.7855
uvttá	-10.7858
oaivi	-10.787
▁vuor	-10.7878
internáhtta	-10.7885
▁div	-10.7887
áikkuhusa	-10.7894
ki	-10.7899
earra	-10.7901
áseabb	-10.7918
▁ráf	-10.7942
stivra	-10.7954
T	-10.7967
▁Mor	-10.7983
▁vih	-10.7989
mánáid	-10.7993
vahku	-10.7996
lddus	-10.8021
filbm	-10.8026
rgga	-10.8031
ondduriggodagaid	-10.8031
▁váhne	-10.8033
95	-10.8038
luo	-10.8045
1980	-10.8047
mil	-10.8069
ádagai	-10.807
▁dear	-10.8077
veahkke	-10.8093
hkás	-10.8104
po	-10.8106
▁dubm	-10.8111
▁vealah	-10.8116
Guovdageainnu	-10.8124
dalla	-10.8129
allan	-10.8131
▁vácci	-10.8131
ánnodaga	-10.8138
neba	-10.8151
dola	-10.8159
S	-10.8163
▁galle	-10.8171
▁sisdoal	-10.8173
servodaga	-10.8176
▁guovddáži	-10.8177
M	-10.818
Máhte	-10.8192
naš	-10.8192
Iŋggá	-10.821
guokt	-10.8212
ologa	-10.8215
adeapm	-10.8215
Trøndelag	-10.822
skeaŋkka	-10.8225
▁ovdán	-10.8227
psyk	-10.8232
seahkka	-10.8233
teavstta	-10.8236
▁Vuoll	-10.8237
sieđg	-10.8239
skuvl	-10.8246
lahtu	-10.8251
njálmm	-10.8256
les	-10.8259
30	-10.8261
dábála	-10.8268
kke	-10.8274
duddjo	-10.8275
▁borad	-10.8277
dárbbu	-10.8284
biras	-10.8286
jándor	-10.829
geavaheami	-10.8292
hálddašeami	-10.8293
▁Po	-10.8293
proseassa	-10.8293
gávtti	-10.8294
buhtadusa	-10.8295
erroš	-10.8296
▁ipmir	-10.8296
dutkamiid	-10.8298
▁boraspir	-10.8299
▁čá	-10.8305
▁čakčamá	-10.8305
bušeaht	-10.8309
▁ligg	-10.8312
▁gáržžiduvv	-10.8313
kultuvrra	-10.8317
departemeantta	-10.8324
lahtuid	-10.8326
jahkása	-10.834
Mánn	-10.8341
fra	-10.8344
▁nju	-10.835
0-	-10.8353
gándda	-10.8353
riikka	-10.8356
12	-10.8364
duoddari	-10.8372
kurssa	-10.8373
P	-10.8392
lojuvvo	-10.8404
▁guđ	-10.8404
eakti	-10.8406
Mi	-10.8406
ures	-10.8407
anbarggu	-10.8418
▁jávk	-10.8421
nieidda	-10.8422
▁vahkk	-10.8429
bear	-10.8431
pu	-10.8433
rro	-10.8434
meannud	-10.8437
biilla	-10.8445
čiŋa	-10.8452
ođ	-10.8453
hukse	-10.8455
kon	-10.8456
tnama	-10.8457
▁ávkkástalla	-10.8466
▁šiehtadu	-10.847
▁loahpa	-10.847
dárb	-10.8472
ibi	-10.8484
dutkan	-10.8496
jiena	-10.8499
jovk	-10.8517
išgo	-10.8551
▁Čáh	-10.8552
▁Guossevies	-10.8557
obeal	-10.8559
▁Dieđ	-10.856
▁berošt	-10.8562
▁Gra	-10.8564
arv	-10.8565
huksen	-10.8565
▁beatna	-10.8581
▁mearriduvv	-10.8585
N	-10.8589
portta	-10.8591
dieht	-10.8598
▁duddj	-10.8604
▁njun	-10.8605
H	-10.8608
nieid	-10.8612
orrun	-10.8618
hcit	-10.8625
dojuvvo	-10.8626
agaid	-10.863
válddi	-10.8632
▁geavahuvv	-10.8634
prošeavtta	-10.8636
eavttu	-10.8636
ter	-10.8643
▁juksa	-10.8652
▁čohkked	-10.8655
▁latnj	-10.8667
▁suddje	-10.8679
01	-10.8683
▁juolludea	-10.869
čuo	-10.8696
čál	-10.8696
Pe	-10.8697
▁divr	-10.8698
dálo	-10.8702
geahččal	-10.8713
uha	-10.8721
geard	-10.8724
▁sal	-10.8734
stivrra	-10.8738
hus	-10.8742
bmu	-10.8745
Ro	-10.8746
▁sámepolitihk	-10.8746
eai	-10.8757
gil	-10.8759
eapp	-10.8762
aset	-10.8763
uođđu	-10.8764
▁riekteáddeju	-10.8768
čoahkki	-10.8769
bearrašii	-10.8773
dieđu	-10.8781
evttohus	-10.8784
rik	-10.8789
dagu	-10.8796
▁vuosttald	-10.8814
cu	-10.8821
▁buhtismeahttu	-10.8826
▁eal	-10.8828
gáibádusa	-10.8838
čear	-10.8839
oaivvi	-10.884
▁juolg	-10.8845
vahkku	-10.8848
▁bohtosii	-10.885
▁ovdd	-10.8886
▁Nuor	-10.8897
▁uvss	-10.8897
bukti	-10.8897
Tu	-10.8899
▁guovl	-10.8901
muitalusa	-10.8902
nanbáik	-10.8917
▁sadjásašlahtu	-10.8921
▁gurp	-10.8923
eantt	-10.8923
áhpá	-10.8927
hkka	-10.8929
eahki	-10.8933
llan	-10.8935
▁gier	-10.8948
luohká	-10.8962
lonuh	-10.8967
▁sea	-10.897
áhkko	-10.8973
▁dár	-10.8973
guov	-10.8974
▁riikkačoahkki	-10.8975
▁čoa	-10.8981
▁skuvlamánáid	-10.8984
oaivili	-10.899
uh	-10.8991
vásáhusa	-10.9014
▁radi	-10.9016
viđ	-10.9019
boahtimi	-10.9019
bir	-10.9031
áhči	-10.9056
ohaga	-10.9072
▁iešguđe	-10.9073
▁luoitá	-10.9077
▁Geahč	-10.9084
igemear	-10.9087
láveji	-10.9103
ddos	-10.9104
hkke	-10.9112
▁br	-10.9115
▁imašta	-10.9116
hká	-10.9117
njárg	-10.9118
▁gotti	-10.9118
▁lihkahal	-10.9123
dalle	-10.9131
ŋgá	-10.9133
orjj	-10.9137
báhkk	-10.914
rejuvvo	-10.9168
▁deaivva	-10.9173
▁doarjag	-10.9173
▁mátk	-10.9179
▁oažž	-10.9182
bargi	-10.9184
oamastan	-10.9191
ámmá	-10.9192
áŋgir	-10.9192
ehkenastin	-10.9195
▁duođašt	-10.9197
ed	-10.9207
vvar	-10.9209
▁liht	-10.9213
nui	-10.9217
▁jáhk	-10.9227
▁diehtojuohki	-10.923
▁čiekč	-10.9234
Lah	-10.9234
▁Sámegi	-10.9235
▁Sa	-10.9236
▁muitale	-10.9241
▁Guov	-10.9242
▁háld	-10.9243
ákkis	-10.9246
ljii	-10.9249
▁Beassá	-10.9253
▁vuoiŋŋa	-10.9255
ggot	-10.9256
deapm	-10.9257
▁Tro	-10.9263
divššár	-10.9264
Norg	-10.9264
▁stivr	-10.9271
▁Boazo	-10.9275
▁geard	-10.9276
▁doaivv	-10.9282
čiekča	-10.9288
▁Ášš	-10.929
vodea	-10.9291
oktavuođa	-10.9292
▁Artihk	-10.9292
hča	-10.9292
hi	-10.9296
ihtta	-10.9298
▁Wil	-10.9298
ávre	-10.93
▁viidá	-10.93
▁ruoht	-10.9308
▁Nju	-10.9311
vvoj	-10.9313
ggasa	-10.9314
▁Joh	-10.932
▁vuoigat	-10.9322
ilálašvuođa	-10.9324
livi	-10.9324
▁hálddaš	-10.933
▁gáld	-10.9331
zz	-10.9332
uvrr	-10.9334
▁čállin	-10.9338
▁Stuor	-10.9341
▁mánáidgárd	-10.9341
▁máidn	-10.9345
▁smieht	-10.9346
estob	-10.9346
vččii	-10.9346
ag	-10.9351
earridanváld	-10.9361
▁poart	-10.9363
risttala	-10.9367
▁Gáiv	-10.9368
ullu	-10.9368
▁gill	-10.9368
▁Fert	-10.9372
▁smiehtta	-10.9373
ihkkala	-10.9374
▁konvenšuvdn	-10.9376
▁stivrr	-10.9377
▁givss	-10.9379
▁cealk	-10.9379
ldá	-10.9381
ilit	-10.9384
▁seavdnja	-10.9386
nii	-10.9392
▁W	-10.9392
▁joatkkaskuvl	-10.9393
▁báz	-10.9394
▁truv	-10.9394
▁Guovdage	-10.9403
dilálašvuo	-10.9403
▁veallá	-10.9405
ortne	-10.9405
lávva	-10.9405
rvvas	-10.9406
▁cealká	-10.9408
doall	-10.9409
kuvllas	-10.9414
ivgu	-10.9415
stáht	-10.9416
▁turist	-10.9417
biil	-10.9418
▁Haviik	-10.9418
▁politihkka	-10.942
▁boaz	-10.9422
valit	-10.9423
▁Bargiid	-10.9424
▁Gield	-10.9424
iggodagaid	-10.9425
▁Ráđđe	-10.9426
▁fylk	-10.9429
▁doarj	-10.9432
áide	-10.9432
▁gávpe	-10.9433
eavdnjad	-10.9433
bálkk	-10.9434
▁Intern	-10.9437
allanv	-10.9437
suorg	-10.9438
▁rievdad	-10.9438
heim	-10.9438
201	-10.9439
valáštalla	-10.944
ávž	-10.9441
▁rát	-10.9442
oaibmabiju	-10.9446
▁vahá	-10.9451
renoamá	-10.9451
div	-10.9452
geatnega	-10.9452
uvdna	-10.9453
▁goallos	-10.9453
iseválddi	-10.9453
▁fylkkagield	-10.9453
▁Ovda	-10.9454
suohka	-10.9454
▁1970	-10.9454
▁ossoda	-10.9455
áibádus	-10.9455
ivčče	-10.9456
ažalda	-10.9457
ffá	-10.9458
ieggan	-10.9459
▁Smiervu	-10.9459
štallan	-10.9459
ohccedivššároahp	-10.946
organis	-10.9461
uoht	-10.9462
rbevi	-10.9463
árrepresideant	-10.9463
skkáldas	-10.9464
iellja	-10.9464
▁hearvásvuo	-10.9465
epresideant	-10.9465
▁almenne	-10.9465
▁prošea	-10.9465
▁ruovttumátk	-10.9466
ápmu	-10.9466
rvvoštall	-10.9466
▁suodjalan	-10.9466
politihk	-10.9466
▁konfer	-10.9466
▁form	-10.9467
▁jearah	-10.9467
▁smáv	-10.9467
ukcasii	-10.9467
▁Jáhk	-10.9467
áhuva	-10.9467
▁áddej	-10.9467
▁servodat	-10.9467
▁verdde	-10.9467
▁Luonddu	-10.9467
arridi	-10.9467
biddjoj	-10.9467
æ	-10.9467
▁vejolašvuo	-10.9467
áhnem	-10.9467
suodjalanp	-10.9467
adepartemeant	-10.9467
§	-10.9467
¶	-10.9467
»	-10.9467
Ø	-10.9467
—	-10.9467
vašvuođa	-10.9468
bihtáid	-10.9468
ájeaddj	-10.9468
▁bearráige	-10.9468
liggen	-10.9468
ápmag	-10.9468
eiseváld	-10.9468
mear	-10.9468
iikkaid	-10.9468
ohttámuš	-10.9468
ssemánu	-10.9469
▁journ	-10.9469
sámiguovllu	-10.9469
ánáidgárd	-10.9469
ttus	-10.9469
▁poli	-10.9469
álkes	-10.947
▁joavk	-10.9471
meantta	-10.9471
rddašan	-10.9471
uovdag	-10.9471
▁organisašuv	-10.9472
▁imaš	-10.9472
čov	-10.9473
đoh	-10.9473
ddjojuvvo	-10.9473
aff	-10.9475
▁divšš	-10.9475
avdnj	-10.9475
ihkka	-10.9476
árkkist	-10.9476
hkkara	-10.9476
aláštallan	-10.9477
gáhtten	-10.9477
táhtain	-10.9477
▁silb	-10.9478
▁sotnabe	-10.9478
▁gárž	-10.9478
▁Maŋ	-10.9478
▁Olmmáiv	-10.9479
▁sávz	-10.9481
▁vuostta	-10.9481
aŋkk	-10.9482
▁rap	-10.9482
nmárk	-10.9482
▁gullevaš	-10.9484
▁Nord	-10.9486
antuvr	-10.9486
▁njuo	-10.9486
▁Tr	-10.9487
sašuvdna	-10.9489
šuvdna	-10.9489
áhp	-10.949
▁jurd	-10.949
tá	-10.9491
doášši	-10.9491
kšo	-10.9491
ovddid	-10.9492
volu	-10.9494
▁Nordl	-10.9494
vadan	-10.9496
amaha	-10.9496
▁dahkko	-10.9497
▁valáštallan	-10.9498
árján	-10.9499
aháda	-10.95
orski	-10.9503
ihkku	-10.9503
▁fer	-10.9503
800	-10.9505
cces	-10.9506
udno	-10.9506
rgalu	-10.9508
ššu	-10.9508
ihkkar	-10.9509
▁Har	-10.951
ahalle	-10.9512
immah	-10.9515
mášii	-10.9516
▁luond	-10.9517
kult	-10.9517
buss	-10.9517
áhkuid	-10.9517
▁bohc	-10.9518
▁adno	-10.9518
zzan	-10.9521
oanda	-10.9522
vlla	-10.9524
ahčai	-10.9525
fád	-10.9527
bal	-10.9529
▁nealg	-10.953
anbar	-10.953
▁Guovdageai	-10.9532
aštusa	-10.9535
nea	-10.9535
uoremus	-10.9535
lash	-10.9536
▁Nieid	-10.9539
dahtte	-10.9541
miideaset	-10.9542
▁sadjá	-10.9543
kála	-10.9543
davv	-10.9545
▁guovdd	-10.9547
giija	-10.955
pábba	-10.955
▁nann	-10.9551
aldat	-10.9552
▁Gáivu	-10.9558
▁Gir	-10.9559
áff	-10.956
álašvu	-10.9561
ššo	-10.9561
avviriik	-10.9562
vččas	-10.9563
▁fylkkad	-10.9565
▁oskk	-10.9566
▁juollude	-10.9567
eahtta	-10.9567
▁bajá	-10.9569
▁Sápm	-10.9576
▁oassá	-10.9577
boast	-10.958
grá	-10.9586
▁kulturv	-10.9586
ahanv	-10.9589
uopmo	-10.9591
iduvv	-10.9591
▁suoma	-10.9591
hkor	-10.9592
▁ver	-10.9593
▁meass	-10.9595
▁juoga	-10.9597
behii	-10.9603
iva	-10.9608
▁njuolgga	-10.9609
▁oaive	-10.9611
▁Divtta	-10.9613
ahtá	-10.9615
bor	-10.9615
steami	-10.9615
eive	-10.9616
ahala	-10.9625
ccu	-10.963
anplánai	-10.9634
sálas	-10.9635
▁liv	-10.9635
ŋggáš	-10.9636
▁vuodji	-10.9648
hal	-10.965
álašvuođa	-10.9663
ágga	-10.9667
▁ođđ	-10.967
uovlluid	-10.9671
▁her	-10.9673
divššára	-10.9674
▁op	-10.9677
▁dak	-10.9684
ttih	-10.9684
bmi	-10.9684
▁čilgej	-10.9687
co	-10.9688
gasvuođai	-10.969
feastta	-10.9691
▁buorid	-10.9694
uossevies	-10.9696
ggi	-10.9703
▁muitalusai	-10.9715
ark	-10.9716
▁Ma	-10.9717
▁ár	-10.972
▁vuođđu	-10.9722
isttis	-10.9738
lgevá	-10.9738
▁ođas	-10.9738
kanis	-10.9739
▁dássá	-10.9743
▁rievda	-10.9747
vdu	-10.9752
ráig	-10.9754
▁gažaldagai	-10.9759
emiid	-10.9764
ppá	-10.978
▁vul	-10.9782
đaid	-10.9786
omet	-10.9789
▁kri	-10.9792
álla	-10.9809
áiras	-10.9811
vre	-10.9816
rjja	-10.9817
uvnna	-10.9817
▁čállo	-10.9827
▁ealá	-10.9828
đis	-10.9832
▁ruov	-10.9836
▁Vuoi	-10.9841
árkanii	-10.9842
▁Rom	-10.9845
ilbeal	-10.9849
▁rig	-10.9859
rrol	-10.9866
▁Dean	-10.9866
▁ovttasta	-10.9868
▁oam	-10.9872
▁i	-10.9876
oarjja	-10.988
hter	-10.9891
▁njealje	-10.9892
▁Dav	-10.9895
▁Gá	-10.9897
▁internáhttadil	-10.9897
hu	-10.9901
▁sudn	-10.9911
ojuvvoj	-10.9913
iggái	-10.9914
vla	-10.9926
▁olggu	-10.9938
sodat	-10.994
irasa	-10.994
luvvo	-10.9942
ddon	-10.9946
lána	-10.9949
bie	-10.9956
uvtta	-10.9956
aealáhusa	-10.9957
lanjaid	-10.996
egiela	-10.9963
ástan	-10.9978
los	-10.9986
▁diehto	-10.9987
asteddjiid	-10.9994
▁Ár	-10.9997
▁gitt	-11.0014
aibma	-11.0019
oavk	-11.0028
nášši	-11.0038
▁Stu	-11.0042
mála	-11.0042
oviid	-11.0043
hppiid	-11.0048
áhpán	-11.0057
pmat	-11.0072
▁earrá	-11.0077
roste	-11.0082
▁Divtt	-11.0087
▁gárd	-11.0102
aleaddji	-11.0108
ihttome	-11.0112
vz	-11.0127
▁rehke	-11.0132
▁Buol	-11.0135
ttihuvvo	-11.0143
▁ilu	-11.0147
uorran	-11.0147
oidne	-11.0149
žo	-11.0162
▁álbmogi	-11.0163
pen	-11.0167
jjá	-11.0168
all	-11.0169
▁bir	-11.0169
iera	-11.0174
adji	-11.0175
ándda	-11.0185
▁ferteje	-11.0185
▁Márj	-11.0192
dskuvlla	-11.0192
sosi	-11.0194
▁giell	-11.0198
vra	-11.0205
asto	-11.0207
ttuid	-11.0207
▁kr	-11.0213
▁buol	-11.0218
láj	-11.0218
▁meht	-11.0218
kab	-11.0221
ašu	-11.0221
kkain	-11.0226
ástalla	-11.024
▁rohka	-11.025
tu	-11.0251
osiála	-11.0256
ldi	-11.0267
amuš	-11.0271
▁riik	-11.0291
máhtt	-11.0295
oivv	-11.0297
gask	-11.03
vrr	-11.0322
ári	-11.0324
gojuvvo	-11.0324
áhtta	-11.0333
idá	-11.0338
.01	-11.0339
▁muhti	-11.0358
▁Njuo	-11.0358
▁giellad	-11.0382
▁sáhtá	-11.0384
▁oas	-11.039
▁sku	-11.0396
steaddji	-11.0397
▁goika	-11.0398
ster	-11.0405
eahčča	-11.0419
enr	-11.0427
lan	-11.0431
▁hu	-11.0448
eren	-11.0449
▁el	-11.0453
▁Álbmotr	-11.0453
▁vaikk	-11.0466
▁girjjii	-11.0468
doarjagi	-11.0475
▁geass	-11.0479
llas	-11.0485
eči	-11.0506
of	-11.0506
dosii	-11.0509
▁lokt	-11.0513
▁Áhk	-11.0523
eaddjiid	-11.053
▁er	-11.0531
abivdos	-11.0533
akto	-11.0535
ravis	-11.0545
ukse	-11.0553
▁jurddaši	-11.0567
ihtii	-11.0568
dden	-11.0568
iŋgo	-11.0587
▁sám	-11.0593
kkoš	-11.0597
ođđasi	-11.0603
oahpahe	-11.0617
uoigan	-11.0625
▁hoahp	-11.0642
sttui	-11.0642
sttii	-11.0644
ehis	-11.0645
bmag	-11.0646
▁deatt	-11.0648
▁oahpahu	-11.065
žá	-11.0652
▁mer	-11.0656
▁olgo	-11.0658
▁iht	-11.0663
▁oahp	-11.0667
ráhk	-11.0679
▁goll	-11.0689
▁Tu	-11.0696
▁bálvalu	-11.07
eva	-11.0701
ittot	-11.0701
švuođa	-11.0744
kurs	-11.0746
ddag	-11.0754
dja	-11.0785
jumi	-11.0788
▁Fi	-11.0797
ččo	-11.083
▁inte	-11.0832
nni	-11.0835
▁oaivi	-11.0841
▁Vu	-11.0847
rga	-11.0847
rogie	-11.0849
stus	-11.0863
▁Uni	-11.0891
▁Mánáid	-11.0902
našu	-11.0924
▁sál	-11.0929
laččaid	-11.0942
bivdd	-11.0949
▁vázz	-11.0971
▁ovdána	-11.099
▁vea	-11.0991
viiss	-11.1017
▁kurs	-11.1087
kkadi	-11.1113
yt	-11.115
eassa	-11.1159
nalis	-11.1175
▁dáhpá	-11.1185
odagaid	-11.1199
made	-11.1221
ašupm	-11.1223
ázzil	-11.1225
llári	-11.1226
rret	-11.1245
▁boazodollii	-11.1246
▁dutka	-11.1252
▁8	-11.1271
▁vuodj	-11.1272
▁rohk	-11.1283
ikkuhusa	-11.1297
▁sil	-11.1314
stu	-11.1323
▁Kan	-11.1334
miel	-11.1365
anvuogi	-11.1371
▁almmola	-11.1371
timis	-11.1375
litea	-11.1375
▁ear	-11.1377
ep	-11.1377
esk	-11.1381
ggo	-11.1389
▁jur	-11.1389
▁doaibmavi	-11.1395
ari	-11.1399
▁ráđđ	-11.1417
▁Beas	-11.1437
▁šu	-11.1439
anda	-11.144
eaddjis	-11.1443
▁goas	-11.1456
rtt	-11.1462
▁siid	-11.1494
ámu	-11.1503
eatnama	-11.1505
ráhkad	-11.1506
rohaga	-11.1547
áđđ	-11.1562
ieidd	-11.1579
▁Ar	-11.1582
hkkej	-11.1594
▁beaht	-11.1603
egoaht	-11.1671
lli	-11.1674
ásár	-11.1676
ráđđá	-11.1684
nddo	-11.1703
▁bárt	-11.1724
llá	-11.1756
▁bálk	-11.1762
elis	-11.1767
deaddji	-11.1792
▁Sm	-11.1795
kis	-11.1817
ord	-11.1818
▁ger	-11.183
▁ferteb	-11.1838
oal	-11.1838
▁buss	-11.1843
▁Álg	-11.188
sseg	-11.1881
ille	-11.1895
▁guokt	-11.1965
▁birras	-11.1988
adoavttir	-11.199
nes	-11.1998
▁Te	-11.2003
astan	-11.2012
ŋas	-11.2017
▁siskk	-11.2079
oda	-11.2079
ddj	-11.2081
állo	-11.2081
anc	-11.2103
ádall	-11.2131
stalla	-11.2149
▁osii	-11.2153
gáid	-11.2208
▁Ve	-11.2209
ansearv	-11.2235
▁gápma	-11.2249
ávva	-11.2273
pet	-11.2279
rgg	-11.2285
jeh	-11.2302
uovgga	-11.2317
▁80	-11.2317
sull	-11.2317
oatn	-11.233
▁stu	-11.2339
▁gaskk	-11.2346
▁niegui	-11.2371
šgu	-11.2383
nvier	-11.2407
▁fatnasi	-11.2419
▁dearvvašvuođaf	-11.2421
aj	-11.2448
▁mearrida	-11.247
▁Hál	-11.249
▁geavahea	-11.2526
▁dárbba	-11.2528
▁váikkuh	-11.2561
irge	-11.2569
no	-11.2574
nssa	-11.2574
▁orrum	-11.258
▁jávkago	-11.2599
egas	-11.2628
árdn	-11.2642
▁vuovd	-11.2652
▁bal	-11.2662
mánná	-11.2666
llár	-11.2701
▁Čoa	-11.2714
nprográmma	-11.2733
uvv	-11.2744
um	-11.2772
sápmelaččaid	-11.2782
ádi	-11.2794
▁borramušai	-11.2794
rge	-11.2794
árren	-11.2819
▁Mearr	-11.286
ela	-11.2877
▁ko	-11.2889
▁ohppii	-11.2899
▁prinsihp	-11.2901
amiid	-11.2901
ada	-11.2932
▁vuoj	-11.2948
▁jodd	-11.2954
enai	-11.2962
▁nea	-11.2963
uvva	-11.2972
▁sága	-11.2978
tain	-11.3001
ásti	-11.3036
almmi	-11.305
nvu	-11.3052
▁Mánn	-11.3097
imme	-11.3101
▁gaskan	-11.3114
▁bálvalusai	-11.3121
▁stáhtain	-11.3123
dain	-11.3139
▁čier	-11.3162
skka	-11.3189
itno	-11.3195
ivve	-11.3199
▁mielk	-11.32
▁sádd	-11.3227
▁borr	-11.3228
sus	-11.3234
seam	-11.3246
▁gál	-11.3256
▁mearri	-11.3268
ddji	-11.3276
edi	-11.3288
uoiggai	-11.3292
▁list	-11.3297
mot	-11.3321
stre	-11.3326
rit	-11.3328
▁rán	-11.3344
orgána	-11.3359
▁Suo	-11.3367
▁be	-11.3384
▁diimm	-11.3391
▁fii	-11.3434
ahkk	-11.3438
bmejuvvo	-11.3445
hppe	-11.3478
ys	-11.348
▁duh	-11.3507
ansea	-11.351
ddus	-11.3539
ehket	-11.3546
tiinn	-11.3568
ehka	-11.3581
ooahp	-11.3582
▁Sámedigge	-11.3609
▁deaivvade	-11.3656
▁jávrrii	-11.3661
oađis	-11.3672
▁biil	-11.3683
áŋga	-11.3712
hiid	-11.3771
ohkan	-11.378
astt	-11.3896
▁Oas	-11.3911
ahkke	-11.3996
▁mil	-11.4015
anna	-11.4057
ealáhusai	-11.4086
▁maidd	-11.4092
áđđe	-11.4129
ssáž	-11.4131
▁veall	-11.4134
▁gái	-11.4171
▁báit	-11.4184
váldim	-11.4214
▁eanan	-11.4233
▁borram	-11.4241
ohká	-11.4251
ahallamii	-11.426
▁okti	-11.4263
▁čielgga	-11.4289
dut	-11.4301
▁dulk	-11.4309
▁vuov	-11.4318
▁rádja	-11.4353
▁dálo	-11.4355
▁namu	-11.4362
ument	-11.4365
▁Boaht	-11.4378
ddan	-11.4405
▁geo	-11.4418
▁luoi	-11.4421
▁nam	-11.4423
▁dai	-11.445
áme	-11.4467
nádus	-11.4538
▁šattui	-11.4546
ogai	-11.4562
len	-11.4565
tvu	-11.4568
rasa	-11.4578
arg	-11.4593
ppi	-11.4641
ej	-11.4643
▁Ne	-11.4653
▁eks	-11.4667
gottiid	-11.4674
▁já	-11.4683
▁guor	-11.4715
iehtadu	-11.4722
oz	-11.4805
uks	-11.4809
kes	-11.4821
aste	-11.4851
eainn	-11.4852
1.	-11.4862
apmá	-11.4995
▁ovdda	-11.5038
gel	-11.5053
▁Nor	-11.5064
▁lađ	-11.5084
▁seai	-11.5107
ŋ	-11.5112
98	-11.5123
eg	-11.5139
▁š	-11.5161
ppu	-11.5207
▁No	-11.5225
egá	-11.5225
atna	-11.5241
ásačča	-11.5272
▁sko	-11.5275
▁oahpaheaddjis	-11.5344
ise	-11.5398
▁To	-11.5417
cci	-11.543
▁klássalanjai	-11.5443
▁ov	-11.5449
▁náit	-11.5485
▁suinn	-11.5486
▁Ká	-11.5501
▁fuola	-11.5541
njuolggadusa	-11.5548
▁viht	-11.5587
▁nál	-11.5591
juv	-11.5602
ib	-11.5611
ča	-11.5629
ojit	-11.5656
era	-11.5666
▁gáv	-11.572
ive	-11.5768
gad	-11.5847
iba	-11.5868
▁gár	-11.5882
vea	-11.5898
ám	-11.5916
gov	-11.5935
▁sie	-11.5975
ullisámi	-11.6003
báikki	-11.6012
agohte	-11.6029
olahan	-11.6031
▁fu	-11.6067
▁k	-11.6091
▁soahpa	-11.6121
čáll	-11.6173
áin	-11.6193
agoahtá	-11.6238
anii	-11.6252
▁ges	-11.6319
nej	-11.6368
ang	-11.6399
Ka	-11.6406
httii	-11.6444
šan	-11.6449
▁gáržžid	-11.6486
ož	-11.6496
▁Div	-11.6508
ht	-11.6537
árbba	-11.6558
niid	-11.6587
▁Gi	-11.6652
isto	-11.6697
rk	-11.6721
▁gáhtt	-11.6765
din	-11.677
▁álgga	-11.6782
uokte	-11.6797
rd	-11.6806
said	-11.6829
ted	-11.6859
▁gorr	-11.6866
ež	-11.6899
áinna	-11.6926
kái	-11.7002
▁rohkadalla	-11.7006
▁astt	-11.7018
▁Ollug	-11.702
ŋŋel	-11.7059
inge	-11.7065
guovddáži	-11.7104
▁Ul	-11.7118
ad	-11.7133
asis	-11.7219
▁boastt	-11.7271
ámas	-11.7315
iiddu	-11.7322
mmái	-11.7334
ástuvva	-11.734
nái	-11.7353
jad	-11.7373
uođa	-11.743
adnojuvvo	-11.7446
▁duor	-11.7458
ivččii	-11.7538
uččaide	-11.7545
tal	-11.7583
mann	-11.764
áhc	-11.7684
arje	-11.7711
▁doll	-11.7759
das	-11.7781
▁álggah	-11.7817
agođii	-11.7888
či	-11.7926
▁ruht	-11.793
bba	-11.7934
stea	-11.8027
arja	-11.803
ast	-11.8115
▁beass	-11.8116
tos	-11.8191
stall	-11.8215
ittii	-11.8225
lági	-11.8246
oba	-11.8248
ahusai	-11.8303
ašan	-11.8311
▁res	-11.8361
zihan	-11.8368
▁fám	-11.8427
▁Sn	-11.8433
▁eadn	-11.8463
▁hi	-11.8479
emii	-11.8493
addj	-11.8499
▁mai	-11.8516
dál	-11.8568
ajá	-11.8589
avii	-11.8595
etti	-11.8605
9.	-11.8639
▁namm	-11.8651
last	-11.871
▁eatnam	-11.8767
ogiella	-11.8813
afit	-11.8866
▁Od	-11.8923
áidda	-11.9007
▁davvi	-11.9027
huvvoj	-11.9099
vvun	-11.9138
onas	-11.9197
láhusdoaimmahea	-11.9209
▁or	-11.9242
aska	-11.9368
hcci	-11.9389
djá	-11.9464
issá	-11.9484
kkii	-11.9489
tt	-11.9496
part	-11.9594
▁Nii	-11.9672
olis	-11.9681
▁váida	-11.9795
nder	-11.9813
ollii	-11.9849
dad	-11.9874
ddo	-11.9894
ud	-11.9916
▁fil	-11.9937
áhta	-11.9944
reg	-12.0121
▁ve	-12.0162
ehiid	-12.0184
▁árvvoštall	-12.0219
historjjála	-12.0259
ori	-12.0284
ruvnn	-12.0312
ehá	-12.0342
ca	-12.0355
gáttii	-12.0368
goaht	-12.0564
juohkin	-12.0608
keaht	-12.0689
uollái	-12.0692
diid	-12.0765
ivvi	-12.088
▁Sámedikkii	-12.0899
▁leahk	-12.1025
vuovd	-12.1055
vttas	-12.1152
áiki	-12.1184
áss	-12.1281
ango	-12.1353
▁gud	-12.1359
zá	-12.1425
áv	-12.1436
ahted	-12.1473
▁jáv	-12.1505
láhk	-12.1621
ago	-12.1684
▁guh	-12.1696
se	-12.1716
áhkái	-12.1722
ie	-12.1758
álu	-12.178
še	-12.179
▁Bir	-12.1806
▁Bii	-12.1908
lda	-12.193
ibm	-12.1996
tno	-12.2003
sin	-12.2017
idu	-12.2114
aig	-12.2122
abe	-12.2137
▁gulleva	-12.2175
ččab	-12.2271
uovddáš	-12.228
šat	-12.2302
▁ráhkade	-12.2359
▁fámui	-12.243
náig	-12.2438
lgga	-12.2471
svuođa	-12.2524
▁almm	-12.2537
▁iešmearrid	-12.254
asas	-12.2608
áhki	-12.2614
rg	-12.2747
adet	-12.2771
▁nuo	-12.2787
▁isi	-12.2801
rgojuvvo	-12.2855
ealli	-12.293
odaga	-12.294
▁oađđ	-12.2941
oddu	-12.2979
hcc	-12.2995
ask	-12.3078
luht	-12.3125
álas	-12.3148
▁historjjála	-12.3149
rái	-12.3161
ei	-12.3264
Š	-12.3281
W	-12.3282
C	-12.3283
U	-12.3284
ŧ	-12.3285
Č	-12.3286
4	-12.3287
9	-12.3288
A	-12.3289
F	-12.329
R	-12.3291
Á	-12.3292
V	-12.3293
E	-12.3294
I	-12.3295
B	-12.3296
L	-12.3297
G	-12.3298
D	-12.3299
rbb	-12.33
č	-12.33
