<unk>	0
▁t	-0
he	-1
▁a	-2
in	-3
▁w	-4
▁s	-5
ou	-6
re	-7
ha	-8
▁T	-9
om	-10
▁to	-11
▁d	-12
is	-13
on	-14
▁I	-15
▁the	-16
▁b	-17
er	-18
▁Tom	-19
▁m	-20
ed	-21
▁c	-22
ing	-23
hat	-24
an	-25
ar	-26
▁f	-27
en	-28
▁l	-29
it	-30
or	-31
ll	-32
▁y	-33
▁p	-34
▁that	-35
as	-36
es	-37
▁you	-38
▁g	-39
▁o	-40
▁an	-41
▁n	-42
▁he	-43
▁h	-44
▁ha	-45
▁is	-46
id	-47
ve	-48
▁in	-49
▁do	-50
▁M	-51
at	-52
▁be	-53
ow	-54
▁th	-55
ld	-56
▁of	-57
ay	-58
ot	-59
▁was	-60
ary	-61
le	-62
us	-63
▁and	-64
▁Mary	-65
et	-66
▁S	-67
▁e	-68
im	-69
▁W	-70
ic	-71
▁The	-72
ver	-73
▁k	-74
▁H	-75
ri	-76
al	-77
am	-78
gh	-79
▁on	-80
▁re	-81
▁st	-82
▁we	-83
oo	-84
▁me	-85
ould	-86
▁for	-87
ke	-88
▁li	-89
ly	-90
st	-91
ent	-92
ght	-93
ac	-94
ad	-95
▁A	-96
▁ne	-97
▁kn	-98
ant	-99
▁it	-100
se	-101
▁did	-102
out	-103
▁He	-104
▁Y	-105
▁have	-106
ith	-107
ro	-108
ion	-109
un	-110
ill	-111
▁go	-112
▁with	-113
ir	-114
ut	-115
ch	-116
▁sa	-117
▁know	-118
▁his	-119
▁are	-120
all	-121
▁not	-122
▁don	-123
▁as	-124
her	-125
▁want	-126
ome	-127
ink	-128
ur	-129
▁at	-130
very	-131
▁se	-132
ter	-133
▁D	-134
▁her	-135
▁can	-136
▁said	-137
▁You	-138
pp	-139
▁sh	-140
▁think	-141
ami	-142
▁didn	-143
▁this	-144
ust	-145
▁ab	-146
▁my	-147
▁We	-148
▁has	-149
▁she	-150
ce	-151
ore	-152
▁Sami	-153
▁like	-154
ct	-155
▁wh	-156
if	-157
▁him	-158
ain	-159
op	-160
one	-161
hing	-162
▁It	-163
▁She	-164
▁r	-165
▁B	-166
ook	-167
▁j	-168
▁what	-169
▁L	-170
▁they	-171
▁your	-172
▁wor	-173
up	-174
▁us	-175
▁tr	-176
il	-177
▁any	-178
▁te	-179
end	-180
▁su	-181
ren	-182
▁Z	-183
▁al	-184
▁so	-185
ost	-186
ally	-187
iri	-188
▁had	-189
ge	-190
▁Ziri	-191
▁le	-192
ak	-193
rom	-194
nd	-195
▁pl	-196
▁will	-197
▁sp	-198
han	-199
ood	-200
ul	-201
▁would	-202
red	-203
ab	-204
▁de	-205
▁about	-206
▁need	-207
ake	-208
▁all	-209
▁C	-210
▁out	-211
art	-212
▁going	-213
▁tim	-214
▁ex	-215
ight	-216
▁does	-217
▁un	-218
▁get	-219
est	-220
ia	-221
ought	-222
▁whe	-223
ind	-224
el	-225
▁up	-226
and	-227
▁were	-228
our	-229
▁by	-230
ist	-231
▁They	-232
ers	-233
▁con	-234
▁told	-235
▁from	-236
▁time	-237
▁F	-238
ked	-239
ong	-240
▁see	-241
▁very	-242
os	-243
▁one	-244
ess	-245
▁"	-246
ol	-247
ation	-248
▁should	-249
ast	-250
qu	-251
ate	-252
ays	-253
ack	-254
▁com	-255
ive	-256
fe	-257
▁could	-258
lf	-259
ann	-260
▁pro	-261
▁Th	-262
ame	-263
day	-264
ry	-265
▁isn	-266
▁here	-267
▁J	-268
▁been	-269
▁E	-270
▁v	-271
ie	-272
▁What	-273
ig	-274
▁but	-275
res	-276
ave	-277
ice	-278
lp	-279
der	-280
▁R	-281
ger	-282
▁int	-283
▁who	-284
um	-285
▁Wh	-286
▁P	-287
▁help	-288
▁Do	-289
ep	-290
▁doesn	-291
▁look	-292
▁This	-293
ous	-294
▁there	-295
▁thought	-296
▁man	-297
la	-298
▁ag	-299
▁fe	-300
▁no	-301
▁won	-302
ound	-303
ide	-304
▁too	-305
▁N	-306
▁really	-307
ort	-308
▁lo	-309
▁some	-310
▁every	-311
▁good	-312
self	-313
▁just	-314
▁never	-315
wn	-316
▁happ	-317
ven	-318
ra	-319
▁if	-320
ree	-321
▁ar	-322
ard	-323
▁them	-324
thing	-325
▁got	-326
▁Al	-327
anni	-328
▁than	-329
▁Yanni	-330
od	-331
alk	-332
▁or	-333
▁work	-334
ud	-335
ish	-336
▁doing	-337
ber	-338
▁more	-339
ble	-340
ear	-341
▁tell	-342
ck	-343
▁cl	-344
▁pe	-345
th	-346
▁How	-347
ap	-348
▁when	-349
▁ch	-350
▁That	-351
▁qu	-352
▁G	-353
ves	-354
▁af	-355
ect	-356
▁back	-357
row	-358
ved	-359
▁en	-360
ople	-361
ther	-362
itt	-363
▁ro	-364
▁Lay	-365
ite	-366
▁Layla	-367
▁O	-368
▁off	-369
▁now	-370
uch	-371
ass	-372
▁There	-373
▁their	-374
omet	-375
▁spe	-376
▁co	-377
▁home	-378
hed	-379
ity	-380
▁how	-381
ine	-382
other	-383
▁much	-384
ag	-385
oston	-386
▁Boston	-387
ew	-388
▁say	-389
ving	-390
age	-391
▁still	-392
▁exp	-393
▁bu	-394
are	-395
ase	-396
▁car	-397
ough	-398
riend	-399
▁wanted	-400
▁Whe	-401
▁Alger	-402
▁people	-403
ried	-404
▁wasn	-405
▁ri	-406
ace	-407
ool	-408
▁Why	-409
▁My	-410
ild	-411
ick	-412
ima	-413
▁only	-414
▁year	-415
▁somet	-416
ure	-417
ies	-418
▁talk	-419
▁bec	-420
▁bet	-421
ian	-422
▁long	-423
▁Rima	-424
▁Is	-425
▁comp	-426
▁again	-427
▁thing	-428
▁im	-429
ade	-430
▁wr	-431
▁come	-432
oun	-433
▁ad	-434
ment	-435
▁eat	-436
▁over	-437
▁into	-438
oy	-439
▁happen	-440
▁am	-441
ty	-442
iz	-443
▁our	-444
ob	-445
ody	-446
▁pre	-447
▁lot	-448
rench	-449
ady	-450
▁br	-451
▁French	-452
cc	-453
ather	-454
ral	-455
▁new	-456
▁knew	-457
."	-458
▁take	-459
ouse	-460
▁Algeria	-461
ress	-462
▁pr	-463
▁something	-464
ft	-465
▁went	-466
able	-467
▁day	-468
ated	-469
▁right	-470
▁make	-471
▁Don	-472
▁Aust	-473
▁speak	-474
▁friend	-475
▁last	-476
em	-477
ning	-478
ts	-479
▁let	-480
ach	-481
▁Austral	-482
▁way	-483
▁wat	-484
▁other	-485
▁dis	-486
▁sc	-487
▁Australia	-488
▁sm	-489
ng	-490
ways	-491
▁call	-492
▁today	-493
▁seem	-494
oney	-495
▁stud	-496
▁bl	-497
▁gr	-498
▁house	-499
act	-500
▁always	-501
▁anything	-502
▁done	-503
▁under	-504
ose	-505
use	-506
▁dr	-507
▁mo	-508
▁sch	-509
▁play	-510
▁stay	-511
▁made	-512
▁asked	-513
▁aw	-514
ue	-515
▁tw	-516
xt	-517
▁money	-518
oh	-519
fore	-520
▁many	-521
▁chan	-522
▁school	-523
reat	-524
▁bus	-525
▁If	-526
ans	-527
▁three	-528
▁start	-529
ip	-530
urn	-531
▁part	-532
ount	-533
▁fl	-534
ence	-535
lie	-536
▁hop	-537
▁book	-538
ying	-539
▁down	-540
▁K	-541
▁wa	-542
ang	-543
▁sure	-544
irst	-545
▁after	-546
▁why	-547
ark	-548
▁well	-549
get	-550
▁better	-551
ek	-552
▁able	-553
▁har	-554
ich	-555
pt	-556
▁before	-557
ohn	-558
▁John	-559
lease	-560
orrow	-561
iss	-562
▁child	-563
▁feel	-564
▁love	-565
▁sw	-566
▁left	-567
ell	-568
▁old	-569
▁life	-570
▁where	-571
ious	-572
▁Can	-573
▁gu	-574
▁might	-575
▁imp	-576
ire	-577
au	-578
ting	-579
▁knows	-580
▁wait	-581
▁find	-582
ile	-583
▁week	-584
ied	-585
▁room	-586
▁first	-587
▁app	-588
▁In	-589
▁hand	-590
▁Let	-591
body	-592
ions	-593
▁Did	-594
▁wants	-595
▁says	-596
▁When	-597
▁dec	-598
▁pa	-599
▁used	-600
▁buy	-601
▁rem	-602
▁even	-603
▁wouldn	-604
enn	-605
▁years	-606
▁ever	-607
ult	-608
ise	-609
▁dif	-610
og	-611
▁next	-612
mer	-613
ause	-614
ittle	-615
te	-616
▁put	-617
▁res	-618
▁op	-619
▁Are	-620
▁dog	-621
ict	-622
▁himself	-623
▁must	-624
ten	-625
arn	-626
▁belie	-627
▁fa	-628
▁read	-629
▁ke	-630
ful	-631
▁tom	-632
▁care	-633
▁little	-634
oth	-635
▁saw	-636
leep	-637
▁night	-638
▁pers	-639
rest	-640
▁cont	-641
▁took	-642
ired	-643
▁two	-644
▁leave	-645
▁po	-646
▁fin	-647
▁everything	-648
▁came	-649
▁tomorrow	-650
▁couldn	-651
ised	-652
▁things	-653
ance	-654
ready	-655
▁away	-656
▁needs	-657
▁already	-658
▁gl	-659
hes	-660
▁sur	-661
ably	-662
▁2	-663
ura	-664
▁job	-665
▁hard	-666
▁supp	-667
▁Sk	-668
▁live	-669
ci	-670
▁gir	-671
▁acc	-672
▁ask	-673
▁ph	-674
▁att	-675
▁Skura	-676
?"	-677
▁found	-678
▁per	-679
ign	-680
igh	-681
▁underst	-682
blem	-683
▁str	-684
▁give	-685
▁problem	-686
▁prob	-687
ff	-688
oss	-689
ath	-690
▁mar	-691
osed	-692
ually	-693
▁hope	-694
▁person	-695
▁probably	-696
▁being	-697
▁friends	-698
ull	-699
▁wonder	-700
▁Ch	-701
▁sha	-702
ester	-703
▁dri	-704
▁pol	-705
▁plan	-706
▁che	-707
▁act	-708
ory	-709
▁win	-710
▁because	-711
ted	-712
▁meet	-713
li	-714
akes	-715
ars	-716
▁may	-717
▁1	-718
▁show	-719
▁own	-720
▁U	-721
▁cha	-722
aking	-723
▁count	-724
angu	-725
▁Who	-726
▁started	-727
▁fo	-728
orm	-729
▁Every	-730
uck	-731
▁Where	-732
con	-733
▁understand	-734
▁happy	-735
▁children	-736
ennad	-737
▁des	-738
▁Mennad	-739
▁gave	-740
▁yet	-741
▁believe	-742
les	-743
▁around	-744
pped	-745
▁soon	-746
▁learn	-747
▁teac	-748
ident	-749
▁father	-750
gg	-751
▁langu	-752
ub	-753
ix	-754
▁drink	-755
▁pret	-756
▁same	-757
▁heard	-758
ished	-759
▁without	-760
▁cr	-761
▁rec	-762
▁sleep	-763
▁world	-764
▁tried	-765
iv	-766
ail	-767
▁rep	-768
▁door	-769
▁often	-770
arly	-771
▁aren	-772
▁cat	-773
▁enough	-774
ered	-775
▁cle	-776
▁happened	-777
ible	-778
ited	-779
aught	-780
▁looked	-781
▁bad	-782
ince	-783
ced	-784
▁ide	-785
▁Please	-786
▁open	-787
▁hat	-788
side	-789
erest	-790
▁Ber	-791
▁late	-792
ert	-793
ared	-794
▁real	-795
ical	-796
▁turn	-797
any	-798
esterday	-799
▁mon	-800
▁interest	-801
▁vis	-802
oc	-803
▁best	-804
aby	-805
ord	-806
▁kind	-807
▁keep	-808
▁mor	-809
gether	-810
more	-811
ens	-812
▁bre	-813
led	-814
▁met	-815
▁fun	-816
▁water	-817
▁anymore	-818
ife	-819
▁great	-820
▁most	-821
ngl	-822
▁together	-823
▁mat	-824
▁el	-825
▁St	-826
▁nothing	-827
▁inv	-828
▁its	-829
▁sing	-830
▁quest	-831
rent	-832
▁Engl	-833
▁big	-834
▁both	-835
▁word	-836
elt	-837
per	-838
▁Berber	-839
▁name	-840
▁No	-841
pr	-842
aut	-843
▁wrong	-844
▁mother	-845
▁bought	-846
▁looking	-847
kes	-848
▁thr	-849
▁fr	-850
▁try	-851
▁which	-852
▁needed	-853
ors	-854
▁walk	-855
▁wom	-856
▁morning	-857
▁yesterday	-858
▁plann	-859
▁fami	-860
▁teacher	-861
▁ser	-862
▁end	-863
sel	-864
▁use	-865
▁girl	-866
▁sent	-867
▁Have	-868
▁hur	-869
orn	-870
▁eas	-871
▁stop	-872
▁party	-873
ream	-874
▁seen	-875
▁through	-876
erm	-877
ons	-878
ents	-879
▁His	-880
▁em	-881
▁boy	-882
▁sk	-883
ations	-884
▁hun	-885
▁hour	-886
▁lost	-887
▁anyone	-888
▁called	-889
raid	-890
rents	-891
▁pass	-892
aring	-893
▁wind	-894
▁felt	-895
▁unt	-896
ided	-897
ating	-898
ffe	-899
pe	-900
▁expect	-901
▁rest	-902
▁sn	-903
▁alone	-904
▁these	-905
gry	-906
▁English	-907
selves	-908
▁ey	-909
▁afraid	-910
▁place	-911
▁min	-912
▁ac	-913
▁prom	-914
▁idea	-915
alked	-916
00	-917
be	-918
▁few	-919
▁bo	-920
▁herself	-921
▁while	-922
▁watch	-923
▁beg	-924
▁looks	-925
▁kill	-926
ces	-927
▁each	-928
▁else	-929
▁haven	-930
▁mind	-931
▁pretty	-932
▁la	-933
▁On	-934
▁rel	-935
joy	-936
ese	-937
▁list	-938
▁class	-939
▁sho	-940
sw	-941
▁another	-942
▁trying	-943
▁language	-944
▁comm	-945
▁beaut	-946
▁head	-947
pect	-948
▁diffe	-949
▁until	-950
uth	-951
▁parents	-952
▁bed	-953
▁enjoy	-954
▁food	-955
▁rain	-956
▁month	-957
▁remem	-958
▁sl	-959
ok	-960
als	-961
▁getting	-962
▁far	-963
▁supposed	-964
▁family	-965
▁talking	-966
▁run	-967
▁busy	-968
ank	-969
▁those	-970
▁days	-971
ys	-972
here	-973
▁wish	-974
▁shouldn	-975
▁swim	-976
most	-977
▁surpr	-978
▁answ	-979
we	-980
fic	-981
▁Mon	-982
▁bro	-983
▁high	-984
ever	-985
▁likely	-986
▁planning	-987
used	-988
uct	-989
▁country	-990
ater	-991
ized	-992
▁likes	-993
oke	-994
av	-995
▁ob	-996
▁cons	-997
▁ready	-998
ner	-999
▁pain	-1000
vers	-1001
lic	-1002
▁miss	-1003
▁inc	-1004
▁pay	-1005
▁ent	-1006
▁such	-1007
ates	-1008
▁someone	-1009
▁married	-1010
ize	-1011
▁coming	-1012
▁sto	-1013
▁whether	-1014
▁seems	-1015
▁pres	-1016
▁ret	-1017
ute	-1018
▁kid	-1019
iful	-1020
▁early	-1021
▁hear	-1022
▁hot	-1023
▁As	-1024
so	-1025
▁train	-1026
▁forg	-1027
▁having	-1028
ple	-1029
▁bit	-1030
ork	-1031
▁working	-1032
▁reg	-1033
ists	-1034
lain	-1035
ug	-1036
▁almost	-1037
▁cold	-1038
▁decided	-1039
ition	-1040
▁Some	-1041
▁beautiful	-1042
▁everyone	-1043
▁adv	-1044
▁sit	-1045
ister	-1046
apan	-1047
▁May	-1048
ason	-1049
▁All	-1050
▁bir	-1051
ged	-1052
▁police	-1053
oin	-1054
vel	-1055
▁Japan	-1056
▁brother	-1057
▁young	-1058
▁phone	-1059
▁remember	-1060
med	-1061
▁change	-1062
▁then	-1063
▁mist	-1064
oon	-1065
▁quite	-1066
▁tired	-1067
▁Does	-1068
ib	-1069
▁conf	-1070
owed	-1071
▁war	-1072
▁please	-1073
▁visit	-1074
▁lives	-1075
▁mus	-1076
ros	-1077
▁disc	-1078
▁diffic	-1079
ings	-1080
▁Monday	-1081
ward	-1082
▁myself	-1083
▁since	-1084
ret	-1085
ject	-1086
▁ref	-1087
▁adm	-1088
▁trans	-1089
▁import	-1090
old	-1091
cle	-1092
less	-1093
uss	-1094
▁light	-1095
ched	-1096
ital	-1097
▁thir	-1098
▁poss	-1099
▁arri	-1100
▁study	-1101
olog	-1102
▁ap	-1103
▁thinks	-1104
rew	-1105
▁times	-1106
ative	-1107
iness	-1108
▁coll	-1109
▁living	-1110
ime	-1111
cept	-1112
alth	-1113
▁dan	-1114
▁fore	-1115
▁hasn	-1116
night	-1117
▁small	-1118
▁Your	-1119
orry	-1120
▁wife	-1121
▁waiting	-1122
az	-1123
pl	-1124
▁pict	-1125
▁Be	-1126
ctor	-1127
▁nice	-1128
ither	-1129
▁din	-1130
▁conc	-1131
ial	-1132
▁difficult	-1133
▁eyes	-1134
ond	-1135
▁Will	-1136
▁ass	-1137
▁gi	-1138
▁inf	-1139
iet	-1140
ense	-1141
▁Kaby	-1142
▁different	-1143
▁yourself	-1144
ages	-1145
ph	-1146
▁face	-1147
▁gone	-1148
▁An	-1149
▁hum	-1150
air	-1151
ower	-1152
▁stand	-1153
▁ev	-1154
▁dress	-1155
▁cook	-1156
▁woman	-1157
▁also	-1158
▁set	-1159
▁cry	-1160
▁break	-1161
▁air	-1162
▁chance	-1163
▁mov	-1164
▁true	-1165
▁truth	-1166
ote	-1167
▁mom	-1168
▁ago	-1169
▁seemed	-1170
▁matter	-1171
▁hair	-1172
ily	-1173
▁tri	-1174
reet	-1175
unch	-1176
▁Would	-1177
▁sus	-1178
▁sat	-1179
▁become	-1180
ont	-1181
▁question	-1182
ock	-1183
▁books	-1184
▁once	-1185
itted	-1186
ual	-1187
▁easy	-1188
▁important	-1189
ience	-1190
ness	-1191
▁num	-1192
▁ele	-1193
ient	-1194
ross	-1195
▁listen	-1196
ling	-1197
▁hours	-1198
▁ran	-1199
▁sound	-1200
▁weren	-1201
▁answer	-1202
fect	-1203
ention	-1204
oud	-1205
▁letter	-1206
ps	-1207
▁themselves	-1208
ica	-1209
▁comple	-1210
ffee	-1211
▁ind	-1212
▁city	-1213
▁surprised	-1214
▁died	-1215
▁To	-1216
▁mean	-1217
▁became	-1218
▁Af	-1219
▁reason	-1220
30	-1221
▁kiss	-1222
▁sister	-1223
▁dep	-1224
▁meeting	-1225
▁fav	-1226
▁lar	-1227
▁sum	-1228
▁inter	-1229
br	-1230
▁hurt	-1231
▁longer	-1232
▁coffee	-1233
▁sun	-1234
▁hands	-1235
oub	-1236
▁Amer	-1237
▁foll	-1238
▁turned	-1239
ures	-1240
▁music	-1241
▁sick	-1242
▁office	-1243
▁20	-1244
app	-1245
▁son	-1246
▁med	-1247
▁usually	-1248
ash	-1249
ept	-1250
not	-1251
▁fell	-1252
▁Isl	-1253
▁spend	-1254
▁sec	-1255
▁lived	-1256
iers	-1257
ween	-1258
ured	-1259
▁window	-1260
▁makes	-1261
▁exc	-1262
▁Un	-1263
▁Am	-1264
ately	-1265
▁glad	-1266
cial	-1267
ians	-1268
ertain	-1269
▁wearing	-1270
ming	-1271
ober	-1272
ove	-1273
▁cor	-1274
where	-1275
▁free	-1276
▁dinner	-1277
▁cam	-1278
▁add	-1279
▁dro	-1280
▁build	-1281
▁fire	-1282
▁Dan	-1283
▁drive	-1284
▁char	-1285
▁interested	-1286
osp	-1287
▁news	-1288
ball	-1289
▁four	-1290
▁against	-1291
▁between	-1292
▁red	-1293
▁heart	-1294
ump	-1295
▁beh	-1296
ouble	-1297
ries	-1298
▁cap	-1299
▁ins	-1300
▁quick	-1301
▁doctor	-1302
▁finished	-1303
▁clean	-1304
▁whole	-1305
room	-1306
▁And	-1307
▁Tell	-1308
arth	-1309
▁sy	-1310
▁forgot	-1311
oice	-1312
▁ter	-1313
▁spent	-1314
▁sorry	-1315
▁cannot	-1316
itting	-1317
▁forget	-1318
hip	-1319
▁God	-1320
▁ext	-1321
▁angry	-1322
hen	-1323
▁mil	-1324
▁behind	-1325
uring	-1326
work	-1327
ended	-1328
▁sol	-1329
▁anybody	-1330
ames	-1331
▁tonight	-1332
int	-1333
▁art	-1334
▁park	-1335
▁full	-1336
cy	-1337
▁lau	-1338
ier	-1339
▁lea	-1340
▁Our	-1341
▁table	-1342
▁town	-1343
▁trust	-1344
▁playing	-1345
▁exam	-1346
▁Islam	-1347
▁V	-1348
▁story	-1349
ange	-1350
▁cour	-1351
ks	-1352
▁dream	-1353
▁conv	-1354
▁sub	-1355
▁men	-1356
ism	-1357
bed	-1358
rist	-1359
▁mess	-1360
▁making	-1361
ased	-1362
▁These	-1363
▁grow	-1364
utes	-1365
▁walked	-1366
▁outside	-1367
imes	-1368
▁Everyone	-1369
erv	-1370
▁det	-1371
▁summer	-1372
▁exact	-1373
▁fast	-1374
▁kept	-1375
▁accident	-1376
▁def	-1377
umb	-1378
▁inst	-1379
▁ate	-1380
▁eating	-1381
▁dist	-1382
▁At	-1383
▁number	-1384
unk	-1385
ets	-1386
▁less	-1387
▁health	-1388
ics	-1389
▁trave	-1390
▁Chin	-1391
▁aftern	-1392
▁business	-1393
▁fall	-1394
itc	-1395
▁later	-1396
..	-1397
▁fig	-1398
▁company	-1399
aper	-1400
cess	-1401
▁afternoon	-1402
▁write	-1403
▁lunch	-1404
▁serious	-1405
▁exper	-1406
▁words	-1407
▁front	-1408
aster	-1409
▁Could	-1410
aged	-1411
its	-1412
▁doub	-1413
▁Maybe	-1414
▁complete	-1415
ities	-1416
▁law	-1417
▁grand	-1418
lim	-1419
▁favor	-1420
▁gen	-1421
▁Her	-1422
man	-1423
▁death	-1424
▁pop	-1425
▁loc	-1426
▁comput	-1427
▁trouble	-1428
▁broke	-1429
▁hor	-1430
zy	-1431
▁tre	-1432
▁Germ	-1433
▁Christ	-1434
▁arm	-1435
▁fight	-1436
▁minutes	-1437
▁return	-1438
▁certain	-1439
▁move	-1440
▁glass	-1441
▁daught	-1442
▁sim	-1443
▁movie	-1444
▁close	-1445
▁taking	-1446
▁agree	-1447
▁col	-1448
▁cut	-1449
▁dead	-1450
ision	-1451
▁Alg	-1452
▁hosp	-1453
▁team	-1454
den	-1455
gr	-1456
▁reading	-1457
icy	-1458
aken	-1459
eal	-1460
▁game	-1461
▁ill	-1462
ants	-1463
▁Algiers	-1464
ressed	-1465
▁guy	-1466
▁song	-1467
▁liked	-1468
ison	-1469
cond	-1470
▁pat	-1471
▁helped	-1472
ular	-1473
irt	-1474
▁exactly	-1475
▁near	-1476
aur	-1477
▁hate	-1478
:30	-1479
ently	-1480
reed	-1481
▁sign	-1482
▁possible	-1483
▁Not	-1484
▁leg	-1485
▁known	-1486
▁birth	-1487
▁strong	-1488
way	-1489
▁abs	-1490
▁snow	-1491
▁danger	-1492
▁Mus	-1493
▁clot	-1494
▁promised	-1495
▁ca	-1496
▁street	-1497
▁short	-1498
▁six	-1499
▁goes	-1500
▁began	-1501
!"	-1502
▁explain	-1503
att	-1504
iting	-1505
▁cost	-1506
▁sal	-1507
▁killed	-1508
par	-1509
iled	-1510
▁hospital	-1511
▁students	-1512
▁five	-1513
uff	-1514
conom	-1515
▁actually	-1516
▁born	-1517
port	-1518
▁test	-1519
gy	-1520
▁stayed	-1521
ighb	-1522
dered	-1523
▁station	-1524
▁store	-1525
ract	-1526
land	-1527
oup	-1528
▁dark	-1529
▁picture	-1530
▁Nob	-1531
▁neighb	-1532
▁contin	-1533
▁past	-1534
ins	-1535
▁One	-1536
▁gets	-1537
fort	-1538
ider	-1539
▁kids	-1540
▁ten	-1541
▁safe	-1542
▁scared	-1543
ric	-1544
ility	-1545
▁fix	-1546
▁works	-1547
▁foot	-1548
▁Fr	-1549
▁econom	-1550
ined	-1551
▁tree	-1552
▁black	-1553
▁stopped	-1554
▁allowed	-1555
▁paid	-1556
▁baby	-1557
▁land	-1558
▁comes	-1559
ational	-1560
ored	-1561
▁19	-1562
▁questions	-1563
▁OK	-1564
▁feeling	-1565
▁wall	-1566
▁mem	-1567
▁second	-1568
▁thirty	-1569
▁loved	-1570
▁large	-1571
▁deal	-1572
que	-1573
▁Nobody	-1574
▁talked	-1575
▁par	-1576
▁follow	-1577
▁computer	-1578
icked	-1579
▁brought	-1580
▁quickly	-1581
▁Many	-1582
▁suspect	-1583
▁transl	-1584
▁arrived	-1585
▁road	-1586
▁2:30	-1587
raw	-1588
▁loves	-1589
me	-1590
▁worked	-1591
ato	-1592
▁daughter	-1593
▁Than	-1594
▁sell	-1595
▁doubt	-1596
▁rich	-1597
▁opp	-1598
▁TV	-1599
▁hungry	-1600
▁Sh	-1601
▁die	-1602
▁problems	-1603
upid	-1604
▁along	-1605
▁Fad	-1606
▁Mr	-1607
▁pur	-1608
pping	-1609
▁doll	-1610
▁cur	-1611
ne	-1612
▁changed	-1613
ggest	-1614
▁ma	-1615
▁Fadil	-1616
▁Muslim	-1617
▁suggest	-1618
▁thinking	-1619
▁Le	-1620
▁Pe	-1621
▁rather	-1622
▁hit	-1623
▁Just	-1624
▁apart	-1625
ern	-1626
outh	-1627
▁half	-1628
▁stupid	-1629
▁saying	-1630
▁studying	-1631
▁For	-1632
▁side	-1633
▁bel	-1634
▁sitting	-1635
ott	-1636
▁least	-1637
▁moment	-1638
▁swe	-1639
▁tem	-1640
▁restaur	-1641
▁luck	-1642
▁cent	-1643
▁moved	-1644
▁cou	-1645
uc	-1646
▁Ar	-1647
▁av	-1648
▁clothes	-1649
ield	-1650
▁others	-1651
▁worried	-1652
sh	-1653
▁Sp	-1654
ature	-1655
▁prot	-1656
▁disapp	-1657
▁ple	-1658
▁pub	-1659
▁weather	-1660
▁Japanese	-1661
▁box	-1662
right	-1663
▁anim	-1664
▁everybody	-1665
▁separ	-1666
▁caught	-1667
▁months	-1668
▁human	-1669
▁prod	-1670
▁mistake	-1671
▁So	-1672
▁order	-1673
▁ra	-1674
▁lead	-1675
ats	-1676
ains	-1677
▁wrote	-1678
ef	-1679
▁Now	-1680
▁Americ	-1681
▁expected	-1682
▁Mar	-1683
▁during	-1684
▁watching	-1685
▁fine	-1686
▁interesting	-1687
▁age	-1688
▁Algerian	-1689
vern	-1690
▁/	-1691
▁tall	-1692
▁resp	-1693
uation	-1694
▁flo	-1695
▁vide	-1696
▁hadn	-1697
▁favorite	-1698
▁mid	-1699
▁present	-1700
▁weekend	-1701
▁requ	-1702
▁ann	-1703
▁shoes	-1704
▁bring	-1705
▁laugh	-1706
ush	-1707
▁flow	-1708
ude	-1709
▁inside	-1710
▁women	-1711
▁hold	-1712
▁bag	-1713
▁aff	-1714
▁sever	-1715
▁pri	-1716
▁secret	-1717
arden	-1718
ific	-1719
fer	-1720
▁post	-1721
by	-1722
▁perm	-1723
ully	-1724
rit	-1725
eb	-1726
ask	-1727
▁uni	-1728
▁mad	-1729
▁asleep	-1730
ences	-1731
ax	-1732
▁ear	-1733
▁terri	-1734
▁finally	-1735
▁ty	-1736
▁tou	-1737
▁sold	-1738
▁several	-1739
▁completely	-1740
▁Russ	-1741
iew	-1742
▁ve	-1743
▁wear	-1744
band	-1745
io	-1746
▁pick	-1747
▁bar	-1748
lfriend	-1749
▁cra	-1750
▁sup	-1751
itten	-1752
▁colle	-1753
▁pie	-1754
▁power	-1755
own	-1756
▁elect	-1757
▁dem	-1758
▁finish	-1759
▁evening	-1760
▁careful	-1761
▁point	-1762
ccess	-1763
▁fact	-1764
▁es	-1765
▁prep	-1766
▁report	-1767
▁lose	-1768
▁People	-1769
▁worry	-1770
set	-1771
▁Oct	-1772
▁building	-1773
rect	-1774
▁After	-1775
▁perfect	-1776
▁restaurant	-1777
atur	-1778
ution	-1779
▁garden	-1780
ived	-1781
▁October	-1782
usband	-1783
▁student	-1784
▁drunk	-1785
ued	-1786
▁body	-1787
▁taken	-1788
reen	-1789
▁homework	-1790
▁wine	-1791
▁rece	-1792
▁accept	-1793
▁girlfriend	-1794
ensive	-1795
▁cond	-1796
vious	-1797
ike	-1798
▁2:30.	-1799
cl	-1800
ments	-1801
▁white	-1802
uro	-1803
acks	-1804
▁bath	-1805
▁plans	-1806
▁opened	-1807
ny	-1808
aff	-1809
dle	-1810
▁begin	-1811
▁quiet	-1812
ane	-1813
▁fut	-1814
▁But	-1815
ugg	-1816
,"	-1817
▁birthday	-1818
▁Both	-1819
▁govern	-1820
▁fish	-1821
ues	-1822
ring	-1823
arning	-1824
▁hid	-1825
▁mot	-1826
▁pract	-1827
rence	-1828
▁showed	-1829
▁pull	-1830
▁swimming	-1831
▁tea	-1832
▁clear	-1833
▁pen	-1834
oking	-1835
ots	-1836
▁wood	-1837
ken	-1838
▁hon	-1839
▁husband	-1840
▁trip	-1841
iam	-1842
▁sentence	-1843
▁strange	-1844
▁inform	-1845
▁catch	-1846
▁languages	-1847
▁learning	-1848
▁learned	-1849
iced	-1850
▁Canad	-1851
▁success	-1852
▁admitted	-1853
▁fil	-1854
ator	-1855
▁situation	-1856
▁mount	-1857
airs	-1858
iter	-1859
▁sil	-1860
▁appro	-1861
▁dire	-1862
▁tick	-1863
▁hotel	-1864
velop	-1865
▁arg	-1866
oid	-1867
▁future	-1868
▁poor	-1869
▁ce	-1870
str	-1871
▁Kabylie	-1872
ead	-1873
▁polit	-1874
▁across	-1875
▁slow	-1876
▁rid	-1877
ained	-1878
stem	-1879
▁older	-1880
ds	-1881
mas	-1882
▁bicy	-1883
▁played	-1884
▁clim	-1885
▁join	-1886
▁willing	-1887
▁mine	-1888
▁New	-1889
▁speaks	-1890
▁ris	-1891
▁check	-1892
▁arrest	-1893
▁prof	-1894
▁given	-1895
▁speaking	-1896
▁consider	-1897
ee	-1898
▁gener	-1899
medi	-1900
dred	-1901
orts	-1902
▁walking	-1903
bs	-1904
ices	-1905
▁cal	-1906
▁weeks	-1907
▁attention	-1908
▁cla	-1909
▁expl	-1910
▁realized	-1911
▁Which	-1912
▁contro	-1913
▁top	-1914
ically	-1915
bers	-1916
fully	-1917
▁college	-1918
▁vac	-1919
▁floor	-1920
ines	-1921
▁shall	-1922
▁Ne	-1923
▁ed	-1924
▁gun	-1925
▁tele	-1926
eth	-1927
ror	-1928
▁deep	-1929
▁Go	-1930
ding	-1931
▁milk	-1932
▁opin	-1933
▁though	-1934
▁cre	-1935
▁Christmas	-1936
▁Euro	-1937
▁leaving	-1938
▁earth	-1939
▁complain	-1940
▁base	-1941
▁bott	-1942
enty	-1943
na	-1944
▁lie	-1945
▁either	-1946
▁Even	-1947
▁area	-1948
▁inj	-1949
▁key	-1950
uk	-1951
▁means	-1952
ened	-1953
ma	-1954
▁passed	-1955
fast	-1956
▁nor	-1957
▁fair	-1958
▁river	-1959
head	-1960
▁hundred	-1961
▁blue	-1962
▁closed	-1963
▁shot	-1964
▁lying	-1965
▁immedi	-1966
▁cup	-1967
▁camp	-1968
▁hang	-1969
▁dollars	-1970
▁eng	-1971
▁prison	-1972
iction	-1973
▁mill	-1974
▁crying	-1975
▁flowers	-1976
▁drinking	-1977
ah	-1978
▁dangerous	-1979
▁state	-1980
gan	-1981
▁voice	-1982
ges	-1983
▁div	-1984
▁Pa	-1985
▁mark	-1986
▁sometimes	-1987
▁teach	-1988
ilt	-1989
acked	-1990
▁telling	-1991
ager	-1992
▁201	-1993
▁driving	-1994
rown	-1995
▁Give	-1996
▁Europe	-1997
▁apartment	-1998
▁Sun	-1999
▁“	-2000
▁bank	-2001
▁tast	-2002
▁heav	-2003
▁mis	-2004
ik	-2005
ennis	-2006
▁sense	-2007
ocked	-2008
ior	-2009
bit	-2010
▁worth	-2011
▁ice	-2012
ery	-2013
ards	-2014
▁protect	-2015
amed	-2016
▁sad	-2017
▁takes	-2018
▁Kabyle	-2019
▁ball	-2020
▁support	-2021
▁ste	-2022
▁Somet	-2023
▁couple	-2024
▁bicycle	-2025
ervous	-2026
▁upset	-2027
▁expensive	-2028
▁nervous	-2029
▁dogs	-2030
▁phot	-2031
▁borrow	-2032
aya	-2033
aces	-2034
ury	-2035
ech	-2036
▁paper	-2037
▁German	-2038
▁breakfast	-2039
ald	-2040
▁mur	-2041
▁pun	-2042
▁commun	-2043
ishing	-2044
▁ir	-2045
▁beha	-2046
ift	-2047
▁relations	-2048
▁clos	-2049
itchen	-2050
▁sea	-2051
What	-2052
▁send	-2053
▁tennis	-2054
▁discuss	-2055
▁public	-2056
▁crazy	-2057
▁government	-2058
▁mag	-2059
▁text	-2060
▁hist	-2061
▁occ	-2062
▁case	-2063
▁necess	-2064
▁system	-2065
▁kitchen	-2066
friend	-2067
▁Q	-2068
▁ought	-2069
cap	-2070
ached	-2071
▁video	-2072
ule	-2073
uit	-2074
▁bill	-2075
▁spoke	-2076
arch	-2077
▁boss	-2078
▁quit	-2079
uge	-2080
▁ren	-2081
▁travel	-2082
▁guys	-2083
▁girls	-2084
▁fam	-2085
▁fool	-2086
▁apolog	-2087
▁running	-2088
mp	-2089
read	-2090
▁grad	-2091
▁immediately	-2092
▁Was	-2093
▁correct	-2094
▁decision	-2095
ushed	-2096
▁fly	-2097
▁dest	-2098
▁ones	-2099
▁sleeping	-2100
▁Everybody	-2101
▁allow	-2102
▁guess	-2103
ination	-2104
ction	-2105
▁beer	-2106
▁bread	-2107
▁writing	-2108
▁form	-2109
▁smell	-2110
▁somebody	-2111
tern	-2112
▁sand	-2113
▁single	-2114
like	-2115
ousand	-2116
▁main	-2117
light	-2118
▁extre	-2119
▁toward	-2120
▁Baya	-2121
▁advice	-2122
▁respect	-2123
cing	-2124
▁lucky	-2125
▁course	-2126
hood	-2127
▁tax	-2128
▁beach	-2129
▁written	-2130
ceed	-2131
▁staying	-2132
gar	-2133
▁cop	-2134
▁William	-2135
▁separat	-2136
▁bur	-2137
▁agreed	-2138
cri	-2139
versity	-2140
oring	-2141
ai	-2142
▁cross	-2143
ging	-2144
▁group	-2145
iol	-2146
▁foreign	-2147
els	-2148
istic	-2149
arl	-2150
▁blood	-2151
▁stuff	-2152
ogn	-2153
uri	-2154
▁develop	-2155
▁pot	-2156
▁Come	-2157
form	-2158
▁Paul	-2159
era	-2160
ches	-2161
▁promise	-2162
inite	-2163
ony	-2164
▁carry	-2165
▁entire	-2166
ented	-2167
▁touch	-2168
▁fired	-2169
▁broken	-2170
▁driver	-2171
bo	-2172
▁Lind	-2173
omm	-2174
dden	-2175
ering	-2176
▁claim	-2177
rell	-2178
▁ground	-2179
▁prop	-2180
▁den	-2181
▁pos	-2182
▁American	-2183
ton	-2184
▁With	-2185
▁Linda	-2186
▁prefer	-2187
ives	-2188
▁rul	-2189
▁famous	-2190
ones	-2191
▁United	-2192
▁z	-2193
▁sudden	-2194
▁sle	-2195
▁proud	-2196
ex	-2197
nger	-2198
▁yell	-2199
▁upon	-2200
▁space	-2201
▁medic	-2202
▁opinion	-2203
orth	-2204
▁concern	-2205
▁experience	-2206
▁event	-2207
▁China	-2208
▁horse	-2209
▁convin	-2210
▁common	-2211
▁recogn	-2212
▁pictures	-2213
uce	-2214
▁dance	-2215
ories	-2216
▁relig	-2217
▁vill	-2218
▁egg	-2219
▁eye	-2220
▁ign	-2221
▁self	-2222
▁stood	-2223
▁Get	-2224
▁eaten	-2225
▁arrested	-2226
▁3	-2227
illed	-2228
▁winter	-2229
line	-2230
▁step	-2231
▁younger	-2232
▁Today	-2233
▁invited	-2234
▁val	-2235
itar	-2236
▁Look	-2237
▁Chinese	-2238
▁Take	-2239
▁extreme	-2240
fied	-2241
▁happening	-2242
▁sex	-2243
▁umb	-2244
▁choice	-2245
▁viol	-2246
▁Stop	-2247
aked	-2248
▁cake	-2249
▁shop	-2250
▁figure	-2251
oose	-2252
▁wished	-2253
erc	-2254
▁chair	-2255
▁Everything	-2256
▁control	-2257
▁umbrell	-2258
bar	-2259
idge	-2260
▁Dav	-2261
▁breat	-2262
▁thousand	-2263
▁gar	-2264
▁visited	-2265
▁information	-2266
▁offic	-2267
une	-2268
▁libr	-2269
▁realize	-2270
to	-2271
ploy	-2272
▁tow	-2273
▁weight	-2274
▁trees	-2275
hew	-2276
▁popular	-2277
▁Ital	-2278
▁enjoyed	-2279
oof	-2280
▁stra	-2281
▁held	-2282
iling	-2283
▁Here	-2284
▁special	-2285
lier	-2286
idence	-2287
ety	-2288
▁dev	-2289
▁ship	-2290
▁peace	-2291
▁jump	-2292
▁animals	-2293
▁-	-2294
▁disappoin	-2295
anda	-2296
ults	-2297
▁drove	-2298
▁waited	-2299
▁Tr	-2300
▁prov	-2301
iday	-2302
▁missed	-2303
▁mos	-2304
ument	-2305
ze	-2306
▁date	-2307
▁partic	-2308
▁mistakes	-2309
▁imag	-2310
▁truck	-2311
▁grew	-2312
▁invest	-2313
rup	-2314
▁impro	-2315
▁obvious	-2316
▁equ	-2317
arely	-2318
▁Karl	-2319
▁Mark	-2320
▁relationship	-2321
▁David	-2322
▁Earth	-2323
▁noticed	-2324
▁countries	-2325
▁taught	-2326
▁neighbor	-2327
▁sentences	-2328
aced	-2329
ustom	-2330
▁boyfriend	-2331
een	-2332
▁escap	-2333
▁desk	-2334
▁speech	-2335
▁belong	-2336
▁watched	-2337
▁Mic	-2338
▁smart	-2339
▁emp	-2340
gress	-2341
▁hopes	-2342
▁asking	-2343
ases	-2344
▁library	-2345
▁eff	-2346
initely	-2347
▁suff	-2348
▁dam	-2349
▁seat	-2350
▁funny	-2351
oned	-2352
▁Rober	-2353
▁Those	-2354
▁Ste	-2355
▁forward	-2356
▁product	-2357
gest	-2358
▁threat	-2359
▁project	-2360
ume	-2361
▁studied	-2362
cks	-2363
▁shut	-2364
sper	-2365
▁huge	-2366
▁serv	-2367
▁whatever	-2368
▁convinced	-2369
izz	-2370
▁maj	-2371
▁umbrella	-2372
▁States	-2373
▁pian	-2374
▁appear	-2375
▁Robert	-2376
▁straight	-2377
▁necessary	-2378
teen	-2379
▁view	-2380
▁James	-2381
▁line	-2382
▁ring	-2383
▁rad	-2384
▁creat	-2385
▁refused	-2386
▁standing	-2387
▁beat	-2388
▁kissed	-2389
▁history	-2390
book	-2391
▁feet	-2392
▁meat	-2393
▁hoping	-2394
▁message	-2395
▁cult	-2396
ster	-2397
urch	-2398
▁respons	-2399
▁shopping	-2400
▁exist	-2401
ails	-2402
aw	-2403
▁5	-2404
itive	-2405
▁green	-2406
▁smoking	-2407
▁Didn	-2408
come	-2409
▁stole	-2410
▁America	-2411
▁guitar	-2412
▁warm	-2413
▁deser	-2414
▁sky	-2415
▁cool	-2416
▁glasses	-2417
▁injured	-2418
...	-2419
olute	-2420
▁happens	-2421
ology	-2422
▁pulled	-2423
▁mouth	-2424
▁opt	-2425
oll	-2426
ec	-2427
▁ant	-2428
▁'	-2429
▁earlier	-2430
▁hurry	-2431
▁alive	-2432
▁mach	-2433
▁di	-2434
▁squ	-2435
▁burn	-2436
▁noise	-2437
ole	-2438
ional	-2439
▁sounds	-2440
▁treat	-2441
▁somewhere	-2442
har	-2443
▁Has	-2444
▁using	-2445
▁economy	-2446
▁definitely	-2447
sy	-2448
atic	-2449
▁shirt	-2450
▁hardly	-2451
▁honest	-2452
000	-2453
▁hol	-2454
▁fear	-2455
▁plane	-2456
▁seeing	-2457
▁terrible	-2458
▁Matt	-2459
▁Donald	-2460
cer	-2461
▁save	-2462
▁draw	-2463
▁crow	-2464
▁Thank	-2465
▁tot	-2466
▁low	-2467
▁marry	-2468
▁helping	-2469
▁president	-2470
rod	-2471
▁notice	-2472
▁heavy	-2473
▁prepared	-2474
▁gas	-2475
ality	-2476
▁surv	-2477
▁worse	-2478
hael	-2479
▁suc	-2480
▁wed	-2481
▁coat	-2482
▁lawy	-2483
▁yours	-2484
het	-2485
▁Luk	-2486
▁fat	-2487
▁iss	-2488
▁Jess	-2489
▁norm	-2490
▁Lukas	-2491
▁middle	-2492
▁Par	-2493
▁prin	-2494
▁eight	-2495
▁price	-2496
▁Michael	-2497
▁except	-2498
▁moving	-2499
▁absolute	-2500
▁concert	-2501
▁extremely	-2502
ises	-2503
▁Ind	-2504
iel	-2505
ene	-2506
▁organ	-2507
ortun	-2508
▁easily	-2509
▁received	-2510
▁returned	-2511
▁incre	-2512
▁player	-2513
▁film	-2514
▁Eli	-2515
olved	-2516
▁threw	-2517
▁airport	-2518
▁capital	-2519
▁Most	-2520
▁built	-2521
oph	-2522
▁wash	-2523
▁drank	-2524
ppy	-2525
inal	-2526
phone	-2527
▁fing	-2528
▁Ex	-2529
▁incl	-2530
▁lied	-2531
▁difference	-2532
▁mountain	-2533
▁novel	-2534
▁Nothing	-2535
▁enem	-2536
eared	-2537
▁Sand	-2538
ird	-2539
▁ride	-2540
▁Jessica	-2541
▁million	-2542
ossible	-2543
▁rob	-2544
▁fail	-2545
ency	-2546
asure	-2547
▁slept	-2548
▁susp	-2549
▁succeed	-2550
You	-2551
▁Elias	-2552
fortable	-2553
▁natur	-2554
▁vacation	-2555
lled	-2556
▁oil	-2557
▁press	-2558
▁native	-2559
ified	-2560
▁appre	-2561
▁ended	-2562
▁piece	-2563
▁Thanks	-2564
▁profess	-2565
acy	-2566
▁inn	-2567
▁Aren	-2568
ina	-2569
▁France	-2570
▁Matthew	-2571
rap	-2572
▁leaves	-2573
▁collect	-2574
ja	-2575
▁social	-2576
atoeb	-2577
omp	-2578
▁Leon	-2579
▁hoped	-2580
eg	-2581
over	-2582
▁Jon	-2583
oken	-2584
▁Put	-2585
▁auth	-2586
cket	-2587
ters	-2588
time	-2589
▁pizz	-2590
▁ourselves	-2591
▁impossible	-2592
ey	-2593
lect	-2594
▁regret	-2595
▁sleepy	-2596
ising	-2597
ression	-2598
ending	-2599
▁smile	-2600
sperant	-2601
▁minute	-2602
▁avoid	-2603
▁picked	-2604
▁obs	-2605
▁rules	-2606
▁Neither	-2607
▁wedding	-2608
▁listening	-2609
▁Gun	-2610
atoeba	-2611
▁arrive	-2612
▁bother	-2613
▁possib	-2614
▁anywhere	-2615
▁Arab	-2616
▁corn	-2617
▁piano	-2618
▁nobody	-2619
▁among	-2620
▁forest	-2621
fan	-2622
▁sight	-2623
▁Esperant	-2624
▁Tok	-2625
▁Daniel	-2626
▁scream	-2627
▁dad	-2628
▁Stefan	-2629
gypt	-2630
▁boys	-2631
father	-2632
▁Alice	-2633
antly	-2634
▁Someone	-2635
gn	-2636
ires	-2637
rently	-2638
▁annoy	-2639
▁painting	-2640
ides	-2641
▁Egypt	-2642
▁temper	-2643
▁Fel	-2644
▁field	-2645
▁super	-2646
ends	-2647
▁Sandra	-2648
▁fre	-2649
▁aware	-2650
▁church	-2651
▁attract	-2652
▁ski	-2653
▁blame	-2654
▁village	-2655
▁gift	-2656
▁Jonas	-2657
▁thank	-2658
▁record	-2659
mb	-2660
itch	-2661
▁(	-2662
▁cars	-2663
▁certainly	-2664
▁lim	-2665
elia	-2666
▁feels	-2667
▁intern	-2668
▁Amanda	-2669
▁Gunter	-2670
ffect	-2671
▁offer	-2672
▁Russia	-2673
▁account	-2674
▁recently	-2675
▁star	-2676
overed	-2677
resh	-2678
▁tour	-2679
astic	-2680
▁color	-2681
▁gotten	-2682
▁4	-2683
▁priv	-2684
ission	-2685
No	-2686
urious	-2687
▁embar	-2688
▁Amelia	-2689
▁Tatoeba	-2690
amp	-2691
▁bask	-2692
▁proper	-2693
rass	-2694
▁vol	-2695
▁Felix	-2696
ler	-2697
▁hy	-2698
aded	-2699
▁mosque	-2700
▁fishing	-2701
ealous	-2702
▁flu	-2703
▁admit	-2704
▁jud	-2705
▁traff	-2706
▁major	-2707
▁convince	-2708
▁suddenly	-2709
clock	-2710
irty	-2711
▁sweet	-2712
▁appreci	-2713
asc	-2714
▁hates	-2715
▁lawyer	-2716
▁diction	-2717
rael	-2718
▁aut	-2719
▁Jacks	-2720
▁failed	-2721
stairs	-2722
▁singing	-2723
".	-2724
▁er	-2725
▁apple	-2726
▁veget	-2727
Wh	-2728
com	-2729
▁seriously	-2730
hess	-2731
road	-2732
▁keys	-2733
▁subject	-2734
▁towards	-2735
▁loud	-2736
▁knife	-2737
▁newsp	-2738
▁Israel	-2739
▁author	-2740
▁patient	-2741
▁fla	-2742
▁wore	-2743
▁medicine	-2744
▁hide	-2745
ulation	-2746
▁bathroom	-2747
▁wondered	-2748
▁fac	-2749
▁cats	-2750
▁cute	-2751
gram	-2752
▁movies	-2753
let	-2754
▁meant	-2755
▁intell	-2756
key	-2757
▁Try	-2758
ung	-2759
▁los	-2760
▁jack	-2761
▁drug	-2762
▁traffic	-2763
anish	-2764
▁dropped	-2765
▁planned	-2766
▁embarrass	-2767
▁bottle	-2768
▁direct	-2769
dy	-2770
oul	-2771
▁pray	-2772
▁confused	-2773
▁amaz	-2774
▁throw	-2775
lo	-2776
ien	-2777
▁uncle	-2778
▁custom	-2779
▁raining	-2780
▁pack	-2781
▁attack	-2782
▁simple	-2783
▁jealous	-2784
▁Esperanto	-2785
▁card	-2786
▁sandw	-2787
▁surprise	-2788
raph	-2789
▁cow	-2790
▁lone	-2791
▁satis	-2792
▁separatists	-2793
▁bull	-2794
haps	-2795
sed	-2796
ables	-2797
riage	-2798
▁farm	-2799
▁machine	-2800
rib	-2801
▁env	-2802
▁Should	-2803
▁market	-2804
▁disappointed	-2805
▁smoke	-2806
▁camera	-2807
▁excited	-2808
▁baseball	-2809
▁deb	-2810
▁storm	-2811
▁effect	-2812
▁missing	-2813
▁ener	-2814
▁opportun	-2815
▁ahead	-2816
▁followed	-2817
▁mod	-2818
▁compet	-2819
▁absolutely	-2820
fered	-2821
▁rese	-2822
▁locked	-2823
▁fur	-2824
▁eggs	-2825
▁named	-2826
▁risk	-2827
▁term	-2828
▁ur	-2829
cent	-2830
▁becom	-2831
▁faster	-2832
▁suit	-2833
eep	-2834
▁afford	-2835
▁repl	-2836
ization	-2837
▁Jackson	-2838
ghed	-2839
irus	-2840
▁unlike	-2841
▁contact	-2842
▁believed	-2843
▁cir	-2844
▁const	-2845
▁object	-2846
vered	-2847
ledge	-2848
ording	-2849
▁chess	-2850
▁waste	-2851
▁slowly	-2852
vent	-2853
▁Spanish	-2854
▁enc	-2855
▁id	-2856
▁bored	-2857
▁cream	-2858
▁woods	-2859
▁island	-2860
▁football	-2861
▁reached	-2862
▁cause	-2863
▁ticket	-2864
▁address	-2865
ocol	-2866
▁convers	-2867
▁club	-2868
▁eats	-2869
▁moon	-2870
▁basket	-2871
▁feelings	-2872
▁university	-2873
▁bat	-2874
usted	-2875
▁crowd	-2876
▁divor	-2877
▁giving	-2878
▁plant	-2879
chie	-2880
lebr	-2881
▁seven	-2882
▁weird	-2883
▁offered	-2884
▁dictionary	-2885
▁pu	-2886
▁skin	-2887
▁natural	-2888
cked	-2889
▁var	-2890
▁Paris	-2891
▁Germany	-2892
ruct	-2893
▁Per	-2894
▁crit	-2895
mother	-2896
uts	-2897
▁beginning	-2898
▁pizza	-2899
de	-2900
▁cried	-2901
▁drinks	-2902
▁Canadian	-2903
▁flat	-2904
▁orig	-2905
▁Since	-2906
▁10	-2907
▁calling	-2908
,000	-2909
▁spec	-2910
▁fruit	-2911
sidered	-2912
▁destro	-2913
▁concerned	-2914
▁Tw	-2915
onna	-2916
▁educ	-2917
▁tech	-2918
▁empty	-2919
▁ordered	-2920
gth	-2921
▁handle	-2922
▁fit	-2923
▁Sunday	-2924
▁celebr	-2925
It	-2926
▁cell	-2927
▁round	-2928
▁soci	-2929
▁warn	-2930
▁suitc	-2931
▁dressed	-2932
▁fle	-2933
▁understood	-2934
▁dating	-2935
▁continued	-2936
▁—	-2937
yo	-2938
▁weak	-2939
sit	-2940
▁teeth	-2941
ache	-2942
▁hell	-2943
▁phys	-2944
▁harder	-2945
▁twenty	-2946
▁solve	-2947
▁bike	-2948
▁introd	-2949
▁fort	-2950
▁considered	-2951
cha	-2952
▁fif	-2953
▁Were	-2954
▁fresh	-2955
▁plays	-2956
▁forgotten	-2957
▁fault	-2958
▁bright	-2959
▁gold	-2960
▁ru	-2961
icle	-2962
▁cooking	-2963
ium	-2964
rel	-2965
▁charac	-2966
▁wonderful	-2967
▁calm	-2968
▁rac	-2969
▁tor	-2970
▁laughed	-2971
▁managed	-2972
▁arms	-2973
▁awake	-2974
▁innoc	-2975
▁spring	-2976
dd	-2977
▁normal	-2978
▁laughing	-2979
▁band	-2980
▁chick	-2981
▁spoken	-2982
▁science	-2983
cient	-2984
▁soft	-2985
▁determ	-2986
cious	-2987
▁pair	-2988
▁involved	-2989
af	-2990
▁est	-2991
▁shar	-2992
▁lonely	-2993
▁economic	-2994
▁following	-2995
lies	-2996
verse	-2997
▁above	-2998
▁eventually	-2999
▁covered	-3000
ites	-3001
▁lay	-3002
▁Lond	-3003
▁da	-3004
tain	-3005
▁ben	-3006
▁imm	-3007
▁entered	-3008
▁instead	-3009
▁woke	-3010
▁ideas	-3011
▁neg	-3012
▁London	-3013
▁techn	-3014
▁attend	-3015
▁kil	-3016
▁stri	-3017
▁Pal	-3018
▁hous	-3019
▁king	-3020
▁Tokyo	-3021
▁flight	-3022
uced	-3023
▁program	-3024
▁expecting	-3025
▁6	-3026
▁Oh	-3027
ashed	-3028
▁bear	-3029
▁blind	-3030
▁gradu	-3031
▁share	-3032
▁twice	-3033
▁suggested	-3034
▁type	-3035
▁delic	-3036
▁dra	-3037
▁tur	-3038
▁cast	-3039
▁stick	-3040
▁grandfather	-3041
▁carefully	-3042
▁cous	-3043
▁murder	-3044
ocr	-3045
▁ble	-3046
▁bird	-3047
▁birds	-3048
▁practice	-3049
▁persu	-3050
▁decide	-3051
rog	-3052
rica	-3053
ills	-3054
▁chocol	-3055
ilty	-3056
▁Only	-3057
▁coun	-3058
▁infl	-3059
▁caused	-3060
olen	-3061
▁gonna	-3062
▁Algerians	-3063
tle	-3064
▁Africa	-3065
ale	-3066
rop	-3067
urs	-3068
The	-3069
▁purp	-3070
▁energy	-3071
▁teaching	-3072
▁mention	-3073
▁behav	-3074
▁guilty	-3075
▁stolen	-3076
▁healthy	-3077
▁vict	-3078
▁del	-3079
▁third	-3080
▁planet	-3081
▁200	-3082
▁scient	-3083
▁permitted	-3084
▁Well	-3085
▁local	-3086
uses	-3087
▁dirty	-3088
llen	-3089
▁jour	-3090
unt	-3091
uly	-3092
▁rev	-3093
▁crime	-3094
atch	-3095
▁lock	-3096
▁buying	-3097
▁employ	-3098
▁spread	-3099
▁within	-3100
oured	-3101
▁unlikely	-3102
▁US	-3103
▁Their	-3104
ilar	-3105
oint	-3106
▁feed	-3107
▁pleased	-3108
ray	-3109
▁jail	-3110
aven	-3111
▁wake	-3112
hem	-3113
▁jobs	-3114
▁joke	-3115
ounded	-3116
▁abroad	-3117
▁sports	-3118
▁$	-3119
▁shy	-3120
▁Sometimes	-3121
▁Ab	-3122
abbed	-3123
▁wild	-3124
▁sugar	-3125
▁manager	-3126
▁hom	-3127
▁tal	-3128
▁impressed	-3129
rupt	-3130
3.	-3131
▁recomm	-3132
▁answered	-3133
ify	-3134
▁Keep	-3135
▁engine	-3136
und	-3137
▁deg	-3138
▁doc	-3139
▁Life	-3140
ests	-3141
▁unf	-3142
icted	-3143
▁bedroom	-3144
▁Russian	-3145
ait	-3146
▁pool	-3147
▁required	-3148
▁mass	-3149
rain	-3150
▁harm	-3151
▁level	-3152
ils	-3153
▁descri	-3154
▁intellig	-3155
▁result	-3156
▁Sw	-3157
vision	-3158
▁reach	-3159
▁affect	-3160
oted	-3161
▁continue	-3162
▁marriage	-3163
epend	-3164
▁hall	-3165
▁sort	-3166
▁singer	-3167
▁filled	-3168
▁legs	-3169
▁rent	-3170
king	-3171
▁due	-3172
▁pan	-3173
▁demand	-3174
amm	-3175
▁Brit	-3176
fortun	-3177
▁mir	-3178
▁stuck	-3179
zz	-3180
▁Sm	-3181
▁boat	-3182
▁rock	-3183
▁tears	-3184
▁perform	-3185
▁lic	-3186
▁neck	-3187
▁iv	-3188
▁bri	-3189
▁Good	-3190
▁match	-3191
▁nature	-3192
▁wealth	-3193
▁starting	-3194
▁exha	-3195
▁lots	-3196
▁radio	-3197
▁destroy	-3198
▁lift	-3199
uel	-3200
▁By	-3201
▁mood	-3202
ances	-3203
lling	-3204
▁till	-3205
▁lab	-3206
essed	-3207
▁keeps	-3208
▁cloud	-3209
▁tough	-3210
▁advised	-3211
▁newspaper	-3212
▁race	-3213
▁ident	-3214
▁letters	-3215
ades	-3216
▁hated	-3217
go	-3218
▁fan	-3219
▁knowledge	-3220
▁nose	-3221
▁itself	-3222
▁national	-3223
▁typ	-3224
▁explained	-3225
ender	-3226
▁circ	-3227
ccer	-3228
▁desper	-3229
▁hiding	-3230
▁forgive	-3231
▁chocolate	-3232
▁political	-3233
estern	-3234
▁forced	-3235
▁Palest	-3236
▁meaning	-3237
nect	-3238
▁earn	-3239
ental	-3240
▁talks	-3241
▁religion	-3242
▁Intern	-3243
▁results	-3244
ij	-3245
che	-3246
hings	-3247
▁worst	-3248
▁suspic	-3249
▁personal	-3250
ural	-3251
▁Any	-3252
ney	-3253
▁Something	-3254
▁raised	-3255
▁amazing	-3256
▁yourselves	-3257
bing	-3258
▁Mor	-3259
▁purpose	-3260
▁Wal	-3261
▁translate	-3262
▁remain	-3263
▁sens	-3264
▁spot	-3265
▁shower	-3266
▁lake	-3267
▁aud	-3268
▁taste	-3269
▁Things	-3270
using	-3271
▁cance	-3272
▁opportunity	-3273
▁rela	-3274
▁corner	-3275
▁Pol	-3276
▁conversation	-3277
▁lend	-3278
▁windows	-3279
▁ivy	-3280
▁wel	-3281
▁escape	-3282
▁ban	-3283
▁ver	-3284
▁animal	-3285
▁dry	-3286
▁psy	-3287
ief	-3288
▁tie	-3289
▁taxi	-3290
▁aband	-3291
▁bridge	-3292
▁improve	-3293
▁apologize	-3294
▁Se	-3295
▁dut	-3296
▁hig	-3297
useum	-3298
▁poin	-3299
ohol	-3300
▁sched	-3301
▁apples	-3302
cohol	-3303
onment	-3304
▁und	-3305
▁oper	-3306
▁spir	-3307
▁steal	-3308
▁intend	-3309
▁brothers	-3310
▁grandmother	-3311
▁lights	-3312
▁Muslims	-3313
▁growing	-3314
▁television	-3315
cean	-3316
days	-3317
▁region	-3318
raz	-3319
▁wis	-3320
ograph	-3321
▁relax	-3322
itions	-3323
▁friendly	-3324
▁exerc	-3325
▁includ	-3326
▁board	-3327
▁remind	-3328
ows	-3329
▁lies	-3330
▁sour	-3331
▁charge	-3332
▁uses	-3333
▁condition	-3334
▁pet	-3335
▁motor	-3336
▁barely	-3337
▁design	-3338
▁indust	-3339
▁Far	-3340
▁choose	-3341
▁fright	-3342
▁spl	-3343
▁rude	-3344
▁search	-3345
▁York	-3346
▁dise	-3347
▁soup	-3348
men	-3349
board	-3350
ounds	-3351
▁jumped	-3352
▁speaker	-3353
dern	-3354
▁Jew	-3355
▁cab	-3356
▁master	-3357
▁neighborhood	-3358
▁soul	-3359
▁jacket	-3360
▁challen	-3361
▁position	-3362
▁population	-3363
▁ju	-3364
hered	-3365
inary	-3366
▁ways	-3367
▁responsible	-3368
▁non	-3369
▁butter	-3370
▁heat	-3371
▁lady	-3372
▁North	-3373
▁wet	-3374
arter	-3375
▁bell	-3376
▁houses	-3377
ube	-3378
yle	-3379
▁Qur	-3380
▁Gree	-3381
▁adop	-3382
ov	-3383
ron	-3384
▁cash	-3385
▁unha	-3386
▁soccer	-3387
occ	-3388
▁fixed	-3389
▁easier	-3390
▁innocent	-3391
▁handed	-3392
▁similar	-3393
▁anx	-3394
▁Face	-3395
ran	-3396
▁names	-3397
▁whose	-3398
▁Make	-3399
▁liter	-3400
▁dishes	-3401
▁boring	-3402
▁carried	-3403
▁stories	-3404
▁denied	-3405
▁8	-3406
cip	-3407
irm	-3408
▁satisfied	-3409
▁9	-3410
hern	-3411
▁gives	-3412
▁teachers	-3413
▁discovered	-3414
ses	-3415
▁shoot	-3416
▁fighting	-3417
▁Sha	-3418
▁scr	-3419
▁Nu	-3420
▁paint	-3421
▁Quran	-3422
▁permission	-3423
look	-3424
pri	-3425
▁Me	-3426
▁achie	-3427
▁stars	-3428
▁depart	-3429
▁service	-3430
▁sandwich	-3431
▁pretended	-3432
umed	-3433
▁idi	-3434
▁desp	-3435
▁Facebook	-3436
empt	-3437
▁everywhere	-3438
▁bi	-3439
▁weap	-3440
▁comfortable	-3441
▁Perhaps	-3442
▁neither	-3443
▁roof	-3444
shield	-3445
Yes	-3446
eral	-3447
cause	-3448
▁extra	-3449
▁force	-3450
▁clearly	-3451
▁independ	-3452
▁avail	-3453
▁progress	-3454
amb	-3455
▁places	-3456
▁washed	-3457
▁unhappy	-3458
▁emot	-3459
▁horri	-3460
▁nearly	-3461
▁checked	-3462
▁express	-3463
▁totally	-3464
▁believes	-3465
▁character	-3466
ply	-3467
antic	-3468
▁path	-3469
ential	-3470
ka	-3471
▁assist	-3472
▁courage	-3473
▁De	-3474
▁Pl	-3475
inated	-3476
▁dying	-3477
nic	-3478
▁Gr	-3479
▁Isn	-3480
▁ord	-3481
▁cheese	-3482
▁smiled	-3483
▁dancing	-3484
▁windshield	-3485
How	-3486
▁potato	-3487
▁rap	-3488
▁towel	-3489
gged	-3490
▁oppos	-3491
▁obviously	-3492
▁ess	-3493
itude	-3494
cil	-3495
host	-3496
okes	-3497
▁losing	-3498
itiz	-3499
▁surf	-3500
▁saved	-3501
▁leader	-3502
▁cheap	-3503
▁games	-3504
▁delicious	-3505
▁nation	-3506
▁basketball	-3507
uing	-3508
ildren	-3509
▁stren	-3510
▁drop	-3511
▁wise	-3512
▁psych	-3513
rated	-3514
▁cred	-3515
▁pred	-3516
▁listened	-3517
▁bas	-3518
urity	-3519
▁enemy	-3520
▁strugg	-3521
▁Ph	-3522
▁fuck	-3523
▁studies	-3524
▁solution	-3525
▁appreciate	-3526
ym	-3527
ees	-3528
▁Of	-3529
▁rice	-3530
▁distance	-3531
▁thirst	-3532
▁forever	-3533
▁electric	-3534
▁embarrassed	-3535
▁Ask	-3536
ned	-3537
▁Lord	-3538
▁Arabic	-3539
▁garage	-3540
▁further	-3541
▁7	-3542
▁Tur	-3543
▁trad	-3544
val	-3545
owing	-3546
▁From	-3547
▁Then	-3548
▁pregn	-3549
▁Because	-3550
▁largest	-3551
omb	-3552
ironment	-3553
▁telephone	-3554
▁washing	-3555
▁conver	-3556
▁pocket	-3557
pa	-3558
▁wears	-3559
▁breath	-3560
▁museum	-3561
▁connect	-3562
omen	-3563
orld	-3564
▁hired	-3565
ban	-3566
▁Sal	-3567
▁anyway	-3568
▁Nuja	-3569
▁wide	-3570
▁holiday	-3571
▁wallet	-3572
▁example	-3573
▁recognize	-3574
gl	-3575
asons	-3576
▁stom	-3577
▁thirteen	-3578
ope	-3579
▁hesit	-3580
▁fairly	-3581
▁painted	-3582
▁thy	-3583
ators	-3584
▁Pres	-3585
▁repe	-3586
▁songs	-3587
▁alcohol	-3588
▁punished	-3589
cell	-3590
ulous	-3591
▁goal	-3592
▁golf	-3593
▁dreams	-3594
▁unless	-3595
▁tight	-3596
▁changes	-3597
▁shit	-3598
▁Never	-3599
▁speed	-3600
itary	-3601
▁appoint	-3602
▁century	-3603
eless	-3604
▁private	-3605
▁Americans	-3606
ldom	-3607
pper	-3608
▁accepted	-3609
though	-3610
▁calls	-3611
▁affair	-3612
▁button	-3613
▁kicked	-3614
▁unable	-3615
under	-3616
▁absent	-3617
▁communic	-3618
ivil	-3619
▁ghost	-3620
▁online	-3621
▁lack	-3622
▁rule	-3623
▁usual	-3624
▁bigger	-3625
▁fasc	-3626
ugged	-3627
▁seldom	-3628
▁behavior	-3629
▁suitcase	-3630
ips	-3631
▁Har	-3632
▁brain	-3633
▁amb	-3634
▁emer	-3635
reedom	-3636
▁Satur	-3637
▁enter	-3638
▁handsome	-3639
isted	-3640
▁Friday	-3641
▁ug	-3642
▁season	-3643
fortunately	-3644
co	-3645
▁critic	-3646
▁determined	-3647
▁activ	-3648
▁sooner	-3649
▁hung	-3650
▁judge	-3651
▁manage	-3652
▁forty	-3653
▁flower	-3654
▁clock	-3655
▁holding	-3656
rees	-3657
▁map	-3658
ening	-3659
▁tent	-3660
▁webs	-3661
▁successful	-3662
dom	-3663
▁Sa	-3664
▁cover	-3665
▁reluct	-3666
ference	-3667
apt	-3668
▁Morocc	-3669
▁hearing	-3670
razil	-3671
struct	-3672
▁England	-3673
▁shocked	-3674
▁investig	-3675
▁foc	-3676
▁raise	-3677
▁paying	-3678
Do	-3679
▁Fin	-3680
ining	-3681
▁influ	-3682
▁Brazil	-3683
▁exhausted	-3684
▁unl	-3685
▁silent	-3686
asing	-3687
▁duty	-3688
▁surr	-3689
▁environment	-3690
▁Pr	-3691
▁rum	-3692
▁meal	-3693
▁citiz	-3694
omed	-3695
ls	-3696
ram	-3697
▁vote	-3698
▁Sorry	-3699
▁announ	-3700
▁imagine	-3701
▁evil	-3702
▁juice	-3703
▁favour	-3704
erve	-3705
▁tong	-3706
▁Western	-3707
▁Palestin	-3708
ials	-3709
▁Rom	-3710
▁mult	-3711
▁sharp	-3712
oved	-3713
▁article	-3714
▁desperate	-3715
▁Sc	-3716
ularly	-3717
▁shout	-3718
▁taller	-3719
▁lazy	-3720
▁badly	-3721
▁parked	-3722
▁terror	-3723
▁useful	-3724
▁chicken	-3725
▁experien	-3726
▁available	-3727
phan	-3728
▁Day	-3729
▁beauty	-3730
▁effort	-3731
arm	-3732
▁Yes	-3733
▁amount	-3734
▁Italian	-3735
▁suspicious	-3736
eter	-3737
uted	-3738
▁disg	-3739
▁World	-3740
▁explan	-3741
vere	-3742
tered	-3743
▁superm	-3744
▁cookies	-3745
▁society	-3746
ili	-3747
▁Hey	-3748
▁member	-3749
ipe	-3750
iest	-3751
▁size	-3752
▁Italy	-3753
▁flying	-3754
▁request	-3755
▁staring	-3756
▁becoming	-3757
▁advant	-3758
▁closer	-3759
▁Yesterday	-3760
▁created	-3761
bye	-3762
rets	-3763
▁enjoying	-3764
▁Eve	-3765
▁gent	-3766
▁Canada	-3767
▁hanging	-3768
▁process	-3769
▁President	-3770
yond	-3771
▁poet	-3772
▁simply	-3773
ama	-3774
ooper	-3775
▁faith	-3776
▁percent	-3777
▁whenever	-3778
kn	-3779
ius	-3780
▁miles	-3781
▁camping	-3782
▁classes	-3783
▁fed	-3784
nel	-3785
▁18	-3786
▁Park	-3787
▁poem	-3788
▁whom	-3789
▁princip	-3790
▁vegetables	-3791
mon	-3792
▁figured	-3793
▁treated	-3794
airo	-3795
▁sla	-3796
apers	-3797
▁contract	-3798
,”	-3799
▁2013.	-3800
▁motiv	-3801
▁finger	-3802
▁stomach	-3803
▁depressed	-3804
▁plenty	-3805
▁led	-3806
▁teen	-3807
▁curious	-3808
iod	-3809
▁Cl	-3810
▁glo	-3811
por	-3812
ingu	-3813
▁fro	-3814
▁suppose	-3815
▁army	-3816
▁Doing	-3817
▁civil	-3818
▁excell	-3819
▁supermark	-3820
▁bal	-3821
uments	-3822
▁Cairo	-3823
▁tells	-3824
▁trick	-3825
erg	-3826
▁Bl	-3827
▁photo	-3828
ode	-3829
▁math	-3830
▁sheep	-3831
▁workers	-3832
▁thirsty	-3833
▁Two	-3834
ipped	-3835
order	-3836
▁acqu	-3837
▁salt	-3838
▁react	-3839
▁poison	-3840
▁culture	-3841
▁license	-3842
▁members	-3843
▁upstairs	-3844
▁education	-3845
cher	-3846
▁deli	-3847
▁habit	-3848
iny	-3849
usion	-3850
▁thou	-3851
▁happiness	-3852
ata	-3853
cially	-3854
▁rose	-3855
▁toile	-3856
▁cris	-3857
arently	-3858
▁cig	-3859
▁pron	-3860
▁ugly	-3861
iving	-3862
▁sang	-3863
ouraged	-3864
▁details	-3865
▁disease	-3866
cons	-3867
▁beyond	-3868
▁cy	-3869
▁ears	-3870
izing	-3871
▁Maria	-3872
▁illeg	-3873
▁magaz	-3874
▁appeared	-3875
liar	-3876
▁issue	-3877
▁prove	-3878
▁propos	-3879
▁grabbed	-3880
▁pleasure	-3881
▁glob	-3882
▁occur	-3883
▁gentle	-3884
▁attempt	-3885
▁30	-3886
tery	-3887
▁rele	-3888
▁modern	-3889
▁pushed	-3890
▁yellow	-3891
▁evidence	-3892
igr	-3893
▁batt	-3894
▁burned	-3895
▁poured	-3896
▁owe	-3897
▁inse	-3898
▁coron	-3899
▁grass	-3900
▁European	-3901
▁recommend	-3902
▁mel	-3903
▁retired	-3904
▁confident	-3905
▁neighbors	-3906
icide	-3907
▁bark	-3908
view	-3909
▁bow	-3910
▁slight	-3911
cul	-3912
▁crim	-3913
▁depend	-3914
eor	-3915
▁uns	-3916
▁acting	-3917
▁community	-3918
▁mountains	-3919
▁rub	-3920
imistic	-3921
▁artist	-3922
▁ability	-3923
▁falling	-3924
▁excellent	-3925
ctors	-3926
▁mail	-3927
▁ocean	-3928
▁research	-3929
Why	-3930
anced	-3931
▁sisters	-3932
born	-3933
▁dia	-3934
▁sli	-3935
▁Walid	-3936
▁email	-3937
▁Saturday	-3938
▁appointment	-3939
▁Farid	-3940
▁reasons	-3941
year	-3942
orter	-3943
stron	-3944
▁cand	-3945
▁fallen	-3946
▁plants	-3947
▁resign	-3948
ivid	-3949
unte	-3950
▁War	-3951
▁anger	-3952
ibility	-3953
▁assume	-3954
▁warned	-3955
uary	-3956
▁carp	-3957
▁accused	-3958
▁schedule	-3959
▁supermarket	-3960
▁199	-3961
▁dig	-3962
▁resc	-3963
▁brown	-3964
▁guard	-3965
▁tempt	-3966
▁climate	-3967
▁Gu	-3968
▁period	-3969
▁joy	-3970
itation	-3971
▁memory	-3972
▁strength	-3973
ham	-3974
avirus	-3975
▁claims	-3976
▁tongue	-3977
▁argument	-3978
▁pressure	-3979
▁spending	-3980
aches	-3981
▁Mars	-3982
ores	-3983
orses	-3984
ashion	-3985
▁Morocco	-3986
▁pregnant	-3987
▁security	-3988
▁van	-3989
asant	-3990
▁flag	-3991
▁laid	-3992
▁welcome	-3993
▁Last	-3994
▁nine	-3995
▁thin	-3996
▁tickets	-3997
▁perfectly	-3998
▁explanation	-3999
▁Ad	-4000
▁rom	-4001
▁lately	-4002
▁freedom	-4003
nam	-4004
aret	-4005
▁victim	-4006
▁volunte	-4007
gers	-4008
▁hill	-4009
▁loss	-4010
▁silence	-4011
▁kinds	-4012
▁rarely	-4013
▁deserve	-4014
iff	-4015
▁Or	-4016
hara	-4017
▁See	-4018
▁rab	-4019
▁dish	-4020
▁shape	-4021
▁toilet	-4022
do	-4023
ago	-4024
▁Mina	-4025
▁diet	-4026
▁website	-4027
▁remained	-4028
▁tool	-4029
▁rights	-4030
ician	-4031
▁annoyed	-4032
▁complic	-4033
▁universe	-4034
▁Em	-4035
▁log	-4036
▁West	-4037
▁rang	-4038
▁mater	-4039
▁stone	-4040
▁invite	-4041
▁impress	-4042
▁frightened	-4043
▁cooper	-4044
▁highly	-4045
▁intended	-4046
▁unc	-4047
▁Street	-4048
▁center	-4049
▁intelligent	-4050
ially	-4051
▁scar	-4052
looking	-4053
▁enjoys	-4054
▁passport	-4055
▁soldiers	-4056
lished	-4057
▁While	-4058
▁helps	-4059
▁military	-4060
▁Con	-4061
verage	-4062
▁scene	-4063
▁exercise	-4064
▁Re	-4065
▁cho	-4066
▁disp	-4067
▁nar	-4068
▁runs	-4069
▁stat	-4070
atives	-4071
▁survive	-4072
iven	-4073
▁bes	-4074
▁hero	-4075
▁credit	-4076
▁putting	-4077
▁midnight	-4078
▁frust	-4079
▁parking	-4080
▁Love	-4081
▁YouT	-4082
▁Internet	-4083
▁classroom	-4084
▁Man	-4085
▁gri	-4086
▁access	-4087
▁reality	-4088
▁instruct	-4089
▁international	-4090
eds	-4091
▁mann	-4092
▁costs	-4093
▁biggest	-4094
aint	-4095
stit	-4096
▁yes	-4097
▁meth	-4098
▁thick	-4099
▁polite	-4100
▁cleaned	-4101
ped	-4102
▁Dr	-4103
ival	-4104
▁block	-4105
▁coronavirus	-4106
▁possibility	-4107
ively	-4108
",	-4109
hest	-4110
ateful	-4111
ana	-4112
▁Stay	-4113
▁orange	-4114
▁cleaning	-4115
▁Acc	-4116
▁Port	-4117
▁South	-4118
▁positive	-4119
mates	-4120
▁host	-4121
▁doors	-4122
▁maybe	-4123
▁prices	-4124
▁rate	-4125
▁contr	-4126
▁drugs	-4127
▁idiot	-4128
▁Christian	-4129
▁–	-4130
ients	-4131
▁hole	-4132
▁pieces	-4133
▁stairs	-4134
law	-4135
▁kilomet	-4136
▁media	-4137
▁committed	-4138
oe	-4139
▁incred	-4140
ember	-4141
stand	-4142
▁regard	-4143
▁skiing	-4144
▁neighbour	-4145
sing	-4146
▁couch	-4147
▁abandoned	-4148
▁translation	-4149
zen	-4150
▁zoo	-4151
▁guests	-4152
▁attacked	-4153
▁chat	-4154
▁swear	-4155
▁crisis	-4156
ipl	-4157
arily	-4158
▁mirror	-4159
▁traveling	-4160
ids	-4161
▁Chic	-4162
▁note	-4163
▁truly	-4164
▁YouTube	-4165
▁Somebody	-4166
▁disappeared	-4167
aled	-4168
▁gro	-4169
▁jokes	-4170
▁British	-4171
▁Unfortunately	-4172
▁Mart	-4173
▁familiar	-4174
▁wit	-4175
hamed	-4176
▁brave	-4177
▁burst	-4178
▁species	-4179
▁advantage	-4180
▁gym	-4181
▁capt	-4182
▁reply	-4183
▁value	-4184
▁ancient	-4185
▁respond	-4186
▁thoughts	-4187
▁Children	-4188
▁experienced	-4189
▁smo	-4190
▁cards	-4191
▁horses	-4192
▁Chicago	-4193
▁adopted	-4194
▁basement	-4195
▁persuade	-4196
▁action	-4197
▁goodbye	-4198
▁Kore	-4199
▁fill	-4200
▁relie	-4201
▁straw	-4202
▁lesson	-4203
iles	-4204
▁100	-4205
▁hug	-4206
▁court	-4207
▁damage	-4208
▁general	-4209
▁horrible	-4210
wise	-4211
▁mix	-4212
▁none	-4213
▁chose	-4214
▁refuse	-4215
▁Lat	-4216
▁dom	-4217
▁homes	-4218
▁defend	-4219
▁reluctant	-4220
▁final	-4221
▁assumed	-4222
▁construct	-4223
▁Ky	-4224
▁ow	-4225
▁Ken	-4226
icated	-4227
▁spirit	-4228
▁located	-4229
▁direction	-4230
▁temperature	-4231
▁Mos	-4232
▁compan	-4233
▁retire	-4234
▁stared	-4235
▁carrying	-4236
▁document	-4237
▁nu	-4238
▁ham	-4239
▁lad	-4240
▁pic	-4241
▁dare	-4242
▁cancer	-4243
▁cigaret	-4244
▁prevent	-4245
▁shoulder	-4246
▁according	-4247
nal	-4248
iety	-4249
▁saf	-4250
▁page	-4251
▁accent	-4252
▁recognized	-4253
oto	-4254
▁King	-4255
▁defe	-4256
▁magn	-4257
▁pants	-4258
▁pencil	-4259
▁theory	-4260
▁professional	-4261
hand	-4262
▁joined	-4263
▁destroyed	-4264
pir	-4265
▁blank	-4266
▁model	-4267
olution	-4268
▁contrib	-4269
▁grateful	-4270
▁Br	-4271
▁pal	-4272
▁whis	-4273
▁acted	-4274
▁cities	-4275
▁visiting	-4276
▁religious	-4277
son	-4278
▁lit	-4279
▁fant	-4280
▁port	-4281
▁detect	-4282
the	-4283
▁fal	-4284
aries	-4285
▁Once	-4286
▁comb	-4287
▁shows	-4288
▁Although	-4289
mber	-4290
ompl	-4291
▁App	-4292
▁por	-4293
▁yen	-4294
▁anxious	-4295
asses	-4296
ption	-4297
▁colour	-4298
▁gloves	-4299
▁ashamed	-4300
▁tradition	-4301
gency	-4302
▁rooms	-4303
ilities	-4304
▁method	-4305
hetic	-4306
▁flew	-4307
▁Spain	-4308
▁headed	-4309
▁videos	-4310
▁keeping	-4311
▁chem	-4312
▁frequ	-4313
▁based	-4314
▁socks	-4315
ability	-4316
▁sac	-4317
krain	-4318
▁gate	-4319
▁accompl	-4320
▁careless	-4321
▁screaming	-4322
min	-4323
▁lat	-4324
imate	-4325
▁spends	-4326
udd	-4327
▁ast	-4328
Where	-4329
▁astron	-4330
▁issues	-4331
▁lovely	-4332
▁illness	-4333
▁powerful	-4334
▁Pro	-4335
iking	-4336
▁dent	-4337
▁motorcy	-4338
▁removed	-4339
▁separatist	-4340
▁stepped	-4341
▁divorced	-4342
cuse	-4343
hange	-4344
▁distur	-4345
▁medical	-4346
▁According	-4347
umn	-4348
yard	-4349
▁None	-4350
▁rise	-4351
▁flood	-4352
▁Ukrain	-4353
▁repair	-4354
▁answers	-4355
▁mistaken	-4356
hi	-4357
cast	-4358
esus	-4359
▁Three	-4360
▁disag	-4361
▁flash	-4362
▁terms	-4363
▁reject	-4364
▁salary	-4365
▁suffering	-4366
▁honey	-4367
▁Before	-4368
▁capable	-4369
▁pill	-4370
ground	-4371
▁added	-4372
▁possibly	-4373
ixt	-4374
asion	-4375
▁starts	-4376
▁products	-4377
Is	-4378
▁Call	-4379
▁Iran	-4380
▁Rome	-4381
▁sons	-4382
▁irrit	-4383
▁suicide	-4384
▁Portug	-4385
▁humans	-4386
▁intention	-4387
bage	-4388
▁spr	-4389
apped	-4390
▁hire	-4391
▁belongs	-4392
▁cave	-4393
▁furn	-4394
▁sales	-4395
▁foolish	-4396
▁streets	-4397
hib	-4398
mate	-4399
omeday	-4400
pecially	-4401
▁complicated	-4402
inct	-4403
ession	-4404
▁desire	-4405
▁picnic	-4406
▁climbed	-4407
▁examination	-4408
fact	-4409
▁unb	-4410
▁Te	-4411
illy	-4412
▁coach	-4413
▁battle	-4414
▁degree	-4415
▁aggress	-4416
▁divorce	-4417
▁entirely	-4418
▁interview	-4419
Are	-4420
▁passen	-4421
▁average	-4422
▁earthqu	-4423
▁childhood	-4424
oms	-4425
atory	-4426
▁elev	-4427
▁fingers	-4428
▁politics	-4429
▁motivated	-4430
alled	-4431
▁aunt	-4432
▁parts	-4433
▁crossed	-4434
▁thousands	-4435
▁Hun	-4436
▁current	-4437
▁enemies	-4438
▁lean	-4439
▁During	-4440
▁Tomorrow	-4441
▁Ha	-4442
▁ske	-4443
wards	-4444
▁Jesus	-4445
▁democr	-4446
▁passion	-4447
sequ	-4448
▁photos	-4449
▁strict	-4450
That	-4451
▁betray	-4452
▁closet	-4453
▁borrowed	-4454
aging	-4455
▁sees	-4456
▁task	-4457
▁Father	-4458
▁remark	-4459
ux	-4460
known	-4461
▁shock	-4462
▁heaven	-4463
▁served	-4464
▁various	-4465
met	-4466
male	-4467
▁higher	-4468
▁greatest	-4469
▁particip	-4470
▁proposal	-4471
▁stronger	-4472
▁Leave	-4473
▁finan	-4474
▁matters	-4475
▁Rem	-4476
▁demon	-4477
▁grown	-4478
ologist	-4479
▁opposite	-4480
kay	-4481
now	-4482
▁En	-4483
▁aim	-4484
▁hij	-4485
bered	-4486
▁copy	-4487
▁apply	-4488
▁command	-4489
ky	-4490
▁hob	-4491
obile	-4492
▁firm	-4493
▁tend	-4494
▁Greek	-4495
▁liber	-4496
▁contain	-4497
▁failure	-4498
▁individ	-4499
▁ut	-4500
uits	-4501
▁nur	-4502
▁ridic	-4503
▁troub	-4504
▁former	-4505
▁illegal	-4506
▁touched	-4507
▁property	-4508
▁translated	-4509
▁Des	-4510
▁finds	-4511
▁racist	-4512
▁potatoes	-4513
▁policeman	-4514
imp	-4515
place	-4516
▁onto	-4517
▁puzz	-4518
▁global	-4519
▁favourite	-4520
▁apologized	-4521
▁Read	-4522
aching	-4523
▁crack	-4524
▁career	-4525
▁cooked	-4526
▁audience	-4527
▁friendship	-4528
my	-4529
house	-4530
▁push	-4531
▁facts	-4532
▁occup	-4533
▁tastes	-4534
▁escaped	-4535
affes	-4536
▁resour	-4537
▁remains	-4538
▁theater	-4539
▁downstairs	-4540
gent	-4541
▁unp	-4542
▁iron	-4543
▁Afric	-4544
▁Excuse	-4545
▁shared	-4546
▁graduated	-4547
▁including	-4548
exic	-4549
▁Dad	-4550
▁gra	-4551
▁female	-4552
ware	-4553
▁uncom	-4554
▁sweater	-4555
▁developed	-4556
▁jam	-4557
▁Jane	-4558
▁Latin	-4559
▁brief	-4560
ID	-4561
▁15	-4562
ship	-4563
▁Col	-4564
ublic	-4565
▁reve	-4566
▁below	-4567
▁chest	-4568
▁conce	-4569
▁thief	-4570
▁cousin	-4571
▁claimed	-4572
▁ignored	-4573
▁changing	-4574
zed	-4575
▁arr	-4576
▁pig	-4577
anger	-4578
▁bite	-4579
▁coin	-4580
▁drew	-4581
▁Smith	-4582
▁cheek	-4583
▁buried	-4584
▁source	-4585
▁writer	-4586
▁complex	-4587
▁especially	-4588
▁introduced	-4589
iped	-4590
▁lent	-4591
▁thee	-4592
▁fence	-4593
▁doctors	-4594
▁selling	-4595
▁surface	-4596
aka	-4597
▁noon	-4598
▁plate	-4599
ological	-4600
▁kissing	-4601
▁headache	-4602
▁confidence	-4603
▁ge	-4604
▁wol	-4605
urance	-4606
▁trade	-4607
▁safety	-4608
▁However	-4609
▁finding	-4610
▁tap	-4611
▁Each	-4612
▁conference	-4613
▁bud	-4614
▁gif	-4615
▁quar	-4616
▁eager	-4617
▁knock	-4618
▁repres	-4619
▁pronoun	-4620
isions	-4621
▁rough	-4622
▁salad	-4623
▁fought	-4624
▁engaged	-4625
▁smarter	-4626
lied	-4627
iplom	-4628
▁grou	-4629
▁Mexic	-4630
▁rushed	-4631
▁patience	-4632
▁threatened	-4633
asy	-4634
aker	-4635
▁naked	-4636
▁magazine	-4637
ilos	-4638
▁Uni	-4639
▁Without	-4640
▁Rep	-4641
▁mic	-4642
allow	-4643
▁Time	-4644
▁anti	-4645
▁India	-4646
▁create	-4647
▁severe	-4648
▁uncomfortable	-4649
.”	-4650
cra	-4651
▁lif	-4652
▁Turn	-4653
▁cere	-4654
erable	-4655
ration	-4656
▁false	-4657
▁suffe	-4658
▁thanks	-4659
▁counter	-4660
▁fashion	-4661
▁criminal	-4662
bits	-4663
▁rail	-4664
▁symp	-4665
▁saving	-4666
▁achieve	-4667
for	-4668
▁gaz	-4669
▁bench	-4670
▁stage	-4671
▁total	-4672
▁origin	-4673
▁greet	-4674
▁rains	-4675
▁castle	-4676
▁terrified	-4677
anc	-4678
ulty	-4679
▁Show	-4680
▁collap	-4681
ague	-4682
irrel	-4683
▁bound	-4684
▁cheer	-4685
▁receive	-4686
fa	-4687
ni	-4688
ox	-4689
aly	-4690
eed	-4691
▁data	-4692
▁numbers	-4693
▁incident	-4694
▁released	-4695
▁Spe	-4696
▁role	-4697
▁stub	-4698
icient	-4699
▁hijab	-4700
▁stock	-4701
▁track	-4702
▁purcha	-4703
▁signed	-4704
▁comment	-4705
▁dentist	-4706
▁trusted	-4707
▁traveled	-4708
lish	-4709
uous	-4710
word	-4711
▁gay	-4712
▁nap	-4713
clear	-4714
▁tail	-4715
employ	-4716
▁actor	-4717
▁solar	-4718
▁bottom	-4719
▁diplom	-4720
▁quality	-4721
da	-4722
▁eld	-4723
▁pil	-4724
enced	-4725
hemat	-4726
▁meas	-4727
▁sale	-4728
▁double	-4729
▁infect	-4730
▁journey	-4731
sion	-4732
▁obe	-4733
arian	-4734
▁gramm	-4735
▁excuse	-4736
▁struck	-4737
▁arguing	-4738
▁messages	-4739
▁conditions	-4740
iment	-4741
▁blew	-4742
▁site	-4743
▁ruined	-4744
▁smells	-4745
▁provide	-4746
▁currently	-4747
▁motorcycle	-4748
▁understands	-4749
▁poll	-4750
cience	-4751
▁expert	-4752
-1	-4753
gs	-4754
▁Hum	-4755
▁Wait	-4756
▁bran	-4757
▁benef	-4758
▁wheel	-4759
▁desert	-4760
▁fortune	-4761
▁knocked	-4762
▁reb	-4763
erved	-4764
▁ends	-4765
atures	-4766
▁youth	-4767
▁smiling	-4768
▁suffered	-4769
lig	-4770
pril	-4771
▁lower	-4772
▁deeply	-4773
▁policy	-4774
mosp	-4775
▁unus	-4776
▁fully	-4777
▁north	-4778
▁nurse	-4779
▁turning	-4780
▁original	-4781
Tom	-4782
▁Inst	-4783
ulated	-4784
▁fridge	-4785
▁industry	-4786
▁suspected	-4787
▁constantly	-4788
▁complaining	-4789
ker	-4790
iring	-4791
▁More	-4792
▁lips	-4793
▁prev	-4794
▁Roman	-4795
▁champ	-4796
▁south	-4797
▁packed	-4798
▁efforts	-4799
▁factory	-4800
▁official	-4801
0.	-4802
▁roll	-4803
▁April	-4804
▁relative	-4805
fl	-4806
ayed	-4807
▁mer	-4808
▁sink	-4809
▁related	-4810
▁complained	-4811
inet	-4812
▁pra	-4813
▁argue	-4814
4.	-4815
ji	-4816
▁Geor	-4817
▁clouds	-4818
▁speakers	-4819
▁succeeded	-4820
hel	-4821
▁walks	-4822
lor	-4823
mic	-4824
▁virus	-4825
▁drives	-4826
▁African	-4827
▁prepare	-4828
▁someday	-4829
▁signific	-4830
eah	-4831
▁ep	-4832
▁rot	-4833
ebook	-4834
▁alarm	-4835
▁fifty	-4836
gery	-4837
▁rare	-4838
▁areas	-4839
▁notebook	-4840
▁pow	-4841
▁Women	-4842
▁Mother	-4843
▁nowhere	-4844
▁wealthy	-4845
▁increase	-4846
▁ridiculous	-4847
ya	-4848
vert	-4849
vest	-4850
eding	-4851
iders	-4852
▁kick	-4853
▁vers	-4854
▁equal	-4855
▁NA	-4856
▁ho	-4857
chan	-4858
ament	-4859
orthern	-4860
▁atmosp	-4861
▁witness	-4862
▁reported	-4863
irts	-4864
ushing	-4865
▁turns	-4866
▁clever	-4867
▁emergency	-4868
▁understanding	-4869
We	-4870
isc	-4871
ners	-4872
▁Bel	-4873
anted	-4874
▁cops	-4875
▁detail	-4876
▁growth	-4877
▁garbage	-4878
▁offended	-4879
▁romantic	-4880
▁hurts	-4881
▁prize	-4882
▁active	-4883
▁winning	-4884
▁announced	-4885
▁earthquake	-4886
lin	-4887
▁coast	-4888
▁insult	-4889
▁journal	-4890
▁reasonable	-4891
cles	-4892
▁cro	-4893
▁hyp	-4894
iding	-4895
▁East	-4896
▁fold	-4897
▁Kyoto	-4898
▁tooth	-4899
▁furious	-4900
▁properly	-4901
▁attractive	-4902
soci	-4903
▁spo	-4904
▁shook	-4905
▁fluent	-4906
▁hiking	-4907
▁stands	-4908
▁delight	-4909
▁cheating	-4910
▁asks	-4911
▁symb	-4912
▁Being	-4913
▁bunch	-4914
▁candy	-4915
▁porch	-4916
▁rapid	-4917
▁conduct	-4918
▁grandpa	-4919
▁survived	-4920
▁talented	-4921
▁12	-4922
▁CO	-4923
▁Fe	-4924
umped	-4925
▁shel	-4926
▁First	-4927
▁style	-4928
▁resist	-4929
▁officer	-4930
▁customers	-4931
nes	-4932
▁virt	-4933
▁Bring	-4934
▁scary	-4935
▁burning	-4936
▁violence	-4937
▁development	-4938
▁Palestinians	-4939
affe	-4940
▁Cal	-4941
▁shr	-4942
craft	-4943
▁Bang	-4944
▁serve	-4945
▁nearby	-4946
9.	-4947
hus	-4948
zer	-4949
ibly	-4950
▁Jim	-4951
▁dust	-4952
▁male	-4953
▁owns	-4954
▁sport	-4955
▁suffer	-4956
▁professor	-4957
▁kilometers	-4958
▁responsibility	-4959
rer	-4960
▁Bet	-4961
▁bags	-4962
▁boots	-4963
▁grave	-4964
hab	-4965
oot	-4966
wing	-4967
▁Med	-4968
uries	-4969
▁arch	-4970
▁debt	-4971
▁thri	-4972
▁baked	-4973
▁elected	-4974
▁sounded	-4975
▁optimistic	-4976
▁remembered	-4977
▁et	-4978
roat	-4979
▁Fer	-4980
erson	-4981
▁forth	-4982
▁owner	-4983
▁conven	-4984
▁philos	-4985
▁riding	-4986
▁election	-4987
▁agreement	-4988
elve	-4989
itor	-4990
▁climb	-4991
▁accomp	-4992
▁attended	-4993
▁tourists	-4994
▁pretending	-4995
▁Mo	-4996
▁Sy	-4997
ancy	-4998
▁fra	-4999
ching	-5000
▁obey	-5001
▁colon	-5002
▁stress	-5003
▁murdered	-5004
▁challenge	-5005
inate	-5006
▁airpl	-5007
▁daily	-5008
▁consequ	-5009
▁teaches	-5010
▁squirrel	-5011
▁surrounded	-5012
▁sin	-5013
▁edge	-5014
▁commit	-5015
▁depends	-5016
▁backyard	-5017
▁liar	-5018
▁yard	-5019
▁actions	-5020
▁stubborn	-5021
▁unemploy	-5022
▁particular	-5023
▁Gir	-5024
▁narrow	-5025
▁package	-5026
▁thanked	-5027
▁sometime	-5028
isy	-5029
▁dy	-5030
▁je	-5031
▁unw	-5032
iture	-5033
▁pale	-5034
▁weigh	-5035
▁insect	-5036
▁interp	-5037
▁placed	-5038
▁symbol	-5039
▁mission	-5040
▁Os	-5041
riger	-5042
▁sofa	-5043
▁honor	-5044
▁permit	-5045
▁square	-5046
▁appears	-5047
▁however	-5048
▁warning	-5049
Oh	-5050
▁Mom	-5051
▁pup	-5052
▁gain	-5053
▁decor	-5054
athered	-5055
▁allerg	-5056
▁weapons	-5057
bl	-5058
bon	-5059
▁shad	-5060
▁screw	-5061
▁refriger	-5062
mes	-5063
▁adj	-5064
▁ath	-5065
idays	-5066
▁June	-5067
▁cine	-5068
▁dece	-5069
▁drum	-5070
▁amused	-5071
▁border	-5072
▁writes	-5073
▁becomes	-5074
▁opening	-5075
▁aggressive	-5076
zing	-5077
ength	-5078
▁dele	-5079
▁entr	-5080
▁Trump	-5081
▁concl	-5082
▁fever	-5083
▁shame	-5084
▁forgiven	-5085
▁stranger	-5086
cut	-5087
izes	-5088
▁mall	-5089
▁sear	-5090
▁estab	-5091
▁stret	-5092
▁Sahara	-5093
▁circum	-5094
▁strang	-5095
▁physical	-5096
▁daughters	-5097
ena	-5098
▁tun	-5099
▁fake	-5100
▁advance	-5101
iver	-5102
▁faces	-5103
▁options	-5104
▁annoying	-5105
▁creature	-5106
▁Men	-5107
▁jew	-5108
▁tip	-5109
▁awful	-5110
▁conserv	-5111
▁lessons	-5112
▁elevator	-5113
▁insurance	-5114
▁introduce	-5115
▁apparently	-5116
vard	-5117
▁mut	-5118
ading	-5119
▁Whose	-5120
▁toler	-5121
▁walls	-5122
▁discussed	-5123
▁University	-5124
▁technology	-5125
rate	-5126
uese	-5127
▁202	-5128
▁Act	-5129
icing	-5130
▁Bill	-5131
▁prim	-5132
ainted	-5133
▁creep	-5134
▁swore	-5135
▁quietly	-5136
▁pleasant	-5137
1.	-5138
▁Wr	-5139
town	-5140
▁err	-5141
elled	-5142
▁Lear	-5143
glasses	-5144
▁admire	-5145
▁yelling	-5146
▁directly	-5147
▁difficulty	-5148
He	-5149
gu	-5150
pected	-5151
usting	-5152
▁cares	-5153
▁proof	-5154
▁killing	-5155
rial	-5156
▁dumb	-5157
▁laws	-5158
▁larger	-5159
▁Ukraine	-5160
▁nuclear	-5161
▁parties	-5162
▁computers	-5163
▁concent	-5164
▁players	-5165
▁previous	-5166
▁financial	-5167
▁influence	-5168
▁frustrated	-5169
reak	-5170
iches	-5171
itched	-5172
▁goods	-5173
▁knowing	-5174
▁tempted	-5175
▁strawber	-5176
▁Portuguese	-5177
▁beard	-5178
▁minor	-5179
▁beside	-5180
▁height	-5181
▁particularly	-5182
mail	-5183
▁rope	-5184
▁tatt	-5185
▁wand	-5186
▁hugged	-5187
▁giraffe	-5188
▁comments	-5189
ulf	-5190
▁196	-5191
▁deaf	-5192
▁applic	-5193
▁furniture	-5194
▁department	-5195
▁ded	-5196
ulate	-5197
▁qual	-5198
▁notes	-5199
▁skept	-5200
▁spare	-5201
▁switch	-5202
▁insisted	-5203
▁mentioned	-5204
ara	-5205
▁lands	-5206
▁roses	-5207
▁Harvard	-5208
▁elephan	-5209
▁musician	-5210
VID	-5211
fers	-5212
osen	-5213
▁cock	-5214
▁rout	-5215
▁smaller	-5216
▁expression	-5217
▁Mal	-5218
▁Min	-5219
▁Thurs	-5220
▁lines	-5221
▁sword	-5222
▁mental	-5223
▁pretend	-5224
▁replace	-5225
▁material	-5226
how	-5227
▁Che	-5228
overy	-5229
lected	-5230
rowned	-5231
▁ignor	-5232
conscious	-5233
▁generous	-5234
urt	-5235
▁El	-5236
▁Jud	-5237
▁net	-5238
▁sen	-5239
iform	-5240
▁nuts	-5241
▁COVID	-5242
▁bills	-5243
aughter	-5244
▁cinema	-5245
▁tattoo	-5246
▁crowded	-5247
▁justice	-5248
▁approach	-5249
▁attitude	-5250
▁gathered	-5251
▁appearance	-5252
▁atmosphere	-5253
wr	-5254
hold	-5255
▁odd	-5256
▁tar	-5257
▁Watch	-5258
▁surgery	-5259
▁converted	-5260
▁wra	-5261
anged	-5262
icles	-5263
▁cher	-5264
▁canceled	-5265
▁independence	-5266
▁Happ	-5267
▁weed	-5268
▁minds	-5269
▁towels	-5270
▁wishes	-5271
▁families	-5272
▁decisions	-5273
▁miserable	-5274
lt	-5275
azz	-5276
▁figs	-5277
▁mouse	-5278
▁trash	-5279
▁content	-5280
▁hurried	-5281
▁partner	-5282
▁correctly	-5283
▁transport	-5284
▁impression	-5285
ears	-5286
▁Hell	-5287
▁ignore	-5288
▁joking	-5289
▁anytime	-5290
▁comfort	-5291
▁mathemat	-5292
▁accidentally	-5293
etic	-5294
husi	-5295
adays	-5296
▁blow	-5297
▁broad	-5298
▁laund	-5299
▁purse	-5300
▁encour	-5301
▁degrees	-5302
▁Whatever	-5303
▁discouraged	-5304
gen	-5305
▁bot	-5306
agers	-5307
▁heads	-5308
▁bitter	-5309
▁unusual	-5310
▁searched	-5311
verty	-5312
▁Comp	-5313
▁fond	-5314
▁reput	-5315
▁split	-5316
▁hidden	-5317
▁cheated	-5318
▁poverty	-5319
▁shorter	-5320
▁stealing	-5321
hett	-5322
▁Gen	-5323
▁Hol	-5324
▁Tan	-5325
▁lob	-5326
▁Such	-5327
▁lect	-5328
▁link	-5329
▁labor	-5330
▁chosen	-5331
▁violin	-5332
▁weapon	-5333
▁distract	-5334
▁occurred	-5335
▁increasing	-5336
ste	-5337
olar	-5338
▁dear	-5339
▁dess	-5340
▁papers	-5341
▁captain	-5342
▁schools	-5343
▁sunglasses	-5344
ev	-5345
▁X	-5346
pen	-5347
▁veh	-5348
enses	-5349
▁lion	-5350
▁okay	-5351
▁pond	-5352
▁companies	-5353
▁refrigerator	-5354
well	-5355
▁Ben	-5356
▁sne	-5357
▁Help	-5358
icians	-5359
illing	-5360
inating	-5361
▁groups	-5362
▁points	-5363
▁recent	-5364
▁twelve	-5365
▁billion	-5366
▁charged	-5367
▁uniform	-5368
▁throughout	-5369
▁independent	-5370
ms	-5371
gle	-5372
▁god	-5373
▁myst	-5374
▁pure	-5375
▁settle	-5376
▁showing	-5377
resp	-5378
▁Sch	-5379
▁sett	-5380
▁valu	-5381
▁crush	-5382
▁silly	-5383
▁steps	-5384
▁slipped	-5385
▁attracted	-5386
▁passengers	-5387
iant	-5388
▁Car	-5389
▁Tues	-5390
▁deny	-5391
▁reads	-5392
▁planted	-5393
▁disagree	-5394
▁wondering	-5395
rol	-5396
▁voc	-5397
opath	-5398
▁toys	-5399
▁orders	-5400
▁helpful	-5401
▁pier	-5402
▁tiny	-5403
▁income	-5404
▁deserves	-5405
▁homeless	-5406
▁occasion	-5407
▁presence	-5408
2.	-5409
▁stream	-5410
▁fifteen	-5411
▁produce	-5412
▁allergic	-5413
▁downtown	-5414
lades	-5415
▁mobile	-5416
▁pounds	-5417
▁applied	-5418
▁Thursday	-5419
5.	-5420
mar	-5421
rig	-5422
▁gre	-5423
▁Cook	-5424
▁pand	-5425
▁Having	-5426
▁begins	-5427
▁Islamic	-5428
▁drawing	-5429
▁Banglades	-5430
▁scientists	-5431
ria	-5432
back	-5433
▁decl	-5434
▁legal	-5435
▁misunder	-5436
▁conscious	-5437
▁otherwise	-5438
6.	-5439
down	-5440
▁List	-5441
▁diam	-5442
▁pity	-5443
▁Great	-5444
▁Union	-5445
▁holidays	-5446
▁principal	-5447
ino	-5448
ucky	-5449
▁phr	-5450
▁jeans	-5451
▁sweat	-5452
▁Sud	-5453
▁bra	-5454
itect	-5455
▁unex	-5456
▁states	-5457
▁tomato	-5458
▁majority	-5459
▁training	-5460
▁collection	-5461
anned	-5462
▁prec	-5463
▁oblig	-5464
▁autumn	-5465
▁remove	-5466
▁airplane	-5467
▁creative	-5468
▁treatment	-5469
▁classmates	-5470
▁electricity	-5471
bum	-5472
▁shelf	-5473
▁Island	-5474
▁oldest	-5475
▁unfair	-5476
▁flashlight	-5477
▁competition	-5478
ona	-5479
emic	-5480
▁row	-5481
▁medl	-5482
▁attic	-5483
▁overw	-5484
▁compos	-5485
▁explos	-5486
▁skills	-5487
▁unique	-5488
▁breaking	-5489
▁buildings	-5490
▁celebrate	-5491
▁skeptical	-5492
Who	-5493
▁hi	-5494
▁fog	-5495
▁mud	-5496
▁fund	-5497
▁sail	-5498
ulations	-5499
▁funeral	-5500
▁employees	-5501
▁Jews	-5502
▁Shall	-5503
▁diary	-5504
▁focus	-5505
▁refer	-5506
▁reven	-5507
▁advent	-5508
▁strike	-5509
▁barking	-5510
▁chances	-5511
▁dessert	-5512
▁dreamed	-5513
▁hesitant	-5514
▁cough	-5515
▁lingu	-5516
▁topic	-5517
▁wound	-5518
▁colors	-5519
▁events	-5520
▁sleeps	-5521
▁wasting	-5522
▁citizens	-5523
▁textbook	-5524
▁performance	-5525
▁drag	-5526
▁tied	-5527
▁plain	-5528
▁waves	-5529
▁gained	-5530
▁hunting	-5531
▁laundry	-5532
▁selfish	-5533
▁contains	-5534
erves	-5535
▁adult	-5536
▁hobby	-5537
▁uncon	-5538
▁calcul	-5539
▁histor	-5540
▁punish	-5541
▁secrets	-5542
anna	-5543
▁bomb	-5544
▁fest	-5545
▁mere	-5546
▁worn	-5547
▁minim	-5548
▁trail	-5549
▁tries	-5550
▁Martha	-5551
▁multip	-5552
▁rained	-5553
▁describe	-5554
▁exciting	-5555
▁Bangladesh	-5556
:00	-5557
omy	-5558
amps	-5559
▁Next	-5560
▁bare	-5561
▁cart	-5562
▁pean	-5563
▁impat	-5564
▁scare	-5565
ception	-5566
▁citizen	-5567
▁violent	-5568
▁negative	-5569
oop	-5570
▁Nor	-5571
ivity	-5572
▁rack	-5573
▁rely	-5574
▁sixt	-5575
▁monster	-5576
▁nations	-5577
▁millions	-5578
▁teenager	-5579
▁Canadians	-5580
▁resources	-5581
▁Ob	-5582
▁Bar	-5583
liable	-5584
▁limit	-5585
▁prior	-5586
▁sacri	-5587
stances	-5588
▁struct	-5589
▁internet	-5590
▁rejected	-5591
▁reputation	-5592
roll	-5593
▁dawn	-5594
▁dism	-5595
▁gifts	-5596
▁insane	-5597
▁rescue	-5598
▁smooth	-5599
▁Tuesday	-5600
▁i	-5601
itter	-5602
▁forces	-5603
▁corrupt	-5604
▁graduate	-5605
▁presents	-5606
oti	-5607
reg	-5608
utions	-5609
ography	-5610
▁gather	-5611
▁throat	-5612
▁highest	-5613
▁architect	-5614
▁discussion	-5615
ns	-5616
▁forb	-5617
▁subs	-5618
▁decla	-5619
▁causes	-5620
▁novels	-5621
▁sexual	-5622
▁pointed	-5623
▁movement	-5624
▁opinions	-5625
ano	-5626
tes	-5627
▁Qu	-5628
▁Budd	-5629
▁meters	-5630
▁territ	-5631
▁entrance	-5632
▁irritated	-5633
▁frequently	-5634
▁personality	-5635
Th	-5636
ira	-5637
▁Bu	-5638
▁Hi	-5639
henni	-5640
▁sake	-5641
▁existence	-5642
▁preparing	-5643
▁published	-5644
▁Say	-5645
▁exec	-5646
garian	-5647
romise	-5648
▁neare	-5649
outhern	-5650
▁fellow	-5651
▁immigr	-5652
▁Mehenni	-5653
▁Mondays	-5654
▁assistant	-5655
▁grandparents	-5656
erk	-5657
what	-5658
▁Jan	-5659
▁boo	-5660
▁cruel	-5661
▁sells	-5662
▁worker	-5663
▁element	-5664
▁regular	-5665
▁password	-5666
Don	-5667
▁ox	-5668
case	-5669
onse	-5670
ittee	-5671
ounts	-5672
▁nons	-5673
▁Grand	-5674
▁queen	-5675
▁screen	-5676
▁recover	-5677
▁disaster	-5678
▁generally	-5679
▁increased	-5680
wh	-5681
▁Ed	-5682
▁Que	-5683
umber	-5684
▁arrog	-5685
▁giant	-5686
▁robbed	-5687
▁requires	-5688
▁$3	-5689
▁Swed	-5690
▁horn	-5691
▁purs	-5692
▁seek	-5693
▁vacc	-5694
▁repeat	-5695
▁solved	-5696
▁plastic	-5697
▁literature	-5698
oom	-5699
mony	-5700
gging	-5701
▁Turk	-5702
▁soap	-5703
▁unre	-5704
▁vain	-5705
▁elder	-5706
▁altern	-5707
▁happier	-5708
▁clothing	-5709
▁therefore	-5710
iger	-5711
▁Res	-5712
shirt	-5713
▁Comm	-5714
▁ruin	-5715
▁tort	-5716
▁punct	-5717
▁Ferhat	-5718
▁drawer	-5719
▁Remember	-5720
▁breathing	-5721
▁cigarette	-5722
▁gentleman	-5723
▁remembers	-5724
▁Cent	-5725
▁White	-5726
▁boxes	-5727
▁noisy	-5728
▁genius	-5729
▁strate	-5730
▁therap	-5731
▁wisdom	-5732
▁channel	-5733
▁betrayed	-5734
▁ordinary	-5735
▁response	-5736
▁16	-5737
▁198	-5738
▁ange	-5739
▁loan	-5740
▁album	-5741
▁aside	-5742
▁brand	-5743
▁guide	-5744
▁George	-5745
▁Jewish	-5746
▁length	-5747
▁slightly	-5748
▁impatient	-5749
cous	-5750
▁Yid	-5751
▁Jack	-5752
▁diss	-5753
▁instr	-5754
▁seats	-5755
▁taxes	-5756
▁trial	-5757
▁enthusi	-5758
▁massive	-5759
▁promises	-5760
▁differently	-5761
bly	-5762
▁Bob	-5763
▁craw	-5764
ivered	-5765
▁cases	-5766
▁tense	-5767
▁robber	-5768
▁supper	-5769
▁statement	-5770
▁construction	-5771
utch	-5772
▁dim	-5773
▁jog	-5774
▁mal	-5775
▁toy	-5776
▁City	-5777
weight	-5778
▁sixty	-5779
▁behave	-5780
▁latest	-5781
▁loudly	-5782
▁fucking	-5783
▁prefers	-5784
▁useless	-5785
▁fluently	-5786
▁traditional	-5787
agger	-5788
▁rush	-5789
▁stun	-5790
▁trap	-5791
▁begged	-5792
standing	-5793
▁require	-5794
▁humanity	-5795
ss	-5796
▁begun	-5797
▁cabin	-5798
▁yelled	-5799
▁democracy	-5800
▁considering	-5801
orted	-5802
▁merc	-5803
▁absor	-5804
▁autom	-5805
▁grade	-5806
▁postp	-5807
▁shown	-5808
▁silver	-5809
▁heavily	-5810
▁exchange	-5811
▁valuable	-5812
▁scientific	-5813
boy	-5814
urd	-5815
wood	-5816
issed	-5817
istan	-5818
▁haun	-5819
▁brush	-5820
▁sings	-5821
▁associ	-5822
▁belief	-5823
▁candid	-5824
▁mechan	-5825
▁promot	-5826
▁granted	-5827
▁organized	-5828
mit	-5829
athers	-5830
▁March	-5831
▁metal	-5832
▁blamed	-5833
▁makeup	-5834
▁contest	-5835
▁measure	-5836
▁demonstr	-5837
▁essential	-5838
kin	-5839
▁ric	-5840
▁liqu	-5841
▁slam	-5842
▁puppy	-5843
▁landed	-5844
▁manner	-5845
▁series	-5846
▁blanket	-5847
▁greater	-5848
▁seconds	-5849
▁customer	-5850
▁authority	-5851
▁organization	-5852
wan	-5853
acts	-5854
sive	-5855
▁Stud	-5856
▁Year	-5857
▁lawn	-5858
▁goals	-5859
▁disappear	-5860
▁invitation	-5861
gin	-5862
▁197	-5863
▁Cha	-5864
▁Net	-5865
▁junk	-5866
▁mask	-5867
▁mayor	-5868
▁talent	-5869
▁cheaper	-5870
▁diamond	-5871
▁mystery	-5872
ification	-5873
▁individual	-5874
▁bul	-5875
▁eth	-5876
▁Bout	-5877
▁item	-5878
▁pink	-5879
▁Bible	-5880
▁pilot	-5881
▁danced	-5882
▁arriving	-5883
▁darkness	-5884
otic	-5885
▁meals	-5886
▁sides	-5887
▁facing	-5888
▁pandemic	-5889
▁operation	-5890
▁unexpected	-5891
sc	-5892
▁50	-5893
asts	-5894
▁pin	-5895
▁file	-5896
▁scen	-5897
atched	-5898
▁Turkey	-5899
▁assign	-5900
▁myster	-5901
ervation	-5902
▁Britain	-5903
▁divided	-5904
▁suitcases	-5905
▁suggestion	-5906
yal	-5907
▁Ma	-5908
▁Su	-5909
efli	-5910
▁Mrs	-5911
▁Cats	-5912
▁July	-5913
▁rode	-5914
▁spin	-5915
▁crash	-5916
▁grades	-5917
▁climbing	-5918
▁surprising	-5919
▁imagination	-5920
box	-5921
▁11	-5922
▁Lu	-5923
▁Mid	-5924
▁Wed	-5925
▁hel	-5926
eflika	-5927
▁Sudden	-5928
▁envelop	-5929
▁regrets	-5930
▁documents	-5931
▁sandwiches	-5932
vy	-5933
lex	-5934
▁Im	-5935
▁Ven	-5936
going	-5937
ogram	-5938
▁Desp	-5939
▁humor	-5940
▁beings	-5941
▁Washing	-5942
▁Bouteflika	-5943
▁instructions	-5944
xim	-5945
step	-5946
▁bab	-5947
▁gor	-5948
aired	-5949
istry	-5950
ppers	-5951
▁maid	-5952
▁Hello	-5953
▁error	-5954
▁loose	-5955
▁memor	-5956
▁motion	-5957
▁director	-5958
▁invented	-5959
▁confessed	-5960
▁secretary	-5961
▁conservative	-5962
asp	-5963
▁snake	-5964
▁nights	-5965
▁damaged	-5966
▁addition	-5967
▁emotional	-5968
▁depression	-5969
▁caf	-5970
▁owned	-5971
▁fields	-5972
▁reform	-5973
▁Suddenly	-5974
▁improved	-5975
▁fantastic	-5976
▁suspended	-5977
▁Tai	-5978
▁Water	-5979
▁Cookie	-5980
▁brings	-5981
▁frozen	-5982
▁leaned	-5983
▁mostly	-5984
▁actress	-5985
▁replied	-5986
▁trained	-5987
▁unlucky	-5988
▁interests	-5989
▁communicate	-5990
▁emb	-5991
stick	-5992
▁gang	-5993
▁image	-5994
▁tools	-5995
▁negoti	-5996
▁snakes	-5997
▁setting	-5998
▁appropri	-5999
▁patients	-6000
cope	-6001
olic	-6002
rict	-6003
▁belly	-6004
▁intim	-6005
▁dancer	-6006
▁Despite	-6007
▁overwhel	-6008
▁represent	-6009
▁production	-6010
▁mathematics	-6011
acle	-6012
aptop	-6013
alking	-6014
▁leads	-6015
▁magic	-6016
▁whist	-6017
▁Listen	-6018
▁rabbit	-6019
▁lecture	-6020
▁hundreds	-6021
▁informed	-6022
▁experiment	-6023
pack	-6024
▁Hold	-6025
▁cafe	-6026
orrect	-6027
▁stays	-6028
▁Wednes	-6029
▁crimes	-6030
▁blocked	-6031
▁minister	-6032
cest	-6033
▁Haw	-6034
▁sque	-6035
▁guest	-6036
▁signs	-6037
▁ghosts	-6038
▁laptop	-6039
▁lasted	-6040
▁shouted	-6041
▁sixteen	-6042
▁watches	-6043
▁National	-6044
▁northern	-6045
▁shoulders	-6046
bow	-6047
spe	-6048
▁Tha	-6049
▁Open	-6050
iences	-6051
▁passing	-6052
▁wrapped	-6053
▁ceremony	-6054
▁sentenced	-6055
▁Mil	-6056
▁Cong	-6057
▁Zeal	-6058
▁goat	-6059
▁knee	-6060
▁Trans	-6061
▁spell	-6062
▁wounded	-6063
▁provided	-6064
Can	-6065
rim	-6066
▁ped	-6067
geous	-6068
usive	-6069
▁About	-6070
▁Sever	-6071
▁fruits	-6072
▁perhaps	-6073
▁scratch	-6074
▁wherever	-6075
▁Washington	-6076
off	-6077
▁vo	-6078
abor	-6079
brew	-6080
▁Rec	-6081
▁Anne	-6082
▁mixed	-6083
▁centre	-6084
▁fortun	-6085
▁horror	-6086
▁posted	-6087
▁Zealand	-6088
▁breathe	-6089
▁affected	-6090
▁alp	-6091
itable	-6092
▁pillow	-6093
▁grammar	-6094
▁mansion	-6095
▁planets	-6096
▁sincere	-6097
▁nonsense	-6098
▁princess	-6099
▁reaction	-6100
sp	-6101
rid	-6102
Yeah	-6103
water	-6104
▁Char	-6105
▁dict	-6106
▁rocks	-6107
▁skirt	-6108
▁Taiwan	-6109
▁entertain	-6110
▁consequences	-6111
asty	-6112
▁jun	-6113
▁vot	-6114
▁Asia	-6115
▁Hebrew	-6116
▁balance	-6117
▁somewhat	-6118
▁persuaded	-6119
▁approached	-6120
▁disappoint	-6121
▁intelligence	-6122
fire	-6123
oops	-6124
rast	-6125
▁raw	-6126
inter	-6127
osaur	-6128
▁Bank	-6129
▁Think	-6130
▁chips	-6131
▁mosqu	-6132
▁staff	-6133
▁urgent	-6134
▁Several	-6135
▁battery	-6136
▁Republic	-6137
▁separate	-6138
▁medication	-6139
ams	-6140
esome	-6141
heart	-6142
olded	-6143
▁caut	-6144
▁ambit	-6145
▁rainy	-6146
▁remote	-6147
▁consult	-6148
▁effects	-6149
▁kidding	-6150
▁pressed	-6151
▁Whenever	-6152
▁kindness	-6153
▁reliable	-6154
▁relatives	-6155
▁politician	-6156
▁relatively	-6157
▁unemployed	-6158
urry	-6159
vant	-6160
▁une	-6161
▁belt	-6162
▁fart	-6163
▁fate	-6164
rences	-6165
▁accur	-6166
▁Holmes	-6167
▁pupils	-6168
▁texted	-6169
▁thrown	-6170
▁expects	-6171
▁quarter	-6172
▁overcome	-6173
▁restaurants	-6174
etch	-6175
ught	-6176
▁Oly	-6177
▁Wel	-6178
▁der	-6179
odies	-6180
opher	-6181
ufact	-6182
▁clar	-6183
▁plat	-6184
▁Write	-6185
▁shift	-6186
▁Hallow	-6187
▁consum	-6188
▁dollar	-6189
▁envelope	-6190
▁photograph	-6191
▁Ac	-6192
uded	-6193
▁ing	-6194
aming	-6195
tering	-6196
▁Buddh	-6197
▁Peter	-6198
▁bless	-6199
athetic	-6200
▁dealing	-6201
▁nearest	-6202
▁replaced	-6203
▁incredible	-6204
rot	-6205
athy	-6206
icip	-6207
▁vul	-6208
▁Beja	-6209
▁Osaka	-6210
▁displ	-6211
▁fourth	-6212
▁impact	-6213
▁heading	-6214
▁leading	-6215
▁victory	-6216
▁philosoph	-6217
But	-6218
ares	-6219
geon	-6220
▁Pre	-6221
iforn	-6222
▁init	-6223
▁wolf	-6224
▁Dutch	-6225
▁basic	-6226
▁Police	-6227
▁reduce	-6228
▁circumstances	-6229
lace	-6230
▁sym	-6231
arant	-6232
▁puts	-6233
▁swam	-6234
▁devil	-6235
▁Mexico	-6236
▁option	-6237
▁insects	-6238
▁Californ	-6239
▁Halloween	-6240
▁Hungarian	-6241
▁Wednesday	-6242
▁committee	-6243
▁recovered	-6244
of	-6245
ero	-6246
▁17	-6247
▁na	-6248
ints	-6249
▁sir	-6250
ograp	-6251
ucked	-6252
▁Soon	-6253
▁oven	-6254
▁vast	-6255
▁jewel	-6256
▁pride	-6257
▁Bejaia	-6258
▁beaten	-6259
▁accustom	-6260
▁screamed	-6261
▁software	-6262
▁25	-6263
abul	-6264
hetti	-6265
▁duck	-6266
▁Olymp	-6267
▁flies	-6268
▁shore	-6269
▁spect	-6270
aghetti	-6271
▁Almost	-6272
▁advise	-6273
▁ancest	-6274
▁intent	-6275
▁weekends	-6276
▁importance	-6277
▁personally	-6278
▁significant	-6279
hy	-6280
Not	-6281
▁aid	-6282
▁awk	-6283
chers	-6284
▁appeal	-6285
▁awkward	-6286
▁causing	-6287
▁convert	-6288
▁repaired	-6289
▁continues	-6290
▁sensitive	-6291
▁accomplish	-6292
mind	-6293
▁solid	-6294
▁adults	-6295
▁Turkish	-6296
▁leaders	-6297
▁shaking	-6298
▁trapped	-6299
▁unknown	-6300
▁constant	-6301
▁couscous	-6302
▁relieved	-6303
▁overweight	-6304
ua	-6305
ito	-6306
mark	-6307
ples	-6308
▁fox	-6309
acher	-6310
▁vase	-6311
orough	-6312
▁limited	-6313
▁accompan	-6314
▁compared	-6315
▁consists	-6316
▁unlocked	-6317
-19	-6318
arc	-6319
▁Lo	-6320
▁tire	-6321
▁Emily	-6322
▁ambul	-6323
▁defeat	-6324
▁devast	-6325
▁refuge	-6326
▁backpack	-6327
▁chemical	-6328
▁youngest	-6329
▁California	-6330
bur	-6331
jam	-6332
▁fol	-6333
▁Over	-6334
▁bars	-6335
▁frog	-6336
▁aston	-6337
▁pages	-6338
▁wings	-6339
▁farmer	-6340
▁spider	-6341
▁trains	-6342
▁wooden	-6343
▁dresses	-6344
▁relaxed	-6345
▁crossing	-6346
▁homesick	-6347
▁effective	-6348
SA	-6349
ida	-6350
▁ec	-6351
illa	-6352
rian	-6353
▁isol	-6354
▁Indian	-6355
▁coward	-6356
▁rising	-6357
▁babysit	-6358
▁officials	-6359
jud	-6360
oly	-6361
▁Air	-6362
▁peel	-6363
ension	-6364
istics	-6365
▁knees	-6366
▁lobby	-6367
▁wasted	-6368
▁medlars	-6369
▁puzzled	-6370
▁resident	-6371
▁literally	-6372
▁generation	-6373
col	-6374
izzy	-6375
ously	-6376
▁Thom	-6377
▁dated	-6378
▁killer	-6379
▁January	-6380
▁Whoever	-6381
▁crashed	-6382
▁swimmer	-6383
▁manufact	-6384
▁transfer	-6385
▁described	-6386
▁incredibly	-6387
ula	-6388
fall	-6389
▁bone	-6390
▁code	-6391
▁Black	-6392
▁admin	-6393
▁chief	-6394
▁doubts	-6395
▁indeed	-6396
▁soldier	-6397
▁advanced	-6398
▁repeated	-6399
▁roommate	-6400
▁supplies	-6401
▁delivered	-6402
▁searching	-6403
▁Red	-6404
andal	-6405
lings	-6406
sters	-6407
▁hook	-6408
▁ment	-6409
▁argued	-6410
▁cancel	-6411
▁beating	-6412
▁charges	-6413
▁stabbed	-6414
▁throwing	-6415
▁paintings	-6416
▁scientist	-6417
▁difficulties	-6418
▁International	-6419
▁jazz	-6420
▁Marie	-6421
▁grows	-6422
▁target	-6423
▁butterf	-6424
▁drowned	-6425
▁detective	-6426
▁cooperative	-6427
▁14	-6428
▁Je	-6429
asks	-6430
▁tit	-6431
▁$300	-6432
▁Like	-6433
▁bene	-6434
▁butt	-6435
▁ladder	-6436
▁haunted	-6437
▁possess	-6438
▁sending	-6439
▁memories	-6440
▁multiple	-6441
▁necklace	-6442
▁Palestinian	-6443
esh	-6444
vey	-6445
▁Sat	-6446
▁que	-6447
hroom	-6448
onest	-6449
▁Find	-6450
▁Work	-6451
▁Korea	-6452
▁dried	-6453
▁forms	-6454
▁panic	-6455
▁spite	-6456
▁include	-6457
▁designed	-6458
▁identity	-6459
▁accustomed	-6460
yl	-6461
olve	-6462
roph	-6463
uals	-6464
uine	-6465
▁Eat	-6466
▁wha	-6467
▁tank	-6468
uction	-6469
▁rumor	-6470
▁stops	-6471
▁carpet	-6472
▁debate	-6473
▁closely	-6474
▁rapidly	-6475
▁measures	-6476
▁bothering	-6477
▁struggled	-6478
▁disgusting	-6479
8.	-6480
auc	-6481
xic	-6482
anta	-6483
keep	-6484
ront	-6485
▁san	-6486
▁Mike	-6487
▁ages	-6488
istent	-6489
▁Money	-6490
▁blond	-6491
▁roads	-6492
▁toast	-6493
▁twins	-6494
▁forbid	-6495
▁bottles	-6496
▁activity	-6497
▁extraord	-6498
▁ambulance	-6499
▁regularly	-6500
▁encouraged	-6501
iat	-6502
▁Co	-6503
osity	-6504
▁barn	-6505
▁cott	-6506
▁driven	-6507
▁formed	-6508
▁proved	-6509
▁rolled	-6510
▁shadow	-6511
▁painful	-6512
▁shelter	-6513
▁achieved	-6514
▁specific	-6515
▁diplomatic	-6516
'.	-6517
▁Aug	-6518
ckets	-6519
▁gray	-6520
▁sore	-6521
iously	-6522
▁alien	-6523
▁armed	-6524
▁oppon	-6525
▁Korean	-6526
▁exists	-6527
▁fiction	-6528
▁genuine	-6529
▁bothered	-6530
▁charming	-6531
▁interpre	-6532
▁obsessed	-6533
▁unconscious	-6534
osy	-6535
▁nut	-6536
pring	-6537
▁ease	-6538
▁grab	-6539
bruary	-6540
▁voted	-6541
▁Berlin	-6542
▁branch	-6543
▁decent	-6544
▁phones	-6545
▁absence	-6546
▁guarant	-6547
▁shooting	-6548
▁lightning	-6549
▁investigation	-6550
▁Gl	-6551
iber	-6552
oons	-6553
▁Cle	-6554
▁cas	-6555
ishes	-6556
▁confl	-6557
▁lover	-6558
abulary	-6559
▁bitten	-6560
▁supply	-6561
▁dialect	-6562
▁protest	-6563
▁settled	-6564
▁captured	-6565
▁engineer	-6566
▁troubled	-6567
▁completed	-6568
▁explosion	-6569
▁transform	-6570
▁appropriate	-6571
Well	-6572
amad	-6573
ault	-6574
▁bowl	-6575
▁crew	-6576
rupted	-6577
▁Right	-6578
▁inher	-6579
▁wheat	-6580
▁priest	-6581
▁snowing	-6582
▁February	-6583
▁cultural	-6584
▁festival	-6585
▁spaghetti	-6586
nder	-6587
▁nic	-6588
▁wave	-6589
▁west	-6590
coming	-6591
orders	-6592
▁bears	-6593
▁risks	-6594
▁bucket	-6595
▁expand	-6596
▁misses	-6597
▁waters	-6598
▁carpent	-6599
▁revenge	-6600
▁declared	-6601
▁elephant	-6602
▁terrorist	-6603
▁volunteer	-6604
▁vocabulary	-6605
▁sympathetic	-6606
rows	-6607
▁ang	-6608
lands	-6609
▁Cath	-6610
▁Green	-6611
▁Hawai	-6612
▁coinc	-6613
▁essay	-6614
▁sunny	-6615
▁Thomas	-6616
▁heartb	-6617
▁awesome	-6618
▁section	-6619
▁worrying	-6620
▁application	-6621
aph	-6622
ibi	-6623
▁13	-6624
anges	-6625
▁Part	-6626
▁equip	-6627
▁manip	-6628
▁skill	-6629
ounding	-6630
▁harvest	-6631
▁Giraffes	-6632
▁mushroom	-6633
7.	-6634
tar	-6635
▁cows	-6636
▁insp	-6637
▁nail	-6638
▁nurs	-6639
ophone	-6640
▁dizzy	-6641
▁prime	-6642
▁trunk	-6643
▁wanna	-6644
▁powers	-6645
▁proposed	-6646
▁newspapers	-6647
asm	-6648
▁Ah	-6649
ique	-6650
▁ank	-6651
▁sib	-6652
▁anal	-6653
agement	-6654
▁Scient	-6655
▁advert	-6656
▁voices	-6657
▁anxiety	-6658
▁contrad	-6659
▁exagger	-6660
▁focused	-6661
▁distingu	-6662
▁visitors	-6663
▁authorities	-6664
va	-6665
ties	-6666
▁Jer	-6667
▁sem	-6668
▁Viet	-6669
iation	-6670
▁types	-6671
stitute	-6672
▁Easter	-6673
▁athlet	-6674
▁waiter	-6675
▁follows	-6676
▁activities	-6677
▁recommended	-6678
pts	-6679
rant	-6680
uled	-6681
habet	-6682
▁grey	-6683
▁pess	-6684
▁stro	-6685
▁appet	-6686
▁hello	-6687
▁naive	-6688
▁cutting	-6689
▁minimum	-6690
▁tallest	-6691
▁thorough	-6692
▁potential	-6693
aza	-6694
anas	-6695
▁Mat	-6696
▁web	-6697
gment	-6698
▁clin	-6699
▁mort	-6700
▁pork	-6701
▁wiped	-6702
▁greeted	-6703
▁Egyptian	-6704
▁purchased	-6705
"?	-6706
▁dil	-6707
steps	-6708
▁cups	-6709
▁gods	-6710
ulture	-6711
▁dates	-6712
▁outdo	-6713
respect	-6714
▁August	-6715
▁humili	-6716
▁loving	-6717
▁reward	-6718
▁tasted	-6719
▁Vietnam	-6720
▁intimid	-6721
▁predict	-6722
▁victims	-6723
▁respected	-6724
This	-6725
▁Lib	-6726
▁rat	-6727
ighed	-6728
store	-6729
▁pipe	-6730
phones	-6731
▁Space	-6732
▁falls	-6733
anguage	-6734
▁learnt	-6735
▁Sundays	-6736
▁typical	-6737
▁vehicle	-6738
▁terribly	-6739
▁classical	-6740
▁collected	-6741
ella	-6742
hole	-6743
▁...	-6744
▁ewe	-6745
▁Miss	-6746
▁guns	-6747
▁shoe	-6748
▁Other	-6749
▁chain	-6750
▁etern	-6751
▁moves	-6752
▁pitch	-6753
▁stink	-6754
▁Middle	-6755
atically	-6756
▁ceiling	-6757
▁deliver	-6758
▁reminds	-6759
▁univers	-6760
▁arrogant	-6761
▁bleeding	-6762
▁emotions	-6763
TO	-6764
pes	-6765
▁Av	-6766
▁Fl	-6767
eness	-6768
isher	-6769
▁Cont	-6770
▁Mill	-6771
▁Send	-6772
▁excl	-6773
▁lamp	-6774
▁lugg	-6775
▁ours	-6776
▁reck	-6777
▁brill	-6778
▁enorm	-6779
▁valid	-6780
▁chairs	-6781
▁locker	-6782
▁prince	-6783
▁complim	-6784
▁dedicated	-6785
ley	-6786
▁Dece	-6787
▁bitch	-6788
▁score	-6789
▁views	-6790
▁Columb	-6791
▁Though	-6792
▁commer	-6793
▁phoned	-6794
▁luggage	-6795
▁picking	-6796
▁version	-6797
▁Actually	-6798
▁demanded	-6799
▁fortunate	-6800
▁regretted	-6801
2,	-6802
ta	-6803
gain	-6804
iece	-6805
▁gal	-6806
▁Soci	-6807
▁rust	-6808
▁torn	-6809
▁verb	-6810
▁Mount	-6811
▁holds	-6812
▁lemon	-6813
▁vision	-6814
▁Instead	-6815
▁intense	-6816
▁manners	-6817
▁produced	-6818
▁exception	-6819
erous	-6820
▁deer	-6821
▁fled	-6822
▁fuel	-6823
▁hast	-6824
▁sits	-6825
▁soil	-6826
▁exams	-6827
▁ideal	-6828
▁nasty	-6829
▁sauce	-6830
▁Anyone	-6831
▁helmet	-6832
▁Israeli	-6833
▁spilled	-6834
▁worship	-6835
▁superior	-6836
▁cellphone	-6837
▁industrial	-6838
▁communication	-6839
dded	-6840
estic	-6841
▁habits	-6842
▁nodded	-6843
▁senior	-6844
▁tempor	-6845
▁normally	-6846
▁affection	-6847
▁astronaut	-6848
▁connected	-6849
▁equipment	-6850
▁footsteps	-6851
▁Apparently	-6852
My	-6853
▁u	-6854
isp	-6855
▁40	-6856
load	-6857
oles	-6858
uise	-6859
▁lip	-6860
▁sed	-6861
▁wig	-6862
alley	-6863
cknow	-6864
▁Mira	-6865
▁seas	-6866
▁acade	-6867
▁coins	-6868
▁earned	-6869
▁shining	-6870
▁treasure	-6871
▁expressed	-6872
▁distracted	-6873
▁Mt	-6874
▁Jul	-6875
▁east	-6876
▁situ	-6877
▁Happy	-6878
▁steak	-6879
▁parent	-6880
▁perman	-6881
▁statue	-6882
▁constit	-6883
▁December	-6884
▁switched	-6885
▁answering	-6886
▁pollution	-6887
▁prevented	-6888
onym	-6889
rete	-6890
rots	-6891
akers	-6892
▁lung	-6893
▁indic	-6894
▁acknow	-6895
▁deleted	-6896
▁jewelry	-6897
▁variety	-6898
▁dreaming	-6899
▁gorgeous	-6900
▁established	-6901
vin	-6902
harm	-6903
iens	-6904
▁bac	-6905
▁ult	-6906
There	-6907
umbled	-6908
unched	-6909
▁gunsh	-6910
▁utter	-6911
▁gender	-6912
▁hammer	-6913
▁alphabet	-6914
▁conflict	-6915
▁forehead	-6916
▁laughter	-6917
▁nowadays	-6918
▁southern	-6919
▁attempted	-6920
▁collapsed	-6921
▁investment	-6922
▁politicians	-6923
▁Na	-6924
viet	-6925
tains	-6926
ograms	-6927
▁horiz	-6928
▁behavi	-6929
▁Kabyles	-6930
▁assured	-6931
▁devoted	-6932
▁thunder	-6933
▁defeated	-6934
▁characters	-6935
▁Cr	-6936
aign	-6937
uces	-6938
▁Use	-6939
▁ens	-6940
▁Kate	-6941
▁acts	-6942
▁pays	-6943
▁exhib	-6944
▁greed	-6945
▁bodies	-6946
▁prayed	-6947
▁stamps	-6948
▁Welcome	-6949
▁approve	-6950
▁bringing	-6951
▁discover	-6952
▁ambitious	-6953
kind	-6954
rier	-6955
▁Mad	-6956
ivers	-6957
▁Hind	-6958
▁dirt	-6959
▁slee	-6960
▁Doesn	-6961
▁cared	-6962
▁waved	-6963
▁levels	-6964
▁troops	-6965
▁arrange	-6966
▁borders	-6967
▁explore	-6968
▁giraffes	-6969
▁peaceful	-6970
▁revealed	-6971
▁services	-6972
▁struggling	-6973
▁Old	-6974
▁Val	-6975
▁gig	-6976
aying	-6977
▁obst	-6978
▁marks	-6979
▁poems	-6980
lection	-6981
▁School	-6982
▁budget	-6983
▁rented	-6984
▁resear	-6985
▁safely	-6986
▁decades	-6987
▁hitting	-6988
▁maintain	-6989
▁background	-6990
▁Mu	-6991
ords	-6992
uros	-6993
▁Rel	-6994
▁Sea	-6995
▁wid	-6996
andom	-6997
▁chap	-6998
▁menu	-6999
▁sarc	-7000
▁agric	-7001
▁cakes	-7002
ificial	-7003
▁Soviet	-7004
▁nerves	-7005
▁skinny	-7006
▁sorrow	-7007
▁stores	-7008
▁Twitter	-7009
▁objects	-7010
▁talkative	-7011
▁philosophy	-7012
▁expectations	-7013
ika	-7014
war	-7015
▁sax	-7016
▁tear	-7017
minded	-7018
▁Hurry	-7019
▁pills	-7020
▁bullet	-7021
▁poetry	-7022
▁candles	-7023
▁sailing	-7024
▁slammed	-7025
▁vegetarian	-7026
▁accompanied	-7027
▁threatening	-7028
ita	-7029
made	-7030
oman	-7031
▁300	-7032
▁lux	-7033
▁flir	-7034
▁fulf	-7035
▁owes	-7036
▁pour	-7037
▁stew	-7038
▁vent	-7039
▁bones	-7040
▁nails	-7041
▁orphan	-7042
▁recipe	-7043
▁despite	-7044
▁texting	-7045
▁critical	-7046
▁delighted	-7047
▁incorrect	-7048
▁practical	-7049
▁strangers	-7050
▁connection	-7051
Did	-7052
▁$1	-7053
▁tag	-7054
▁tid	-7055
acing	-7056
licop	-7057
olley	-7058
rency	-7059
roken	-7060
▁chop	-7061
▁cust	-7062
▁flour	-7063
▁stove	-7064
▁banned	-7065
▁cleared	-7066
▁greatly	-7067
▁rescued	-7068
▁worries	-7069
▁addicted	-7070
▁campaign	-7071
▁function	-7072
▁separated	-7073
▁protection	-7074
rs	-7075
awn	-7076
raq	-7077
▁24	-7078
▁iP	-7079
osis	-7080
▁tore	-7081
ashing	-7082
▁Moses	-7083
▁Speak	-7084
▁Under	-7085
▁conqu	-7086
▁fancy	-7087
▁balcon	-7088
▁concer	-7089
▁central	-7090
▁musical	-7091
▁somehow	-7092
▁criticism	-7093
).	-7094
fle	-7095
ris	-7096
▁Ap	-7097
aves	-7098
ieth	-7099
xual	-7100
▁Hop	-7101
▁Luck	-7102
▁bent	-7103
▁embr	-7104
▁irre	-7105
▁pace	-7106
▁Queen	-7107
▁shake	-7108
▁golden	-7109
▁lifted	-7110
▁distant	-7111
▁letting	-7112
▁tourist	-7113
istration	-7114
▁discount	-7115
▁developing	-7116
▁CD	-7117
itty	-7118
▁syn	-7119
chair	-7120
iance	-7121
▁buys	-7122
opaths	-7123
▁Death	-7124
▁comic	-7125
▁shalt	-7126
▁witch	-7127
▁carbon	-7128
▁prohib	-7129
▁sevent	-7130
▁subway	-7131
▁volley	-7132
▁peanuts	-7133
▁brilliant	-7134
▁Scientists	-7135
▁appreciated	-7136
▁pi	-7137
walk	-7138
▁Iraq	-7139
▁heal	-7140
▁swims	-7141
ructure	-7142
▁sunset	-7143
▁highway	-7144
▁painter	-7145
▁robbery	-7146
▁Learning	-7147
▁attached	-7148
▁occupied	-7149
▁convenient	-7150
ido	-7151
cies	-7152
itan	-7153
mers	-7154
▁pit	-7155
▁sav	-7156
pered	-7157
ungle	-7158
▁beef	-7159
▁coal	-7160
▁exit	-7161
▁fuss	-7162
prints	-7163
▁spoon	-7164
▁guards	-7165
▁affairs	-7166
▁elderly	-7167
▁helicop	-7168
▁systems	-7169
▁recorded	-7170
▁gradually	-7171
isa	-7172
▁Ice	-7173
▁esc	-7174
▁mum	-7175
irmed	-7176
▁Ange	-7177
▁drow	-7178
efully	-7179
▁award	-7180
▁anticip	-7181
▁excused	-7182
▁fascinating	-7183
..."	-7184
anes	-7185
ette	-7186
laim	-7187
▁mild	-7188
▁Brown	-7189
▁Check	-7190
▁House	-7191
▁abuse	-7192
▁adopt	-7193
▁ankle	-7194
▁bloom	-7195
▁candle	-7196
▁errors	-7197
▁fixing	-7198
▁intrig	-7199
▁temple	-7200
▁Whether	-7201
▁ringing	-7202
▁enormous	-7203
▁revolution	-7204
▁approaching	-7205
ye	-7206
▁Fu	-7207
cery	-7208
mare	-7209
▁hyd	-7210
▁tra	-7211
▁gall	-7212
▁hats	-7213
▁dozen	-7214
▁faint	-7215
▁fears	-7216
▁films	-7217
▁range	-7218
▁tiger	-7219
itement	-7220
▁values	-7221
▁concept	-7222
▁conscience	-7223
▁disrespect	-7224
▁volleyball	-7225
oses	-7226
▁fab	-7227
break	-7228
ollow	-7229
oogle	-7230
▁Shut	-7231
▁dial	-7232
▁dies	-7233
▁nick	-7234
▁Franc	-7235
▁burnt	-7236
▁congr	-7237
▁robot	-7238
▁sympt	-7239
liament	-7240
▁Health	-7241
▁balcony	-7242
▁dislike	-7243
▁farmers	-7244
▁listens	-7245
▁opposed	-7246
▁physics	-7247
▁pockets	-7248
▁serving	-7249
▁Catholic	-7250
▁imagined	-7251
▁convicted	-7252
▁creatures	-7253
▁assistance	-7254
▁opportunities	-7255
akh	-7256
cel	-7257
fish	-7258
▁Dem	-7259
▁Ser	-7260
▁bee	-7261
irgin	-7262
▁NATO	-7263
▁inha	-7264
▁orbit	-7265
▁renew	-7266
▁sting	-7267
▁teles	-7268
▁banana	-7269
▁chased	-7270
▁cherry	-7271
▁handwr	-7272
▁stable	-7273
▁vulner	-7274
▁blowing	-7275
▁costume	-7276
▁emotion	-7277
▁oranges	-7278
If	-7279
And	-7280
car	-7281
gian	-7282
▁Cor	-7283
▁lap	-7284
▁sew	-7285
orthy	-7286
raham	-7287
▁visa	-7288
▁wins	-7289
▁Asian	-7290
▁brace	-7291
▁decre	-7292
▁foods	-7293
▁goats	-7294
▁monkey	-7295
▁bananas	-7296
▁glanced	-7297
▁skating	-7298
▁intellect	-7299
▁cigarettes	-7300
bb	-7301
elle	-7302
enth	-7303
lock	-7304
▁avo	-7305
▁nin	-7306
▁Cons	-7307
▁NASA	-7308
ipping	-7309
▁agent	-7310
▁beans	-7311
▁sheet	-7312
▁shell	-7313
▁jungle	-7314
▁warmer	-7315
▁Finally	-7316
▁Shouldn	-7317
▁avoided	-7318
▁precise	-7319
▁privacy	-7320
▁shortly	-7321
▁checking	-7322
▁precious	-7323
▁struggle	-7324
▁nightmare	-7325
▁fascinated	-7326
▁practicing	-7327
▁punishment	-7328
▁travelling	-7329
▁translating	-7330
alog	-7331
▁Mag	-7332
▁Sit	-7333
acles	-7334
▁bass	-7335
▁rage	-7336
lessly	-7337
▁postc	-7338
▁Greece	-7339
▁tricks	-7340
▁closest	-7341
▁hallway	-7342
▁railway	-7343
▁platform	-7344
▁carpenter	-7345
▁directions	-7346
▁competitive	-7347
ups	-7348
obic	-7349
▁Atl	-7350
▁nav	-7351
▁upd	-7352
▁cure	-7353
▁gamb	-7354
▁mile	-7355
▁pear	-7356
▁zero	-7357
imated	-7358
urning	-7359
▁Drink	-7360
▁harsh	-7361
▁poker	-7362
▁shade	-7363
▁Berbers	-7364
▁jogging	-7365
▁snoring	-7366
▁launched	-7367
▁behaviour	-7368
▁disturbed	-7369
▁foreigners	-7370
atis	-7371
life	-7372
▁jar	-7373
itzer	-7374
▁ties	-7375
▁tone	-7376
▁angel	-7377
▁diagn	-7378
▁random	-7379
ographer	-7380
▁closing	-7381
▁confess	-7382
▁cousins	-7383
▁location	-7384
▁shouting	-7385
▁territory	-7386
▁supportive	-7387
irds	-7388
▁era	-7389
▁rug	-7390
asive	-7391
▁1990	-7392
▁Sept	-7393
▁suck	-7394
itated	-7395
▁Santa	-7396
▁campus	-7397
▁cheeks	-7398
▁review	-7399
▁sector	-7400
▁surely	-7401
▁tested	-7402
▁congrat	-7403
▁infrast	-7404
▁packing	-7405
▁proceed	-7406
▁scandal	-7407
▁stunned	-7408
▁subscri	-7409
▁visible	-7410
▁participate	-7411
obe	-7412
uan	-7413
lete	-7414
live	-7415
▁Pac	-7416
acity	-7417
ilipp	-7418
▁volc	-7419
▁micro	-7420
▁punch	-7421
▁junior	-7422
▁carries	-7423
▁exposed	-7424
▁praying	-7425
▁spotted	-7426
▁educated	-7427
▁register	-7428
▁reminded	-7429
▁suitable	-7430
▁sunlight	-7431
▁celebrated	-7432
▁extraordinary	-7433
ws	-7434
hop	-7435
aire	-7436
ders	-7437
free	-7438
▁Few	-7439
▁Jup	-7440
▁bom	-7441
rapes	-7442
▁envy	-7443
▁hers	-7444
▁load	-7445
▁stir	-7446
loaded	-7447
ulting	-7448
▁Frank	-7449
▁drawn	-7450
▁rings	-7451
▁Humans	-7452
▁Salima	-7453
▁hunger	-7454
▁arrives	-7455
▁drivers	-7456
▁primary	-7457
▁Minister	-7458
▁benefits	-7459
▁fourteen	-7460
▁landscap	-7461
▁adventure	-7462
▁instantly	-7463
▁remarkable	-7464
▁ID	-7465
oded	-7466
derer	-7467
▁Merc	-7468
▁Toki	-7469
▁flav	-7470
▁pine	-7471
icking	-7472
rating	-7473
▁State	-7474
▁analy	-7475
▁withd	-7476
▁creepy	-7477
▁eleven	-7478
▁fooled	-7479
▁Jupiter	-7480
▁cafeter	-7481
▁hurting	-7482
▁instant	-7483
▁scolded	-7484
▁arranged	-7485
▁injuries	-7486
▁punctual	-7487
▁materials	-7488
▁ax	-7489
▁od	-7490
▁Est	-7491
▁Nove	-7492
▁desc	-7493
▁goss	-7494
ointed	-7495
▁cries	-7496
▁overs	-7497
▁subst	-7498
▁corpor	-7499
▁tunnel	-7500
▁compass	-7501
▁grocery	-7502
▁leather	-7503
▁network	-7504
▁qualified	-7505
▁unwilling	-7506
▁discussing	-7507
▁excitement	-7508
▁necessarily	-7509
▁accomplished	-7510
▁embarrassing	-7511
sm	-7512
They	-7513
ctic	-7514
▁Won	-7515
▁pad	-7516
▁Moon	-7517
▁Start	-7518
▁paran	-7519
▁ships	-7520
▁winds	-7521
▁circle	-7522
▁folded	-7523
▁prejud	-7524
▁November	-7525
▁mosquito	-7526
▁murderer	-7527
▁September	-7528
▁chemistry	-7529
▁promotion	-7530
elf	-7531
mad	-7532
oko	-7533
▁Tu	-7534
ygen	-7535
▁Add	-7536
jamas	-7537
▁dorm	-7538
▁dump	-7539
ctions	-7540
issors	-7541
▁squee	-7542
▁trump	-7543
▁estate	-7544
▁instit	-7545
▁Philipp	-7546
▁benefit	-7547
▁brushed	-7548
▁delayed	-7549
▁dragged	-7550
▁pattern	-7551
▁standard	-7552
▁tomatoes	-7553
▁discovery	-7554
▁mysterious	-7555
▁infrastructure	-7556
▁Dep	-7557
▁Tun	-7558
cling	-7559
▁alike	-7560
▁faced	-7561
▁slice	-7562
▁stamp	-7563
▁toxic	-7564
▁passes	-7565
▁jumping	-7566
▁longest	-7567
▁Columbus	-7568
▁interrupt	-7569
▁performed	-7570
▁consciousness	-7571
agon	-7572
foot	-7573
ping	-7574
while	-7575
▁Pona	-7576
▁Sing	-7577
▁fairy	-7578
▁rural	-7579
▁scarf	-7580
amental	-7581
▁aliens	-7582
▁batter	-7583
▁excess	-7584
▁injury	-7585
▁freaked	-7586
▁expenses	-7587
▁thrilled	-7588
▁forbidden	-7589
▁household	-7590
▁strawberry	-7591
▁vulnerable	-7592
▁concentrate	-7593
put	-7594
▁195	-7595
▁Out	-7596
▁dug	-7597
▁hath	-7598
▁root	-7599
orable	-7600
▁Venus	-7601
▁prett	-7602
▁tests	-7603
umbling	-7604
▁deadly	-7605
children	-7606
▁arrival	-7607
▁happily	-7608
▁deserved	-7609
▁cafeteria	-7610
▁structure	-7611
▁uncertain	-7612
jo	-7613
tr	-7614
agne	-7615
ysis	-7616
▁jum	-7617
▁nep	-7618
ouder	-7619
▁Alex	-7620
▁Fore	-7621
▁Fuji	-7622
▁Hand	-7623
▁asse	-7624
▁fans	-7625
▁inex	-7626
▁twin	-7627
▁Young	-7628
▁penal	-7629
▁subur	-7630
▁Spring	-7631
▁mutual	-7632
▁attacks	-7633
▁confirm	-7634
▁experts	-7635
▁spirits	-7636
▁articles	-7637
▁instinct	-7638
▁strategy	-7639
▁naturally	-7640
▁coincidence	-7641
▁experiences	-7642
In	-7643
azid	-7644
▁pee	-7645
chief	-7646
▁acid	-7647
▁blog	-7648
▁bond	-7649
▁mamm	-7650
▁sets	-7651
▁sust	-7652
apping	-7653
▁resigned	-7654
▁differences	-7655
bec	-7656
iar	-7657
▁II	-7658
rough	-7659
vable	-7660
▁Scot	-7661
▁bore	-7662
▁fier	-7663
▁phen	-7664
▁shed	-7665
▁tune	-7666
▁Yazid	-7667
▁Yidir	-7668
▁brick	-7669
▁dilig	-7670
▁dread	-7671
▁fewer	-7672
▁hyena	-7673
▁pharm	-7674
▁shops	-7675
▁babies	-7676
▁disple	-7677
▁stones	-7678
▁Switzer	-7679
▁prescri	-7680
▁accurate	-7681
▁included	-7682
▁prisoner	-7683
▁secretly	-7684
▁troubles	-7685
▁pronounce	-7686
▁artificial	-7687
▁Switzerland	-7688
▁destination	-7689
▁handwriting	-7690
So	-7691
ari	-7692
igs	-7693
rie	-7694
▁--	-7695
wide	-7696
▁Bak	-7697
▁Jac	-7698
▁Jay	-7699
▁snee	-7700
▁tape	-7701
▁Haven	-7702
▁Ocean	-7703
▁drama	-7704
▁urban	-7705
▁prayer	-7706
▁shirts	-7707
▁sweets	-7708
▁assault	-7709
▁ignoring	-7710
▁knocking	-7711
▁Christianity	-7712
▁strawberries	-7713
▁Po	-7714
▁Hok	-7715
agram	-7716
▁Jose	-7717
▁Long	-7718
▁grav	-7719
▁trig	-7720
handed	-7721
▁disor	-7722
▁trous	-7723
▁Little	-7724
▁allows	-7725
▁backed	-7726
▁dining	-7727
▁ending	-7728
▁relief	-7729
▁widely	-7730
▁Abraham	-7731
▁custody	-7732
▁figures	-7733
▁liberty	-7734
▁punched	-7735
▁appetite	-7736
▁encourage	-7737
▁helicopter	-7738
▁instrument	-7739
▁heartbroken	-7740
sec	-7741
top	-7742
ales	-7743
cuff	-7744
erry	-7745
five	-7746
▁Gal	-7747
▁Lin	-7748
▁spy	-7749
▁Lucy	-7750
▁Pass	-7751
▁Tony	-7752
▁bush	-7753
▁dram	-7754
▁imam	-7755
▁Human	-7756
▁dough	-7757
▁earns	-7758
▁intox	-7759
▁route	-7760
▁seeds	-7761
▁Hawaii	-7762
▁Valent	-7763
▁cookie	-7764
▁pepper	-7765
▁weighs	-7766
▁awfully	-7767
▁spiders	-7768
▁bicycles	-7769
▁strongly	-7770
▁ignorance	-7771
▁requested	-7772
▁intoxicated	-7773
▁pessimistic	-7774
sk	-7775
▁.	-7776
awa	-7777
berg	-7778
quet	-7779
▁Sum	-7780
▁ven	-7781
asted	-7782
erior	-7783
▁fork	-7784
▁nest	-7785
napped	-7786
orters	-7787
▁galax	-7788
▁suits	-7789
▁invent	-7790
▁liquid	-7791
▁messed	-7792
▁nephew	-7793
▁parrot	-7794
▁visits	-7795
▁deliber	-7796
▁lottery	-7797
▁quarrel	-7798
▁records	-7799
▁identify	-7800
▁phenomen	-7801
▁siblings	-7802
▁Hopefully	-7803
▁contacted	-7804
▁dependent	-7805
▁challenges	-7806
Have	-7807
▁Cla	-7808
▁yog	-7809
ucing	-7810
▁Gaza	-7811
▁soph	-7812
▁typh	-7813
▁balls	-7814
▁title	-7815
▁Google	-7816
▁exceed	-7817
▁seeking	-7818
▁wanting	-7819
▁dinosaur	-7820
▁keyboard	-7821
▁scissors	-7822
▁efficient	-7823
▁journalist	-7824
▁temperatures	-7825
Let	-7826
bul	-7827
ebb	-7828
cont	-7829
ilya	-7830
lers	-7831
▁Big	-7832
agues	-7833
cakes	-7834
▁Four	-7835
▁fare	-7836
▁grin	-7837
▁wool	-7838
▁debts	-7839
▁ladies	-7840
▁modest	-7841
▁phrase	-7842
▁smoked	-7843
▁Mercury	-7844
▁apology	-7845
▁reflect	-7846
▁entering	-7847
▁insulted	-7848
▁protected	-7849
▁contribute	-7850
▁countryside	-7851
?!	-7852
edy	-7853
ums	-7854
alem	-7855
corn	-7856
unci	-7857
▁bol	-7858
atell	-7859
▁kidn	-7860
▁palm	-7861
▁penn	-7862
edient	-7863
estyle	-7864
▁Silya	-7865
▁basis	-7866
▁clinic	-7867
▁dragon	-7868
▁exchan	-7869
▁gossip	-7870
▁surren	-7871
▁Pacific	-7872
▁counted	-7873
▁fastest	-7874
▁skipped	-7875
▁Recently	-7876
▁examples	-7877
▁inspired	-7878
▁promoted	-7879
▁salesman	-7880
▁trousers	-7881
▁Brazilian	-7882
▁centuries	-7883
▁profession	-7884
9,	-7885
ga	-7886
yr	-7887
oune	-7888
wife	-7889
▁Mum	-7890
▁Naz	-7891
▁Sam	-7892
▁bug	-7893
▁Chan	-7894
▁cage	-7895
▁cheat	-7896
▁fount	-7897
▁nickn	-7898
▁quant	-7899
▁spark	-7900
▁tower	-7901
▁brains	-7902
▁harass	-7903
▁ingred	-7904
▁limits	-7905
▁louder	-7906
▁purple	-7907
▁abandon	-7908
▁intends	-7909
▁travels	-7910
▁warming	-7911
▁ignorant	-7912
▁infected	-7913
▁underest	-7914
▁kidnapped	-7915
▁sarcastic	-7916
▁saxophone	-7917
▁conclusion	-7918
),	-7919
has	-7920
ias	-7921
ila	-7922
jay	-7923
▁La	-7924
elly	-7925
stan	-7926
▁Pri	-7927
▁brut	-7928
▁leak	-7929
▁refe	-7930
▁thus	-7931
▁Tunis	-7932
▁loyal	-7933
▁mercy	-7934
▁swall	-7935
▁Either	-7936
▁Native	-7937
▁Transl	-7938
▁aspect	-7939
▁breast	-7940
▁tracks	-7941
▁collapse	-7942
▁declined	-7943
▁meetings	-7944
▁reception	-7945
▁returning	-7946
▁complaints	-7947
▁intentions	-7948
▁originally	-7949
hal	-7950
▁Ro	-7951
rane	-7952
umes	-7953
▁Dis	-7954
▁fry	-7955
▁abst	-7956
▁jerk	-7957
keeper	-7958
▁2004.	-7959
▁imper	-7960
▁rotten	-7961
▁strand	-7962
▁logical	-7963
▁slapped	-7964
▁counting	-7965
▁destruct	-7966
▁forecast	-7967
▁freezing	-7968
▁handcuff	-7969
▁stressed	-7970
▁ticklish	-7971
▁arguments	-7972
▁backwards	-7973
▁alternative	-7974
▁civilization	-7975
hada	-7976
onic	-7977
▁194	-7978
▁Emp	-7979
▁bun	-7980
▁hen	-7981
shine	-7982
▁bees	-7983
amadan	-7984
lement	-7985
tained	-7986
▁delay	-7987
▁Wouldn	-7988
▁cattle	-7989
▁collar	-7990
▁hatred	-7991
▁incomp	-7992
▁overse	-7993
speaking	-7994
▁Science	-7995
▁Smoking	-7996
▁although	-7997
▁concrete	-7998
▁confront	-7999
▁cultures	-8000
▁features	-8001
▁psychiat	-8002
▁supported	-8003
20	-8004
aid	-8005
uto	-8006
ghan	-8007
omin	-8008
▁Buy	-8009
stood	-8010
▁Tebb	-8011
▁bang	-8012
▁hood	-8013
haraoh	-8014
▁depos	-8015
▁drain	-8016
▁freak	-8017
▁items	-8018
▁picky	-8019
▁simpl	-8020
▁spicy	-8021
▁tires	-8022
▁trait	-8023
▁faults	-8024
▁profit	-8025
▁Luckily	-8026
▁Ramadan	-8027
▁curtain	-8028
▁haircut	-8029
▁pulling	-8030
▁Tebboune	-8031
▁eighteen	-8032
▁confirmed	-8033
▁scratched	-8034
▁compromise	-8035
▁identified	-8036
▁neighbours	-8037
▁principles	-8038
bes	-8039
▁1.	-8040
jban	-8041
▁Hal	-8042
▁Pat	-8043
berry	-8044
▁banks	-8045
▁cliff	-8046
▁cloth	-8047
▁crops	-8048
▁recon	-8049
berries	-8050
▁Afghan	-8051
▁kitten	-8052
▁oxygen	-8053
▁pissed	-8054
▁shahada	-8055
▁suffers	-8056
▁stopping	-8057
▁corruption	-8058
▁impressive	-8059
▁translations	-8060
gage	-8061
▁Sup	-8062
▁lun	-8063
▁pir	-8064
▁sole	-8065
▁fifth	-8066
▁rifle	-8067
▁shots	-8068
respond	-8069
▁merely	-8070
▁wounds	-8071
▁demands	-8072
▁savings	-8073
▁approved	-8074
▁produces	-8075
▁sidewalk	-8076
▁teenagers	-8077
▁Australian	-8078
fy	-8079
rep	-8080
▁21	-8081
pher	-8082
▁Den	-8083
▁Str	-8084
▁Too	-8085
itals	-8086
itate	-8087
▁Inter	-8088
▁Light	-8089
▁Music	-8090
▁Putin	-8091
▁mustn	-8092
▁resin	-8093
▁scale	-8094
▁Jayjay	-8095
▁burden	-8096
▁device	-8097
▁plates	-8098
▁reveal	-8099
▁Francis	-8100
▁distrib	-8101
▁prosper	-8102
▁pushing	-8103
▁reports	-8104
▁servant	-8105
▁threats	-8106
▁examined	-8107
▁heathers	-8108
▁hesitate	-8109
▁hopeless	-8110
▁recovery	-8111
▁symptoms	-8112
▁permanent	-8113
▁postponed	-8114
▁scheduled	-8115
▁afterwards	-8116
▁engagement	-8117
▁reservation	-8118
tub	-8119
hens	-8120
omic	-8121
orse	-8122
▁pul	-8123
fight	-8124
▁Finn	-8125
▁choo	-8126
▁foss	-8127
▁porn	-8128
▁burgl	-8129
▁Polish	-8130
▁resemb	-8131
uriosity	-8132
▁choices	-8133
▁cheerful	-8134
▁curtains	-8135
▁partners	-8136
▁lifestyle	-8137
▁overnight	-8138
▁presented	-8139
▁correspond	-8140
▁overwhelmed	-8141
ini	-8142
ugs	-8143
▁ye	-8144
ques	-8145
▁abd	-8146
▁wre	-8147
olves	-8148
▁bald	-8149
▁cope	-8150
▁pant	-8151
▁trem	-8152
▁wire	-8153
usalem	-8154
▁flock	-8155
▁ruled	-8156
▁snack	-8157
▁tends	-8158
▁theat	-8159
▁twent	-8160
working	-8161
▁breaks	-8162
▁dumped	-8163
▁grapes	-8164
▁insist	-8165
▁loaded	-8166
▁carrots	-8167
▁founded	-8168
▁handled	-8169
▁starved	-8170
▁observed	-8171
▁officers	-8172
▁innocence	-8173
▁retirement	-8174
▁description	-8175
fi	-8176
cho	-8177
▁Ak	-8178
rous	-8179
▁Cap	-8180
ander	-8181
ronic	-8182
▁Fuck	-8183
▁recy	-8184
▁wink	-8185
ranean	-8186
▁Organ	-8187
▁flesh	-8188
▁opera	-8189
▁pleas	-8190
▁Democr	-8191
▁attorn	-8192
▁hearts	-8193
▁defense	-8194
▁flirting	-8195
▁candidate	-8196
oty	-8197
▁Up	-8198
assy	-8199
igen	-8200
text	-8201
▁San	-8202
▁Wow	-8203
ijing	-8204
▁Amaz	-8205
▁pump	-8206
▁euros	-8207
ressing	-8208
▁Joseph	-8209
▁Lojban	-8210
▁agrees	-8211
▁assert	-8212
▁overhe	-8213
▁secure	-8214
▁bullied	-8215
▁popcorn	-8216
▁whisper	-8217
▁academic	-8218
▁annivers	-8219
▁announce	-8220
▁respects	-8221
▁Jerusalem	-8222
▁elsewhere	-8223
▁officially	-8224
▁relationships	-8225
She	-8226
ali	-8227
▁Sn	-8228
cure	-8229
fice	-8230
▁Hot	-8231
▁ink	-8232
kaido	-8233
▁Thai	-8234
▁damn	-8235
▁neat	-8236
▁plot	-8237
▁Learn	-8238
▁moral	-8239
▁yield	-8240
artment	-8241
istered	-8242
▁admits	-8243
▁mainly	-8244
▁Pharaoh	-8245
▁moments	-8246
▁Hokkaido	-8247
▁driveway	-8248
▁opponent	-8249
▁tolerate	-8250
▁bookstore	-8251
▁businesses	-8252
▁convenience	-8253
dge	-8254
fit	-8255
cely	-8256
hard	-8257
inna	-8258
keys	-8259
olly	-8260
inals	-8261
oline	-8262
riter	-8263
▁Hist	-8264
▁Star	-8265
▁jury	-8266
▁unto	-8267
▁zone	-8268
worthy	-8269
▁Prime	-8270
▁froze	-8271
▁pairs	-8272
▁pasta	-8273
▁export	-8274
▁satell	-8275
▁virtue	-8276
▁washes	-8277
▁Beijing	-8278
▁Mexican	-8279
▁alright	-8280
▁quicker	-8281
unciation	-8282
▁branches	-8283
▁delivery	-8284
▁Instagram	-8285
▁accidents	-8286
▁residents	-8287
▁physically	-8288
▁prohibited	-8289
▁anniversary	-8290
▁consideration	-8291
hin	-8292
mel	-8293
Than	-8294
bish	-8295
elie	-8296
iffe	-8297
rise	-8298
▁Com	-8299
▁Cut	-8300
▁Tro	-8301
etime	-8302
ooked	-8303
▁Bakir	-8304
▁grief	-8305
▁guilt	-8306
▁loser	-8307
ultural	-8308
▁addict	-8309
▁propag	-8310
▁ripped	-8311
▁Mediter	-8312
▁islands	-8313
▁trumpet	-8314
▁concerns	-8315
▁creating	-8316
▁currency	-8317
▁diseases	-8318
▁numerous	-8319
▁sunshine	-8320
▁Valentine	-8321
▁opposition	-8322
3,	-8323
ogy	-8324
sha	-8325
▁EU	-8326
ilip	-8327
term	-8328
fying	-8329
▁keen	-8330
▁prey	-8331
▁tons	-8332
▁Stand	-8333
▁camer	-8334
▁olive	-8335
▁parad	-8336
▁tasty	-8337
ometown	-8338
▁rumors	-8339
▁tables	-8340
▁Swedish	-8341
▁harmful	-8342
▁horizon	-8343
▁belonged	-8344
▁sacrific	-8345
▁Palestine	-8346
▁guarantee	-8347
▁magazines	-8348
▁telescope	-8349
▁translator	-8350
▁Mediterranean	-8351
oos	-8352
aste	-8353
iner	-8354
rend	-8355
ingly	-8356
▁inqu	-8357
▁pist	-8358
liness	-8359
▁Close	-8360
▁veter	-8361
▁wrest	-8362
▁Fortun	-8363
▁adjust	-8364
▁contem	-8365
▁wolves	-8366
▁bathtub	-8367
▁biology	-8368
▁grandma	-8369
▁inhabit	-8370
▁pianist	-8371
▁hometown	-8372
▁weakness	-8373
▁champagne	-8374
▁departure	-8375
▁fundamental	-8376
uh	-8377
rag	-8378
til	-8379
ulu	-8380
ador	-8381
hant	-8382
oula	-8383
outs	-8384
▁Boy	-8385
▁flex	-8386
▁prem	-8387
▁sank	-8388
headed	-8389
▁overd	-8390
▁rates	-8391
▁steel	-8392
viously	-8393
▁Nature	-8394
▁greedy	-8395
▁welcom	-8396
▁winner	-8397
▁Taninna	-8398
▁regions	-8399
▁Scotland	-8400
▁disorder	-8401
▁servants	-8402
▁appointed	-8403
▁displeased	-8404
▁immigrants	-8405
▁passionate	-8406
NA	-8407
bag	-8408
amal	-8409
▁Bad	-8410
▁Sec	-8411
▁awa	-8412
ardon	-8413
ockey	-8414
▁bart	-8415
▁indo	-8416
▁perf	-8417
▁scat	-8418
artial	-8419
isible	-8420
▁bloss	-8421
▁depth	-8422
▁dwell	-8423
▁lacks	-8424
▁onions	-8425
▁praise	-8426
▁spaces	-8427
▁status	-8428
▁trusts	-8429
▁Another	-8430
▁Germans	-8431
▁blessed	-8432
▁matches	-8433
▁acquaint	-8434
▁chairman	-8435
▁expelled	-8436
▁sacrifice	-8437
▁terrorists	-8438
▁interpreter	-8439
▁interrupted	-8440
▁grandchildren	-8441
no	-8442
quar	-8443
▁Los	-8444
▁apt	-8445
uting	-8446
▁High	-8447
▁coup	-8448
▁dull	-8449
▁harb	-8450
▁bride	-8451
▁cooks	-8452
▁safer	-8453
▁smelt	-8454
▁agency	-8455
▁baking	-8456
▁colder	-8457
▁sacred	-8458
▁valley	-8459
▁artists	-8460
▁disturb	-8461
▁pajamas	-8462
▁accounts	-8463
▁coughing	-8464
▁faithful	-8465
▁isolated	-8466
▁vanished	-8467
▁objective	-8468
▁satisfact	-8469
▁spacecraft	-8470
▁generations	-8471
▁misunderstood	-8472
ado	-8473
▁Ivy	-8474
▁vom	-8475
koula	-8476
point	-8477
▁clue	-8478
▁mand	-8479
▁ripe	-8480
▁ther	-8481
▁vacu	-8482
itches	-8483
▁buses	-8484
▁heels	-8485
▁roots	-8486
▁sneak	-8487
▁urged	-8488
▁calend	-8489
▁rubbed	-8490
▁Finnish	-8491
▁cracked	-8492
▁Benkoula	-8493
▁distinct	-8494
▁projects	-8495
▁foreigner	-8496
▁prisoners	-8497
▁receiving	-8498
▁acquainted	-8499
▁collecting	-8500
▁explaining	-8501
▁suggesting	-8502
▁conditioner	-8503
cow	-8504
fess	-8505
storm	-8506
▁inev	-8507
▁adapt	-8508
▁filth	-8509
▁humid	-8510
▁lions	-8511
▁users	-8512
igenous	-8513
▁actual	-8514
▁traged	-8515
entially	-8516
▁charity	-8517
▁cleaner	-8518
▁decline	-8519
▁hardest	-8520
▁install	-8521
▁observe	-8522
▁radical	-8523
▁Thousand	-8524
▁chickens	-8525
▁composed	-8526
▁delicate	-8527
▁poisoned	-8528
▁butterfly	-8529
▁whispered	-8530
▁humiliated	-8531
▁distinguish	-8532
▁environmental	-8533
▁pronunciation	-8534
eem	-8535
iac	-8536
iko	-8537
▁80	-8538
▁Jo	-8539
▁Exp	-8540
aware	-8541
ropri	-8542
▁Food	-8543
▁fits	-8544
▁migr	-8545
▁scri	-8546
▁seed	-8547
▁writ	-8548
ittens	-8549
▁Jacob	-8550
▁alibi	-8551
▁appla	-8552
▁dealt	-8553
▁renov	-8554
▁unimp	-8555
▁Moscow	-8556
▁counts	-8557
▁observ	-8558
▁exports	-8559
▁persons	-8560
▁praised	-8561
▁raising	-8562
▁bankrupt	-8563
▁severely	-8564
▁elections	-8565
▁therapist	-8566
▁devastated	-8567
▁Fortunately	-8568
▁Philippines	-8569
chy	-8570
▁Ir	-8571
oids	-8572
▁Reg	-8573
▁Sir	-8574
▁bin	-8575
force	-8576
iable	-8577
▁Isab	-8578
▁chef	-8579
▁elim	-8580
▁lets	-8581
▁mole	-8582
▁wars	-8583
acious	-8584
atural	-8585
▁camel	-8586
▁dense	-8587
▁nerve	-8588
▁steam	-8589
▁stiff	-8590
▁sweep	-8591
▁Always	-8592
▁Better	-8593
▁covers	-8594
▁recall	-8595
▁richer	-8596
▁uneasy	-8597
ifferent	-8598
ximately	-8599
▁Nations	-8600
▁behaved	-8601
▁gazelle	-8602
▁lowered	-8603
▁miracle	-8604
▁reduced	-8605
▁spoiled	-8606
▁attorney	-8607
▁domestic	-8608
▁judgment	-8609
▁outdoors	-8610
▁overseas	-8611
▁cancelled	-8612
▁communities	-8613
lav	-8614
rav	-8615
▁Sl	-8616
▁cos	-8617
▁gum	-8618
liest	-8619
olars	-8620
works	-8621
▁diab	-8622
▁hunt	-8623
▁neut	-8624
▁shat	-8625
▁unit	-8626
▁Kabyl	-8627
▁Pluto	-8628
▁Salhi	-8629
▁Tuare	-8630
▁femin	-8631
▁fried	-8632
▁assemb	-8633
▁string	-8634
▁superv	-8635
ologists	-8636
▁Austria	-8637
▁typhoon	-8638
▁clearing	-8639
▁deserted	-8640
▁machines	-8641
▁determine	-8642
▁convincing	-8643
▁questioned	-8644
▁composition	-8645
▁individuals	-8646
▁unimpressed	-8647
▁occasionally	-8648
tw	-8649
uz	-8650
ops	-8651
osh	-8652
bian	-8653
coat	-8654
oust	-8655
tail	-8656
▁Ann	-8657
▁Sus	-8658
▁Sure	-8659
▁bold	-8660
▁pets	-8661
▁trim	-8662
▁unin	-8663
▁ward	-8664
lights	-8665
▁Dania	-8666
▁bache	-8667
▁grace	-8668
▁holes	-8669
▁shave	-8670
▁absurd	-8671
▁compre	-8672
▁rivers	-8673
▁conspir	-8674
▁crushed	-8675
▁forests	-8676
▁refuses	-8677
▁contrary	-8678
▁drowning	-8679
▁disgusted	-8680
▁improving	-8681
▁Sociopaths	-8682
▁transferred	-8683
1,	-8684
zes	-8685
:30.	-8686
Your	-8687
dish	-8688
mbur	-8689
onia	-8690
▁sip	-8691
▁via	-8692
icies	-8693
inent	-8694
▁acce	-8695
▁bake	-8696
▁gest	-8697
ancing	-8698
hammad	-8699
▁Jones	-8700
▁clown	-8701
▁frame	-8702
▁moder	-8703
▁risky	-8704
▁thumb	-8705
ilingual	-8706
▁bargain	-8707
▁beneath	-8708
▁compare	-8709
▁profile	-8710
▁calendar	-8711
▁clarinet	-8712
▁paranoid	-8713
▁decorated	-8714
▁controlled	-8715
▁practically	-8716
▁volunteered	-8717
aro	-8718
ipes	-8719
zens	-8720
▁Art	-8721
▁ash	-8722
▁poo	-8723
abled	-8724
rices	-8725
▁chew	-8726
▁coma	-8727
▁hike	-8728
▁leaf	-8729
▁entit	-8730
▁incon	-8731
▁Marika	-8732
▁Nether	-8733
▁ethnic	-8734
▁extent	-8735
▁hambur	-8736
▁luxury	-8737
▁resort	-8738
▁signal	-8739
▁smiles	-8740
▁underw	-8741
▁avoiding	-8742
▁fountain	-8743
▁policies	-8744
▁refugees	-8745
▁starving	-8746
▁unconvin	-8747
▁watermel	-8748
▁temporary	-8749
▁colleagues	-8750
▁Afghanistan	-8751
.'	-8752
rat	-8753
uba	-8754
udi	-8755
When	-8756
ican	-8757
idel	-8758
umpy	-8759
arten	-8760
eters	-8761
▁gull	-8762
▁rank	-8763
▁rein	-8764
▁aspir	-8765
▁drift	-8766
▁frank	-8767
▁slave	-8768
▁blonde	-8769
▁garlic	-8770
▁inspir	-8771
▁knives	-8772
▁naught	-8773
▁cameras	-8774
▁housing	-8775
▁sources	-8776
▁everyday	-8777
▁briefcase	-8778
▁mushrooms	-8779
▁standards	-8780
▁historical	-8781
▁researchers	-8782
▁enthusiastic	-8783
tic	-8784
four	-8785
▁Ali	-8786
▁Had	-8787
▁Ten	-8788
▁sam	-8789
rison	-8790
stein	-8791
▁chip	-8792
▁poly	-8793
▁assum	-8794
▁skate	-8795
▁upper	-8796
▁electr	-8797
▁glance	-8798
▁seated	-8799
▁treats	-8800
▁lawyers	-8801
▁whoever	-8802
▁Students	-8803
▁adorable	-8804
▁thankful	-8805
▁spreading	-8806
▁stretched	-8807
▁management	-8808
▁celebrating	-8809
▁suggestions	-8810
sa	-8811
moon	-8812
▁ber	-8813
▁ted	-8814
grand	-8815
▁Juda	-8816
▁subm	-8817
action	-8818
▁Jamal	-8819
▁Nancy	-8820
▁Polit	-8821
▁Prices	-8822
▁client	-8823
▁images	-8824
▁owners	-8825
▁puzzle	-8826
friendly	-8827
▁Central	-8828
▁Finland	-8829
▁compete	-8830
▁fantasy	-8831
▁penalty	-8832
▁outbreak	-8833
▁spelling	-8834
▁confusing	-8835
▁continent	-8836
▁kilograms	-8837
▁transportation	-8838
5,	-8839
BI	-8840
Bec	-8841
uate	-8842
▁Ant	-8843
▁Mac	-8844
▁beds	-8845
▁buzz	-8846
▁unne	-8847
▁vamp	-8848
called	-8849
usions	-8850
▁waist	-8851
workers	-8852
▁amazed	-8853
▁deeper	-8854
▁dispos	-8855
appropri	-8856
▁Iceland	-8857
▁balloon	-8858
▁phrases	-8859
▁release	-8860
▁remarks	-8861
▁Congress	-8862
▁Language	-8863
▁aircraft	-8864
▁touching	-8865
▁welcomed	-8866
▁Thousands	-8867
▁infection	-8868
▁religions	-8869
▁commercial	-8870
▁thoroughly	-8871
▁businessman	-8872
gor	-8873
ipt	-8874
▁Mel	-8875
▁Tag	-8876
▁bum	-8877
▁lam	-8878
▁sci	-8879
aning	-8880
othes	-8881
▁Dogs	-8882
▁Talk	-8883
▁cert	-8884
▁epis	-8885
▁peop	-8886
▁toes	-8887
orious	-8888
▁print	-8889
▁shine	-8890
Because	-8891
hearted	-8892
▁Romans	-8893
▁transm	-8894
▁volume	-8895
▁Indones	-8896
▁abusive	-8897
▁athlete	-8898
▁heavier	-8899
▁methods	-8900
▁Isabella	-8901
▁astronom	-8902
▁dressing	-8903
▁exchanged	-8904
▁intrigued	-8905
▁volunteers	-8906
bi	-8907
▁‘	-8908
ola	-8909
umi	-8910
▁60	-8911
▁Hy	-8912
▁500	-8913
▁Cat	-8914
▁Due	-8915
▁tin	-8916
adium	-8917
▁Anna	-8918
▁Half	-8919
▁corp	-8920
▁frag	-8921
▁mice	-8922
▁pros	-8923
▁exten	-8924
▁fries	-8925
▁optim	-8926
▁shovel	-8927
izations	-8928
▁filming	-8929
▁kingdom	-8930
▁therapy	-8931
▁tricked	-8932
▁volcano	-8933
▁Muhammad	-8934
▁athletic	-8935
▁employee	-8936
▁honestly	-8937
▁regarded	-8938
▁smallest	-8939
▁unnecess	-8940
▁attending	-8941
▁considers	-8942
▁corrected	-8943
▁elementary	-8944
▁inappropri	-8945
7,	-8946
long	-8947
▁Its	-8948
▁Sil	-8949
▁bon	-8950
▁hal	-8951
▁tos	-8952
▁Flor	-8953
▁pawn	-8954
ifying	-8955
▁Guess	-8956
▁sorts	-8957
issions	-8958
pective	-8959
▁Social	-8960
▁booked	-8961
▁feared	-8962
▁laughs	-8963
▁noises	-8964
▁pistol	-8965
ergarten	-8966
▁Olympic	-8967
▁admired	-8968
▁excuses	-8969
▁swallow	-8970
▁approval	-8971
▁capacity	-8972
▁includes	-8973
▁landscape	-8974
▁spiritual	-8975
▁desperately	-8976
▁nationality	-8977
▁increasingly	-8978
▁successfully	-8979
gic	-8980
iro	-8981
xed	-8982
ille	-8983
guard	-8984
▁chim	-8985
▁alert	-8986
▁depri	-8987
▁trips	-8988
▁gently	-8989
▁legend	-8990
▁meteor	-8991
▁wicked	-8992
▁colours	-8993
▁resting	-8994
▁analysis	-8995
▁exploded	-8996
▁lifetime	-8997
▁mechanic	-8998
▁addressed	-8999
▁responded	-9000
▁sufficient	-9001
▁disrespectful	-9002
mo	-9003
oli	-9004
rill	-9005
▁athe	-9006
▁dign	-9007
▁fame	-9008
▁outra	-9009
▁overt	-9010
▁union	-9011
▁unple	-9012
▁windy	-9013
▁Change	-9014
▁Sweden	-9015
▁accord	-9016
▁filthy	-9017
▁snowed	-9018
▁surviv	-9019
inations	-9020
▁Tagalog	-9021
▁customs	-9022
▁halfway	-9023
▁interfe	-9024
▁obliged	-9025
▁sharing	-9026
▁Russians	-9027
▁deceived	-9028
▁complaint	-9029
▁criticize	-9030
▁unfortunately	-9031
▁disappointment	-9032
anny	-9033
ieve	-9034
rily	-9035
▁gap	-9036
lying	-9037
power	-9038
ushes	-9039
▁Very	-9040
▁fist	-9041
verted	-9042
▁coats	-9043
▁fined	-9044
▁noble	-9045
▁shark	-9046
iterate	-9047
▁adding	-9048
▁bumped	-9049
▁palace	-9050
▁Promise	-9051
▁Tunisia	-9052
▁beloved	-9053
▁forgave	-9054
▁surgeon	-9055
▁testify	-9056
▁tragedy	-9057
▁unaware	-9058
▁catching	-9059
▁champion	-9060
▁elements	-9061
▁programs	-9062
▁provides	-9063
▁Obviously	-9064
▁controvers	-9065
▁unpleasant	-9066
▁photographer	-9067
4,	-9068
6,	-9069
▁ic	-9070
cils	-9071
gled	-9072
ilst	-9073
▁Nag	-9074
ashes	-9075
▁Shan	-9076
▁boun	-9077
▁folk	-9078
▁sung	-9079
▁tale	-9080
olving	-9081
▁blink	-9082
▁Govern	-9083
▁differ	-9084
▁dreamt	-9085
▁needle	-9086
▁poorly	-9087
▁sought	-9088
▁worthy	-9089
▁baggage	-9090
▁drummer	-9091
▁fainted	-9092
▁peoples	-9093
▁propose	-9094
▁scholar	-9095
▁stuffed	-9096
▁whistle	-9097
▁absorbed	-9098
▁extended	-9099
▁mentally	-9100
▁purchase	-9101
▁sensible	-9102
▁curiosity	-9103
▁neglected	-9104
▁Christians	-9105
▁forgetting	-9106
▁situations	-9107
▁reluctantly	-9108
▁unconvinced	-9109
ala	-9110
ded	-9111
▁1,	-9112
▁Ta	-9113
anic	-9114
sels	-9115
▁FBI	-9116
based	-9117
peare	-9118
▁cord	-9119
▁wing	-9120
soever	-9121
▁Exper	-9122
▁aimed	-9123
▁cells	-9124
▁charm	-9125
▁flame	-9126
▁landl	-9127
▁opens	-9128
▁perce	-9129
▁traum	-9130
▁unmar	-9131
▁wives	-9132
ensions	-9133
ulating	-9134
▁Friend	-9135
▁launch	-9136
▁splend	-9137
▁chasing	-9138
▁regards	-9139
▁teasing	-9140
stitution	-9141
▁preserve	-9142
▁scholars	-9143
▁complains	-9144
▁guitarist	-9145
▁belongings	-9146
▁dependable	-9147
ora	-9148
▁Cy	-9149
aser	-9150
bble	-9151
obia	-9152
ogue	-9153
▁Alp	-9154
▁Dam	-9155
▁Joe	-9156
▁Sad	-9157
▁tut	-9158
▁Thus	-9159
▁gear	-9160
▁holy	-9161
▁inte	-9162
▁rear	-9163
▁skip	-9164
igning	-9165
sticks	-9166
▁accus	-9167
▁admir	-9168
▁sixth	-9169
respons	-9170
▁cloudy	-9171
▁divers	-9172
▁eighty	-9173
▁flames	-9174
▁grocer	-9175
▁heated	-9176
▁sheets	-9177
▁thread	-9178
kespeare	-9179
▁despair	-9180
▁pierced	-9181
▁richest	-9182
▁skilled	-9183
▁stormed	-9184
▁Nowadays	-9185
▁resource	-9186
▁stranded	-9187
▁supports	-9188
▁surround	-9189
▁alcoholic	-9190
▁bartender	-9191
▁secondary	-9192
▁astonished	-9193
▁underground	-9194
gir	-9195
ubs	-9196
▁90	-9197
▁Ev	-9198
acco	-9199
ayer	-9200
bert	-9201
▁Dri	-9202
ommod	-9203
▁Anim	-9204
▁Lulu	-9205
▁slip	-9206
▁stim	-9207
▁vine	-9208
giving	-9209
nament	-9210
screen	-9211
▁Naima	-9212
▁backs	-9213
▁fussy	-9214
▁loses	-9215
▁theft	-9216
▁torto	-9217
▁annual	-9218
▁blocks	-9219
▁hockey	-9220
▁hotels	-9221
▁hunter	-9222
▁petrol	-9223
▁rocket	-9224
▁unbear	-9225
▁Johnson	-9226
▁Station	-9227
▁amusing	-9228
▁beaches	-9229
▁boiling	-9230
▁landing	-9231
▁payment	-9232
▁sympathy	-9233
▁confusion	-9234
▁honeymoon	-9235
▁immediate	-9236
▁passenger	-9237
▁vegetable	-9238
▁acceptable	-9239
▁kindergarten	-9240
▁?	-9241
ada	-9242
lly	-9243
rum	-9244
▁Bo	-9245
udes	-9246
▁Pay	-9247
▁cem	-9248
▁mug	-9249
inder	-9250
▁Carl	-9251
▁crap	-9252
▁pile	-9253
atered	-9254
▁lasts	-9255
▁rides	-9256
▁swing	-9257
▁vague	-9258
▁knight	-9259
▁marked	-9260
▁Kabylia	-9261
▁equally	-9262
▁proport	-9263
▁smashed	-9264
▁stadium	-9265
▁vaccine	-9266
▁accommod	-9267
▁beginner	-9268
▁nickname	-9269
▁referred	-9270
▁semester	-9271
▁subjects	-9272
▁waitress	-9273
▁batteries	-9274
▁diagnosed	-9275
▁establish	-9276
▁constitution	-9277
▁x	-9278
ads	-9279
aki	-9280
dar	-9281
orp	-9282
xts	-9283
▁2.	-9284
▁Cup	-9285
▁Sen	-9286
▁oak	-9287
pherd	-9288
▁myth	-9289
▁plun	-9290
▁sexy	-9291
▁shif	-9292
▁tact	-9293
gender	-9294
▁Avoid	-9295
▁Gener	-9296
▁dared	-9297
▁label	-9298
▁moons	-9299
▁prank	-9300
▁sushi	-9301
ionship	-9302
▁freely	-9303
▁prompt	-9304
▁racket	-9305
▁scored	-9306
▁shaved	-9307
▁sleeve	-9308
▁upside	-9309
kerchief	-9310
▁Florida	-9311
▁deadline	-9312
▁marrying	-9313
▁reckless	-9314
▁reserved	-9315
▁ancestors	-9316
▁poisonous	-9317
▁Shakespeare	-9318
▁inhabitants	-9319
50	-9320
bies	-9321
▁Fed	-9322
▁Ric	-9323
▁bak	-9324
angle	-9325
▁Much	-9326
▁Prot	-9327
▁dolp	-9328
▁grat	-9329
▁proc	-9330
▁rebu	-9331
▁Until	-9332
▁bluff	-9333
▁files	-9334
▁frost	-9335
▁masks	-9336
▁scrap	-9337
▁Choose	-9338
▁cotton	-9339
▁formal	-9340
▁asshole	-9341
▁beliefs	-9342
▁eternal	-9343
▁flooded	-9344
▁privile	-9345
▁rolling	-9346
▁shallow	-9347
▁astronomy	-9348
▁finishing	-9349
▁inflation	-9350
▁interfere	-9351
▁predicted	-9352
▁strongest	-9353
▁assignment	-9354
▁indigenous	-9355
▁temptation	-9356
▁Christopher	-9357
▁Netherlands	-9358
▁approximately	-9359
abs	-9360
acha	-9361
amen	-9362
ogen	-9363
▁Bus	-9364
▁lid	-9365
▁vit	-9366
ieves	-9367
overs	-9368
▁Hung	-9369
▁Wash	-9370
▁cuts	-9371
person	-9372
▁Libya	-9373
▁aster	-9374
▁explo	-9375
▁fatal	-9376
▁joint	-9377
▁spray	-9378
▁tremb	-9379
▁vegan	-9380
▁wages	-9381
osystem	-9382
▁busier	-9383
▁idiots	-9384
▁melted	-9385
▁slaves	-9386
▁Through	-9387
▁confron	-9388
▁pencils	-9389
▁sustain	-9390
▁unbelie	-9391
▁campfire	-9392
▁chatting	-9393
▁magnetic	-9394
▁dismissed	-9395
▁inherited	-9396
▁preferred	-9397
▁transition	-9398
▁trustworthy	-9399
▁handkerchief	-9400
hum	-9401
bell	-9402
boat	-9403
iana	-9404
isms	-9405
izer	-9406
▁dye	-9407
olite	-9408
▁Pers	-9409
▁Snow	-9410
▁ratt	-9411
▁silk	-9412
▁slim	-9413
▁Saudi	-9414
▁amuse	-9415
▁defin	-9416
▁disli	-9417
▁reign	-9418
▁seatb	-9419
▁Church	-9420
▁Commun	-9421
▁Norway	-9422
▁fucked	-9423
▁proced	-9424
▁filling	-9425
▁reforms	-9426
▁behaving	-9427
▁restrain	-9428
▁truthful	-9429
▁interpret	-9430
▁presidential	-9431
.,	-9432
8,	-9433
cod	-9434
loe	-9435
nis	-9436
oked	-9437
uten	-9438
▁Ham	-9439
▁USA	-9440
▁Vol	-9441
▁fee	-9442
▁vib	-9443
etery	-9444
ouses	-9445
reeze	-9446
▁Fire	-9447
▁Gold	-9448
▁Quit	-9449
▁boot	-9450
▁buff	-9451
▁pigs	-9452
▁pony	-9453
ficial	-9454
▁Solar	-9455
▁disob	-9456
▁flows	-9457
▁locks	-9458
▁reass	-9459
▁rival	-9460
inction	-9461
▁Master	-9462
▁assure	-9463
▁rested	-9464
▁script	-9465
▁destiny	-9466
▁display	-9467
▁grounds	-9468
▁honesty	-9469
▁mankind	-9470
▁markets	-9471
▁perfume	-9472
▁rabbits	-9473
▁colonial	-9474
▁designer	-9475
▁obedient	-9476
▁acknowled	-9477
▁dishonest	-9478
▁ecosystem	-9479
▁installed	-9480
▁slightest	-9481
▁twentieth	-9482
▁agriculture	-9483
▁combination	-9484
▁philosopher	-9485
ani	-9486
oca	-9487
▁om	-9488
ener	-9489
ouch	-9490
ours	-9491
▁Cam	-9492
▁Mer	-9493
▁Sur	-9494
▁cru	-9495
▁pod	-9496
▁ton	-9497
▁tum	-9498
cript	-9499
inity	-9500
piece	-9501
rogen	-9502
▁adap	-9503
▁boil	-9504
▁peak	-9505
▁pupp	-9506
▁spar	-9507
▁Chloe	-9508
▁Party	-9509
▁Sleep	-9510
▁abund	-9511
▁jelly	-9512
ropical	-9513
▁Arabia	-9514
▁Follow	-9515
▁Seeing	-9516
▁Summer	-9517
▁decade	-9518
▁emphas	-9519
▁inches	-9520
▁manual	-9521
▁offend	-9522
▁Reading	-9523
▁conceal	-9524
▁consist	-9525
▁existed	-9526
▁expense	-9527
▁promote	-9528
▁routine	-9529
▁weighed	-9530
▁Northern	-9531
▁despised	-9532
▁entitled	-9533
▁gambling	-9534
▁exercises	-9535
▁fireplace	-9536
▁invention	-9537
▁technical	-9538
▁inevitable	-9539
▁instruments	-9540
▁perspective	-9541
ru	-9542
dri	-9543
gha	-9544
see	-9545
▁Off	-9546
venty	-9547
▁Kobe	-9548
▁Nice	-9549
▁mast	-9550
▁owed	-9551
▁pled	-9552
▁Acade	-9553
▁Syria	-9554
▁stead	-9555
▁Forget	-9556
▁Winter	-9557
▁bullse	-9558
▁bushes	-9559
▁compar	-9560
▁copies	-9561
▁filmed	-9562
▁jumper	-9563
▁mature	-9564
▁serves	-9565
▁streng	-9566
▁amounts	-9567
▁begging	-9568
▁besides	-9569
▁experim	-9570
▁muscles	-9571
▁naughty	-9572
▁surfing	-9573
▁executed	-9574
▁impolite	-9575
▁practise	-9576
▁elephants	-9577
▁horrified	-9578
▁cooperation	-9579
cop	-9580
win	-9581
▁Kn	-9582
▁py	-9583
agle	-9584
isor	-9585
▁DNA	-9586
▁Lou	-9587
Yanni	-9588
class	-9589
eches	-9590
▁cane	-9591
▁dyed	-9592
▁eleg	-9593
▁flee	-9594
▁plus	-9595
▁reun	-9596
icious	-9597
ulsive	-9598
▁Among	-9599
▁Obama	-9600
▁Throw	-9601
▁Words	-9602
▁elbow	-9603
▁fires	-9604
▁grain	-9605
▁handy	-9606
▁medal	-9607
▁spots	-9608
▁therm	-9609
aborate	-9610
▁Amazon	-9611
▁Second	-9612
▁bakery	-9613
▁chores	-9614
▁proven	-9615
▁tender	-9616
▁vacuum	-9617
▁Yiddish	-9618
▁bathing	-9619
▁chopped	-9620
▁despise	-9621
▁digital	-9622
▁flights	-9623
isticated	-9624
▁Buddhism	-9625
▁Speaking	-9626
▁gullible	-9627
▁helpless	-9628
▁internal	-9629
▁Happiness	-9630
▁abilities	-9631
▁genuinely	-9632
▁identical	-9633
▁swallowed	-9634
▁watermelon	-9635
▁inappropriate	-9636
gia	-9637
gun	-9638
olf	-9639
oqu	-9640
food	-9641
▁Rob	-9642
▁Squ	-9643
▁ais	-9644
▁roo	-9645
geons	-9646
utton	-9647
▁Dima	-9648
▁Pick	-9649
▁cann	-9650
▁cate	-9651
▁summ	-9652
ometer	-9653
ugging	-9654
▁Filip	-9655
▁Salas	-9656
▁drums	-9657
ificent	-9658
onymous	-9659
▁Empire	-9660
▁attent	-9661
▁galaxy	-9662
▁racing	-9663
▁seized	-9664
▁summit	-9665
▁History	-9666
▁Hungary	-9667
▁heating	-9668
▁scenery	-9669
▁twisted	-9670
fortunate	-9671
▁childish	-9672
▁happiest	-9673
▁pathetic	-9674
▁sexually	-9675
▁thirties	-9676
▁villages	-9677
▁accompany	-9678
▁gathering	-9679
▁precisely	-9680
▁worldwide	-9681
▁registered	-9682
▁whatsoever	-9683
▁experiencing	-9684
To	-9685
wi	-9686
30.	-9687
Hey	-9688
ahu	-9689
▁Ca	-9690
aine	-9691
▁ine	-9692
allel	-9693
itors	-9694
uised	-9695
▁Bush	-9696
▁Sher	-9697
▁bisc	-9698
▁fert	-9699
▁smok	-9700
▁user	-9701
▁River	-9702
▁blown	-9703
▁teams	-9704
▁texts	-9705
▁timid	-9706
▁towns	-9707
▁wrist	-9708
▁Resear	-9709
▁assass	-9710
▁offers	-9711
▁shares	-9712
▁tossed	-9713
▁bowling	-9714
▁burglar	-9715
▁discour	-9716
▁romance	-9717
▁rubbish	-9718
▁thieves	-9719
▁bachelor	-9720
▁grandson	-9721
▁politely	-9722
▁regional	-9723
▁practices	-9724
▁unmarried	-9725
▁handcuffed	-9726
▁occupation	-9727
▁destruction	-9728
May	-9729
sts	-9730
arin	-9731
opol	-9732
otes	-9733
▁Tex	-9734
▁Way	-9735
▁dub	-9736
lines	-9737
▁Step	-9738
▁Wall	-9739
▁erup	-9740
▁leap	-9741
▁trag	-9742
▁wage	-9743
▁Beaut	-9744
▁Claus	-9745
▁chaos	-9746
▁fraud	-9747
▁lungs	-9748
▁steep	-9749
ologies	-9750
▁Living	-9751
▁biased	-9752
▁casual	-9753
▁cockro	-9754
▁denies	-9755
▁fossil	-9756
▁gifted	-9757
▁integr	-9758
▁lovers	-9759
▁sticks	-9760
▁Angeles	-9761
▁acceler	-9762
▁crawled	-9763
▁discrim	-9764
▁embassy	-9765
▁liberal	-9766
▁museums	-9767
▁receipt	-9768
▁stretch	-9769
▁tightly	-9770
▁torture	-9771
▁watered	-9772
▁Atlantic	-9773
▁bracelet	-9774
▁offering	-9775
▁priority	-9776
▁broadcast	-9777
▁irrespons	-9778
▁criticized	-9779
▁unbearable	-9780
▁unfortunate	-9781
▁unnecessary	-9782
▁Ty	-9783
aths	-9784
eria	-9785
▁Ass	-9786
▁Law	-9787
▁gut	-9788
▁tub	-9789
▁Coll	-9790
▁deck	-9791
▁saus	-9792
▁soda	-9793
▁stab	-9794
▁tide	-9795
▁yawn	-9796
acking	-9797
atical	-9798
rative	-9799
▁Norwe	-9800
▁meter	-9801
▁nause	-9802
▁penny	-9803
▁prote	-9804
▁stare	-9805
▁Modern	-9806
▁atomic	-9807
▁barber	-9808
▁donkey	-9809
▁kindly	-9810
▁latter	-9811
▁slower	-9812
▁blushed	-9813
▁cycling	-9814
▁evident	-9815
▁fascist	-9816
▁forgets	-9817
▁joining	-9818
▁utterly	-9819
▁cemetery	-9820
▁diligent	-9821
▁governor	-9822
▁gunshots	-9823
▁tendency	-9824
▁compassion	-9825
▁compliment	-9826
▁intentionally	-9827
0,	-9828
DP	-9829
Re	-9830
▁Ly	-9831
iden	-9832
stra	-9833
tell	-9834
▁Hit	-9835
▁Maj	-9836
▁Run	-9837
▁bla	-9838
brush	-9839
mares	-9840
osure	-9841
owned	-9842
▁Five	-9843
▁Free	-9844
▁Wind	-9845
▁core	-9846
▁empt	-9847
▁sigh	-9848
▁vice	-9849
▁chill	-9850
▁deals	-9851
▁noted	-9852
▁snuck	-9853
stanbul	-9854
▁Saturn	-9855
▁condem	-9856
▁inject	-9857
▁kisses	-9858
▁prepar	-9859
▁refres	-9860
▁rubber	-9861
▁turkey	-9862
▁Charles	-9863
▁context	-9864
▁inspect	-9865
▁plumber	-9866
▁concerts	-9867
▁inconven	-9868
▁shortage	-9869
▁wandered	-9870
▁cooperate	-9871
▁invisible	-9872
▁practiced	-9873
▁investigate	-9874
▁magnificent	-9875
▁questioning	-9876
▁unemployment	-9877
FO	-9878
bal	-9879
cus	-9880
isl	-9881
▁Id	-9882
▁Mc	-9883
coln	-9884
▁Isa	-9885
▁Met	-9886
orthe	-9887
▁Back	-9888
▁Hard	-9889
▁arts	-9890
▁crop	-9891
▁mour	-9892
▁stag	-9893
▁tidy	-9894
atable	-9895
laimed	-9896
ocated	-9897
▁eater	-9898
▁flute	-9899
▁occas	-9900
▁parks	-9901
▁stain	-9902
▁Argent	-9903
▁caring	-9904
▁duties	-9905
▁encoun	-9906
▁ensure	-9907
▁humble	-9908
▁illust	-9909
▁ninety	-9910
▁openly	-9911
together	-9912
▁Judaism	-9913
▁Lincoln	-9914
▁clients	-9915
▁indoors	-9916
▁organic	-9917
▁frequent	-9918
▁grounded	-9919
▁incompet	-9920
▁quitting	-9921
▁restroom	-9922
▁tortured	-9923
▁vehicles	-9924
▁basically	-9925
▁countless	-9926
▁groceries	-9927
▁increases	-9928
▁pregnancy	-9929
▁surrender	-9930
▁technique	-9931
▁travelled	-9932
▁confronted	-9933
▁conspiracy	-9934
▁foundation	-9935
▁headphones	-9936
▁outstanding	-9937
▁administration	-9938
Al	-9939
▁Cz	-9940
▁Da	-9941
▁Li	-9942
cers	-9943
conf	-9944
nuts	-9945
oral	-9946
rene	-9947
zard	-9948
▁Sar	-9949
▁aer	-9950
▁gla	-9951
▁icy	-9952
▁ves	-9953
icate	-9954
itage	-9955
▁Supp	-9956
▁cens	-9957
▁sunb	-9958
▁tack	-9959
rolled	-9960
▁Hotel	-9961
▁anime	-9962
▁beast	-9963
▁bowed	-9964
▁cable	-9965
▁canoe	-9966
▁filed	-9967
▁fools	-9968
▁miner	-9969
▁patri	-9970
▁swept	-9971
angered	-9972
▁Heaven	-9973
▁Tanaka	-9974
▁behalf	-9975
▁boiled	-9976
▁fierce	-9977
▁fisher	-9978
▁marine	-9979
▁peanut	-9980
▁stroke	-9981
▁united	-9982
ollywood	-9983
▁Between	-9984
▁Getting	-9985
▁heather	-9986
▁tripped	-9987
▁Istanbul	-9988
▁barefoot	-9989
▁detailed	-9990
▁estimate	-9991
▁reporter	-9992
▁disturbing	-9993
▁enthusiasm	-9994
▁linguistic	-9995
▁nightmares	-9996
▁UN	-9997
Will	-9998
▁bou	-9999
neath	-10000
▁Book	-10001
▁Feel	-10002
▁abol	-10003
▁brid	-10004
▁lamb	-10005
▁noun	-10006
▁pens	-10007
▁subt	-10008
▁tiss	-10009
erving	-10010
▁Hindu	-10011
▁banjo	-10012
▁graph	-10013
▁hills	-10014
▁inner	-10015
▁rises	-10016
▁ruins	-10017
▁stake	-10018
▁trace	-10019
▁Honest	-10020
▁contag	-10021
▁survey	-10022
▁chapter	-10023
▁sunrise	-10024
▁traitor	-10025
▁Portugal	-10026
▁cautious	-10027
▁district	-10028
▁illusion	-10029
▁minority	-10030
▁restrict	-10031
▁believing	-10032
▁nervously	-10033
▁democratic	-10034
▁electrical	-10035
▁phenomenon	-10036
▁specialist	-10037
▁Organization	-10038
▁architecture	-10039
Of	-10040
irs	-10041
ulpt	-10042
▁Tig	-10043
▁Tor	-10044
inted	-10045
▁Daph	-10046
▁Play	-10047
▁Wood	-10048
▁caps	-10049
▁evac	-10050
active	-10051
▁cryst	-10052
▁remar	-10053
▁sends	-10054
▁shone	-10055
▁sober	-10056
▁Arctic	-10057
▁cellar	-10058
▁dozens	-10059
▁learns	-10060
▁virgin	-10061
▁Daphnis	-10062
▁butcher	-10063
▁feeding	-10064
▁offices	-10065
▁trigger	-10066
▁overlook	-10067
▁pizzeria	-10068
▁postcard	-10069
▁companion	-10070
▁astronauts	-10071
▁chopsticks	-10072
▁graduation	-10073
▁parliament	-10074
▁pronounced	-10075
▁improvement	-10076
bre	-10077
pet	-10078
▁UK	-10079
esty	-10080
then	-10081
▁Tim	-10082
▁jet	-10083
▁Hang	-10084
▁Rain	-10085
▁Tech	-10086
▁chin	-10087
▁idle	-10088
▁melt	-10089
asting	-10090
▁Isaac	-10091
▁Peace	-10092
▁glory	-10093
▁illum	-10094
▁maxim	-10095
▁nicer	-10096
▁vitam	-10097
ganized	-10098
osexual	-10099
▁flavor	-10100
▁grumpy	-10101
▁obtain	-10102
▁partly	-10103
▁softly	-10104
▁steady	-10105
▁Believe	-10106
▁bothers	-10107
▁confuse	-10108
▁council	-10109
▁desired	-10110
▁extract	-10111
▁singers	-10112
▁spinach	-10113
▁artistic	-10114
▁billions	-10115
▁floating	-10116
▁Norwegian	-10117
▁shattered	-10118
▁indifferent	-10119
▁ingredients	-10120
▁millionaire	-10121
?”	-10122
▁91	-10123
Amer	-10124
mart	-10125
▁Bas	-10126
▁Vis	-10127
▁coc	-10128
▁gam	-10129
▁pud	-10130
,000.	-10131
athon	-10132
opard	-10133
▁Norm	-10134
▁conj	-10135
▁urge	-10136
ifully	-10137
ricane	-10138
▁Czech	-10139
▁Irish	-10140
▁Weren	-10141
▁bossy	-10142
▁domin	-10143
▁royal	-10144
▁Poland	-10145
▁abused	-10146
▁behold	-10147
▁planes	-10148
▁racism	-10149
▁studio	-10150
▁unsure	-10151
▁chewing	-10152
▁operate	-10153
▁pouring	-10154
▁notified	-10155
▁speeches	-10156
▁demanding	-10157
▁solutions	-10158
▁propaganda	-10159
▁underneath	-10160
▁intellectual	-10161
▁investigating	-10162
lam	-10163
▁Ra	-10164
anch	-10165
mble	-10166
▁GDP	-10167
▁Sim	-10168
▁sou	-10169
▁toe	-10170
ifies	-10171
think	-10172
▁extr	-10173
astern	-10174
reland	-10175
terest	-10176
▁chase	-10177
▁gross	-10178
▁kilos	-10179
▁newly	-10180
▁outer	-10181
▁revol	-10182
▁vital	-10183
▁colony	-10184
▁defect	-10185
▁divine	-10186
▁fabric	-10187
▁runner	-10188
▁teased	-10189
▁waving	-10190
▁whilst	-10191
▁digging	-10192
▁printed	-10193
▁slavery	-10194
▁creation	-10195
▁employed	-10196
▁pancakes	-10197
▁criminals	-10198
▁healthier	-10199
▁offensive	-10200
▁villagers	-10201
▁babysitter	-10202
▁recovering	-10203
▁influential	-10204
▁remembering	-10205
▁possibilities	-10206
za	-10207
fty	-10208
nut	-10209
roc	-10210
▁BC	-10211
cake	-10212
tles	-10213
udge	-10214
▁Att	-10215
▁Hen	-10216
▁UFO	-10217
gered	-10218
ollen	-10219
osing	-10220
▁Care	-10221
▁Lakh	-10222
▁Move	-10223
▁Pope	-10224
▁dwar	-10225
▁masc	-10226
▁rewr	-10227
▁scam	-10228
vation	-10229
▁Trust	-10230
▁craft	-10231
▁disgr	-10232
▁messy	-10233
▁quote	-10234
▁raped	-10235
▁salty	-10236
▁sucks	-10237
▁wreck	-10238
▁abduct	-10239
▁attrib	-10240
▁cowboy	-10241
▁deaths	-10242
▁diving	-10243
▁issued	-10244
▁legisl	-10245
▁smokes	-10246
▁theirs	-10247
▁whales	-10248
▁Ireland	-10249
▁Lakhdar	-10250
▁evicted	-10251
▁farther	-10252
▁licence	-10253
▁passage	-10254
▁screwed	-10255
▁solving	-10256
▁Anything	-10257
▁flexible	-10258
▁paradise	-10259
▁postpone	-10260
▁reaching	-10261
▁relaxing	-10262
▁startled	-10263
▁dictators	-10264
▁diversity	-10265
▁fireworks	-10266
▁promising	-10267
▁substance	-10268
▁destroying	-10269
▁regardless	-10270
▁presentation	-10271
▁sophisticated	-10272
nox	-10273
▁70	-10274
away	-10275
iper	-10276
oped	-10277
pass	-10278
▁Lau	-10279
▁Rio	-10280
▁tab	-10281
▁woo	-10282
iland	-10283
▁Fear	-10284
▁Imag	-10285
▁Mand	-10286
▁Zion	-10287
▁dick	-10288
▁hint	-10289
▁rats	-10290
▁tang	-10291
▁unaf	-10292
▁zomb	-10293
▁Alban	-10294
▁Biden	-10295
▁Looks	-10296
▁Scott	-10297
▁Texas	-10298
▁awoke	-10299
▁bacon	-10300
▁funds	-10301
▁hedge	-10302
▁obnox	-10303
▁sites	-10304
▁troll	-10305
▁verge	-10306
▁whale	-10307
iveness	-10308
▁Esther	-10309
▁barbec	-10310
▁strain	-10311
▁Kingdom	-10312
▁Parents	-10313
▁federal	-10314
▁guessed	-10315
▁hobbies	-10316
▁largely	-10317
▁reserve	-10318
▁theatre	-10319
▁bedrooms	-10320
▁boarding	-10321
▁commonly	-10322
▁farewell	-10323
▁resolved	-10324
▁terrific	-10325
▁tropical	-10326
▁unafraid	-10327
▁insulting	-10328
▁scattered	-10329
▁footprints	-10330
▁peacefully	-10331
▁tournament	-10332
▁resignation	-10333
▁deliberately	-10334
All	-10335
ako	-10336
itz	-10337
chat	-10338
itis	-10339
rose	-10340
▁Ash	-10341
▁Mem	-10342
▁Moz	-10343
▁Set	-10344
▁hut	-10345
▁jaw	-10346
eenth	-10347
empts	-10348
proof	-10349
▁Hope	-10350
▁Prin	-10351
▁inch	-10352
▁publ	-10353
▁tips	-10354
itcher	-10355
▁Birds	-10356
▁curse	-10357
▁frogs	-10358
▁inexp	-10359
▁initi	-10360
▁tasks	-10361
▁centim	-10362
▁convey	-10363
▁crocod	-10364
▁misery	-10365
▁northe	-10366
▁paused	-10367
▁sculpt	-10368
▁stingy	-10369
▁treaty	-10370
▁waking	-10371
▁inherit	-10372
▁messing	-10373
▁mothers	-10374
▁rainbow	-10375
▁seventy	-10376
▁vampire	-10377
▁mustache	-10378
▁railroad	-10379
▁silently	-10380
▁smoothly	-10381
▁squeezed	-10382
▁hospitals	-10383
▁recording	-10384
▁squirrels	-10385
▁universal	-10386
▁reflection	-10387
▁substitute	-10388
▁Thanksgiving	-10389
opl	-10390
ota	-10391
▁cu	-10392
Then	-10393
oard	-10394
rait	-10395
▁Din	-10396
▁Ton	-10397
▁org	-10398
arded	-10399
armed	-10400
field	-10401
orial	-10402
udent	-10403
▁Cour	-10404
▁Thou	-10405
▁brow	-10406
▁foul	-10407
▁lest	-10408
ixture	-10409
▁$300.	-10410
▁2006.	-10411
▁Count	-10412
▁Enjoy	-10413
▁burns	-10414
▁innov	-10415
▁pains	-10416
▁warri	-10417
vereign	-10418
▁checks	-10419
▁cleans	-10420
▁extrem	-10421
▁outfit	-10422
▁drought	-10423
▁emerged	-10424
▁imports	-10425
▁lighter	-10426
▁neutral	-10427
▁Olympics	-10428
▁assigned	-10429
▁contents	-10430
▁doubtful	-10431
▁infinite	-10432
▁republic	-10433
▁sickness	-10434
▁splendid	-10435
▁theories	-10436
▁Generally	-10437
▁competent	-10438
▁objection	-10439
▁obnoxious	-10440
▁strangely	-10441
▁stressful	-10442
▁textbooks	-10443
▁productive	-10444
▁participated	-10445
▁22	-10446
▁3.	-10447
▁Ke	-10448
-19.	-10449
lept	-10450
ylum	-10451
▁193	-10452
▁Sky	-10453
▁Tam	-10454
▁rhy	-10455
▁sue	-10456
aving	-10457
inger	-10458
ugurt	-10459
▁Educ	-10460
▁bend	-10461
▁mead	-10462
▁pole	-10463
efense	-10464
▁ninet	-10465
▁orche	-10466
▁queue	-10467
▁stere	-10468
▁swift	-10469
▁verbs	-10470
ugurtha	-10471
▁Matoub	-10472
▁cooler	-10473
▁divide	-10474
▁muscle	-10475
▁regime	-10476
▁shaken	-10477
daughter	-10478
▁Walmart	-10479
▁courses	-10480
▁equival	-10481
▁fathers	-10482
▁gravity	-10483
▁prayers	-10484
▁tourism	-10485
▁lipstick	-10486
▁rational	-10487
▁treating	-10488
▁conceited	-10489
▁firefight	-10490
▁movements	-10491
▁signature	-10492
▁associated	-10493
▁prejudiced	-10494
▁engineering	-10495
▁inspiration	-10496
▁intimidated	-10497
▁manufacturing	-10498
▁significantly	-10499
kel	-10500
och	-10501
you	-10502
▁Er	-10503
▁Us	-10504
inge	-10505
ller	-10506
vals	-10507
▁Hel	-10508
▁Pet	-10509
▁Slo	-10510
▁Tra	-10511
▁les	-10512
▁mob	-10513
▁tob	-10514
erted	-10515
peror	-10516
tingu	-10517
▁bulb	-10518
▁encl	-10519
▁guts	-10520
▁lord	-10521
▁piss	-10522
▁sche	-10523
Really	-10524
imming	-10525
▁Trave	-10526
▁aisle	-10527
▁pecul	-10528
▁risen	-10529
▁spoil	-10530
instein	-10531
itarian	-10532
▁bloody	-10533
▁cultiv	-10534
▁discip	-10535
▁fights	-10536
▁honour	-10537
▁liking	-10538
▁marvel	-10539
▁atheist	-10540
▁cabinet	-10541
▁extingu	-10542
▁oneself	-10543
▁referee	-10544
▁abstract	-10545
▁bluffing	-10546
▁bullseye	-10547
▁discreet	-10548
▁insecure	-10549
▁tortoise	-10550
▁remaining	-10551
▁satellite	-10552
▁someplace	-10553
▁sovereign	-10554
▁suspicion	-10555
▁advantages	-10556
▁contradict	-10557
▁smartphone	-10558
▁irresponsible	-10559
iox	-10560
Mary	-10561
▁Cop	-10562
▁ner	-10563
▁nom	-10564
iased	-10565
orous	-10566
owers	-10567
ppery	-10568
▁Fool	-10569
▁Yoko	-10570
▁bast	-10571
▁beet	-10572
▁begg	-10573
▁poop	-10574
▁vest	-10575
hedral	-10576
writer	-10577
▁Girls	-10578
▁Truth	-10579
▁amate	-10580
▁ditch	-10581
▁dolls	-10582
▁haste	-10583
▁layer	-10584
▁needn	-10585
fashion	-10586
▁prover	-10587
▁senses	-10588
▁server	-10589
▁sighed	-10590
▁stinks	-10591
▁undert	-10592
▁Shangha	-10593
▁dignity	-10594
▁episode	-10595
▁legally	-10596
▁monkeys	-10597
▁transpa	-10598
▁tremend	-10599
▁Jugurtha	-10600
▁ambition	-10601
▁blessing	-10602
▁covering	-10603
▁marathon	-10604
▁unbiased	-10605
▁overheard	-10606
▁principle	-10607
▁repeating	-10608
▁continuous	-10609
▁previously	-10610
▁hardworking	-10611
▁regulations	-10612
▁considerable	-10613
%.	-10614
uki	-10615
▁tu	-10616
Sure	-10617
care	-10618
chae	-10619
ello	-10620
odka	-10621
robe	-10622
west	-10623
▁Nap	-10624
▁cul	-10625
rings	-10626
▁Adam	-10627
▁Cold	-10628
▁Kong	-10629
▁sins	-10630
▁unhe	-10631
anning	-10632
▁Event	-10633
▁Swiss	-10634
▁alter	-10635
▁arrow	-10636
▁logic	-10637
▁prose	-10638
▁pulse	-10639
▁souls	-10640
▁unity	-10641
▁Mosque	-10642
▁sensed	-10643
▁turtle	-10644
consider	-10645
▁Denmark	-10646
▁angrily	-10647
▁creates	-10648
▁extinct	-10649
▁freezer	-10650
▁gunshot	-10651
▁immense	-10652
▁involve	-10653
▁pitcher	-10654
▁seasons	-10655
▁swollen	-10656
▁agitated	-10657
▁interrog	-10658
▁piercing	-10659
▁sweating	-10660
▁conducted	-10661
▁contained	-10662
▁elaborate	-10663
▁forgetful	-10664
▁implement	-10665
▁umbrellas	-10666
▁Vietnamese	-10667
▁contagious	-10668
▁greenhouse	-10669
▁psychology	-10670
▁resistance	-10671
▁announcement	-10672
acc	-10673
cat	-10674
dog	-10675
▁Ba	-10676
hell	-10677
▁Inc	-10678
▁Tob	-10679
▁Wik	-10680
▁jan	-10681
▁unh	-10682
getic	-10683
uated	-10684
▁Vict	-10685
▁anch	-10686
▁ants	-10687
▁dang	-10688
▁gaze	-10689
▁iced	-10690
▁spat	-10691
▁weep	-10692
▁yoga	-10693
achers	-10694
atches	-10695
elling	-10696
elsius	-10697
encies	-10698
▁blows	-10699
▁clerk	-10700
▁feeds	-10701
▁meets	-10702
▁rabid	-10703
▁vodka	-10704
▁chains	-10705
▁hairst	-10706
▁powder	-10707
▁pursue	-10708
▁tragic	-10709
▁Profess	-10710
▁amongst	-10711
▁cottage	-10712
▁dischar	-10713
▁donated	-10714
▁fragile	-10715
▁interse	-10716
▁printer	-10717
▁smelled	-10718
▁Buddhist	-10719
▁threaten	-10720
▁Therefore	-10721
▁communist	-10722
▁estimated	-10723
▁gentlemen	-10724
▁hamburger	-10725
▁operating	-10726
▁worthless	-10727
▁endangered	-10728
▁laboratory	-10729
▁microphone	-10730
▁mosquitoes	-10731
▁repeatedly	-10732
▁disorganized	-10733
▁psychologist	-10734
,'	-10735
ki	-10736
sen	-10737
itic	-10738
qual	-10739
reme	-10740
▁Son	-10741
▁etc	-10742
▁nod	-10743
▁rag	-10744
▁vig	-10745
cular	-10746
ilton	-10747
iolet	-10748
oster	-10749
otion	-10750
▁1970	-10751
▁Hong	-10752
▁Real	-10753
▁bugs	-10754
amples	-10755
ickets	-10756
▁Techn	-10757
▁adore	-10758
▁drops	-10759
▁eagle	-10760
▁grant	-10761
▁maths	-10762
▁overc	-10763
▁polar	-10764
▁pound	-10765
▁pupil	-10766
▁snows	-10767
itating	-10768
oration	-10769
▁Danish	-10770
▁Sooner	-10771
▁harmon	-10772
▁wheels	-10773
▁Tonight	-10774
▁affects	-10775
▁counsel	-10776
▁heights	-10777
▁imposed	-10778
▁returns	-10779
▁sadness	-10780
▁tobacco	-10781
▁Einstein	-10782
▁earrings	-10783
▁imprison	-10784
▁prettier	-10785
▁slippery	-10786
▁violated	-10787
▁wildlife	-10788
▁patiently	-10789
ratulations	-10790
▁Department	-10791
▁attraction	-10792
▁perfection	-10793
▁protective	-10794
▁whispering	-10795
▁documentary	-10796
▁surrounding	-10797
--	-10798
On	-10799
but	-10800
isk	-10801
▁Tem	-10802
▁cav	-10803
▁rav	-10804
▁sob	-10805
▁wal	-10806
chool	-10807
uding	-10808
woman	-10809
▁Fasc	-10810
▁Nept	-10811
▁Snap	-10812
▁bunk	-10813
▁flaw	-10814
▁herd	-10815
▁nost	-10816
▁rehe	-10817
▁scra	-10818
▁toll	-10819
alling	-10820
iented	-10821
▁deeds	-10822
▁faded	-10823
▁fails	-10824
▁groom	-10825
▁hears	-10826
▁intol	-10827
▁posts	-10828
▁bacter	-10829
▁brakes	-10830
▁delete	-10831
▁dinars	-10832
▁paraly	-10833
▁shield	-10834
▁adapted	-10835
▁capture	-10836
▁endless	-10837
▁harmony	-10838
▁hostile	-10839
▁mammals	-10840
▁snowman	-10841
▁Italians	-10842
▁attempts	-10843
▁deported	-10844
▁parallel	-10845
▁prospect	-10846
▁realised	-10847
▁unreason	-10848
▁celebrity	-10849
▁musicians	-10850
▁depressing	-10851
▁worthwhile	-10852
▁controlling	-10853
▁emotionally	-10854
▁acquaintance	-10855
yn	-10856
avy	-10857
ggy	-10858
van	-10859
▁Bur	-10860
▁Det	-10861
▁bid	-10862
▁Clim	-10863
▁Fort	-10864
▁Holy	-10865
▁bure	-10866
▁clog	-10867
aneous	-10868
▁Leban	-10869
▁alley	-10870
▁cycle	-10871
▁disin	-10872
▁folks	-10873
▁globe	-10874
▁goose	-10875
▁kills	-10876
▁woken	-10877
▁System	-10878
▁aboard	-10879
▁asylum	-10880
▁breeze	-10881
▁bubble	-10882
▁digest	-10883
▁shiver	-10884
▁devices	-10885
▁kicking	-10886
▁lightly	-10887
▁gardener	-10888
▁outgoing	-10889
▁peculiar	-10890
▁Ukrainian	-10891
▁amusement	-10892
▁bilingual	-10893
▁colleague	-10894
▁wandering	-10895
▁confession	-10896
▁exhibition	-10897
▁instructor	-10898
▁unfriendly	-10899
▁wheelchair	-10900
▁advertising	-10901
▁challenging	-10902
▁overwhelming	-10903
ih	-10904
ati	-10905
lif	-10906
pro	-10907
:00.	-10908
anie	-10909
cled	-10910
stop	-10911
▁Abd	-10912
▁Del	-10913
▁Six	-10914
iency	-10915
▁Mass	-10916
▁amid	-10917
▁mate	-10918
▁unst	-10919
ouched	-10920
ounced	-10921
ternal	-10922
▁Susan	-10923
▁beers	-10924
▁boats	-10925
▁shamp	-10926
▁stung	-10927
inished	-10928
▁Eating	-10929
▁cruise	-10930
▁firmly	-10931
▁indisp	-10932
▁occurs	-10933
▁perpet	-10934
▁reserv	-10935
▁slices	-10936
▁typing	-10937
▁chimney	-10938
▁consent	-10939
▁desires	-10940
▁eastern	-10941
▁elegant	-10942
▁explode	-10943
▁slaught	-10944
▁teenage	-10945
▁unclear	-10946
▁western	-10947
▁breeding	-10948
▁dictator	-10949
▁inclined	-10950
▁addiction	-10951
▁associate	-10952
▁economics	-10953
▁resembles	-10954
▁Government	-10955
▁biological	-10956
▁kilometres	-10957
▁possession	-10958
▁resolution	-10959
▁stepfather	-10960
▁supporting	-10961
▁beautifully	-10962
▁butterflies	-10963
▁scholarship	-10964
▁exaggerating	-10965
▁surroundings	-10966
▁underestimate	-10967
lk	-10968
aan	-10969
rea	-10970
▁IS	-10971
eyed	-10972
hill	-10973
iche	-10974
inde	-10975
lets	-10976
rome	-10977
rove	-10978
uffy	-10979
▁Aut	-10980
▁Pan	-10981
▁mac	-10982
▁twe	-10983
ommon	-10984
ouche	-10985
▁Conf	-10986
▁Taro	-10987
▁bury	-10988
etchup	-10989
▁Betty	-10990
▁Crime	-10991
▁hitch	-10992
▁muddy	-10993
▁patch	-10994
▁races	-10995
▁salon	-10996
▁vivid	-10997
▁Greeks	-10998
▁abrupt	-10999
▁allies	-11000
▁dances	-11001
▁floors	-11002
▁judged	-11003
▁listed	-11004
▁reader	-11005
▁worlds	-11006
▁Celsius	-11007
▁Neptune	-11008
▁factors	-11009
▁outcome	-11010
▁satisfy	-11011
▁seventh	-11012
▁snapped	-11013
fashioned	-11014
▁Sherlock	-11015
▁Thailand	-11016
▁acquired	-11017
▁choosing	-11018
▁crawling	-11019
▁dramatic	-11020
▁gasoline	-11021
▁heritage	-11022
▁memorize	-11023
▁pointing	-11024
▁scarcely	-11025
▁shocking	-11026
▁speeding	-11027
▁sprained	-11028
▁stumbled	-11029
▁Hollywood	-11030
▁paperwork	-11031
▁particles	-11032
▁recession	-11033
▁regarding	-11034
▁altogether	-11035
▁convention	-11036
▁courageous	-11037
▁acknowledge	-11038
▁girlfriends	-11039
dad	-11040
Look	-11041
kins	-11042
ucer	-11043
▁Cur	-11044
▁Han	-11045
▁Ori	-11046
▁Rev	-11047
▁apr	-11048
▁pha	-11049
▁rod	-11050
▁rud	-11051
▁vow	-11052
inton	-11053
uster	-11054
▁Kids	-11055
▁Near	-11056
▁aged	-11057
▁knot	-11058
▁mock	-11059
▁odds	-11060
▁snap	-11061
▁tram	-11062
agging	-11063
stream	-11064
▁Harry	-11065
▁click	-11066
▁restr	-11067
▁scent	-11068
▁tromb	-11069
▁wiser	-11070
vention	-11071
▁corrid	-11072
▁heater	-11073
▁liquor	-11074
▁sewing	-11075
▁shorts	-11076
▁Freedom	-11077
▁Strange	-11078
▁invaded	-11079
▁session	-11080
▁balloons	-11081
▁embraced	-11082
▁explored	-11083
▁historic	-11084
▁imported	-11085
▁invasion	-11086
▁disagreed	-11087
▁enjoyable	-11088
▁evolution	-11089
▁illegally	-11090
▁overslept	-11091
▁possessed	-11092
▁stability	-11093
▁Eventually	-11094
▁protecting	-11095
▁incompetent	-11096
▁Congratulations	-11097
run	-11098
uke	-11099
▁Dj	-11100
▁Ga	-11101
Does	-11102
airy	-11103
iate	-11104
ules	-11105
▁Meg	-11106
▁bay	-11107
▁dum	-11108
▁ego	-11109
Would	-11110
acist	-11111
archy	-11112
erman	-11113
ubble	-11114
▁1980	-11115
▁Mont	-11116
▁stem	-11117
minute	-11118
thirty	-11119
▁2022,	-11120
▁defic	-11121
▁dwarf	-11122
▁glove	-11123
▁marsh	-11124
▁weeds	-11125
▁actors	-11126
▁execut	-11127
▁factor	-11128
▁gladly	-11129
▁overly	-11130
▁preced	-11131
▁sample	-11132
▁voting	-11133
▁Islands	-11134
▁examine	-11135
▁fulfill	-11136
▁handbag	-11137
▁insults	-11138
▁ketchup	-11139
▁magical	-11140
▁resumed	-11141
▁shampoo	-11142
▁warrant	-11143
ibilities	-11144
▁profound	-11145
▁regained	-11146
▁upcoming	-11147
▁withdraw	-11148
▁commanded	-11149
▁notebooks	-11150
▁scratches	-11151
▁interviewed	-11152
▁transgender	-11153
ko	-11154
ader	-11155
burg	-11156
odel	-11157
odes	-11158
rich	-11159
▁Age	-11160
▁Kim	-11161
▁cub	-11162
▁fer	-11163
isive	-11164
orage	-11165
▁Know	-11166
▁dove	-11167
▁echo	-11168
▁godd	-11169
▁grip	-11170
▁peas	-11171
▁Clean	-11172
▁Satan	-11173
▁Tower	-11174
▁antis	-11175
▁camps	-11176
▁crown	-11177
▁liver	-11178
▁circus	-11179
▁immort	-11180
▁popped	-11181
▁rowing	-11182
▁compens	-11183
▁fighter	-11184
▁gaining	-11185
▁neglect	-11186
▁testing	-11187
▁trainer	-11188
▁deprived	-11189
▁directed	-11190
▁eyesight	-11191
▁measured	-11192
▁selected	-11193
ifications	-11194
▁disguised	-11195
▁imaginary	-11196
▁playground	-11197
▁priorities	-11198
▁contributed	-11199
▁encouraging	-11200
▁photographs	-11201
▁championship	-11202
▁satisfactory	-11203
▁surprisingly	-11204
▁entertainment	-11205
lar	-11206
▁Ox	-11207
aned	-11208
ario	-11209
aska	-11210
ford	-11211
▁Ins	-11212
▁Kaz	-11213
▁Pot	-11214
▁Tik	-11215
▁hay	-11216
Sorry	-11217
eting	-11218
ormal	-11219
rator	-11220
▁baff	-11221
▁blet	-11222
▁boom	-11223
▁hits	-11224
▁lett	-11225
▁loaf	-11226
▁wrap	-11227
ensity	-11228
mented	-11229
▁Elect	-11230
▁Liber	-11231
▁Tears	-11232
▁bites	-11233
▁grasp	-11234
▁hangs	-11235
▁teddy	-11236
▁vowed	-11237
akistan	-11238
▁Unlike	-11239
▁extend	-11240
▁nicely	-11241
▁parcel	-11242
▁pedest	-11243
▁scheme	-11244
▁warmth	-11245
▁Foreign	-11246
▁bouquet	-11247
▁deceive	-11248
▁deposit	-11249
▁feature	-11250
▁pineapp	-11251
▁portion	-11252
▁doorbell	-11253
▁download	-11254
▁hardship	-11255
▁interven	-11256
▁mistress	-11257
▁restored	-11258
▁slippers	-11259
▁moonlight	-11260
▁realistic	-11261
▁survivors	-11262
▁underwear	-11263
▁electronic	-11264
▁proportion	-11265
▁sweetheart	-11266
▁frightening	-11267
▁governments	-11268
',	-11269
St	-11270
mm	-11271
ão	-11272
bot	-11273
eav	-11274
org	-11275
▁Ka	-11276
arts	-11277
enda	-11278
inea	-11279
▁Ill	-11280
▁iPh	-11281
▁lyr	-11282
▁rip	-11283
apore	-11284
lfare	-11285
ouver	-11286
thren	-11287
▁Boys	-11288
▁Lake	-11289
▁Must	-11290
▁Phys	-11291
▁Wake	-11292
▁slid	-11293
arians	-11294
▁Niger	-11295
▁baker	-11296
▁choir	-11297
▁cocon	-11298
▁curry	-11299
▁feast	-11300
▁haird	-11301
▁lambs	-11302
▁navig	-11303
▁snore	-11304
theless	-11305
▁Prince	-11306
▁Surely	-11307
▁Taking	-11308
▁catast	-11309
▁cereal	-11310
▁immune	-11311
atisfied	-11312
▁cocaine	-11313
▁manipul	-11314
▁mixture	-11315
▁nightcl	-11316
▁reverse	-11317
▁shadows	-11318
▁blocking	-11319
▁corridor	-11320
▁equality	-11321
▁equipped	-11322
▁firewood	-11323
▁province	-11324
▁resulted	-11325
▁splinter	-11326
▁trombone	-11327
▁dinosaurs	-11328
▁geography	-11329
▁terrorism	-11330
▁candidates	-11331
▁equivalent	-11332
▁influenced	-11333
▁forgiveness	-11334
▁dictatorship	-11335
▁congratulated	-11336
ori	-11337
phs	-11338
una	-11339
was	-11340
hend	-11341
oric	-11342
uana	-11343
▁Bou	-11344
▁Lad	-11345
▁dat	-11346
▁gle	-11347
gling	-11348
icket	-11349
imony	-11350
otics	-11351
pread	-11352
▁Gulf	-11353
▁Vanc	-11354
▁alle	-11355
▁sack	-11356
▁sued	-11357
▁unav	-11358
haired	-11359
ipedia	-11360
▁Relig	-11361
▁broom	-11362
▁clubs	-11363
▁comed	-11364
▁erect	-11365
▁vines	-11366
▁votes	-11367
fortune	-11368
ophobic	-11369
▁beasts	-11370
▁camels	-11371
▁closes	-11372
▁cracks	-11373
▁edible	-11374
▁errand	-11375
▁hanged	-11376
▁microw	-11377
▁mugged	-11378
▁Judging	-11379
▁charism	-11380
▁defined	-11381
▁diverse	-11382
▁handful	-11383
▁janitor	-11384
▁kittens	-11385
▁massage	-11386
▁prevail	-11387
▁profits	-11388
▁prophet	-11389
▁quarant	-11390
▁ruining	-11391
▁Business	-11392
▁Southern	-11393
▁barbecue	-11394
▁brethren	-11395
▁overtime	-11396
▁purposes	-11397
▁restless	-11398
▁spinning	-11399
▁sticking	-11400
▁uncommon	-11401
▁Egyptians	-11402
▁Vancouver	-11403
▁emissions	-11404
▁partially	-11405
▁populated	-11406
▁witnessed	-11407
▁Parliament	-11408
▁commitment	-11409
▁industries	-11410
▁maintained	-11411
▁respectful	-11412
▁constructed	-11413
Ah	-11414
tt	-11415
Tok	-11416
rob	-11417
sis	-11418
▁Ur	-11419
arus	-11420
azed	-11421
bled	-11422
esar	-11423
issa	-11424
nels	-11425
orus	-11426
real	-11427
▁Tel	-11428
▁asc	-11429
▁ket	-11430
▁vet	-11431
oning	-11432
plant	-11433
▁Fish	-11434
▁Forg	-11435
▁buck	-11436
▁cant	-11437
▁clum	-11438
▁cuis	-11439
▁kite	-11440
▁nood	-11441
▁vary	-11442
▁wept	-11443
ioxide	-11444
redict	-11445
▁1,000	-11446
▁Hiros	-11447
▁arose	-11448
▁beats	-11449
▁chuck	-11450
▁gotta	-11451
▁merry	-11452
▁skier	-11453
▁wides	-11454
▁widow	-11455
osition	-11456
▁combat	-11457
▁maiden	-11458
▁medium	-11459
▁rebell	-11460
▁robots	-11461
▁savage	-11462
▁tissue	-11463
▁Doctors	-11464
▁Eastern	-11465
▁descent	-11466
▁dispute	-11467
▁doubted	-11468
▁flipped	-11469
▁leaning	-11470
▁lettuce	-11471
▁psychic	-11472
▁racists	-11473
▁suburbs	-11474
▁Snapchat	-11475
▁blankets	-11476
▁breathed	-11477
▁deterior	-11478
▁protests	-11479
▁realizes	-11480
▁retiring	-11481
▁survival	-11482
▁Europeans	-11483
▁Interling	-11484
▁Wikipedia	-11485
▁comprehen	-11486
▁leftovers	-11487
▁chocolates	-11488
▁motivation	-11489
▁popularity	-11490
▁strengthen	-11491
▁conclusions	-11492
▁meaningless	-11493
▁unreasonable	-11494
▁neighbourhood	-11495
500	-11496
ipp	-11497
agan	-11498
aron	-11499
irth	-11500
neys	-11501
ubby	-11502
wind	-11503
▁Ter	-11504
▁dys	-11505
▁hem	-11506
▁Beth	-11507
▁True	-11508
▁Wasn	-11509
▁jugg	-11510
▁muff	-11511
▁numb	-11512
▁rept	-11513
▁spit	-11514
▁syll	-11515
▁wipe	-11516
advant	-11517
ardens	-11518
entric	-11519
▁Milky	-11520
▁aloud	-11521
▁ashes	-11522
▁bombs	-11523
▁boost	-11524
▁categ	-11525
▁draft	-11526
▁intro	-11527
▁metro	-11528
▁penis	-11529
▁theme	-11530
▁tract	-11531
▁wakes	-11532
▁witty	-11533
hematic	-11534
ustroph	-11535
▁Astron	-11536
▁Doctor	-11537
▁barrel	-11538
▁brutal	-11539
▁magnet	-11540
▁resent	-11541
▁Certain	-11542
▁General	-11543
▁Marilla	-11544
▁amateur	-11545
▁antique	-11546
▁briefly	-11547
▁classic	-11548
▁millenn	-11549
▁nursing	-11550
▁pleaded	-11551
▁roughly	-11552
▁screams	-11553
▁sinking	-11554
▁welfare	-11555
▁writers	-11556
▁Pakistan	-11557
▁seatbelt	-11558
▁watering	-11559
▁Education	-11560
▁Francisco	-11561
▁Singapore	-11562
▁advertise	-11563
▁encounter	-11564
▁hurricane	-11565
▁reference	-11566
▁stupidity	-11567
▁witnesses	-11568
▁automobile	-11569
▁claustroph	-11570
▁programming	-11571
▁agricultural	-11572
▁demonstrated	-11573
▁negotiations	-11574
▁psychiatrist	-11575
BC	-11576
Ex	-11577
acht	-11578
bour	-11579
▁fet	-11580
Thank	-11581
eline	-11582
human	-11583
isure	-11584
ordan	-11585
▁Belg	-11586
▁Down	-11587
▁Foot	-11588
▁Ford	-11589
▁Poor	-11590
▁guid	-11591
arling	-11592
forest	-11593
rowing	-11594
▁Allah	-11595
▁Apple	-11596
▁advis	-11597
▁breed	-11598
▁bully	-11599
▁escal	-11600
▁hilar	-11601
▁penet	-11602
▁saint	-11603
rupting	-11604
▁Museum	-11605
▁barbar	-11606
▁donate	-11607
▁freeze	-11608
▁iPhone	-11609
▁meadow	-11610
▁resume	-11611
language	-11612
▁Indians	-11613
▁dioxide	-11614
▁lesbian	-11615
▁remorse	-11616
▁showers	-11617
▁whiskey	-11618
▁wonders	-11619
▁Fascists	-11620
▁bullying	-11621
▁carriage	-11622
▁stations	-11623
▁blackmail	-11624
▁disadvant	-11625
▁engineers	-11626
▁gratitude	-11627
▁investors	-11628
▁orchestra	-11629
▁policemen	-11630
▁positions	-11631
▁workplace	-11632
▁challenged	-11633
▁conversion	-11634
▁sacrificed	-11635
▁widespread	-11636
▁immigration	-11637
▁journalists	-11638
▁institutions	-11639
▁automatically	-11640
ao	-11641
bra	-11642
uko	-11643
▁28	-11644
▁CE	-11645
▁Py	-11646
Good	-11647
face	-11648
hour	-11649
inci	-11650
llah	-11651
rust	-11652
▁Bra	-11653
▁Bul	-11654
▁bew	-11655
▁hip	-11656
▁kit	-11657
▁voy	-11658
ested	-11659
throp	-11660
tical	-11661
urous	-11662
▁Ever	-11663
▁Want	-11664
▁Yeah	-11665
▁bapt	-11666
▁bust	-11667
▁café	-11668
levant	-11669
urches	-11670
▁Louis	-11671
▁Sarah	-11672
▁Shawi	-11673
▁herds	-11674
▁moist	-11675
▁niece	-11676
▁skull	-11677
▁ballet	-11678
▁blouse	-11679
▁carved	-11680
▁endeav	-11681
▁lyrics	-11682
▁nurses	-11683
▁sailor	-11684
▁sprang	-11685
▁boarded	-11686
▁crucial	-11687
▁leisure	-11688
▁realise	-11689
▁samples	-11690
▁shelves	-11691
▁trading	-11692
▁Wherever	-11693
▁abducted	-11694
▁athletes	-11695
▁audition	-11696
▁flooding	-11697
▁interact	-11698
▁lockdown	-11699
▁screwdri	-11700
▁suspects	-11701
▁necessity	-11702
▁primarily	-11703
▁radiation	-11704
▁repairing	-11705
▁illiterate	-11706
▁celebration	-11707
▁consequence	-11708
▁manufacture	-11709
▁universities	-11710
▁controversial	-11711
aus	-11712
lon	-11713
qsa	-11714
two	-11715
aith	-11716
ethe	-11717
icts	-11718
orns	-11719
shit	-11720
worm	-11721
▁Bes	-11722
▁Ele	-11723
▁Him	-11724
▁Lar	-11725
▁Tre	-11726
▁goo	-11727
▁wax	-11728
ocate	-11729
ocide	-11730
otted	-11731
state	-11732
stone	-11733
▁Fred	-11734
▁Save	-11735
▁aven	-11736
▁bish	-11737
▁rasp	-11738
▁slap	-11739
▁snob	-11740
▁tube	-11741
esters	-11742
hettal	-11743
spoken	-11744
▁Arabs	-11745
▁Armen	-11746
▁brows	-11747
▁cease	-11748
▁flirt	-11749
▁pengu	-11750
▁stalk	-11751
▁tribe	-11752
husband	-11753
unction	-11754
▁Jordan	-11755
▁Virgin	-11756
▁cursed	-11757
▁dealer	-11758
▁filter	-11759
▁metres	-11760
▁mortal	-11761
▁parole	-11762
▁persec	-11763
American	-11764
▁Khettal	-11765
▁blaming	-11766
▁conquer	-11767
▁discont	-11768
▁embrace	-11769
▁justify	-11770
▁melting	-11771
▁secular	-11772
antically	-11773
▁Mandarin	-11774
▁Shanghai	-11775
▁biscuits	-11776
▁controls	-11777
▁defended	-11778
▁explains	-11779
▁guidance	-11780
▁harmless	-11781
▁homeland	-11782
▁jealousy	-11783
▁landlord	-11784
▁merchant	-11785
▁monument	-11786
▁planting	-11787
▁accepting	-11788
▁assaulted	-11789
▁compelled	-11790
▁crocodile	-11791
▁defensive	-11792
▁investing	-11793
▁orphanage	-11794
▁reporters	-11795
▁definition	-11796
▁headlights	-11797
▁irrelevant	-11798
▁programmer	-11799
▁represents	-11800
▁grammatical	-11801
▁linguistics	-11802
▁acknowledged	-11803
▁carelessness	-11804
hog	-11805
jan	-11806
yes	-11807
Aqsa	-11808
arre	-11809
aucr	-11810
clip	-11811
iors	-11812
▁Imp	-11813
▁Ret	-11814
▁Win	-11815
▁owl	-11816
▁rib	-11817
arted	-11818
ceans	-11819
maker	-11820
quate	-11821
▁Mine	-11822
▁Tele	-11823
▁affl	-11824
▁obsc	-11825
Please	-11826
anyahu	-11827
inging	-11828
shaped	-11829
▁1962.	-11830
▁accum	-11831
▁chalk	-11832
▁desks	-11833
▁legit	-11834
imately	-11835
parable	-11836
▁Alaska	-11837
▁Disney	-11838
▁TikTok	-11839
▁agenda	-11840
▁choked	-11841
▁empire	-11842
▁parade	-11843
▁shrink	-11844
▁sipped	-11845
▁spouse	-11846
▁unhurt	-11847
▁wilder	-11848
▁Tuaregs	-11849
▁bedtime	-11850
▁caution	-11851
▁edition	-11852
▁grouchy	-11853
▁mailbox	-11854
▁mistook	-11855
▁pigeons	-11856
▁tattoos	-11857
▁virtual	-11858
▁certific	-11859
▁hypothes	-11860
▁inviting	-11861
▁relevant	-11862
▁smartest	-11863
▁Professor	-11864
▁defending	-11865
▁paralyzed	-11866
▁proofread	-11867
▁surprises	-11868
▁dictionaries	-11869
Me	-11870
Sa	-11871
ho	-11872
can	-11873
had	-11874
anji	-11875
enna	-11876
just	-11877
list	-11878
pers	-11879
rary	-11880
vial	-11881
zone	-11882
▁400	-11883
▁Sub	-11884
▁cuc	-11885
▁laz	-11886
Every	-11887
anked	-11888
check	-11889
dream	-11890
quila	-11891
▁2000	-11892
▁Lisa	-11893
▁damp	-11894
▁dude	-11895
▁ster	-11896
▁tomb	-11897
atured	-11898
inkled	-11899
ortion	-11900
reated	-11901
roduct	-11902
umbers	-11903
▁Dream	-11904
▁Going	-11905
▁barks	-11906
▁buddy	-11907
▁drown	-11908
▁eclip	-11909
▁furry	-11910
▁grape	-11911
▁sanct	-11912
▁sniff	-11913
▁trium	-11914
▁Coffee	-11915
▁Finish	-11916
▁comics	-11917
▁hiring	-11918
▁micros	-11919
▁peeled	-11920
▁sailed	-11921
▁sights	-11922
▁uncont	-11923
▁wander	-11924
▁descend	-11925
▁gardens	-11926
▁lacking	-11927
▁madness	-11928
▁majored	-11929
▁monthly	-11930
▁protein	-11931
▁rehears	-11932
▁seafood	-11933
▁Compared	-11934
▁brushing	-11935
▁combined	-11936
▁diamonds	-11937
▁handling	-11938
▁ideology	-11939
▁novelist	-11940
▁situated	-11941
▁steadily	-11942
▁substant	-11943
▁uniforms	-11944
▁Indonesia	-11945
▁Saturdays	-11946
▁cathedral	-11947
▁energetic	-11948
▁factories	-11949
▁gardening	-11950
▁hilarious	-11951
▁microwave	-11952
▁opponents	-11953
▁sociopath	-11954
▁blackboard	-11955
▁performing	-11956
▁persistent	-11957
▁statements	-11958
▁stepmother	-11959
▁structures	-11960
▁frustrating	-11961
IS	-11962
alo	-11963
hea	-11964
vil	-11965
▁Ko	-11966
Come	-11967
Just	-11968
seud	-11969
than	-11970
▁191	-11971
▁192	-11972
angar	-11973
atson	-11974
attle	-11975
ridge	-11976
▁Figs	-11977
▁Okay	-11978
▁Plan	-11979
▁hack	-11980
▁hind	-11981
▁pose	-11982
▁tran	-11983
▁Helen	-11984
▁Super	-11985
▁coord	-11986
▁epide	-11987
▁gains	-11988
▁lined	-11989
▁stair	-11990
▁stray	-11991
▁trend	-11992
assador	-11993
eration	-11994
quality	-11995
▁Comput	-11996
▁Hitler	-11997
▁Marcus	-11998
▁Watson	-11999
▁clumsy	-12000
▁hotter	-12001
▁hypocr	-12002
▁kettle	-12003
▁licked	-12004
▁mouths	-12005
▁salmon	-12006
▁scares	-12007
▁select	-12008
▁serial	-12009
▁shaped	-12010
▁soaked	-12011
▁tapped	-12012
▁throne	-12013
▁unreal	-12014
▁Imagine	-12015
▁Playing	-12016
▁catches	-12017
▁coastal	-12018
▁cuisine	-12019
▁drunken	-12020
▁earnest	-12021
▁easiest	-12022
▁hugging	-12023
▁insight	-12024
▁restore	-12025
▁storage	-12026
▁thinner	-12027
abilities	-12028
▁Consider	-12029
▁Princess	-12030
▁blossoms	-12031
▁contempl	-12032
▁eternity	-12033
▁feminine	-12034
▁invested	-12035
▁panicked	-12036
▁strictly	-12037
▁striking	-12038
▁attacking	-12039
▁corporate	-12040
▁followers	-12041
▁prettiest	-12042
▁trembling	-12043
▁anticipate	-12044
▁concerning	-12045
▁consistent	-12046
▁supervisor	-12047
▁Interlingua	-12048
▁centimeters	-12049
▁educational	-12050
Go	-12051
cé	-12052
aps	-12053
gal	-12054
gue	-12055
omi	-12056
rey	-12057
▁fu	-12058
etes	-12059
oths	-12060
roid	-12061
▁clo	-12062
ccoli	-12063
haran	-12064
igned	-12065
ongol	-12066
table	-12067
▁100%	-12068
▁Eliz	-12069
▁Home	-12070
▁Lady	-12071
▁Troy	-12072
▁Wars	-12073
▁rash	-12074
▁worm	-12075
▁Abdel	-12076
▁Break	-12077
▁Chuck	-12078
▁Cross	-12079
▁Saint	-12080
▁babys	-12081
▁bulbs	-12082
▁crank	-12083
▁scars	-12084
▁syrup	-12085
ignific	-12086
▁10,000	-12087
▁Dinner	-12088
▁Making	-12089
▁lowest	-12090
▁models	-12091
▁refund	-12092
▁thesis	-12093
▁timing	-12094
▁volunt	-12095
ountered	-12096
stitutes	-12097
▁Persian	-12098
▁aspects	-12099
▁emptied	-12100
▁maximum	-12101
▁temples	-12102
▁brightly	-12103
▁pharmacy	-12104
▁pressing	-12105
▁shepherd	-12106
▁wardrobe	-12107
▁websites	-12108
▁Netanyahu	-12109
▁excessive	-12110
▁hairstyle	-12111
▁instincts	-12112
▁obstinate	-12113
▁unpredict	-12114
▁additional	-12115
▁hesitation	-12116
▁homosexual	-12117
▁operations	-12118
▁toothbrush	-12119
▁tremendous	-12120
▁consumption	-12121
▁encountered	-12122
▁appointments	-12123
▁prescription	-12124
▁restrictions	-12125
po	-12126
six	-12127
vid	-12128
▁23	-12129
▁Ge	-12130
asso	-12131
educ	-12132
mond	-12133
ripp	-12134
▁Adm	-12135
▁Hez	-12136
▁Sex	-12137
▁asp	-12138
ammer	-12139
ieval	-12140
ipper	-12141
kered	-12142
ounce	-12143
urned	-12144
▁Dark	-12145
▁adds	-12146
▁bail	-12147
▁calf	-12148
▁deed	-12149
▁fauc	-12150
▁funn	-12151
▁intr	-12152
▁plum	-12153
▁rape	-12154
itness	-12155
resses	-12156
teenth	-12157
▁Bless	-12158
▁Chris	-12159
▁Henry	-12160
▁Nobel	-12161
▁eloqu	-12162
▁fatig	-12163
▁incom	-12164
▁ruler	-12165
▁strip	-12166
▁tales	-12167
idelity	-12168
related	-12169
▁Venice	-12170
▁adject	-12171
▁beggar	-12172
▁chubby	-12173
▁define	-12174
▁expans	-12175
▁framed	-12176
▁frying	-12177
▁losses	-12178
▁sealed	-12179
▁sketch	-12180
▁Tickets	-12181
▁banking	-12182
▁bridges	-12183
▁enterpr	-12184
▁exhaust	-12185
▁offense	-12186
▁reacted	-12187
▁sailors	-12188
▁tension	-12189
▁trailer	-12190
formation	-12191
▁armchair	-12192
▁cupboard	-12193
▁disposal	-12194
▁obtained	-12195
▁patterns	-12196
▁quantity	-12197
▁stalking	-12198
▁stunning	-12199
▁Translate	-12200
▁assertive	-12201
▁pointless	-12202
▁Republican	-12203
▁persuasive	-12204
▁prostitute	-12205
▁separately	-12206
▁vaccinated	-12207
▁devastating	-12208
▁experiments	-12209
▁financially	-12210
▁investments	-12211
▁screwdriver	-12212
▁territories	-12213
▁transformed	-12214
▁northeastern	-12215
Say	-12216
oya	-12217
uku	-12218
▁4.	-12219
Ziri	-12220
apor	-12221
▁Bal	-12222
▁Jun	-12223
▁Yan	-12224
▁biz	-12225
▁fem	-12226
▁nit	-12227
▁Answ	-12228
▁Jeff	-12229
▁Slow	-12230
▁cans	-12231
▁raft	-12232
▁sequ	-12233
rition	-12234
▁Games	-12235
▁Night	-12236
▁ambig	-12237
▁boobs	-12238
▁entry	-12239
▁fetch	-12240
▁motel	-12241
ishment	-12242
▁Caesar	-12243
▁accuse	-12244
▁banged	-12245
▁famine	-12246
▁golfer	-12247
▁invade	-12248
▁submit	-12249
▁Ancient	-12250
▁Belgium	-12251
▁Walking	-12252
▁authors	-12253
▁bullets	-12254
▁cheered	-12255
▁circles	-12256
▁crystal	-12257
▁goddess	-12258
▁heavens	-12259
▁honored	-12260
▁intoler	-12261
▁learner	-12262
▁peeling	-12263
▁prudent	-12264
▁refrain	-12265
▁simpler	-12266
▁talents	-12267
▁centiped	-12268
▁churches	-12269
▁goodness	-12270
▁imperial	-12271
▁indicate	-12272
▁lemonade	-12273
▁anonymous	-12274
▁attentive	-12275
▁headaches	-12276
▁reflected	-12277
▁secretive	-12278
▁whistling	-12279
▁continuing	-12280
▁employment	-12281
▁exercising	-12282
▁traditions	-12283
▁represented	-12284
▁claustrophobic	-12285
agu	-12286
aze	-12287
pow	-12288
uls	-12289
yan	-12290
▁26	-12291
▁Es	-12292
arse	-12293
grad	-12294
obal	-12295
orig	-12296
oven	-12297
path	-12298
quis	-12299
unks	-12300
▁Fif	-12301
▁Nic	-12302
▁Rab	-12303
Hello	-12304
Whose	-12305
arent	-12306
eware	-12307
ulars	-12308
▁Coun	-12309
▁Tour	-12310
▁bolt	-12311
▁carn	-12312
▁cycl	-12313
▁euro	-12314
▁navy	-12315
▁ware	-12316
accept	-12317
acular	-12318
icycle	-12319
worker	-12320
▁Using	-12321
▁comet	-12322
▁demol	-12323
▁dinar	-12324
▁drill	-12325
▁fract	-12326
▁gates	-12327
▁horns	-12328
▁rugby	-12329
▁scorp	-12330
▁stool	-12331
▁sworn	-12332
▁telly	-12333
▁torch	-12334
▁unpre	-12335
avement	-12336
▁Galile	-12337
▁Laurie	-12338
▁Madrid	-12339
▁Mongol	-12340
▁Unless	-12341
▁archae	-12342
▁medlar	-12343
▁swears	-12344
▁update	-12345
▁weaken	-12346
▁Everest	-12347
▁Explain	-12348
▁Grandma	-12349
▁baskets	-12350
▁bizarre	-12351
▁clicked	-12352
▁couples	-12353
▁drinker	-12354
▁failing	-12355
▁frantic	-12356
▁healing	-12357
▁Football	-12358
▁inferior	-12359
▁quarters	-12360
▁snatched	-12361
▁suggests	-12362
▁tolerant	-12363
ignificant	-12364
▁arrogance	-12365
▁qualities	-12366
▁comparison	-12367
▁instructed	-12368
▁misfortune	-12369
▁prosperity	-12370
▁wilderness	-12371
▁frustration	-12372
OA	-12373
hor	-12374
icc	-12375
▁27	-12376
▁Mi	-12377
arer	-12378
cour	-12379
greg	-12380
onel	-12381
onge	-12382
▁Bol	-12383
▁Tal	-12384
ensed	-12385
iancé	-12386
omous	-12387
uises	-12388
▁2013	-12389
▁Cast	-12390
▁Live	-12391
▁Wild	-12392
▁clut	-12393
▁eyel	-12394
▁graz	-12395
▁kilo	-12396
▁rays	-12397
▁rend	-12398
▁soot	-12399
▁verd	-12400
porary	-12401
riages	-12402
urable	-12403
▁2:30?	-12404
▁Antar	-12405
▁Blood	-12406
▁indul	-12407
▁lakes	-12408
▁stern	-12409
▁surve	-12410
▁teens	-12411
ication	-12412
ichever	-12413
▁Center	-12414
▁Newton	-12415
▁attach	-12416
▁column	-12417
▁fatter	-12418
▁halluc	-12419
▁humour	-12420
▁kidney	-12421
▁linked	-12422
▁nostal	-12423
▁oceans	-12424
▁slowed	-12425
▁stocks	-12426
▁storms	-12427
▁tranqu	-12428
▁Forgive	-12429
▁baffled	-12430
▁bearing	-12431
▁cartoon	-12432
▁fooling	-12433
▁manages	-12434
▁martial	-12435
▁repairs	-12436
▁sleeves	-12437
▁apparent	-12438
▁broccoli	-12439
▁bullshit	-12440
▁composer	-12441
▁dropping	-12442
▁freshman	-12443
▁immature	-12444
▁literary	-12445
▁monsters	-12446
▁noticing	-12447
▁organize	-12448
▁withdrew	-12449
▁indispens	-12450
▁occasions	-12451
▁physician	-12452
▁seventeen	-12453
▁supporters	-12454
▁abandonment	-12455
▁observation	-12456
▁unbelievable	-12457
Sh	-12458
bu	-12459
ava	-12460
log	-12461
dine	-12462
ffic	-12463
ruit	-12464
zirt	-12465
▁Lie	-12466
▁dup	-12467
▁fid	-12468
▁loo	-12469
▁mow	-12470
▁oct	-12471
▁rit	-12472
erate	-12473
ggles	-12474
oused	-12475
▁Blue	-12476
▁Shin	-12477
▁chau	-12478
▁dive	-12479
▁hipp	-12480
▁loqu	-12481
▁rook	-12482
▁vari	-12483
▁Apart	-12484
▁alleg	-12485
▁angle	-12486
▁curly	-12487
▁leash	-12488
▁manus	-12489
▁pseud	-12490
▁spont	-12491
▁consol	-12492
▁editor	-12493
▁emails	-12494
▁equals	-12495
▁fiancé	-12496
▁infant	-12497
▁oppose	-12498
▁pigeon	-12499
▁refers	-12500
▁snacks	-12501
▁souven	-12502
▁toothp	-12503
▁visual	-12504
▁warmed	-12505
▁Besides	-12506
▁Tigzirt	-12507
▁Usually	-12508
▁Zionism	-12509
▁anyways	-12510
▁banging	-12511
▁bastard	-12512
▁breasts	-12513
▁coconut	-12514
▁farming	-12515
▁forcing	-12516
▁frowned	-12517
▁imitate	-12518
▁kidnapp	-12519
▁leopard	-12520
▁natives	-12521
▁shotgun	-12522
▁strings	-12523
▁tequila	-12524
ufficient	-12525
▁asteroid	-12526
▁detained	-12527
▁facility	-12528
▁rewarded	-12529
▁exploring	-12530
▁marvelous	-12531
▁nightclub	-12532
▁sunscreen	-12533
▁accountant	-12534
▁commission	-12535
▁downloaded	-12536
▁mathematic	-12537
▁Researchers	-12538
▁compliments	-12539
▁inexpensive	-12540
▁intersection	-12541
▁conversations	-12542
arr	-12543
hou	-12544
rem	-12545
vet	-12546
sect	-12547
umin	-12548
▁150	-12549
▁Ign	-12550
▁Mas	-12551
▁Ped	-12552
▁Pen	-12553
▁Tiz	-12554
▁cyn	-12555
▁mol	-12556
▁raz	-12557
outhe	-12558
print	-12559
▁Ages	-12560
▁Walk	-12561
▁bron	-12562
▁flip	-12563
▁grie	-12564
▁riot	-12565
washer	-12566
▁cello	-12567
▁cured	-12568
▁ferry	-12569
▁gases	-12570
▁incap	-12571
▁manif	-12572
▁rhyth	-12573
▁shoel	-12574
amiliar	-12575
ativity	-12576
fecture	-12577
tenance	-12578
▁Indeed	-12579
▁Napole	-12580
▁Person	-12581
▁ambide	-12582
▁blames	-12583
▁blinds	-12584
▁cowork	-12585
▁donuts	-12586
▁endure	-12587
▁gloomy	-12588
▁league	-12589
▁raises	-12590
▁yogurt	-12591
quarters	-12592
▁Belarus	-12593
▁Lebanon	-12594
▁disgust	-12595
▁funding	-12596
▁jackets	-12597
▁mineral	-12598
▁rebuild	-12599
▁trivial	-12600
▁Romanian	-12601
▁adjusted	-12602
▁bureaucr	-12603
▁consumed	-12604
▁daydream	-12605
▁dialects	-12606
▁dripping	-12607
▁nauseous	-12608
▁portrait	-12609
▁shortest	-12610
▁attendant	-12611
▁housework	-12612
▁marketing	-12613
▁mysteries	-12614
▁providing	-12615
▁recognise	-12616
▁remarried	-12617
▁sincerely	-12618
▁conviction	-12619
▁dishwasher	-12620
▁separation	-12621
▁terrifying	-12622
▁accusations	-12623
▁adventurous	-12624
▁astronomers	-12625
▁neighboring	-12626
▁recognition	-12627
▁fingerprints	-12628
▁unexpectedly	-12629
▁indispensable	-12630
▁unpredictable	-12631
cr	-12632
esy	-12633
lad	-12634
usk	-12635
bles	-12636
hins	-12637
▁CEO	-12638
▁Cre	-12639
▁Div	-12640
▁Eth	-12641
▁Nep	-12642
▁Pho	-12643
▁Ref	-12644
▁Ver	-12645
occup	-12646
▁Kill	-12647
▁Pull	-12648
▁hamm	-12649
▁lane	-12650
▁pest	-12651
▁plug	-12652
▁slut	-12653
allows	-12654
igible	-12655
xtrous	-12656
▁Above	-12657
▁Raven	-12658
▁index	-12659
▁perse	-12660
▁rusty	-12661
▁scold	-12662
▁slack	-12663
▁spill	-12664
▁undec	-12665
Nothing	-12666
igrated	-12667
rolling	-12668
▁Anyway	-12669
▁Hilton	-12670
▁Hubble	-12671
▁Mozart	-12672
▁Tobias	-12673
▁absorb	-12674
▁calmly	-12675
▁corpse	-12676
▁lively	-12677
▁marble	-12678
▁mascul	-12679
▁mighty	-12680
▁parted	-12681
▁racial	-12682
▁relied	-12683
▁scenes	-12684
▁starve	-12685
▁tailor	-12686
▁acquire	-12687
▁awarded	-12688
▁chamber	-12689
▁convict	-12690
▁derived	-12691
▁fingern	-12692
▁hostage	-12693
▁lasting	-12694
▁pension	-12695
▁peppers	-12696
▁warrior	-12697
▁Swimming	-12698
▁commands	-12699
▁dolphins	-12700
▁existing	-12701
▁fabulous	-12702
▁genocide	-12703
▁messaged	-12704
▁motioned	-12705
▁objected	-12706
▁stereoty	-12707
▁unaccept	-12708
▁classmate	-12709
▁eliminate	-12710
▁reasoning	-12711
▁roommates	-12712
▁vacations	-12713
▁Westerners	-12714
▁calculator	-12715
▁containing	-12716
▁leadership	-12717
▁speechless	-12718
▁statistics	-12719
▁thoughtful	-12720
▁earthquakes	-12721
▁expressions	-12722
▁ambidextrous	-12723
▁unacceptable	-12724
uv	-12725
▁5.	-12726
▁Ce	-12727
▁Wa	-12728
▁si	-12729
alan	-12730
ardo	-12731
oyal	-12732
▁10.	-12733
▁20,	-12734
▁Nar	-12735
▁Tak	-12736
▁lav	-12737
agged	-12738
althy	-12739
blind	-12740
iless	-12741
iques	-12742
reens	-12743
style	-12744
▁Beat	-12745
▁Cuba	-12746
▁Drag	-12747
▁Juan	-12748
▁Lith	-12749
▁bind	-12750
▁grim	-12751
▁merm	-12752
▁surn	-12753
▁tren	-12754
Thanks	-12755
bollah	-12756
hentic	-12757
▁Build	-12758
▁Stock	-12759
▁cripp	-12760
▁gazed	-12761
▁parag	-12762
▁urine	-12763
▁Noured	-12764
▁Senate	-12765
▁Within	-12766
▁dipped	-12767
▁heroes	-12768
▁hopped	-12769
▁implic	-12770
▁kangar	-12771
▁litter	-12772
▁matern	-12773
▁overre	-12774
▁roller	-12775
▁zombie	-12776
▁Experts	-12777
▁deepest	-12778
▁designs	-12779
▁earning	-12780
▁enforce	-12781
▁flashed	-12782
▁triumph	-12783
astically	-12784
▁administ	-12785
▁ancestry	-12786
▁bacteria	-12787
▁decorate	-12788
▁destined	-12789
▁disabled	-12790
▁hydrogen	-12791
▁organism	-12792
▁polluted	-12793
▁Hezbollah	-12794
▁cardboard	-12795
▁consulted	-12796
▁referring	-12797
▁strangled	-12798
▁strategic	-12799
▁Noureddine	-12800
▁discharged	-12801
▁prescribed	-12802
▁protesters	-12803
▁reconsider	-12804
▁songwriter	-12805
▁anticipated	-12806
▁maintenance	-12807
▁temporarily	-12808
▁transparent	-12809
▁disappointing	-12810
▁granddaughter	-12811
▁inconvenience	-12812
▁insignificant	-12813
▁psychological	-12814
Now	-12815
eat	-12816
oes	-12817
oro	-12818
▁Il	-12819
▁du	-12820
▁ko	-12821
▁ta	-12822
ucks	-12823
ussy	-12824
▁Dar	-12825
▁Sic	-12826
▁Toy	-12827
▁ecc	-12828
▁slo	-12829
▁vir	-12830
abeth	-12831
irect	-12832
swood	-12833
▁Disc	-12834
▁Jean	-12835
▁Lots	-12836
▁Need	-12837
▁Uran	-12838
▁clay	-12839
▁cogn	-12840
▁hail	-12841
▁heir	-12842
▁lick	-12843
▁nerd	-12844
ection	-12845
lihood	-12846
ocaust	-12847
▁Nazis	-12848
▁amput	-12849
▁freed	-12850
▁hyper	-12851
▁ranch	-12852
▁skies	-12853
quarium	-12854
ressive	-12855
▁Malays	-12856
▁Miller	-12857
▁Really	-12858
▁darker	-12859
▁faucet	-12860
▁nicest	-12861
▁voyage	-12862
ographic	-12863
▁Talking	-12864
▁aspirin	-12865
▁chatted	-12866
▁flowing	-12867
▁humming	-12868
▁leaking	-12869
▁proverb	-12870
▁pumpkin	-12871
▁sausage	-12872
▁turtles	-12873
▁visitor	-12874
▁colorful	-12875
▁feedback	-12876
▁showered	-12877
▁workshop	-12878
▁Argentina	-12879
▁descended	-12880
▁graduates	-12881
▁poisoning	-12882
▁testimony	-12883
▁willingly	-12884
▁admiration	-12885
▁considerate	-12886
▁prostitutes	-12887
▁resourceful	-12888
▁Constitution	-12889
▁entertaining	-12890
▁hospitalized	-12891
▁interrupting	-12892
▁representative	-12893
aks	-12894
sun	-12895
vak	-12896
▁45	-12897
▁Gi	-12898
▁Ze	-12899
▁Kar	-12900
▁Web	-12901
aders	-12902
ollar	-12903
ooped	-12904
racts	-12905
umble	-12906
▁Milk	-12907
▁Yumi	-12908
▁bait	-12909
▁bump	-12910
▁gown	-12911
▁medi	-12912
▁mini	-12913
▁mold	-12914
▁outs	-12915
▁peed	-12916
▁peep	-12917
▁radi	-12918
▁toug	-12919
ankind	-12920
antern	-12921
herent	-12922
icting	-12923
igence	-12924
resist	-12925
▁Apoll	-12926
▁Paulo	-12927
▁altar	-12928
▁dairy	-12929
▁enhan	-12930
▁lorry	-12931
▁lunar	-12932
▁mango	-12933
▁misle	-12934
▁peach	-12935
▁Answer	-12936
▁Beware	-12937
▁Nagoya	-12938
▁Secret	-12939
▁antibi	-12940
▁bishop	-12941
▁calmed	-12942
▁finest	-12943
▁imagin	-12944
▁jewels	-12945
▁messen	-12946
▁pastor	-12947
▁smoker	-12948
▁tribes	-12949
▁winked	-12950
▁Alcohol	-12951
▁Animals	-12952
▁Frankly	-12953
▁Melanie	-12954
▁Society	-12955
▁corners	-12956
▁dangers	-12957
▁darling	-12958
▁envious	-12959
▁gesture	-12960
▁goggles	-12961
▁longing	-12962
▁motives	-12963
▁plunged	-12964
▁squares	-12965
▁veterin	-12966
▁Millions	-12967
▁appealed	-12968
▁assembly	-12969
▁detected	-12970
▁fascists	-12971
▁feathers	-12972
▁homemade	-12973
▁knitting	-12974
▁magician	-12975
▁motorway	-12976
▁relation	-12977
▁reserves	-12978
▁Mountains	-12979
▁allowance	-12980
▁beginners	-12981
▁calculate	-12982
▁displayed	-12983
▁impartial	-12984
▁overreact	-12985
▁powerless	-12986
▁procedure	-12987
▁prominent	-12988
▁socialist	-12989
▁Ravenswood	-12990
▁bankruptcy	-12991
▁extinction	-12992
▁uncontroll	-12993
▁certificate	-12994
▁sustainable	-12995
▁organizations	-12996
▁discrimination	-12997
-2	-12998
Ar	-12999
Ch	-13000
gon	-13001
▁8.	-13002
▁Bi	-13003
bike	-13004
bird	-13005
emen	-13006
enez	-13007
▁Pic	-13008
ocrit	-13009
rates	-13010
▁Cant	-13011
▁Hans	-13012
▁glac	-13013
▁gymn	-13014
▁nosy	-13015
▁unle	-13016
gorith	-13017
length	-13018
opolit	-13019
skirts	-13020
unning	-13021
urrect	-13022
▁Chile	-13023
▁Skype	-13024
▁Titan	-13025
▁aging	-13026
▁curve	-13027
▁dynam	-13028
▁farms	-13029
▁float	-13030
▁multi	-13031
▁slide	-13032
▁unint	-13033
▁yacht	-13034
defense	-13035
habited	-13036
isation	-13037
▁Beauty	-13038
▁Canaan	-13039
▁Public	-13040
▁backup	-13041
▁chilly	-13042
▁engage	-13043
▁fantas	-13044
▁mining	-13045
▁pirate	-13046
▁sacked	-13047
▁shapes	-13048
▁stoned	-13049
▁trucks	-13050
▁unlock	-13051
▁Climate	-13052
▁Someday	-13053
▁alleged	-13054
▁buttons	-13055
▁hopeful	-13056
▁murders	-13057
▁passive	-13058
▁pitched	-13059
▁shaving	-13060
cientious	-13061
▁Scottish	-13062
▁cocktail	-13063
▁contempt	-13064
▁diplomat	-13065
▁disgrace	-13066
▁dislikes	-13067
▁employer	-13068
▁evenings	-13069
▁freaking	-13070
▁gigantic	-13071
▁linguist	-13072
▁raincoat	-13073
▁unstable	-13074
▁uploaded	-13075
girlfriend	-13076
▁copyright	-13077
▁typically	-13078
▁Revolution	-13079
▁ambassador	-13080
▁distancing	-13081
▁initiative	-13082
▁mechanical	-13083
▁percentage	-13084
▁unfamiliar	-13085
▁preparation	-13086
▁psychiatric	-13087
▁spectacular	-13088
▁conditioning	-13089
▁contributing	-13090
▁dissatisfied	-13091
▁economically	-13092
▁intimidating	-13093
▁mathematical	-13094
▁disappearance	-13095
▁characteristic	-13096
▁underestimated	-13097
rd	-13098
For	-13099
afe	-13100
chi	-13101
hol	-13102
pan	-13103
sey	-13104
ygh	-13105
▁35	-13106
▁Ms	-13107
Here	-13108
ench	-13109
inos	-13110
ocus	-13111
ousy	-13112
toed	-13113
▁Lux	-13114
▁Mur	-13115
▁Oil	-13116
▁cel	-13117
▁dot	-13118
▁kar	-13119
▁wip	-13120
achel	-13121
aires	-13122
anity	-13123
onder	-13124
urred	-13125
▁1960	-13126
▁911.	-13127
▁Grab	-13128
▁Kurd	-13129
▁Uygh	-13130
▁hicc	-13131
▁maps	-13132
▁mode	-13133
▁phon	-13134
▁plag	-13135
▁rans	-13136
▁ribs	-13137
▁whir	-13138
▁wret	-13139
arming	-13140
emitic	-13141
▁2019.	-13142
▁3,000	-13143
▁Allow	-13144
▁Julia	-13145
▁Liisa	-13146
▁Power	-13147
▁belts	-13148
▁bucks	-13149
▁cigar	-13150
▁draws	-13151
▁exped	-13152
▁fists	-13153
▁flown	-13154
▁indec	-13155
▁pears	-13156
▁pushy	-13157
▁repay	-13158
▁slope	-13159
▁unite	-13160
▁worms	-13161
Saharan	-13162
isphere	-13163
ophobia	-13164
▁Desert	-13165
▁Invest	-13166
▁Martin	-13167
▁Square	-13168
▁barked	-13169
▁dashed	-13170
▁firing	-13171
▁hollow	-13172
▁impose	-13173
▁indign	-13174
▁notify	-13175
▁obeyed	-13176
▁polish	-13177
▁relies	-13178
▁shines	-13179
▁simult	-13180
▁stated	-13181
▁warmly	-13182
▁Hundred	-13183
▁berries	-13184
▁cabbage	-13185
▁console	-13186
▁consume	-13187
▁declare	-13188
▁drifted	-13189
▁eclipse	-13190
▁finance	-13191
▁noodles	-13192
▁psyched	-13193
▁pudding	-13194
▁quieter	-13195
▁seaside	-13196
▁sharply	-13197
▁stirred	-13198
▁strikes	-13199
▁whereas	-13200
boyfriend	-13201
▁Napoleon	-13202
▁algorith	-13203
▁collabor	-13204
▁deciding	-13205
▁pronouns	-13206
▁ultimate	-13207
▁breakdown	-13208
▁communism	-13209
▁condemned	-13210
▁depending	-13211
▁executive	-13212
▁memorized	-13213
▁obligated	-13214
▁virtually	-13215
▁warehouse	-13216
▁calculated	-13217
▁discipline	-13218
▁expressing	-13219
▁prosperous	-13220
▁techniques	-13221
▁underwater	-13222
▁achievement	-13223
▁citizenship	-13224
▁electrician	-13225
▁populations	-13226
▁contemporary	-13227
▁technologies	-13228
IA	-13229
got	-13230
vol	-13231
zel	-13232
▁36	-13233
▁AI	-13234
atar	-13235
dled	-13236
hama	-13237
ione	-13238
opot	-13239
vous	-13240
▁Abr	-13241
▁Bre	-13242
▁Pin	-13243
▁ain	-13244
▁vag	-13245
acent	-13246
illes	-13247
leton	-13248
lives	-13249
riers	-13250
▁Fill	-13251
▁Link	-13252
▁Mean	-13253
▁Nazi	-13254
▁Sara	-13255
▁knit	-13256
▁marg	-13257
▁weld	-13258
▁Diana	-13259
▁Small	-13260
▁Yamad	-13261
▁bells	-13262
▁boxer	-13263
▁crust	-13264
▁ducks	-13265
▁paras	-13266
▁pause	-13267
▁petty	-13268
▁seeks	-13269
▁spine	-13270
▁tease	-13271
▁troph	-13272
▁usage	-13273
incible	-13274
▁Apollo	-13275
▁Econom	-13276
▁Pardon	-13277
▁Tuareg	-13278
▁annoys	-13279
▁assess	-13280
▁awaken	-13281
▁clocks	-13282
▁elders	-13283
▁flocks	-13284
▁plural	-13285
▁profic	-13286
▁risked	-13287
▁sticky	-13288
▁subtit	-13289
▁suburb	-13290
▁topics	-13291
▁utmost	-13292
▁weaker	-13293
▁whisky	-13294
▁Martian	-13295
▁bruises	-13296
▁doorway	-13297
▁doubled	-13298
▁mosques	-13299
▁outdoor	-13300
▁partial	-13301
▁remodel	-13302
▁surpass	-13303
▁whipped	-13304
▁Security	-13305
▁finishes	-13306
▁hardware	-13307
▁hostages	-13308
▁lighting	-13309
▁miracles	-13310
▁overhead	-13311
▁sneakers	-13312
▁stomacha	-13313
▁authentic	-13314
▁expansion	-13315
▁fortnight	-13316
▁goodnight	-13317
▁isolation	-13318
▁paragraph	-13319
▁pineapple	-13320
▁undecided	-13321
▁wrestling	-13322
▁beneficial	-13323
▁facilities	-13324
▁graduating	-13325
▁invincible	-13326
▁legitimate	-13327
▁membership	-13328
▁pharmacist	-13329
▁ultimately	-13330
▁institution	-13331
▁interpreted	-13332
▁masterpiece	-13333
▁arrangements	-13334
▁introduction	-13335
▁determination	-13336
▁exceptionally	-13337
!!	-13338
gi	-13339
mn	-13340
dam	-13341
ege	-13342
hma	-13343
lix	-13344
nie	-13345
she	-13346
dles	-13347
door	-13348
oner	-13349
part	-13350
pill	-13351
▁Ari	-13352
▁Gar	-13353
▁Sin	-13354
▁blo	-13355
▁orb	-13356
▁rig	-13357
▁sor	-13358
▁wiz	-13359
atile	-13360
bling	-13361
cribe	-13362
▁Drop	-13363
▁Elon	-13364
▁Spir	-13365
▁Upon	-13366
▁auto	-13367
▁disk	-13368
▁dogh	-13369
▁impe	-13370
▁murm	-13371
▁narc	-13372
▁succ	-13373
▁toot	-13374
abouts	-13375
azight	-13376
gently	-13377
nected	-13378
shirts	-13379
ulates	-13380
▁Aaron	-13381
▁Brian	-13382
▁Venez	-13383
▁brake	-13384
▁bribe	-13385
▁colds	-13386
▁flags	-13387
▁grind	-13388
▁thigh	-13389
▁weary	-13390
reprene	-13391
▁Athens	-13392
▁Except	-13393
▁Mutton	-13394
▁Uranus	-13395
▁dental	-13396
▁doomed	-13397
▁foster	-13398
▁gamble	-13399
▁harbor	-13400
▁hyster	-13401
▁ironed	-13402
▁laying	-13403
▁motive	-13404
▁perple	-13405
▁pickup	-13406
▁recite	-13407
▁stoats	-13408
▁strive	-13409
▁vacant	-13410
▁viewed	-13411
▁wisely	-13412
▁Airport	-13413
▁Anybody	-13414
▁cashier	-13415
▁dancers	-13416
▁dismiss	-13417
▁feather	-13418
▁genetic	-13419
▁overall	-13420
▁pirates	-13421
▁updated	-13422
▁venture	-13423
qualified	-13424
▁Marriage	-13425
▁Mathemat	-13426
▁Religion	-13427
▁Yokohama	-13428
▁accusing	-13429
▁applause	-13430
▁brighter	-13431
▁checkers	-13432
▁cherries	-13433
▁consumer	-13434
▁division	-13435
▁dreadful	-13436
▁electron	-13437
▁findings	-13438
▁interior	-13439
▁intimate	-13440
▁operated	-13441
▁pavement	-13442
▁splashed	-13443
▁Elizabeth	-13444
▁contented	-13445
▁motorbike	-13446
▁obstacles	-13447
▁outskirts	-13448
▁sharpened	-13449
grandfather	-13450
▁responding	-13451
▁settlement	-13452
▁possessions	-13453
▁congratulate	-13454
▁explanations	-13455
▁reservations	-13456
▁conscientious	-13457
ae	-13458
App	-13459
IDS	-13460
bel	-13461
ige	-13462
rip	-13463
whe	-13464
▁oy	-13465
anim	-13466
bris	-13467
gies	-13468
oria	-13469
seek	-13470
unct	-13471
▁Bat	-13472
▁Pap	-13473
▁Yet	-13474
▁huh	-13475
▁lin	-13476
▁mas	-13477
▁tan	-13478
amous	-13479
ilize	-13480
level	-13481
metic	-13482
oding	-13483
▁Dick	-13484
▁Mach	-13485
▁Mali	-13486
▁Nara	-13487
▁Test	-13488
▁ache	-13489
▁bats	-13490
▁chir	-13491
▁goof	-13492
▁impl	-13493
▁loos	-13494
▁mant	-13495
▁mend	-13496
▁prun	-13497
▁vend	-13498
opular	-13499
overty	-13500
reness	-13501
▁Eight	-13502
▁Focus	-13503
▁bikes	-13504
▁blush	-13505
▁comma	-13506
▁daddy	-13507
▁datab	-13508
▁midst	-13509
▁onion	-13510
▁roast	-13511
▁sheer	-13512
▁tutor	-13513
▁typew	-13514
▁Crimea	-13515
▁Kazakh	-13516
▁Yamada	-13517
▁angels	-13518
▁bathed	-13519
▁cutest	-13520
▁domain	-13521
▁expose	-13522
▁gluten	-13523
▁hunted	-13524
▁injust	-13525
▁melody	-13526
▁pardon	-13527
▁plague	-13528
▁screws	-13529
▁shoved	-13530
▁supern	-13531
▁teleph	-13532
▁unkind	-13533
cedented	-13534
▁Friends	-13535
▁Georgia	-13536
▁Success	-13537
▁auditor	-13538
▁cynical	-13539
▁denying	-13540
▁loyalty	-13541
▁monitor	-13542
▁pursued	-13543
▁robbers	-13544
▁squeeze	-13545
▁tornado	-13546
▁vending	-13547
▁verdict	-13548
struction	-13549
▁Honestly	-13550
▁Jacksons	-13551
▁Venezuel	-13552
▁allowing	-13553
▁aquarium	-13554
▁brutally	-13555
▁doghouse	-13556
▁external	-13557
▁hypocrit	-13558
▁instance	-13559
▁majoring	-13560
▁minerals	-13561
▁reptiles	-13562
▁blessings	-13563
▁chemicals	-13564
▁postcards	-13565
▁preserved	-13566
▁shivering	-13567
▁spaceship	-13568
▁testified	-13569
▁Muttonhead	-13570
▁beforehand	-13571
▁obligation	-13572
▁hospitality	-13573
▁potentially	-13574
▁colonization	-13575
▁manipulative	-13576
▁veterinarian	-13577
Be	-13578
TM	-13579
fu	-13580
fly	-13581
nia	-13582
▁$2	-13583
appy	-13584
good	-13585
imon	-13586
occh	-13587
opia	-13588
osom	-13589
reek	-13590
tion	-13591
uity	-13592
with	-13593
▁Sah	-13594
▁VOA	-13595
▁alt	-13596
▁dun	-13597
▁obl	-13598
▁pap	-13599
▁unn	-13600
blood	-13601
inery	-13602
izers	-13603
rians	-13604
teous	-13605
▁Bask	-13606
▁Damn	-13607
▁Kash	-13608
▁Loun	-13609
▁Musk	-13610
▁bubb	-13611
▁cush	-13612
▁fees	-13613
▁glow	-13614
▁glue	-13615
▁idol	-13616
▁oboe	-13617
▁pint	-13618
▁stut	-13619
▁waff	-13620
atible	-13621
ervice	-13622
esteem	-13623
icable	-13624
ptions	-13625
taking	-13626
▁2:30,	-13627
▁Again	-13628
▁Court	-13629
▁Later	-13630
▁Teach	-13631
▁cater	-13632
▁dozed	-13633
▁kings	-13634
▁moust	-13635
▁saves	-13636
▁stall	-13637
▁tenth	-13638
inarily	-13639
issance	-13640
▁Colomb	-13641
▁Intell	-13642
▁Rachel	-13643
▁conjug	-13644
▁exotic	-13645
▁marshm	-13646
▁physic	-13647
▁remedy	-13648
▁rhythm	-13649
▁skates	-13650
▁stored	-13651
▁weekly	-13652
aneously	-13653
▁Assange	-13654
▁Lithuan	-13655
▁Poverty	-13656
▁Somehow	-13657
▁Windows	-13658
▁browser	-13659
▁canteen	-13660
▁drained	-13661
▁expired	-13662
▁grinned	-13663
▁hamster	-13664
▁lantern	-13665
▁ongoing	-13666
▁patriot	-13667
▁refugee	-13668
▁seasick	-13669
▁vinegar	-13670
▁Moroccan	-13671
▁attracts	-13672
▁departed	-13673
▁diabetes	-13674
▁disguise	-13675
▁epidemic	-13676
▁geopolit	-13677
▁managing	-13678
▁provoked	-13679
▁concluded	-13680
▁eccentric	-13681
▁economies	-13682
▁hairdress	-13683
▁hesitated	-13684
▁incapable	-13685
▁mandatory	-13686
▁notorious	-13687
▁submitted	-13688
▁tolerance	-13689
▁unusually	-13690
▁violently	-13691
▁Democratic	-13692
▁entreprene	-13693
▁professors	-13694
▁association	-13695
▁connections	-13696
▁passionately	-13697
▁embarrassment	-13698
ca	-13699
eng	-13700
idy	-13701
iqu	-13702
sle	-13703
alia	-13704
aver	-13705
beat	-13706
fare	-13707
mons	-13708
onto	-13709
post	-13710
▁Gas	-13711
▁Luc	-13712
▁Ron	-13713
▁Sas	-13714
▁Swe	-13715
▁ade	-13716
▁emo	-13717
▁jer	-13718
▁lur	-13719
acies	-13720
cules	-13721
plete	-13722
ropol	-13723
rying	-13724
uming	-13725
▁Deep	-13726
▁Mess	-13727
▁eyeb	-13728
▁harp	-13729
▁reef	-13730
▁synt	-13731
▁tray	-13732
▁tyre	-13733
ijuana	-13734
inates	-13735
washed	-13736
▁Study	-13737
▁Times	-13738
▁arise	-13739
▁audio	-13740
▁blade	-13741
▁fragr	-13742
▁hydro	-13743
▁links	-13744
▁milit	-13745
▁razor	-13746
▁recre	-13747
▁rolls	-13748
▁sabot	-13749
▁sizes	-13750
loading	-13751
▁Indust	-13752
▁Sahraw	-13753
▁Spirit	-13754
▁Thirty	-13755
▁bewild	-13756
▁biting	-13757
▁bounds	-13758
▁braces	-13759
▁camped	-13760
▁chewed	-13761
▁comedy	-13762
▁compon	-13763
▁contam	-13764
▁disreg	-13765
▁guided	-13766
▁mashed	-13767
▁perish	-13768
▁reckon	-13769
▁ruling	-13770
▁scarce	-13771
▁scramb	-13772
▁sliced	-13773
educated	-13774
▁behaves	-13775
▁conflic	-13776
▁cricket	-13777
▁engines	-13778
▁jackals	-13779
▁mounted	-13780
▁mustard	-13781
▁nursery	-13782
▁paramed	-13783
▁readers	-13784
▁relieve	-13785
▁vessels	-13786
▁Hundreds	-13787
▁Teachers	-13788
▁assuming	-13789
▁backward	-13790
▁chilling	-13791
▁chopping	-13792
▁colonies	-13793
▁crouched	-13794
▁decrease	-13795
▁diabetic	-13796
▁dominant	-13797
▁harassed	-13798
▁medieval	-13799
▁missiles	-13800
▁shameful	-13801
▁supplied	-13802
▁telegram	-13803
▁Icelandic	-13804
▁amputated	-13805
▁bodyguard	-13806
▁civilians	-13807
▁masculine	-13808
▁negotiate	-13809
▁shoelaces	-13810
▁tightened	-13811
▁unhealthy	-13812
▁approaches	-13813
▁boundaries	-13814
▁cautiously	-13815
▁hypothesis	-13816
▁ingredient	-13817
▁overlooked	-13818
▁practising	-13819
▁suspicions	-13820
▁weaknesses	-13821
▁essentially	-13822
▁punctuation	-13823
▁specifically	-13824
ku	-13825
yd	-13826
zo	-13827
hyd	-13828
urb	-13829
usc	-13830
▁31	-13831
▁pm	-13832
alas	-13833
ingo	-13834
otto	-13835
pent	-13836
▁Arm	-13837
▁Lab	-13838
▁Pel	-13839
▁bik	-13840
▁ove	-13841
▁vel	-13842
front	-13843
rophe	-13844
▁AIDS	-13845
▁Alps	-13846
▁Angl	-13847
▁Kenn	-13848
▁News	-13849
▁Road	-13850
▁Roll	-13851
▁Stat	-13852
▁Whom	-13853
▁Yosh	-13854
▁ally	-13855
▁comr	-13856
▁dazz	-13857
▁heck	-13858
▁obli	-13859
▁rhet	-13860
▁ruth	-13861
▁secl	-13862
▁sham	-13863
ammeri	-13864
erties	-13865
itudes	-13866
minton	-13867
▁Carol	-13868
▁Civil	-13869
▁Class	-13870
▁Kling	-13871
▁Quick	-13872
▁Seven	-13873
▁Yemen	-13874
▁abide	-13875
▁flaws	-13876
▁lousy	-13877
▁probe	-13878
▁pyram	-13879
▁spons	-13880
▁trout	-13881
▁waits	-13882
▁whore	-13883
illance	-13884
ocating	-13885
renched	-13886
umented	-13887
▁Around	-13888
▁Oxford	-13889
▁anthem	-13890
▁avoids	-13891
▁debris	-13892
▁legion	-13893
▁maniac	-13894
▁olives	-13895
▁overfl	-13896
▁pastry	-13897
▁provin	-13898
▁suited	-13899
▁unsafe	-13900
ographed	-13901
▁Mammeri	-13902
▁Richard	-13903
▁anthrop	-13904
▁bandage	-13905
▁disrupt	-13906
▁emperor	-13907
▁enabled	-13908
▁enlight	-13909
▁essence	-13910
▁females	-13911
▁fitness	-13912
▁harbour	-13913
▁milking	-13914
▁periods	-13915
▁plugged	-13916
▁symbols	-13917
▁veteran	-13918
▁vicious	-13919
▁Anderson	-13920
▁Filipino	-13921
▁applying	-13922
▁collects	-13923
▁database	-13924
▁daylight	-13925
▁hangover	-13926
▁settlers	-13927
▁solitary	-13928
▁urgently	-13929
▁Meanwhile	-13930
▁abundance	-13931
▁activists	-13932
▁brightest	-13933
▁courteous	-13934
▁describes	-13935
▁furnished	-13936
▁initially	-13937
▁obsession	-13938
▁passports	-13939
▁predators	-13940
▁travelers	-13941
▁accessible	-13942
▁attempting	-13943
▁exhausting	-13944
▁infidelity	-13945
▁meditation	-13946
▁properties	-13947
▁accountable	-13948
▁apologizing	-13949
▁appreciates	-13950
▁babysitting	-13951
▁frantically	-13952
▁politically	-13953
▁replacement	-13954
▁stomachache	-13955
▁alternatives	-13956
▁unprecedented	-13957
GB	-13958
hr	-13959
uy	-13960
—"	-13961
Ber	-13962
ape	-13963
bab	-13964
igm	-13965
jar	-13966
ras	-13967
anon	-13968
aria	-13969
dney	-13970
gric	-13971
iary	-13972
isha	-13973
opes	-13974
that	-13975
▁Bab	-13976
▁Ext	-13977
▁mes	-13978
▁sty	-13979
▁wil	-13980
ilant	-13981
itory	-13982
sized	-13983
three	-13984
▁Baby	-13985
▁Math	-13986
▁Noah	-13987
▁Pier	-13988
▁Pray	-13989
▁avid	-13990
▁disl	-13991
▁moor	-13992
▁peek	-13993
▁punk	-13994
▁seal	-13995
Donald	-13996
enched	-13997
forced	-13998
▁6:30.	-13999
▁Click	-14000
▁Croat	-14001
▁Prize	-14002
▁Siber	-14003
▁coral	-14004
▁crawl	-14005
▁crept	-14006
▁diver	-14007
▁flush	-14008
▁freck	-14009
▁limbs	-14010
▁pearl	-14011
▁queer	-14012
▁ramen	-14013
▁repro	-14014
▁revel	-14015
▁swamp	-14016
uration	-14017
▁Global	-14018
▁Mayuko	-14019
▁Sydney	-14020
▁depths	-14021
▁envied	-14022
▁fluffy	-14023
▁glared	-14024
▁hitchh	-14025
▁improv	-14026
▁quarre	-14027
▁rebels	-14028
▁riches	-14029
▁scores	-14030
▁stroll	-14031
▁vulgar	-14032
▁Picasso	-14033
▁Traffic	-14034
▁barrier	-14035
▁battles	-14036
▁buzzing	-14037
▁catalog	-14038
▁clapped	-14039
▁endured	-14040
▁lending	-14041
▁reaches	-14042
▁rubbing	-14043
▁sobbing	-14044
▁superst	-14045
▁undergo	-14046
condition	-14047
▁Drinking	-14048
▁Virginia	-14049
▁muscular	-14050
▁pounding	-14051
▁pretends	-14052
▁stepping	-14053
▁suppress	-14054
▁triangle	-14055
▁vitamins	-14056
▁Alexander	-14057
▁admission	-14058
▁container	-14059
▁flattered	-14060
▁judgement	-14061
▁observant	-14062
▁processor	-14063
▁promoting	-14064
▁undressed	-14065
▁Englishman	-14066
▁motionless	-14067
▁sacrifices	-14068
▁telephoned	-14069
▁cockroaches	-14070
▁distributed	-14071
IV	-14072
▁!	-14073
abi	-14074
nip	-14075
urg	-14076
▁7.	-14077
▁GP	-14078
▁Vi	-14079
▁ok	-14080
asil	-14081
cern	-14082
heid	-14083
ocks	-14084
riff	-14085
rors	-14086
▁Rub	-14087
▁Suz	-14088
▁dip	-14089
▁hub	-14090
▁pac	-14091
▁rej	-14092
arity	-14093
backs	-14094
balls	-14095
dling	-14096
impse	-14097
inkle	-14098
mails	-14099
udder	-14100
▁1000	-14101
▁Aart	-14102
▁Corn	-14103
▁Magy	-14104
▁aims	-14105
▁bits	-14106
▁dash	-14107
▁feas	-14108
▁iPad	-14109
▁monk	-14110
▁orth	-14111
▁robe	-14112
▁tuna	-14113
boards	-14114
bridge	-14115
igious	-14116
isters	-14117
ometry	-14118
▁Creat	-14119
▁Langu	-14120
▁Mario	-14121
▁Stick	-14122
▁Wales	-14123
▁Whats	-14124
▁artic	-14125
▁binoc	-14126
▁blunt	-14127
▁brass	-14128
▁crude	-14129
▁flick	-14130
▁moody	-14131
▁nouns	-14132
▁phase	-14133
▁poets	-14134
▁prest	-14135
▁woozy	-14136
▁Enough	-14137
▁Ladies	-14138
▁burger	-14139
▁ceased	-14140
▁detest	-14141
▁dialed	-14142
▁fasten	-14143
▁judges	-14144
▁metaph	-14145
▁notion	-14146
▁obsess	-14147
▁poster	-14148
▁purely	-14149
▁shrine	-14150
▁skater	-14151
▁societ	-14152
▁tackle	-14153
▁triple	-14154
▁valued	-14155
▁verbal	-14156
▁voters	-14157
occupied	-14158
▁Blessed	-14159
▁Federal	-14160
▁Justice	-14161
▁Majesty	-14162
▁blinded	-14163
▁castles	-14164
▁deficit	-14165
▁exhibit	-14166
▁fasting	-14167
▁flushed	-14168
▁folding	-14169
▁glimpse	-14170
▁insists	-14171
▁mermaid	-14172
▁needing	-14173
▁posting	-14174
▁puppies	-14175
▁revenue	-14176
▁sleeper	-14177
confident	-14178
▁balanced	-14179
▁bookcase	-14180
▁constell	-14181
▁distress	-14182
▁earliest	-14183
▁failures	-14184
▁husbands	-14185
▁insanely	-14186
▁legionna	-14187
▁mastered	-14188
▁sneezing	-14189
▁swimsuit	-14190
▁Languages	-14191
▁civilized	-14192
▁cockroach	-14193
▁conquered	-14194
▁extensive	-14195
▁proceeded	-14196
▁rejection	-14197
▁selection	-14198
▁violinist	-14199
▁binoculars	-14200
▁kidnappers	-14201
▁kidnapping	-14202
▁refreshing	-14203
▁accommodate	-14204
▁antibiotics	-14205
▁compartment	-14206
▁mountainous	-14207
▁considerably	-14208
▁concentration	-14209
▁knowledgeable	-14210
▁understandable	-14211
HO	-14212
vi	-14213
bia	-14214
cca	-14215
eel	-14216
erb	-14217
hak	-14218
hun	-14219
net	-14220
obi	-14221
▁0.	-14222
▁Az	-14223
▁Di	-14224
▁Op	-14225
aziz	-14226
mann	-14227
▁arc	-14228
▁lik	-14229
amboo	-14230
grade	-14231
itars	-14232
sight	-14233
watch	-14234
▁Land	-14235
▁Viol	-14236
▁appe	-14237
▁brew	-14238
▁fuse	-14239
▁herb	-14240
▁hott	-14241
▁rect	-14242
▁unim	-14243
enders	-14244
ivated	-14245
master	-14246
native	-14247
▁Pract	-14248
▁agony	-14249
▁bathe	-14250
▁desir	-14251
▁inval	-14252
▁irreg	-14253
▁maker	-14254
▁monot	-14255
▁pipes	-14256
▁siren	-14257
▁unatt	-14258
▁weave	-14259
▁yards	-14260
▁adores	-14261
▁almond	-14262
▁conson	-14263
▁cranky	-14264
▁discon	-14265
▁mammal	-14266
▁massac	-14267
▁pizzas	-14268
▁respir	-14269
▁scales	-14270
▁swords	-14271
▁tipped	-14272
▁unrest	-14273
▁Protest	-14274
▁Toronto	-14275
▁Writing	-14276
▁guitars	-14277
▁initial	-14278
▁retreat	-14279
▁screens	-14280
▁sympath	-14281
▁tongues	-14282
▁tractor	-14283
ependable	-14284
▁abundant	-14285
▁bitterly	-14286
▁bookshop	-14287
▁calories	-14288
▁decisive	-14289
▁definite	-14290
▁grinning	-14291
▁immortal	-14292
▁licenses	-14293
▁receives	-14294
▁rudeness	-14295
▁shipping	-14296
▁traveler	-14297
▁Tamazight	-14298
▁decreased	-14299
▁harmonica	-14300
▁injustice	-14301
▁pleasures	-14302
▁privilege	-14303
▁renewable	-14304
▁apartments	-14305
▁auditorium	-14306
▁decorating	-14307
▁billionaire	-14308
▁demonstrate	-14309
▁exploration	-14310
▁hairdresser	-14311
▁inseparable	-14312
▁corporations	-14313
▁undependable	-14314
pm	-14315
ois	-14316
ova	-14317
▁Rh	-14318
angs	-14319
ibet	-14320
imer	-14321
neum	-14322
oren	-14323
race	-14324
ulus	-14325
▁186	-14326
▁190	-14327
▁Hom	-14328
▁Obs	-14329
▁Ott	-14330
▁Sue	-14331
▁USS	-14332
▁Wis	-14333
▁fib	-14334
▁pip	-14335
▁vic	-14336
amily	-14337
bourg	-14338
omers	-14339
seven	-14340
ucker	-14341
▁Army	-14342
▁Bell	-14343
▁Moul	-14344
▁Pret	-14345
▁Self	-14346
▁Vlad	-14347
▁Word	-14348
▁coff	-14349
▁cozy	-14350
▁deem	-14351
▁halt	-14352
▁hare	-14353
▁icon	-14354
▁lump	-14355
▁roar	-14356
▁solo	-14357
▁stap	-14358
▁unbe	-14359
▁uncl	-14360
araoke	-14361
astics	-14362
guards	-14363
income	-14364
licity	-14365
oubted	-14366
school	-14367
seless	-14368
▁2013,	-14369
▁Chrea	-14370
▁Enter	-14371
▁Phoen	-14372
▁Roger	-14373
▁amaze	-14374
▁auton	-14375
▁diarr	-14376
▁kanji	-14377
▁laser	-14378
▁melts	-14379
▁picks	-14380
▁pussy	-14381
▁tails	-14382
▁twist	-14383
▁unhar	-14384
verance	-14385
▁Regard	-14386
▁bruise	-14387
▁copper	-14388
▁healed	-14389
▁hypnot	-14390
▁jackal	-14391
▁prophe	-14392
▁reprod	-14393
▁shells	-14394
▁spying	-14395
▁thrust	-14396
boarding	-14397
centered	-14398
▁Looking	-14399
▁Silence	-14400
▁applies	-14401
▁banquet	-14402
▁charger	-14403
▁clogged	-14404
▁confisc	-14405
▁eagerly	-14406
▁footage	-14407
▁lifting	-14408
▁mischie	-14409
▁origins	-14410
▁precaut	-14411
▁provoke	-14412
▁pursuit	-14413
▁renewed	-14414
▁sneaked	-14415
▁channels	-14416
▁comedian	-14417
▁confined	-14418
▁deceased	-14419
▁despises	-14420
▁devoured	-14421
▁galaxies	-14422
▁paycheck	-14423
▁perceive	-14424
▁pursuing	-14425
ologically	-14426
▁applauded	-14427
▁badminton	-14428
▁contribut	-14429
▁detention	-14430
▁functions	-14431
▁immigrant	-14432
▁indicates	-14433
▁medicines	-14434
▁outspoken	-14435
▁passwords	-14436
▁prejudice	-14437
▁residence	-14438
▁resurrect	-14439
▁affordable	-14440
▁colorblind	-14441
▁loneliness	-14442
▁subscribed	-14443
▁typewriter	-14444
▁unfinished	-14445
▁disoriented	-14446
▁effectively	-14447
▁fingernails	-14448
▁inheritance	-14449
▁probability	-14450
▁spontaneous	-14451
▁superficial	-14452
▁thermometer	-14453
▁breathtaking	-14454
▁continuously	-14455
▁contribution	-14456
▁headquarters	-14457
▁investigated	-14458
▁surveillance	-14459
▁concentrating	-14460
As	-14461
amo	-14462
atr	-14463
pot	-14464
▁CP	-14465
▁Wi	-14466
bows	-14467
hero	-14468
hima	-14469
idal	-14470
jack	-14471
▁Lee	-14472
▁Sep	-14473
▁Ted	-14474
▁axe	-14475
▁irr	-14476
▁unm	-14477
anner	-14478
dened	-14479
eight	-14480
icken	-14481
lived	-14482
onian	-14483
ville	-14484
wives	-14485
▁Draw	-14486
▁Kiss	-14487
▁Lend	-14488
▁Sign	-14489
▁cass	-14490
▁epic	-14491
▁flea	-14492
▁flut	-14493
▁hens	-14494
▁loun	-14495
▁matt	-14496
▁odor	-14497
▁skys	-14498
▁subd	-14499
estion	-14500
ilized	-14501
ivable	-14502
resent	-14503
uccess	-14504
▁Kenya	-14505
▁blast	-14506
▁crane	-14507
▁elite	-14508
▁genre	-14509
▁hairs	-14510
▁impul	-14511
▁madly	-14512
▁moron	-14513
▁nucle	-14514
▁rebel	-14515
▁rocky	-14516
▁squat	-14517
▁worsh	-14518
isexual	-14519
istance	-14520
powered	-14521
▁Behold	-14522
▁Soccer	-14523
▁boasts	-14524
▁cement	-14525
▁constr	-14526
▁crunch	-14527
▁drowsy	-14528
▁forged	-14529
▁groggy	-14530
▁lizard	-14531
▁masses	-14532
▁organs	-14533
▁ranger	-14534
▁shifts	-14535
▁sneeze	-14536
▁solely	-14537
▁submar	-14538
▁tootha	-14539
▁Finding	-14540
▁Klingon	-14541
▁Mouloud	-14542
▁bletted	-14543
▁creator	-14544
▁diploma	-14545
▁dolphin	-14546
▁equator	-14547
▁errands	-14548
▁founder	-14549
▁glowing	-14550
▁googled	-14551
▁impacts	-14552
▁rewrite	-14553
▁roasted	-14554
▁scaring	-14555
▁shuttle	-14556
▁signals	-14557
▁stained	-14558
▁surname	-14559
▁vomited	-14560
▁Hawaiian	-14561
▁McDonald	-14562
▁abruptly	-14563
▁advances	-14564
▁agencies	-14565
▁category	-14566
▁escorted	-14567
▁marginal	-14568
▁meantime	-14569
▁mumbling	-14570
▁procrast	-14571
▁renowned	-14572
▁scorpion	-14573
▁trusting	-14574
▁vaccines	-14575
▁Venezuela	-14576
▁apologise	-14577
▁assembled	-14578
▁birthdays	-14579
▁incidents	-14580
▁observing	-14581
▁perceived	-14582
▁slaughter	-14583
▁Prefecture	-14584
▁creativity	-14585
▁satellites	-14586
▁Mathematics	-14587
▁charismatic	-14588
▁participants	-14589
▁requirements	-14590
▁satisfaction	-14591
▁demonstration	-14592
▁grammatically	-14593
!”	-14594
5%	-14595
”.	-14596
▁[	-14597
fia	-14598
mal	-14599
owl	-14600
arat	-14601
arms	-14602
ihil	-14603
nost	-14604
olds	-14605
ptic	-14606
▁CDs	-14607
▁Hon	-14608
▁Mis	-14609
▁Scr	-14610
▁nud	-14611
▁oat	-14612
copes	-14613
faced	-14614
flies	-14615
jamin	-14616
rella	-14617
thank	-14618
▁ISIS	-14619
▁Iron	-14620
▁Rena	-14621
▁Sato	-14622
▁Shar	-14623
▁afar	-14624
▁carc	-14625
▁cola	-14626
▁dock	-14627
▁iPod	-14628
▁puff	-14629
▁quot	-14630
▁rung	-14631
▁unsc	-14632
▁untr	-14633
▁whim	-14634
Berber	-14635
atican	-14636
bercul	-14637
cerned	-14638
▁Daddy	-14639
▁Force	-14640
▁Front	-14641
▁Labor	-14642
▁Luxem	-14643
▁brink	-14644
▁cyber	-14645
▁decay	-14646
▁dehyd	-14647
▁discl	-14648
▁effic	-14649
▁freel	-14650
▁miser	-14651
▁needy	-14652
▁sadly	-14653
▁thine	-14654
▁tramp	-14655
▁treas	-14656
▁venge	-14657
▁wagon	-14658
usively	-14659
▁Andrew	-14660
▁Markku	-14661
▁Slovak	-14662
▁Uyghur	-14663
▁adored	-14664
▁ashore	-14665
▁banker	-14666
▁corpus	-14667
▁county	-14668
▁deploy	-14669
▁floods	-14670
▁heroin	-14671
▁lumber	-14672
▁opener	-14673
▁orbits	-14674
▁recoll	-14675
▁sharks	-14676
▁sloppy	-14677
▁spoons	-14678
▁trauma	-14679
▁underm	-14680
oubtedly	-14681
▁Academy	-14682
▁Clearly	-14683
▁Vatican	-14684
▁alerted	-14685
▁bassoon	-14686
▁chauffe	-14687
▁cunning	-14688
▁dubious	-14689
▁empathy	-14690
▁freshly	-14691
▁habitat	-14692
▁howling	-14693
▁touches	-14694
▁villain	-14695
sociation	-14696
▁Benjamin	-14697
▁activist	-14698
▁cheapest	-14699
▁dialogue	-14700
▁focusing	-14701
▁listener	-14702
▁moderate	-14703
▁outraged	-14704
▁predomin	-14705
▁prosecut	-14706
▁recycled	-14707
▁reflects	-14708
▁refusing	-14709
▁ruthless	-14710
▁shortcut	-14711
▁unicycle	-14712
▁Otherwise	-14713
▁airplanes	-14714
▁ambiguous	-14715
▁centipede	-14716
▁fulfilled	-14717
▁hardships	-14718
▁involving	-14719
▁irregular	-14720
▁privately	-14721
▁producing	-14722
▁renovated	-14723
▁repainted	-14724
[...]
