<unk>	0
<s>	0
</s>	0
▁k	-0
se	-1
st	-2
le	-3
▁t	-4
▁m	-5
▁,	-6
▁.	-7
▁o	-8
in	-9
▁e	-10
▁p	-11
▁s	-12
▁v	-13
▁j	-14
id	-15
al	-16
▁a	-17
is	-18
ma	-19
▁n	-20
ga	-21
ik	-22
ta	-23
da	-24
▁se	-25
ks	-26
ud	-27
▁on	-28
el	-29
▁l	-30
▁ja	-31
as	-32
oo	-33
va	-34
▁ku	-35
gi	-36
▁te	-37
ul	-38
te	-39
an	-40
us	-41
▁h	-42
ra	-43
ise	-44
▁ka	-45
il	-46
it	-47
▁ei	-48
▁sa	-49
▁et	-50
ii	-51
es	-52
ja	-53
▁:	-54
na	-55
im	-56
▁ko	-57
ee	-58
ist	-59
ne	-60
gu	-61
▁va	-62
re	-63
▁K	-64
ut	-65
▁võ	-66
▁ole	-67
▁ü	-68
ge	-69
he	-70
▁ta	-71
iis	-72
ust	-73
▁ma	-74
▁M	-75
ine	-76
ad	-77
▁S	-78
est	-79
ida	-80
use	-81
▁kui	-82
la	-83
▁r	-84
si	-85
ka	-86
uu	-87
▁vä	-88
▁see	-89
ht	-90
▁siis	-91
vad	-92
▁sel	-93
un	-94
ri	-95
ha	-96
▁ol	-97
▁?	-98
at	-99
▁pe	-100
▁T	-101
▁min	-102
alt	-103
▁ju	-104
▁saa	-105
me	-106
ast	-107
▁po	-108
..	-109
de	-110
ki	-111
ju	-112
är	-113
ke	-114
▁E	-115
nud	-116
▁aga	-117
lt	-118
▁"	-119
▁tu	-120
or	-121
▁mõ	-122
▁kõ	-123
▁või	-124
um	-125
▁ar	-126
▁P	-127
er	-128
▁pa	-129
▁pea	-130
▁A	-131
▁...	-132
▁kas	-133
ime	-134
▁me	-135
▁na	-136
▁selle	-137
ol	-138
on	-139
▁mis	-140
ita	-141
▁!	-142
ää	-143
en	-144
▁tä	-145
▁õ	-146
▁nii	-147
üü	-148
▁in	-149
▁V	-150
▁su	-151
ku	-152
▁N	-153
▁nä	-154
▁la	-155
ba	-156
▁kü	-157
▁pole	-158
▁mu	-159
▁al	-160
▁tule	-161
▁oma	-162
▁seda	-163
▁J	-164
ära	-165
▁mida	-166
ar	-167
ult	-168
mise	-169
▁lä	-170
öö	-171
ir	-172
di	-173
▁ra	-174
ide	-175
▁-	-176
▁1	-177
▁ha	-178
▁oli	-179
iga	-180
▁kor	-181
uta	-182
▁)	-183
▁le	-184
▁ve	-185
iks	-186
ts	-187
▁en	-188
▁(	-189
▁li	-190
▁kä	-191
ni	-192
▁Ku	-193
sti	-194
▁ne	-195
▁sõ	-196
▁kes	-197
ti	-198
▁L	-199
mas	-200
▁pr	-201
▁ise	-202
▁I	-203
iku	-204
▁to	-205
li	-206
kse	-207
tud	-208
ikka	-209
les	-210
▁ikka	-211
00	-212
▁suu	-213
▁kül	-214
▁pal	-215
▁aast	-216
ub	-217
iir	-218
val	-219
▁val	-220
▁väl	-221
ige	-222
▁mit	-223
pe	-224
sed	-225
▁tee	-226
sta	-227
iin	-228
tu	-229
▁tõ	-230
äe	-231
sa	-232
▁H	-233
▁kõik	-234
▁oleks	-235
lik	-236
mine	-237
oh	-238
▁ära	-239
▁as	-240
▁he	-241
▁2	-242
bi	-243
ur	-244
▁pan	-245
▁f	-246
▁O	-247
selt	-248
▁mitte	-249
ing	-250
▁sell	-251
▁veel	-252
nda	-253
ve	-254
uto	-255
▁mil	-256
▁mingi	-257
idu	-258
mi	-259
nd	-260
▁põ	-261
▁välja	-262
esti	-263
▁juba	-264
eed	-265
▁Sa	-266
▁koo	-267
▁tun	-268
ika	-269
▁Ma	-270
▁nagu	-271
▁re	-272
jal	-273
ind	-274
▁pu	-275
▁midagi	-276
inud	-277
vita	-278
▁Kui	-279
▁kee	-280
kk	-281
gel	-282
▁iga	-283
ab	-284
▁Ja	-285
ada	-286
▁liht	-287
vi	-288
▁il	-289
pp	-290
▁mul	-291
ega	-292
▁auto	-293
▁saab	-294
▁taga	-295
▁küll	-296
kt	-297
▁ke	-298
▁kus	-299
▁üle	-300
ina	-301
▁väga	-302
▁ain	-303
▁lähe	-304
ie	-305
▁Te	-306
▁koh	-307
guse	-308
▁kir	-309
uk	-310
▁R	-311
üüd	-312
itse	-313
▁seal	-314
▁ho	-315
▁pro	-316
iselt	-317
▁kuid	-318
▁@	-319
▁ena	-320
▁üks	-321
tle	-322
▁lõ	-323
rit	-324
takse	-325
mm	-326
ane	-327
oon	-328
▁loo	-329
▁neid	-330
▁vast	-331
ld	-332
▁See	-333
rem	-334
▁jär	-335
▁töö	-336
hul	-337
salt	-338
▁need	-339
▁võib	-340
▁tuleb	-341
▁olen	-342
▁inime	-343
ini	-344
inna	-345
mist	-346
▁vähe	-347
ite	-348
mad	-349
▁el	-350
▁us	-351
▁enam	-352
▁jä	-353
▁arva	-354
▁peale	-355
ike	-356
▁rää	-357
ised	-358
▁palju	-359
anud	-360
elle	-361
▁soo	-362
▁aasta	-363
ot	-364
uur	-365
▁Aga	-366
▁kuna	-367
▁teha	-368
sin	-369
tse	-370
▁kr	-371
▁lihtsalt	-372
tte	-373
ikult	-374
▁ning	-375
▁keegi	-376
▁roh	-377
▁sest	-378
ile	-379
elda	-380
▁kuul	-381
▁ainult	-382
hk	-383
ata	-384
▁jää	-385
▁nad	-386
▁tul	-387
▁vaja	-388
▁poo	-389
dus	-390
ärast	-391
▁inim	-392
▁nüüd	-393
▁..	-394
▁lu	-395
▁arv	-396
▁sü	-397
▁vaid	-398
▁u	-399
used	-400
▁lii	-401
▁asja	-402
ama	-403
juta	-404
▁van	-405
ig	-406
▁B	-407
▁asi	-408
▁sama	-409
pa	-410
▁3	-411
kem	-412
▁kar	-413
▁mas	-414
os	-415
▁b	-416
ste	-417
usi	-418
▁Kas	-419
▁tagasi	-420
ib	-421
ru	-422
▁jõ	-423
▁pra	-424
▁olla	-425
des	-426
its	-427
▁hä	-428
valt	-429
je	-430
ala	-431
ia	-432
▁g	-433
kka	-434
▁os	-435
▁hoo	-436
▁siin	-437
nn	-438
vat	-439
imal	-440
▁eks	-441
▁kah	-442
▁päe	-443
▁peaks	-444
▁põh	-445
▁eest	-446
du	-447
rv	-448
egu	-449
jas	-450
tsi	-451
▁an	-452
▁tege	-453
▁rohkem	-454
tada	-455
▁nen	-456
mis	-457
päe	-458
▁Ka	-459
▁hu	-460
▁vii	-461
▁minu	-462
▁viir	-463
▁saada	-464
mb	-465
tes	-466
malt	-467
unud	-468
▁kan	-469
▁mille	-470
▁kasuta	-471
▁C	-472
ell	-473
ral	-474
▁suur	-475
▁olema	-476
inn	-477
sid	-478
▁too	-479
▁taha	-480
▁muidu	-481
elt	-482
test	-483
▁pär	-484
▁vahe	-485
ude	-486
▁üld	-487
▁enne	-488
▁ette	-489
▁tead	-490
tt	-491
idi	-492
▁aja	-493
▁jah	-494
▁maa	-495
võ	-496
tles	-497
▁kind	-498
▁mina	-499
▁võimal	-500
eg	-501
▁D	-502
las	-503
uks	-504
isse	-505
▁tea	-506
▁enda	-507
▁tegel	-508
▁Ü	-509
▁ä	-510
atud	-511
▁isegi	-512
▁kohta	-513
nt	-514
kku	-515
vik	-516
▁er	-517
usest	-518
▁just	-519
▁ö	-520
mal	-521
uke	-522
▁aru	-523
▁tar	-524
all	-525
ati	-526
kon	-527
umb	-528
uti	-529
ingi	-530
▁kõr	-531
▁meie	-532
▁kasva	-533
▁olnud	-534
hti	-535
kki	-536
▁hea	-537
▁nende	-538
▁vastu	-539
▁pärast	-540
lee	-541
▁juur	-542
▁hakka	-543
▁F	-544
▁uu	-545
oloo	-546
▁jut	-547
▁sur	-548
▁ühe	-549
▁sellest	-550
su	-551
▁U	-552
▁nõ	-553
mata	-554
▁eel	-555
▁joo	-556
▁ajal	-557
ua	-558
▁Ei	-559
uste	-560
▁müü	-561
usega	-562
inu	-563
sel	-564
iste	-565
rema	-566
▁ilm	-567
▁suht	-568
▁täna	-569
miseks	-570
ms	-571
▁5	-572
and	-573
dud	-574
eer	-575
isa	-576
▁jne	-577
▁ost	-578
▁pil	-579
▁läbi	-580
lu	-581
hel	-582
▁10	-583
▁Võ	-584
▁ega	-585
▁tal	-586
▁võiks	-587
▁kirjuta	-588
ed	-589
ko	-590
ro	-591
ord	-592
▁no	-593
blee	-594
▁mee	-595
▁tan	-596
▁kohe	-597
▁miks	-598
▁kelle	-599
▁üldse	-600
▁kuidas	-601
mp	-602
▁d	-603
eda	-604
ras	-605
usta	-606
▁kii	-607
▁osa	-608
▁kõige	-609
hu	-610
▁c	-611
lis	-612
▁ots	-613
▁oled	-614
dal	-615
oks	-616
▁kogu	-617
▁koos	-618
▁maha	-619
▁teema	-620
▁huvita	-621
dan	-622
kat	-623
oll	-624
uses	-625
iteks	-626
▁puud	-627
▁tema	-628
▁läheb	-629
▁aastat	-630
▁problee	-631
nu	-632
▁/	-633
iiv	-634
res	-635
tab	-636
tta	-637
▁kol	-638
▁aega	-639
▁alla	-640
▁peab	-641
▁õige	-642
▁muidugi	-643
aal	-644
mme	-645
uri	-646
▁es	-647
▁ehk	-648
▁sul	-649
▁raha	-650
▁tähe	-651
▁korda	-652
▁mõtle	-653
▁praegu	-654
▁saanud	-655
▁inimest	-656
▁7	-657
ade	-658
gid	-659
kil	-660
mus	-661
▁mä	-662
▁tü	-663
ikud	-664
▁küs	-665
▁par	-666
▁teki	-667
▁kokku	-668
▁päris	-669
▁korral	-670
hv	-671
tk	-672
▁%	-673
esi	-674
jad	-675
ter	-676
▁Le	-677
▁is	-678
vast	-679
▁ilmselt	-680
ned	-681
ota	-682
por	-683
▁Ta	-684
▁vi	-685
must	-686
riti	-687
▁lõp	-688
▁vee	-689
▁osta	-690
▁üles	-691
▁ütle	-692
▁vähemalt	-693
ip	-694
▁9	-695
uda	-696
maks	-697
tega	-698
▁hul	-699
▁juht	-700
▁mine	-701
▁rääk	-702
▁kunagi	-703
▁selline	-704
ikk	-705
lle	-706
▁so	-707
asta	-708
ista	-709
olla	-710
oona	-711
▁Ole	-712
▁nat	-713
▁teh	-714
▁hakk	-715
▁olid	-716
▁viima	-717
▁inimene	-718
▁sellise	-719
pi	-720
▁4	-721
ani	-722
kas	-723
mat	-724
iina	-725
itsi	-726
nast	-727
usel	-728
▁and	-729
▁eda	-730
▁jul	-731
▁muut	-732
▁vist	-733
▁minna	-734
▁ütles	-735
hte	-736
ule	-737
▁Mul	-738
▁aeg	-739
▁mär	-740
▁var	-741
misel	-742
▁maks	-743
▁eriti	-744
▁maail	-745
▁saaks	-746
▁kindla	-747
▁y	-748
ole	-749
oot	-750
▁im	-751
▁lo	-752
▁st	-753
▁Jum	-754
▁Mis	-755
▁all	-756
▁kon	-757
▁läks	-758
▁tund	-759
▁rahul	-760
▁teine	-761
▁näiteks	-762
am	-763
eet	-764
igi	-765
üüs	-766
ooni	-767
▁ees	-768
▁ene	-769
▁ras	-770
▁täp	-771
▁kiir	-772
▁meel	-773
▁nime	-774
▁poole	-775
▁taval	-776
hi	-777
▁8	-778
000	-779
gus	-780
hes	-781
isi	-782
ool	-783
oor	-784
uga	-785
▁Tä	-786
▁ti	-787
lise	-788
ööda	-789
▁Eesti	-790
▁Selle	-791
▁erine	-792
▁krist	-793
▁vaata	-794
▁juurde	-795
▁natuke	-796
▁sellist	-797
rd	-798
▁'	-799
ame	-800
mne	-801
oov	-802
▁Kõ	-803
▁Me	-804
▁un	-805
ides	-806
itud	-807
▁umb	-808
idega	-809
▁Kuid	-810
▁ilma	-811
▁põhj	-812
▁panna	-813
▁öelda	-814
▁olemas	-815
ce	-816
▁6	-817
ene	-818
nne	-819
rgi	-820
tee	-821
ver	-822
isin	-823
peta	-824
stee	-825
tele	-826
▁ist	-827
▁ker	-828
▁lam	-829
▁täi	-830
▁oska	-831
▁tele	-832
▁jaoks	-833
▁päeva	-834
ül	-835
igu	-836
lus	-837
nik	-838
ses	-839
▁Ko	-840
▁Mõ	-841
▁Va	-842
asin	-843
oodi	-844
oori	-845
▁pun	-846
▁sai	-847
▁sii	-848
idagi	-849
▁palj	-850
▁seis	-851
▁toim	-852
remini	-853
▁alati	-854
▁kanna	-855
▁mulle	-856
▁nakat	-857
▁suuda	-858
▁selles	-859
▁tõesti	-860
eb	-861
set	-862
▁tr	-863
itab	-864
matu	-865
vaid	-866
▁Mil	-867
▁Nii	-868
▁ela	-869
▁elu	-870
umise	-871
▁Eest	-872
▁järg	-873
▁luge	-874
▁muud	-875
▁mõte	-876
▁edasi	-877
▁liiga	-878
▁suure	-879
▁teada	-880
▁koroona	-881
pis	-882
tel	-883
tus	-884
ula	-885
uua	-886
▁kau	-887
▁kur	-888
▁sil	-889
iline	-890
▁tuli	-891
▁järgi	-892
▁räägi	-893
▁teise	-894
▁kuskil	-895
▁inimesed	-896
een	-897
usa	-898
▁20	-899
▁No	-900
▁ki	-901
enda	-902
leta	-903
taal	-904
tkel	-905
vale	-906
imine	-907
imise	-908
▁meil	-909
▁mets	-910
▁terv	-911
▁mõtte	-912
▁samas	-913
▁vaada	-914
▁siiski	-915
▁kindlasti	-916
▁tegelikult	-917
ck	-918
ea	-919
▁G	-920
gem	-921
ima	-922
▁Mu	-923
▁ab	-924
▁nt	-925
▁ro	-926
ange	-927
ikas	-928
▁end	-929
▁pla	-930
idest	-931
▁koha	-932
▁ongi	-933
▁peal	-934
▁tank	-935
▁liigu	-936
▁toidu	-937
uh	-938
hta	-939
neb	-940
oni	-941
rad	-942
▁Pa	-943
▁pä	-944
igem	-945
inni	-946
mber	-947
▁100	-948
▁ase	-949
▁har	-950
▁tas	-951
▁Mina	-952
▁Saku	-953
▁paar	-954
▁lahti	-955
▁mööda	-956
▁probleem	-957
▁võimalik	-958
gis	-959
per	-960
umi	-961
und	-962
▁Co	-963
▁Su	-964
▁pü	-965
ande	-966
anti	-967
liku	-968
▁aju	-969
▁kuu	-970
useks	-971
vasti	-972
▁anna	-973
▁füüs	-974
▁haka	-975
▁tegu	-976
▁mõist	-977
▁sealt	-978
▁sisse	-979
▁kuidagi	-980
▁Ä	-981
gin	-982
jan	-983
isid	-984
vate	-985
▁Ise	-986
▁inf	-987
▁muu	-988
▁rah	-989
▁ter	-990
uline	-991
▁Seda	-992
▁ajas	-993
▁head	-994
▁piir	-995
▁sain	-996
▁sinu	-997
▁soov	-998
tsioon	-999
▁Jumal	-1000
▁haige	-1001
▁hästi	-1002
▁umbes	-1003
▁võtta	-1004
▁mingit	-1005
▁inimesi	-1006
et	-1007
ps	-1008
▁w	-1009
imi	-1010
mel	-1011
ood	-1012
ull	-1013
▁Ho	-1014
▁Põ	-1015
▁Ra	-1016
▁To	-1017
▁mü	-1018
juks	-1019
udel	-1020
▁Pär	-1021
▁hal	-1022
▁hil	-1023
▁hin	-1024
▁usu	-1025
▁vab	-1026
usele	-1027
▁kuni	-1028
▁loll	-1029
▁oluk	-1030
▁vana	-1031
iroloo	-1032
▁jooks	-1033
▁kinni	-1034
▁korra	-1035
▁proov	-1036
▁tunne	-1037
▁ikkagi	-1038
▁lamell	-1039
▁tahaks	-1040
be	-1041
no	-1042
rk	-1043
dab	-1044
kti	-1045
ori	-1046
ugu	-1047
ügi	-1048
▁In	-1049
jate	-1050
lane	-1051
päev	-1052
▁eur	-1053
▁oda	-1054
▁....	-1055
▁Siis	-1056
▁asju	-1057
▁mind	-1058
▁päev	-1059
▁sõna	-1060
▁taht	-1061
▁teeb	-1062
▁teed	-1063
▁vale	-1064
▁äkki	-1065
pärast	-1066
▁asjad	-1067
▁esime	-1068
▁kooli	-1069
▁puhul	-1070
▁hetkel	-1071
▁selleks	-1072
▁valguse	-1073
vä	-1074
maa	-1075
nes	-1076
ppe	-1077
igal	-1078
last	-1079
muti	-1080
▁Tar	-1081
▁hir	-1082
▁hää	-1083
▁lei	-1084
▁näe	-1085
▁sõb	-1086
▁vms	-1087
moodi	-1088
utada	-1089
▁kasv	-1090
▁lahe	-1091
▁pane	-1092
▁saan	-1093
▁julge	-1094
▁sinna	-1095
▁taime	-1096
▁ümber	-1097
▁alguse	-1098
▁tundub	-1099
▁tulevik	-1100
▁täpselt	-1101
hh	-1102
mo	-1103
▁;	-1104
asi	-1105
itu	-1106
kad	-1107
mid	-1108
nta	-1109
rat	-1110
▁15	-1111
▁de	-1112
dala	-1113
dega	-1114
esse	-1115
ktsi	-1116
sest	-1117
umis	-1118
▁gra	-1119
▁hoi	-1120
▁pol	-1121
▁rii	-1122
innas	-1123
lased	-1124
▁Olen	-1125
▁jutt	-1126
▁kaks	-1127
▁mees	-1128
▁näha	-1129
▁täis	-1130
▁alles	-1131
▁jälle	-1132
▁kõigi	-1133
▁nädal	-1134
▁teist	-1135
iliselt	-1136
20	-1137
jõ	-1138
po	-1139
asa	-1140
del	-1141
ess	-1142
eva	-1143
gil	-1144
ill	-1145
jus	-1146
udu	-1147
unu	-1148
▁An	-1149
asse	-1150
htud	-1151
kord	-1152
uure	-1153
vers	-1154
▁ava	-1155
▁ele	-1156
▁õpp	-1157
tavad	-1158
▁jama	-1159
▁mõne	-1160
▁pere	-1161
▁piis	-1162
▁saad	-1163
▁sõit	-1164
likult	-1165
▁arvut	-1166
▁autot	-1167
▁juhul	-1168
▁kätte	-1169
▁küsim	-1170
▁neist	-1171
▁parem	-1172
▁reaal	-1173
▁ringi	-1174
▁telef	-1175
▁vahel	-1176
▁hakkas	-1177
▁hoopis	-1178
▁kaitse	-1179
▁karanti	-1180
▁sellele	-1181
▁soovita	-1182
end	-1183
iik	-1184
▁19	-1185
▁On	-1186
▁oh	-1187
eeme	-1188
eeri	-1189
itsa	-1190
lest	-1191
maal	-1192
olli	-1193
seks	-1194
▁Vas	-1195
▁are	-1196
▁ing	-1197
▁kal	-1198
▁mõn	-1199
▁söö	-1200
▁tek	-1201
päeva	-1202
umist	-1203
▁Tall	-1204
▁kord	-1205
▁sees	-1206
▁õnne	-1207
▁hinna	-1208
▁pigem	-1209
▁seega	-1210
▁terve	-1211
▁Eestis	-1212
▁ennast	-1213
▁hakkab	-1214
▁kuulut	-1215
▁tulnud	-1216
▁valits	-1217
▁kiiremini	-1218
gad	-1219
gik	-1220
iit	-1221
jem	-1222
jon	-1223
kla	-1224
oop	-1225
tan	-1226
▁:)	-1227
ades	-1228
gelt	-1229
gust	-1230
ikat	-1231
lema	-1232
rist	-1233
seid	-1234
usid	-1235
viir	-1236
▁hob	-1237
▁lev	-1238
▁lis	-1239
▁pii	-1240
▁tel	-1241
asika	-1242
erida	-1243
ilise	-1244
imist	-1245
▁keda	-1246
▁kust	-1247
▁lisa	-1248
▁mill	-1249
▁paan	-1250
▁sure	-1251
▁teab	-1252
▁viis	-1253
misest	-1254
▁kiire	-1255
▁sõita	-1256
▁talle	-1257
▁tulem	-1258
▁õpeta	-1259
iroloog	-1260
▁endale	-1261
▁hakata	-1262
▁läinud	-1263
▁paljud	-1264
▁inimese	-1265
▁rääkida	-1266
▁kasutada	-1267
▁i	-1268
▁Õ	-1269
ali	-1270
ele	-1271
gud	-1272
let	-1273
med	-1274
ran	-1275
ris	-1276
vel	-1277
▁Vä	-1278
Muri	-1279
anda	-1280
dest	-1281
mast	-1282
▁Coq	-1283
▁Saa	-1284
▁Või	-1285
▁eba	-1286
▁kla	-1287
▁sis	-1288
▁öel	-1289
▁Kõik	-1290
▁Miks	-1291
▁elan	-1292
▁klas	-1293
▁must	-1294
▁numb	-1295
▁pida	-1296
▁pool	-1297
▁sina	-1298
▁sise	-1299
▁teen	-1300
▁arvan	-1301
▁kaasa	-1302
▁katse	-1303
▁poolt	-1304
▁raske	-1305
▁vasta	-1306
▁mõtles	-1307
▁tegelt	-1308
▁tuleks	-1309
iinaMuri	-1310
ev	-1311
ho	-1312
ss	-1313
▁0	-1314
hed	-1315
ilt	-1316
iti	-1317
lep	-1318
ndi	-1319
ttu	-1320
una	-1321
▁Na	-1322
▁eh	-1323
▁mo	-1324
▁oo	-1325
eemi	-1326
ingu	-1327
jale	-1328
ksin	-1329
lust	-1330
ooli	-1331
peal	-1332
▁eri	-1333
▁esi	-1334
▁mar	-1335
▁oht	-1336
▁pää	-1337
idele	-1338
nnist	-1339
üstee	-1340
▁aval	-1341
▁jõud	-1342
▁kaht	-1343
▁kont	-1344
▁levi	-1345
▁mure	-1346
▁nael	-1347
▁niis	-1348
▁prof	-1349
▁siia	-1350
▁sind	-1351
▁tuge	-1352
▁tööd	-1353
▁viga	-1354
misega	-1355
▁eesti	-1356
▁jumal	-1357
▁kuigi	-1358
▁liiku	-1359
▁mõned	-1360
▁prügi	-1361
eliselt	-1362
▁maitse	-1363
▁tegema	-1364
▁teised	-1365
▁viirus	-1366
▁huvitav	-1367
▁jooksul	-1368
▁sellega	-1369
▁täiesti	-1370
▁viiruse	-1371
▁ViinaMuri	-1372
kõ	-1373
▁z	-1374
ana	-1375
ges	-1376
kir	-1377
kut	-1378
lan	-1379
nas	-1380
olu	-1381
one	-1382
tik	-1383
▁Nä	-1384
▁Po	-1385
▁ül	-1386
pidi	-1387
▁200	-1388
▁Ega	-1389
▁Kes	-1390
▁ala	-1391
▁aut	-1392
▁jms	-1393
▁nor	-1394
▁sää	-1395
▁süü	-1396
▁usk	-1397
▁uus	-1398
▁võr	-1399
▁Üks	-1400
sioon	-1401
▁Need	-1402
▁last	-1403
▁paha	-1404
▁rull	-1405
▁Neeme	-1406
▁aitab	-1407
▁kontr	-1408
▁lasta	-1409
▁masin	-1410
▁meeldi	-1411
▁mingid	-1412
▁tehtud	-1413
▁võibolla	-1414
õb	-1415
üh	-1416
gia	-1417
gul	-1418
jut	-1419
ore	-1420
sit	-1421
sse	-1422
▁Ro	-1423
▁or	-1424
▁rä	-1425
itus	-1426
jaid	-1427
maid	-1428
mate	-1429
port	-1430
tama	-1431
vest	-1432
▁Kah	-1433
▁gri	-1434
▁lai	-1435
▁pid	-1436
▁tut	-1437
▁uud	-1438
ndada	-1439
▁Minu	-1440
▁igal	-1441
▁keha	-1442
▁koge	-1443
▁liik	-1444
▁olin	-1445
▁vane	-1446
▁.....	-1447
▁komme	-1448
▁kõike	-1449
▁rääki	-1450
▁aastal	-1451
▁hiljem	-1452
▁juures	-1453
▁minema	-1454
▁näinud	-1455
▁polnud	-1456
▁punkti	-1457
▁rullno	-1458
▁samuti	-1459
▁koroonaviir	-1460
!!	-1461
**	-1462
xz	-1463
gan	-1464
hoo	-1465
nni	-1466
rva	-1467
▁är	-1468
asid	-1469
ipel	-1470
maat	-1471
ndab	-1472
nust	-1473
remi	-1474
ress	-1475
rite	-1476
sugu	-1477
uvad	-1478
vahe	-1479
vaks	-1480
▁Ehk	-1481
▁Iga	-1482
▁Jah	-1483
▁Põh	-1484
▁kra	-1485
▁käi	-1486
▁noh	-1487
▁til	-1488
▁võe	-1489
ikuid	-1490
konna	-1491
▁Vene	-1492
▁foor	-1493
▁hirm	-1494
▁jõua	-1495
▁kahe	-1496
▁kall	-1497
▁komp	-1498
▁käib	-1499
▁lenn	-1500
▁mass	-1501
▁oota	-1502
▁pild	-1503
▁riik	-1504
▁tehn	-1505
▁tuua	-1506
▁täht	-1507
▁väik	-1508
▁võta	-1509
▁Samas	-1510
▁Vasur	-1511
▁ajast	-1512
▁enese	-1513
▁kerge	-1514
▁kevad	-1515
▁käest	-1516
▁minge	-1517
▁neile	-1518
▁panin	-1519
▁piisa	-1520
▁muutub	-1521
▁olukor	-1522
▁gravita	-1523
▁inglise	-1524
▁kuskilt	-1525
▁kuulnud	-1526
▁suurema	-1527
▁tulevad	-1528
▁vaadata	-1529
ag	-1530
ch	-1531
hä	-1532
lo	-1533
ww	-1534
yl	-1535
adi	-1536
ale	-1537
biv	-1538
isk	-1539
jah	-1540
kul	-1541
met	-1542
ppi	-1543
rid	-1544
uma	-1545
vam	-1546
▁Im	-1547
▁Si	-1548
▁ap	-1549
▁fa	-1550
▁nu	-1551
elik	-1552
meid	-1553
tiiv	-1554
utus	-1555
uuri	-1556
▁Kül	-1557
▁Pra	-1558
▁aus	-1559
▁juh	-1560
▁jõu	-1561
▁las	-1562
▁seo	-1563
▁tõm	-1564
laste	-1565
likud	-1566
▁Võib	-1567
▁elus	-1568
▁jääb	-1569
▁kesk	-1570
▁kuhu	-1571
▁mõni	-1572
▁otse	-1573
▁para	-1574
▁pide	-1575
▁teda	-1576
▁ühte	-1577
▁Hobiv	-1578
▁Itaal	-1579
▁antud	-1580
▁juttu	-1581
▁kodus	-1582
▁kohal	-1583
▁mõtet	-1584
▁nomad	-1585
▁näita	-1586
▁oleme	-1587
▁palun	-1588
▁varem	-1589
▁vähem	-1590
▁väike	-1591
▁Ennist	-1592
▁Pärtel	-1593
▁jäänud	-1594
▁koolis	-1595
▁lihtne	-1596
▁liigub	-1597
▁lõpuks	-1598
▁poleks	-1599
▁saavad	-1600
▁seemne	-1601
▁uuesti	-1602
▁Kahjuks	-1603
▁paanika	-1604
▁põhjust	-1605
▁telefon	-1606
▁maailmas	-1607
▁nakatunu	-1608
▁sellised	-1609
▁Hobiviroloog	-1610
IN	-1611
rt	-1612
tõ	-1613
▁Y	-1614
▁Z	-1615
aja	-1616
kra	-1617
kus	-1618
mmu	-1619
pal	-1620
pil	-1621
poo	-1622
tav	-1623
unn	-1624
õna	-1625
▁50	-1626
▁He	-1627
▁Re	-1628
▁ga	-1629
aegu	-1630
dust	-1631
giko	-1632
kond	-1633
lega	-1634
maja	-1635
male	-1636
rast	-1637
sion	-1638
teer	-1639
ussu	-1640
usti	-1641
▁Loo	-1642
▁Pea	-1643
▁kat	-1644
▁kel	-1645
▁lap	-1646
▁mos	-1647
▁när	-1648
▁nõu	-1649
▁por	-1650
▁sin	-1651
▁toh	-1652
▁tur	-1653
▁uni	-1654
▁uue	-1655
▁õlu	-1656
andus	-1657
istab	-1658
jalik	-1659
umine	-1660
▁Hiin	-1661
▁Nüüd	-1662
▁küsi	-1663
▁leid	-1664
▁lood	-1665
▁neil	-1666
▁ooda	-1667
▁prog	-1668
▁usku	-1669
▁Äkki	-1670
▁ülik	-1671
päeval	-1672
▁Tartu	-1673
▁annab	-1674
▁juure	-1675
▁lange	-1676
▁levik	-1677
▁linna	-1678
▁naine	-1679
▁selge	-1680
▁sipel	-1681
▁sureb	-1682
▁tussu	-1683
▁õitse	-1684
tavasti	-1685
tsiooni	-1686
▁Kuidas	-1687
▁arvest	-1688
▁energi	-1689
▁lihtsa	-1690
▁mingis	-1691
▁nädala	-1692
▁pandud	-1693
▁suurem	-1694
▁teinud	-1695
▁täitsa	-1696
▁valgus	-1697
▁kellegi	-1698
▁lähevad	-1699
-1	-1700
bo	-1701
co	-1702
lm	-1703
mu	-1704
pu	-1705
yd	-1706
▁W	-1707
aga	-1708
ato	-1709
dam	-1710
das	-1711
eri	-1712
imu	-1713
itä	-1714
jat	-1715
kes	-1716
kid	-1717
lid	-1718
mon	-1719
nii	-1720
roo	-1721
smo	-1722
sna	-1723
tas	-1724
▁12	-1725
▁90	-1726
▁Lä	-1727
▁Se	-1728
▁Ve	-1729
▁ee	-1730
▁ul	-1731
asti	-1732
jõud	-1733
kind	-1734
kkis	-1735
mmik	-1736
puta	-1737
ttis	-1738
tust	-1739
▁Kee	-1740
▁Kus	-1741
▁Mar	-1742
▁Pal	-1743
▁Val	-1744
▁jal	-1745
▁jäi	-1746
▁jät	-1747
▁kao	-1748
▁keh	-1749
▁lib	-1750
▁män	-1751
▁rel	-1752
▁roo	-1753
▁sor	-1754
▁tre	-1755
▁üri	-1756
eline	-1757
elist	-1758
ustus	-1759
▁Imre	-1760
▁Mida	-1761
▁hoid	-1762
▁keel	-1763
▁kinn	-1764
▁koht	-1765
▁koju	-1766
▁käit	-1767
▁lehe	-1768
▁nimi	-1769
▁peen	-1770
▁prae	-1771
▁reis	-1772
▁saku	-1773
▁tean	-1774
▁veeb	-1775
▁õppe	-1776
▁üsna	-1777
remium	-1778
▁Muidu	-1779
▁eksam	-1780
▁kirja	-1781
▁kodan	-1782
▁kosmo	-1783
▁külva	-1784
▁lausa	-1785
▁miski	-1786
▁mosle	-1787
▁parim	-1788
▁päike	-1789
▁surma	-1790
▁tulla	-1791
▁veidi	-1792
▁ütleb	-1793
▁asemel	-1794
▁kindel	-1795
▁tundus	-1796
▁kõrvale	-1797
▁maailma	-1798
▁profess	-1799
▁viirust	-1800
▁inimeste	-1801
▁+	-1802
ant	-1803
ari	-1804
dad	-1805
eks	-1806
jää	-1807
nul	-1808
rig	-1809
uba	-1810
utu	-1811
uun	-1812
▁ni	-1813
▁nn	-1814
▁pi	-1815
▁õh	-1816
▁üh	-1817
esta	-1818
igus	-1819
ikad	-1820
irma	-1821
isti	-1822
kest	-1823
ktor	-1824
mala	-1825
sust	-1826
teks	-1827
▁700	-1828
▁Eks	-1829
▁Eur	-1830
▁Kir	-1831
▁Sel	-1832
▁abi	-1833
▁jäl	-1834
▁nim	-1835
▁puh	-1836
▁tüü	-1837
▁uur	-1838
▁vil	-1839
▁õpe	-1840
amatu	-1841
eemia	-1842
imest	-1843
iseks	-1844
ritud	-1845
stada	-1846
tahes	-1847
▁Siin	-1848
▁ammu	-1849
▁anda	-1850
▁ilus	-1851
▁kasu	-1852
▁lugu	-1853
▁mitu	-1854
▁plan	-1855
▁post	-1856
▁sead	-1857
▁suut	-1858
▁usun	-1859
▁vara	-1860
▁vene	-1861
eerida	-1862
iseame	-1863
süstee	-1864
▁jõuab	-1865
▁leida	-1866
▁lähen	-1867
▁milja	-1868
▁naast	-1869
▁tundu	-1870
uliselt	-1871
▁ainuke	-1872
▁eksper	-1873
▁kellel	-1874
▁kõrval	-1875
▁lisaks	-1876
▁masina	-1877
▁metsma	-1878
▁milles	-1879
▁olevat	-1880
▁räägib	-1881
▁sellel	-1882
▁vaktsi	-1883
▁õnnest	-1884
▁alguses	-1885
▁eelmine	-1886
▁hakkama	-1887
▁millest	-1888
▁normaal	-1889
▁peaaegu	-1890
▁tähelep	-1891
▁univers	-1892
▁kiiresti	-1893
▁võimalus	-1894
▁piisavalt	-1895
AN	-1896
MW	-1897
av	-1898
kr	-1899
kü	-1900
nä	-1901
og	-1902
op	-1903
to	-1904
▁|	-1905
ami	-1906
ang	-1907
ard	-1908
dia	-1909
eeb	-1910
eni	-1911
enä	-1912
gal	-1913
ias	-1914
ket	-1915
kui	-1916
lad	-1917
ond	-1918
pid	-1919
rii	-1920
sis	-1921
tke	-1922
tul	-1923
uni	-1924
vus	-1925
▁Et	-1926
▁ah	-1927
▁di	-1928
▁rõ	-1929
dada	-1930
deid	-1931
hvas	-1932
ksid	-1933
lasi	-1934
oopa	-1935
sele	-1936
stab	-1937
tuse	-1938
utub	-1939
▁BMW	-1940
▁Hil	-1941
▁Kor	-1942
▁aad	-1943
▁bus	-1944
▁fil	-1945
▁lah	-1946
▁lub	-1947
▁med	-1948
▁mon	-1949
▁puu	-1950
▁rum	-1951
davad	-1952
fitse	-1953
iguse	-1954
igust	-1955
ikute	-1956
ktiiv	-1957
oreet	-1958
remaa	-1959
teeri	-1960
ulise	-1961
vikus	-1962
▁Meil	-1963
▁Pole	-1964
▁Rock	-1965
▁Tule	-1966
▁aeda	-1967
▁jõul	-1968
▁kolm	-1969
▁kool	-1970
▁kuju	-1971
▁kuts	-1972
▁käes	-1973
▁tark	-1974
▁tore	-1975
▁võit	-1976
▁õlle	-1977
istada	-1978
rigina	-1979
▁Hiina	-1980
▁hoida	-1981
▁kaudu	-1982
▁mõnda	-1983
▁oskab	-1984
▁paast	-1985
▁peagi	-1986
▁pealt	-1987
▁rahva	-1988
▁soovi	-1989
▁suurt	-1990
▁sõida	-1991
▁teata	-1992
▁tööta	-1993
▁Praegu	-1994
▁ennust	-1995
▁invest	-1996
▁kasvuh	-1997
▁kedagi	-1998
▁korras	-1999
▁mõista	-2000
▁oodata	-2001
▁peavad	-2002
▁polegi	-2003
▁süstee	-2004
▁teiste	-2005
▁teoori	-2006
▁arvamus	-2007
▁autosid	-2008
▁küsimus	-2009
▁mingeid	-2010
▁nagunii	-2011
▁niisama	-2012
▁tulemus	-2013
▁õigesti	-2014
▁pidevalt	-2015
▁tulemust	-2016
▁valitsus	-2017
▁viimasel	-2018
▁karantiin	-2019
▁gravitatsioon	-2020
11	-2021
dr	-2022
fe	-2023
põ	-2024
rs	-2025
tä	-2026
▁=	-2027
▁–	-2028
ate	-2029
ber	-2030
iht	-2031
ili	-2032
imõ	-2033
kst	-2034
ksu	-2035
mmi	-2036
mul	-2037
nan	-2038
osa	-2039
van	-2040
vil	-2041
ärg	-2042
▁18	-2043
▁28	-2044
▁Hu	-2045
▁Kü	-2046
▁SA	-2047
▁ca	-2048
▁da	-2049
▁ir	-2050
▁km	-2051
▁sä	-2052
▁õl	-2053
dele	-2054
ense	-2055
iima	-2056
ikku	-2057
ikut	-2058
jalt	-2059
kide	-2060
mari	-2061
rima	-2062
sime	-2063
suse	-2064
tsid	-2065
tsin	-2066
tule	-2067
udes	-2068
▁Aja	-2069
▁Ilm	-2070
▁Kuu	-2071
▁Ter	-2072
▁ime	-2073
▁kul	-2074
▁loe	-2075
▁mer	-2076
▁pee	-2077
▁pen	-2078
▁põl	-2079
▁pöö	-2080
▁ron	-2081
▁ruu	-2082
▁võt	-2083
dades	-2084
idata	-2085
pealt	-2086
uguse	-2087
▁Küll	-2088
▁Sell	-2089
▁aato	-2090
▁aita	-2091
▁jaga	-2092
▁kaal	-2093
▁kand	-2094
▁kiri	-2095
▁luba	-2096
▁mõel	-2097
▁mõle	-2098
▁pike	-2099
▁rehv	-2100
▁sobi	-2101
▁süga	-2102
▁tegi	-2103
▁tell	-2104
▁vari	-2105
▁väär	-2106
▁võrr	-2107
gikogu	-2108
tamine	-2109
ustest	-2110
▁Inime	-2111
▁Keegi	-2112
▁Milja	-2113
▁Tegel	-2114
▁Teine	-2115
▁alust	-2116
▁artik	-2117
▁elekt	-2118
▁homme	-2119
▁järje	-2120
▁kaeva	-2121
▁kahju	-2122
▁klaas	-2123
▁kolma	-2124
▁luges	-2125
▁meile	-2126
▁mujal	-2127
▁müüja	-2128
▁odava	-2129
▁palga	-2130
▁riigi	-2131
▁sulle	-2132
▁tahab	-2133
▁tekib	-2134
▁tingi	-2135
▁tööle	-2136
elikult	-2137
oloogia	-2138
▁eestis	-2139
▁hävita	-2140
▁mõelda	-2141
▁mõjuta	-2142
▁teevad	-2143
▁tervis	-2144
▁võivad	-2145
▁lahenda	-2146
▁miljard	-2147
▁nädalat	-2148
▁tehakse	-2149
▁teoreet	-2150
▁arvamust	-2151
▁mõtlesin	-2152
▁paremini	-2153
▁praeguse	-2154
▁valgusest	-2155
▁karantiini	-2156
55	-2157
66	-2158
SA	-2159
fi	-2160
pt	-2161
ue	-2162
õr	-2163
▁*	-2164
are	-2165
che	-2166
had	-2167
kit	-2168
ksa	-2169
kül	-2170
nad	-2171
nna	-2172
ont	-2173
ots	-2174
pro	-2175
pul	-2176
rts	-2177
tis	-2178
või	-2179
▁11	-2180
▁30	-2181
▁40	-2182
▁60	-2183
▁La	-2184
▁Mi	-2185
▁Ne	-2186
▁be	-2187
▁hü	-2188
aine	-2189
angu	-2190
ator	-2191
eeni	-2192
ight	-2193
iisi	-2194
ilet	-2195
imus	-2196
itäh	-2197
jand	-2198
juht	-2199
juur	-2200
meti	-2201
nema	-2202
oone	-2203
paha	-2204
pida	-2205
pool	-2206
radi	-2207
rill	-2208
taja	-2209
ttes	-2210
uden	-2211
usin	-2212
vara	-2213
▁000	-2214
▁Ice	-2215
▁Mer	-2216
▁Pil	-2217
▁Rii	-2218
▁Soo	-2219
▁Sul	-2220
▁alt	-2221
▁ema	-2222
▁era	-2223
▁ice	-2224
▁kva	-2225
▁nal	-2226
▁nõr	-2227
▁ple	-2228
▁pur	-2229
▁sim	-2230
▁soe	-2231
▁tuu	-2232
▁tüh	-2233
enäol	-2234
ilist	-2235
itada	-2236
masin	-2237
mised	-2238
nenud	-2239
tatud	-2240
ugune	-2241
useid	-2242
▁Kuna	-2243
▁Nagu	-2244
▁Täna	-2245
▁aine	-2246
▁isik	-2247
▁isla	-2248
▁kaua	-2249
▁loen	-2250
▁nakk	-2251
▁osas	-2252
▁pead	-2253
▁pidi	-2254
▁said	-2255
▁sele	-2256
▁siit	-2257
▁sõid	-2258
▁sõlt	-2259
▁süüa	-2260
▁tagu	-2261
▁tase	-2262
▁teis	-2263
▁vend	-2264
▁võid	-2265
endada	-2266
istest	-2267
▁firma	-2268
▁infot	-2269
▁katki	-2270
▁keele	-2271
▁muide	-2272
▁näide	-2273
▁sõidu	-2274
▁tanki	-2275
▁tegin	-2276
▁toode	-2277
▁tõttu	-2278
▁unust	-2279
▁uudis	-2280
▁vahet	-2281
▁vajab	-2282
▁vanad	-2283
utamine	-2284
▁Hiinas	-2285
▁Jumala	-2286
▁elanik	-2287
▁ettevõ	-2288
▁jumala	-2289
▁kasvab	-2290
▁kuulda	-2291
▁käinud	-2292
▁lennuk	-2293
▁linnas	-2294
▁loodud	-2295
▁loodus	-2296
▁lugeda	-2297
▁miljon	-2298
▁millal	-2299
▁mäleta	-2300
▁mõtlen	-2301
▁parema	-2302
▁surnud	-2303
▁tegele	-2304
▁toimub	-2305
▁toodan	-2306
▁veebru	-2307
▁viitsi	-2308
▁ühtegi	-2309
mulikult	-2310
▁Muidugi	-2311
▁esimene	-2312
▁füüsika	-2313
▁kevadel	-2314
▁meditsi	-2315
▁olukord	-2316
▁pension	-2317
▁sipelga	-2318
▁tehnika	-2319
▁niimoodi	-2320
▁proovida	-2321
▁selliste	-2322
▁tegemist	-2323
▁õppejõud	-2324
▁erinevaid	-2325
▁kontrolli	-2326
▁rääkimata	-2327
▁Tegelikult	-2328
▁tavaliselt	-2329
▁sellepärast	-2330
12	-2331
AT	-2332
OO	-2333
ST	-2334
hn	-2335
kä	-2336
mä	-2337
od	-2338
rn	-2339
aeg	-2340
ans	-2341
eeg	-2342
eld	-2343
eli	-2344
ent	-2345
gen	-2346
git	-2347
her	-2348
iki	-2349
jul	-2350
kke	-2351
mar	-2352
men	-2353
ona	-2354
sad	-2355
str	-2356
sus	-2357
uko	-2358
var	-2359
vas	-2360
▁3.	-2361
▁Jä	-2362
▁Lõ	-2363
▁Pe	-2364
▁ed	-2365
adus	-2366
amat	-2367
auto	-2368
ikro	-2369
imis	-2370
itte	-2371
jast	-2372
jest	-2373
kaal	-2374
kile	-2375
ldse	-2376
mete	-2377
musi	-2378
onüü	-2379
pära	-2380
siga	-2381
taks	-2382
unde	-2383
usse	-2384
vust	-2385
▁Ain	-2386
▁Ena	-2387
▁Uni	-2388
▁abs	-2389
▁alg	-2390
▁des	-2391
▁kop	-2392
▁kun	-2393
▁kõl	-2394
▁noo	-2395
▁pas	-2396
▁pes	-2397
▁sal	-2398
▁sib	-2399
▁suh	-2400
▁uut	-2401
▁vih	-2402
▁Üle	-2403
▁õie	-2404
alist	-2405
eldes	-2406
ensey	-2407
isele	-2408
likku	-2409
nevad	-2410
ntaar	-2411
rvuti	-2412
udega	-2413
▁Meie	-2414
▁Ning	-2415
▁Sama	-2416
▁Tere	-2417
▁Vast	-2418
▁aimu	-2419
▁info	-2420
▁joon	-2421
▁kast	-2422
▁kurv	-2423
▁kusa	-2424
▁kuud	-2425
▁kval	-2426
▁lõpp	-2427
▁meid	-2428
▁moot	-2429
▁naab	-2430
▁naer	-2431
▁olgu	-2432
▁otsi	-2433
▁paku	-2434
▁pani	-2435
▁puha	-2436
▁rikk	-2437
▁saat	-2438
▁sünd	-2439
▁tihe	-2440
▁toit	-2441
▁toot	-2442
▁vaba	-2443
▁veid	-2444
▁ürit	-2445
andeid	-2446
idetud	-2447
jäänud	-2448
konnas	-2449
miselt	-2450
vatest	-2451
▁Oleks	-2452
▁Seega	-2453
▁arvab	-2454
▁hetke	-2455
▁hinga	-2456
▁jääda	-2457
▁kauge	-2458
▁klass	-2459
▁kutse	-2460
▁maske	-2461
▁mulda	-2462
▁mulla	-2463
▁muuta	-2464
▁nalja	-2465
▁ostja	-2466
▁pinna	-2467
▁prakt	-2468
▁punkt	-2469
▁pärit	-2470
▁rumal	-2471
▁saata	-2472
▁tekst	-2473
▁valla	-2474
▁võtab	-2475
atsioon	-2476
eeritud	-2477
▁Huvita	-2478
▁arvata	-2479
▁arvuti	-2480
▁enamus	-2481
▁haiged	-2482
▁hommik	-2483
▁ilusti	-2484
▁juhtub	-2485
▁kensey	-2486
▁käivad	-2487
▁küsida	-2488
▁leiuta	-2489
▁leviku	-2490
▁meelde	-2491
▁otsust	-2492
▁siiani	-2493
▁teatud	-2494
▁valmis	-2495
▁võttis	-2496
riginaal	-2497
▁Itaalia	-2498
▁Tallinn	-2499
▁Univers	-2500
▁haiguse	-2501
▁kahjuks	-2502
▁kasvama	-2503
▁kvalite	-2504
▁muretse	-2505
▁mõtlema	-2506
▁mõttetu	-2507
▁oleksin	-2508
▁selgeks	-2509
▁tegutse	-2510
▁ütlesin	-2511
▁Võibolla	-2512
▁järgmine	-2513
▁tavaline	-2514
▁Riigikogu	-2515
▁kasvuhoon	-2516
▁kirjutada	-2517
▁probleemi	-2518
▁professor	-2519
▁tähelepan	-2520
▁kristlaste	-2521
▁suhteliselt	-2522
,5	-2523
//	-2524
ID	-2525
IK	-2526
IT	-2527
KS	-2528
MX	-2529
SE	-2530
ak	-2531
ng	-2532
rg	-2533
▁x	-2534
://	-2535
bab	-2536
bje	-2537
gas	-2538
gut	-2539
ila	-2540
ilo	-2541
int	-2542
ire	-2543
jaa	-2544
lev	-2545
lla	-2546
man	-2547
mee	-2548
neR	-2549
net	-2550
noo	-2551
pea	-2552
pru	-2553
sku	-2554
yyd	-2555
üüp	-2556
▁17	-2557
▁;)	-2558
▁El	-2559
▁Je	-2560
▁ba	-2561
▁jm	-2562
▁sp	-2563
▁öö	-2564
biil	-2565
dama	-2566
diga	-2567
idel	-2568
inga	-2569
jaks	-2570
kaid	-2571
kist	-2572
luse	-2573
mmve	-2574
ndus	-2575
rata	-2576
tile	-2577
vuse	-2578
väär	-2579
▁300	-2580
▁And	-2581
▁Bur	-2582
▁DMX	-2583
▁Hea	-2584
▁Max	-2585
▁Noh	-2586
▁Oma	-2587
▁ast	-2588
▁hak	-2589
▁htt	-2590
▁lõh	-2591
▁löö	-2592
▁mai	-2593
▁nel	-2594
▁oke	-2595
▁spe	-2596
▁tap	-2597
▁tõl	-2598
▁tõs	-2599
▁vas	-2600
▁võõ	-2601
▁Ära	-2602
datud	-2603
elota	-2604
iseer	-2605
isega	-2606
levad	-2607
maail	-2608
masti	-2609
mises	-2610
onore	-2611
palju	-2612
ressi	-2613
stest	-2614
terna	-2615
▁Seal	-2616
▁Sinu	-2617
▁Tead	-2618
▁Tema	-2619
▁Terv	-2620
▁eesm	-2621
▁ellu	-2622
▁hoia	-2623
▁hool	-2624
▁häid	-2625
▁igaü	-2626
▁jutu	-2627
▁karm	-2628
▁katk	-2629
▁kena	-2630
▁käia	-2631
▁luua	-2632
▁mood	-2633
▁nega	-2634
▁noor	-2635
▁penn	-2636
▁pikk	-2637
▁pime	-2638
▁rake	-2639
▁rask	-2640
▁ravi	-2641
▁reeg	-2642
▁saav	-2643
▁sügi	-2644
▁tekk	-2645
▁test	-2646
▁tohi	-2647
▁tume	-2648
▁tunn	-2649
▁tänu	-2650
▁usal	-2651
▁võrd	-2652
▁weeb	-2653
▁Ülik	-2654
ilised	-2655
itakse	-2656
ndatud	-2657
ustele	-2658
▁Aitäh	-2659
▁Isegi	-2660
▁Kõige	-2661
▁Suvat	-2662
▁Taval	-2663
▁Viima	-2664
▁arvad	-2665
▁desin	-2666
▁elame	-2667
▁endal	-2668
▁jätta	-2669
▁kaame	-2670
▁kogem	-2671
▁konkr	-2672
▁kuula	-2673
▁käima	-2674
▁käsit	-2675
▁kõrge	-2676
▁lõuna	-2677
▁mehed	-2678
▁metsa	-2679
▁muude	-2680
▁märts	-2681
▁nägin	-2682
▁ostma	-2683
▁pihta	-2684
▁remon	-2685
▁rohel	-2686
▁sisal	-2687
▁surnu	-2688
▁suvel	-2689
▁sõnul	-2690
▁tanke	-2691
▁tarbi	-2692
▁teisi	-2693
▁tihti	-2694
▁trans	-2695
▁tähta	-2696
▁vajal	-2697
▁valik	-2698
▁viits	-2699
▁ämmve	-2700
▁ühest	-2701
portaal	-2702
▁BurneR	-2703
▁aprill	-2704
▁asjast	-2705
▁enamik	-2706
▁jäävad	-2707
▁kartul	-2708
▁kohale	-2709
▁kõigil	-2710
▁libeda	-2711
▁lisada	-2712
▁loodan	-2713
▁millel	-2714
▁mõttes	-2715
▁näitab	-2716
▁päästa	-2717
▁rahvas	-2718
▁tagant	-2719
▁teksti	-2720
▁vahele	-2721
▁valida	-2722
▁valiku	-2723
▁väikse	-2724
▁Huvitav	-2725
▁Leelota	-2726
▁Näiteks	-2727
▁alterna	-2728
▁esimese	-2729
▁haigest	-2730
▁kõigile	-2731
▁levikut	-2732
▁lihtsam	-2733
▁liikuda	-2734
▁lugesin	-2735
▁maasika	-2736
▁meelest	-2737
▁nendega	-2738
▁nendest	-2739
▁paistab	-2740
▁prognoo	-2741
▁suuline	-2742
▁vastuse	-2743
▁võimatu	-2744
▁ülikool	-2745
▁igatahes	-2746
▁kohustus	-2747
▁kontroll	-2748
▁miljonit	-2749
▁negatiiv	-2750
▁tavalise	-2751
▁tulemusi	-2752
enäoliselt	-2753
▁inimestel	-2754
▁investeer	-2755
▁kasutatud	-2756
▁probleeme	-2757
▁selliseid	-2758
▁desinfitse	-2759
▁nakatunuid	-2760
▁korralikult	-2761
-7	-2762
67	-2763
IL	-2764
OU	-2765
eh	-2766
ih	-2767
▁X	-2768
▁“	-2769
dat	-2770
ela	-2771
for	-2772
htu	-2773
ism	-2774
kab	-2775
kee	-2776
kud	-2777
lit	-2778
mbr	-2779
mes	-2780
mit	-2781
ngu	-2782
sib	-2783
ten	-2784
ume	-2785
uva	-2786
vis	-2787
väe	-2788
www	-2789
xie	-2790
▁--	-2791
▁1.	-2792
▁25	-2793
▁29	-2794
▁70	-2795
▁Al	-2796
▁Ch	-2797
▁Lo	-2798
▁Mä	-2799
▁Nõ	-2800
▁Ol	-2801
▁Pr	-2802
▁TE	-2803
▁cm	-2804
▁co	-2805
▁kl	-2806
▁kö	-2807
alle	-2808
aste	-2809
dile	-2810
ende	-2811
gika	-2812
hkel	-2813
htul	-2814
inas	-2815
joni	-2816
keel	-2817
kesk	-2818
kiir	-2819
kiri	-2820
klas	-2821
koha	-2822
lalt	-2823
lash	-2824
legi	-2825
liit	-2826
meer	-2827
mini	-2828
misi	-2829
mmal	-2830
ndid	-2831
olde	-2832
oovi	-2833
otsi	-2834
pane	-2835
pini	-2836
raga	-2837
ramm	-2838
reid	-2839
rele	-2840
riga	-2841
sint	-2842
tege	-2843
utud	-2844
▁!!!	-2845
▁Kar	-2846
▁Kul	-2847
▁Ost	-2848
▁ale	-2849
▁auk	-2850
▁fot	-2851
▁han	-2852
▁huv	-2853
▁kli	-2854
▁luu	-2855
▁läh	-2856
▁ntx	-2857
▁nur	-2858
▁oot	-2859
▁põr	-2860
▁rav	-2861
▁rõõ	-2862
▁ser	-2863
▁sir	-2864
▁sol	-2865
▁sta	-2866
▁tol	-2867
▁tor	-2868
▁tsi	-2869
▁tõr	-2870
▁vis	-2871
▁äär	-2872
imees	-2873
itust	-2874
jandi	-2875
likum	-2876
mmste	-2877
oluut	-2878
ooksu	-2879
oolis	-2880
oopas	-2881
ooton	-2882
seeri	-2883
taime	-2884
tanud	-2885
tesse	-2886
▁Arva	-2887
▁Enam	-2888
▁Igal	-2889
▁Leop	-2890
▁Liht	-2891
▁Tele	-2892
▁Veel	-2893
▁Väga	-2894
▁alga	-2895
▁amet	-2896
▁eduk	-2897
▁euro	-2898
▁haig	-2899
▁hind	-2900
▁kava	-2901
▁kile	-2902
▁krii	-2903
▁krõb	-2904
▁loeb	-2905
▁main	-2906
▁maja	-2907
▁müüa	-2908
▁näeb	-2909
▁nõus	-2910
▁ohtu	-2911
▁omal	-2912
▁otsa	-2913
▁pähe	-2914
▁rahu	-2915
▁rats	-2916
▁raud	-2917
▁ring	-2918
▁samm	-2919
▁satt	-2920
▁tahe	-2921
▁tarb	-2922
▁tava	-2923
▁teie	-2924
▁tipp	-2925
▁turu	-2926
▁vaim	-2927
▁värk	-2928
▁värs	-2929
▁ühes	-2930
▁üksi	-2931
asikas	-2932
eenius	-2933
ikrobi	-2934
juures	-2935
ressid	-2936
sitiiv	-2937
tavalt	-2938
temaat	-2939
ustaks	-2940
valits	-2941
▁Sixie	-2942
▁Tänan	-2943
▁Vaata	-2944
▁arusa	-2945
▁arust	-2946
▁autod	-2947
▁avast	-2948
▁eemal	-2949
▁ehita	-2950
▁hulle	-2951
▁hullu	-2952
▁isiku	-2953
▁kehte	-2954
▁kogud	-2955
▁külge	-2956
▁laste	-2957
▁levib	-2958
▁meele	-2959
▁meist	-2960
▁nemad	-2961
▁näeme	-2962
▁näida	-2963
▁olegi	-2964
▁omale	-2965
▁organ	-2966
▁ostan	-2967
▁prits	-2968
▁sääst	-2969
▁sünni	-2970
▁toime	-2971
▁tugev	-2972
▁tunda	-2973
▁tutta	-2974
▁väide	-2975
▁ükski	-2976
enesest	-2977
▁Mihkel	-2978
▁hakkad	-2979
▁imelik	-2980
▁jookse	-2981
▁järsku	-2982
▁kasvõi	-2983
▁klassi	-2984
▁läheks	-2985
▁nimelt	-2986
▁number	-2987
▁osanud	-2988
▁proovi	-2989
▁puudub	-2990
▁päeval	-2991
▁rääkis	-2992
▁seisma	-2993
▁suhtes	-2994
▁suured	-2995
▁sõbrad	-2996
▁tasuta	-2997
▁teavad	-2998
▁teemas	-2999
▁väljas	-3000
▁Ilmselt	-3001
▁Selline	-3002
▁arvavad	-3003
▁igasugu	-3004
▁jõudnud	-3005
▁kasutab	-3006
▁kergelt	-3007
▁kogemus	-3008
▁kosmose	-3009
▁meeldib	-3010
▁millega	-3011
▁millise	-3012
▁nakkuse	-3013
▁oleksid	-3014
▁peenras	-3015
▁premium	-3016
▁sügisel	-3017
▁tekitab	-3018
▁tähenda	-3019
▁vahenda	-3020
▁valesti	-3021
▁viimase	-3022
▁absoluut	-3023
▁automaat	-3024
▁eelmisel	-3025
▁kodaniku	-3026
▁kohtades	-3027
▁korralik	-3028
▁rullnokk	-3029
▁tähendab	-3030
▁vaktsiin	-3031
▁veebruar	-3032
▁Tallinnas	-3033
▁kasvatada	-3034
▁meditsiin	-3035
▁nakatunud	-3036
▁samamoodi	-3037
▁Terviseame	-3038
▁kirjutatud	-3039
▁kuulutuses	-3040
▁metsmaasika	-3041
▁tõenäoliselt	-3042
▁kodanikuportaal	-3043
01	-3044
3-	-3045
=|	-3046
AL	-3047
DA	-3048
TE	-3049
aa	-3050
af	-3051
bu	-3052
up	-3053
zi	-3054
▁&	-3055
eem	-3056
enn	-3057
hat	-3058
hus	-3059
hva	-3060
iib	-3061
ino	-3062
isõ	-3063
jun	-3064
kar	-3065
ker	-3066
kor	-3067
ksi	-3068
kte	-3069
lab	-3070
led	-3071
mst	-3072
nev	-3073
olt	-3074
oob	-3075
oog	-3076
pia	-3077
pla	-3078
ppa	-3079
sil	-3080
tad	-3081
uge	-3082
une	-3083
ves	-3084
vey	-3085
vid	-3086
wil	-3087
äär	-3088
ööd	-3089
▁0,	-3090
▁14	-3091
▁2.	-3092
▁80	-3093
▁Do	-3094
▁EK	-3095
▁Ha	-3096
▁Kr	-3097
▁My	-3098
▁NI	-3099
▁St	-3100
▁TT	-3101
▁ai	-3102
▁au	-3103
▁eb	-3104
▁ge	-3105
▁id	-3106
▁of	-3107
▁rs	-3108
▁|=	-3109
▁õp	-3110
0000	-3111
0007	-3112
alne	-3113
anne	-3114
ante	-3115
arve	-3116
atal	-3117
gast	-3118
giga	-3119
gist	-3120
gula	-3121
iini	-3122
illa	-3123
isel	-3124
jaga	-3125
jana	-3126
jata	-3127
jeks	-3128
kese	-3129
kida	-3130
kilt	-3131
kult	-3132
like	-3133
mark	-3134
meel	-3135
mees	-3136
mele	-3137
mned	-3138
mpto	-3139
naga	-3140
ordi	-3141
orex	-3142
oris	-3143
piir	-3144
rehv	-3145
rius	-3146
sche	-3147
tikk	-3148
ukoh	-3149
ungi	-3150
urid	-3151
utav	-3152
vaat	-3153
yota	-3154
zone	-3155
▁500	-3156
▁Arv	-3157
▁Las	-3158
▁Maa	-3159
▁Mot	-3160
▁Pas	-3161
▁Poo	-3162
▁Por	-3163
▁Tee	-3164
▁Tom	-3165
▁Too	-3166
▁Tul	-3167
▁USA	-3168
▁YOU	-3169
▁asf	-3170
▁edu	-3171
▁hmm	-3172
▁huu	-3173
▁ide	-3174
▁imo	-3175
▁int	-3176
▁ita	-3177
▁kod	-3178
▁köö	-3179
▁mut	-3180
▁naa	-3181
▁pis	-3182
▁pul	-3183
▁sõr	-3184
▁toe	-3185
▁tom	-3186
▁tõe	-3187
▁vae	-3188
▁üht	-3189
eerib	-3190
eetpa	-3191
estab	-3192
gitud	-3193
gusel	-3194
häire	-3195
iesti	-3196
imõtt	-3197
isaks	-3198
iseid	-3199
istan	-3200
miste	-3201
risse	-3202
saada	-3203
stama	-3204
usalt	-3205
utama	-3206
utult	-3207
vahel	-3208
õnaga	-3209
▁1000	-3210
▁Auto	-3211
▁Järg	-3212
▁Kang	-3213
▁Mõni	-3214
▁Sest	-3215
▁Soov	-3216
▁Taha	-3217
▁Tean	-3218
▁arst	-3219
▁arve	-3220
▁dire	-3221
▁eral	-3222
▁esma	-3223
▁huvi	-3224
▁häda	-3225
▁jala	-3226
▁juua	-3227
▁kaub	-3228
▁keer	-3229
▁kodu	-3230
▁käsi	-3231
▁külm	-3232
▁lase	-3233
▁leeb	-3234
▁meet	-3235
▁mõju	-3236
▁nyyd	-3237
▁näen	-3238
▁näge	-3239
▁näht	-3240
▁näol	-3241
▁närv	-3242
▁obje	-3243
▁osad	-3244
▁oste	-3245
▁pand	-3246
▁pilt	-3247
▁popi	-3248
▁pöör	-3249
▁rõõm	-3250
▁seni	-3251
▁sõja	-3252
▁süda	-3253
▁tall	-3254
▁teil	-3255
▁täit	-3256
▁tõde	-3257
▁tõsi	-3258
▁varu	-3259
▁vett	-3260
▁viha	-3261
▁viia	-3262
▁viie	-3263
▁võim	-3264
▁õlut	-3265
▁ühel	-3266
▁ühis	-3267
▁ülla	-3268
jatele	-3269
lastel	-3270
likuks	-3271
oloogi	-3272
statud	-3273
stavad	-3274
▁Esime	-3275
▁Mingi	-3276
▁Mitte	-3277
▁Pigem	-3278
▁Pilge	-3279
▁Reaal	-3280
▁eelda	-3281
▁ennem	-3282
▁eurot	-3283
▁jätku	-3284
▁jääks	-3285
▁kalla	-3286
▁kasul	-3287
▁keskk	-3288
▁kohas	-3289
▁kordu	-3290
▁kuiva	-3291
▁kõiki	-3292
▁kümne	-3293
▁lause	-3294
▁lähed	-3295
▁lõpus	-3296
▁madal	-3297
▁moodi	-3298
▁mudel	-3299
▁mängi	-3300
▁mõnus	-3301
▁nelja	-3302
▁olete	-3303
▁ometi	-3304
▁otsas	-3305
▁paari	-3306
▁pakku	-3307
▁palve	-3308
▁paned	-3309
▁point	-3310
▁puudu	-3311
▁ruumi	-3312
▁saade	-3313
▁saaki	-3314
▁saama	-3315
▁saate	-3316
▁sobib	-3317
▁sulge	-3318
▁suval	-3319
▁sõber	-3320
▁sügav	-3321
▁tilli	-3322
▁tuden	-3323
▁vaeva	-3324
▁väida	-3325
▁öeldi	-3326
ooksuja	-3327
umisest	-3328
▁Sirius	-3329
▁aatomi	-3330
▁artikk	-3331
▁asenda	-3332
▁asjade	-3333
▁avalik	-3334
▁foorum	-3335
▁helist	-3336
▁hobuse	-3337
▁islami	-3338
▁kallis	-3339
▁kannat	-3340
▁kirjas	-3341
▁koopia	-3342
▁kujune	-3343
▁läksid	-3344
▁lõpeta	-3345
▁madala	-3346
▁maksab	-3347
▁maksma	-3348
▁mingil	-3349
▁minust	-3350
▁mustad	-3351
▁mõtled	-3352
▁protse	-3353
▁puutub	-3354
▁reetpa	-3355
▁seleta	-3356
▁seotud	-3357
▁standa	-3358
▁suudab	-3359
▁sõidab	-3360
▁sõidan	-3361
▁sümpto	-3362
▁teadus	-3363
▁tekita	-3364
▁tohiks	-3365
▁vaatab	-3366
▁vabalt	-3367
▁varsti	-3368
▁ämmvei	-3369
▁õppida	-3370
▁öeldud	-3371
▁Kirjuta	-3372
▁Koroona	-3373
▁Leopard	-3374
▁Motorex	-3375
▁Premium	-3376
▁Rammste	-3377
▁Sellest	-3378
▁Soovita	-3379
▁aastaid	-3380
▁edukalt	-3381
▁energia	-3382
▁erilist	-3383
▁hakkaks	-3384
▁hinnaga	-3385
▁huvitab	-3386
▁justkui	-3387
▁juurest	-3388
▁järjest	-3389
▁jõulude	-3390
▁kaamera	-3391
▁kasvata	-3392
▁kiirust	-3393
▁korraks	-3394
▁kuulata	-3395
▁kõigest	-3396
▁millegi	-3397
▁millele	-3398
▁oluline	-3399
▁päikese	-3400
▁rääkima	-3401
▁sõitnud	-3402
▁tahtnud	-3403
▁tasemel	-3404
▁teadnud	-3405
▁teisiti	-3406
▁teooria	-3407
▁täielik	-3408
▁vaatama	-3409
▁valmist	-3410
▁viimane	-3411
▁ükskord	-3412
▁Inimesed	-3413
▁Lihtsalt	-3414
▁Saaremaa	-3415
▁eleonore	-3416
▁enamasti	-3417
▁energiat	-3418
▁hommikul	-3419
▁igapäeva	-3420
▁inimesel	-3421
▁korralda	-3422
▁lugemine	-3423
▁matemaat	-3424
▁mõistlik	-3425
▁niipalju	-3426
▁positiiv	-3427
▁päritolu	-3428
▁soovitab	-3429
▁tähtajal	-3430
▁vahepeal	-3431
▁viirused	-3432
▁Ülikooli	-3433
▁üldiselt	-3434
▁Leelotaja	-3435
▁erinevate	-3436
▁järgmisel	-3437
▁krooksuja	-3438
▁lamelliga	-3439
▁miljardit	-3440
▁minevikus	-3441
▁toiduaine	-3442
▁tulemused	-3443
▁tulevikus	-3444
▁tunduvalt	-3445
▁võrreldes	-3446
▁ülejäänud	-3447
▁iseenesest	-3448
▁paanikahoo	-3449
▁sisuliselt	-3450
▁tähelepanu	-3451
▁universumi	-3452
▁alternatiiv	-3453
ikrobioloogia	-3454
▁koroonaviirus	-3455
-3	-3456
60	-3457
??	-3458
GG	-3459
II	-3460
RS	-3461
VA	-3462
ca	-3463
ky	-3464
pr	-3465
pä	-3466
rr	-3467
ry	-3468
sp	-3469
sõ	-3470
th	-3471
wa	-3472
yr	-3473
▁€	-3474
-19	-3475
-72	-3476
...	-3477
ATO	-3478
GGy	-3479
ald	-3480
alg	-3481
arb	-3482
ath	-3483
cer	-3484
ded	-3485
did	-3486
fil	-3487
ger	-3488
gub	-3489
hem	-3490
his	-3491
hku	-3492
iri	-3493
jud	-3494
jär	-3495
koh	-3496
kur	-3497
lah	-3498
lal	-3499
lja	-3500
lol	-3501
mba	-3502
nel	-3503
ner	-3504
oja	-3505
osi	-3506
pte	-3507
put	-3508
puu	-3509
ren	-3510
ruu	-3511
sch	-3512
sik	-3513
sim	-3514
sul	-3515
tet	-3516
tor	-3517
tsu	-3518
tti	-3519
udi	-3520
uer	-3521
usu	-3522
võt	-3523
üri	-3524
üüa	-3525
▁35	-3526
▁:/	-3527
▁Ah	-3528
▁CO	-3529
▁De	-3530
▁EU	-3531
▁IT	-3532
▁Ju	-3533
▁Jõ	-3534
▁Kä	-3535
▁Mo	-3536
▁ae	-3537
▁ak	-3538
▁jo	-3539
▁lü	-3540
▁mp	-3541
▁nö	-3542
▁vo	-3543
aast	-3544
adel	-3545
aega	-3546
agri	-3547
aval	-3548
cket	-3549
dade	-3550
delt	-3551
esid	-3552
evad	-3553
giks	-3554
gile	-3555
gule	-3556
hane	-3557
ikul	-3558
iseb	-3559
ites	-3560
kski	-3561
ksta	-3562
lase	-3563
leks	-3564
levi	-3565
lika	-3566
meet	-3567
mmun	-3568
ndal	-3569
neva	-3570
olog	-3571
osit	-3572
rava	-3573
sega	-3574
seis	-3575
sent	-3576
sete	-3577
stru	-3578
tead	-3579
tted	-3580
tund	-3581
ulut	-3582
umas	-3583
unne	-3584
võrd	-3585
ärss	-3586
▁201	-3587
▁29.	-3588
▁Man	-3589
▁Min	-3590
▁Nad	-3591
▁Oli	-3592
▁Tor	-3593
▁gud	-3594
▁huk	-3595
▁irw	-3596
▁isa	-3597
▁juu	-3598
▁kru	-3599
▁käe	-3600
▁lol	-3601
▁lää	-3602
▁mõõ	-3603
▁mür	-3604
▁net	-3605
▁per	-3606
▁pik	-3607
▁pop	-3608
▁reh	-3609
▁ris	-3610
▁sob	-3611
▁tra	-3612
▁tuh	-3613
▁tär	-3614
▁yle	-3615
▁Üld	-3616
▁üli	-3617
aasta	-3618
akaal	-3619
atist	-3620
borat	-3621
ganud	-3622
hinna	-3623
idust	-3624
ikast	-3625
imalt	-3626
isest	-3627
juhul	-3628
keste	-3629
ktori	-3630
lesid	-3631
lusid	-3632
maalt	-3633
misse	-3634
mused	-3635
peale	-3636
poole	-3637
ppida	-3638
ralik	-3639
strum	-3640
udest	-3641
uselt	-3642
ustun	-3643
vatel	-3644
vikku	-3645
õpeta	-3646
▁Ants	-3647
▁Juba	-3648
▁Kind	-3649
▁Luge	-3650
▁NATO	-3651
▁Neid	-3652
▁ajus	-3653
▁ekra	-3654
▁foto	-3655
▁hele	-3656
▁hull	-3657
▁igas	-3658
▁kaup	-3659
▁kell	-3660
▁komb	-3661
▁kuku	-3662
▁käin	-3663
▁lagu	-3664
▁laht	-3665
▁laie	-3666
▁lamb	-3667
▁laul	-3668
▁laus	-3669
▁maal	-3670
▁maga	-3671
▁mora	-3672
▁muus	-3673
▁männ	-3674
▁naka	-3675
▁onju	-3676
▁paks	-3677
▁pare	-3678
▁päde	-3679
▁rock	-3680
▁sega	-3681
▁säil	-3682
▁till	-3683
▁tuul	-3684
▁twil	-3685
▁tööl	-3686
▁ulme	-3687
▁uuri	-3688
▁uusi	-3689
▁vald	-3690
▁viin	-3691
▁võin	-3692
▁võis	-3693
eenras	-3694
giline	-3695
idesse	-3696
iguste	-3697
ikesed	-3698
isvara	-3699
ituste	-3700
musest	-3701
nikord	-3702
oopika	-3703
siooni	-3704
umisel	-3705
usesse	-3706
utakse	-3707
utasin	-3708
utatud	-3709
utavad	-3710
▁Angel	-3711
▁DoGGy	-3712
▁Krist	-3713
▁Kärss	-3714
▁Mulle	-3715
▁Nende	-3716
▁Posta	-3717
▁Päris	-3718
▁abiks	-3719
▁ainus	-3720
▁ajaks	-3721
▁algul	-3722
▁esile	-3723
▁hilja	-3724
▁hääli	-3725
▁juhid	-3726
▁kalli	-3727
▁keelt	-3728
▁kitse	-3729
▁kompo	-3730
▁kuule	-3731
▁leebe	-3732
▁lehed	-3733
▁lenda	-3734
▁lolli	-3735
▁loode	-3736
▁lõppe	-3737
▁maksa	-3738
▁maski	-3739
▁mater	-3740
▁minut	-3741
▁muuse	-3742
▁narts	-3743
▁näite	-3744
▁nõrge	-3745
▁panen	-3746
▁paras	-3747
▁piiri	-3748
▁pilet	-3749
▁playl	-3750
▁puhas	-3751
▁pääse	-3752
▁põhja	-3753
▁range	-3754
▁ravim	-3755
▁samal	-3756
▁silma	-3757
▁suhte	-3758
▁super	-3759
▁surem	-3760
▁suude	-3761
▁südam	-3762
▁tahad	-3763
▁teagi	-3764
▁teeme	-3765
▁telli	-3766
▁testi	-3767
▁tõmba	-3768
▁tõmma	-3769
▁vabad	-3770
▁välis	-3771
▁võime	-3772
▁yldse	-3773
imiseks	-3774
poolest	-3775
raditsi	-3776
süsteem	-3777
teerida	-3778
ulaator	-3779
▁Hetkel	-3780
▁Kangro	-3781
▁Lisaks	-3782
▁Loodan	-3783
▁Pahane	-3784
▁Papini	-3785
▁Samuti	-3786
▁Selles	-3787
▁Vasuri	-3788
▁aidata	-3789
▁aktiiv	-3790
▁alates	-3791
▁armast	-3792
▁asfalt	-3793
▁ausalt	-3794
▁autode	-3795
▁eemale	-3796
▁eksami	-3797
▁gudher	-3798
▁hakkan	-3799
▁kaugel	-3800
▁keeles	-3801
▁kommen	-3802
▁koroon	-3803
▁kummal	-3804
▁kuradi	-3805
▁kurvis	-3806
▁kvanta	-3807
▁läksin	-3808
▁maailm	-3809
▁ootama	-3810
▁paastu	-3811
▁panema	-3812
▁parane	-3813
▁pidada	-3814
▁pocket	-3815
▁põhjal	-3816
▁raputa	-3817
▁reaals	-3818
▁religi	-3819
▁suunas	-3820
▁suurte	-3821
▁sõbran	-3822
▁sõitma	-3823
▁teemad	-3824
▁teemat	-3825
▁tehnik	-3826
▁tekkis	-3827
▁telkla	-3828
▁tunned	-3829
▁tähele	-3830
▁uurida	-3831
▁uurima	-3832
▁viisil	-3833
▁võetud	-3834
▁võinud	-3835
▁öelnud	-3836
ightzone	-3837
rastatud	-3838
süsteemi	-3839
▁Euroopa	-3840
▁Saarema	-3841
▁Venemaa	-3842
▁aastast	-3843
▁arvates	-3844
▁elektri	-3845
▁esimest	-3846
▁haigust	-3847
▁hakanud	-3848
▁kellele	-3849
▁kodanik	-3850
▁koosneb	-3851
▁käsitle	-3852
▁külvata	-3853
▁laborat	-3854
▁leidnud	-3855
▁masinat	-3856
▁mullaga	-3857
▁mõjutab	-3858
▁paranda	-3859
▁pidanud	-3860
▁politse	-3861
▁statist	-3862
▁surmade	-3863
▁suulise	-3864
▁süsteem	-3865
▁tahavad	-3866
▁tahtsin	-3867
▁tankide	-3868
▁teisele	-3869
▁tekivad	-3870
▁tuumaja	-3871
▁vaevalt	-3872
▁vajalik	-3873
▁vajavad	-3874
▁valgust	-3875
▁võiksid	-3876
▁ütlesid	-3877
▁Ajamasin	-3878
▁Soovitan	-3879
▁Suvatüüp	-3880
▁algusest	-3881
▁direktor	-3882
▁foorumis	-3883
▁hävitada	-3884
▁kasvanud	-3885
▁kellelgi	-3886
▁kiirusel	-3887
▁kommenta	-3888
▁monstrum	-3889
▁piirangu	-3890
▁popipäev	-3891
▁programm	-3892
▁põhjenda	-3893
▁saaremaa	-3894
▁seemneid	-3895
▁tasakaal	-3896
▁teemasse	-3897
▁telefoni	-3898
▁troopika	-3899
▁usklikud	-3900
▁vaadanud	-3901
▁vahetada	-3902
▁viroloog	-3903
▁Mihkelsch	-3904
▁enesekind	-3905
▁järjekord	-3906
▁kaubandus	-3907
▁kiirusega	-3908
▁kristlasi	-3909
▁originaal	-3910
▁suuremaks	-3911
▁tulevikku	-3912
▁vaktsiini	-3913
▁viitsinud	-3914
▁Tavaliselt	-3915
▁kirjutasin	-3916
▁kättesaada	-3917
▁samasuguse	-3918
▁terviseame	-3919
▁tänapäeval	-3920
▁õnnestunud	-3921
imõtteliselt	-3922
▁arvatavasti	-3923
▁laboratoori	-3924
▁loomulikult	-3925
▁mingisuguse	-3926
▁võimalikult	-3927
▁paanikahäire	-3928
▁twilightzone	-3929
▁mikrobioloogia	-3930
▁teoreetiliselt	-3931
-2	-3932
3.	-3933
34	-3934
6.	-3935
7.	-3936
80	-3937
AR	-3938
EK	-3939
EL	-3940
GA	-3941
JU	-3942
LO	-3943
MA	-3944
UT	-3945
cu	-3946
ic	-3947
iu	-3948
iv	-3949
mz	-3950
mõ	-3951
oy	-3952
qu	-3953
sy	-3954
tr	-3955
vu	-3956
öh	-3957
ör	-3958
▁>	-3959
▁”	-3960
666	-3961
ark	-3962
asu	-3963
atu	-3964
bit	-3965
cki	-3966
dru	-3967
ema	-3968
jed	-3969
kam	-3970
kan	-3971
key	-3972
kis	-3973
kot	-3974
kre	-3975
len	-3976
loo	-3977
min	-3978
mpe	-3979
mäe	-3980
nar	-3981
nut	-3982
out	-3983
pan	-3984
pär	-3985
que	-3986
rab	-3987
ram	-3988
rdi	-3989
reb	-3990
ron	-3991
sat	-3992
ssa	-3993
ssi	-3994
tar	-3995
wer	-3996
ärk	-3997
õit	-3998
õpp	-3999
▁22	-4000
▁3-	-4001
▁4-	-4002
▁81	-4003
▁88	-4004
▁95	-4005
▁:(	-4006
▁=)	-4007
▁Ar	-4008
▁BT	-4009
▁EI	-4010
▁KA	-4011
▁KÕ	-4012
▁Pü	-4013
▁SU	-4014
▁Tõ	-4015
▁Us	-4016
▁ex	-4017
▁gu	-4018
▁mm	-4019
▁oi	-4020
▁ok	-4021
▁rü	-4022
▁vb	-4023
▁vö	-4024
▁õi	-4025
▁üp	-4026
adid	-4027
brit	-4028
deko	-4029
duse	-4030
eede	-4031
eedi	-4032
eest	-4033
elli	-4034
este	-4035
ette	-4036
geli	-4037
gida	-4038
giku	-4039
gilt	-4040
haha	-4041
htis	-4042
ideo	-4043
idud	-4044
ille	-4045
imen	-4046
iska	-4047
itel	-4048
just	-4049
juti	-4050
kaan	-4051
kaks	-4052
koht	-4053
ldus	-4054
leid	-4055
lite	-4056
mite	-4057
neda	-4058
nime	-4059
raha	-4060
rine	-4061
sist	-4062
tast	-4063
teen	-4064
tuna	-4065
ulad	-4066
ulda	-4067
unda	-4068
undi	-4069
unut	-4070
utas	-4071
vaba	-4072
vane	-4073
veer	-4074
viku	-4075
ääri	-4076
▁---	-4077
▁120	-4078
▁Ale	-4079
▁Eel	-4080
▁Ent	-4081
▁Esi	-4082
▁Har	-4083
▁Hmm	-4084
▁Ing	-4085
▁Jär	-4086
▁Jää	-4087
▁Kop	-4088
▁Krt	-4089
▁Mär	-4090
▁Nat	-4091
▁Nor	-4092
▁Par	-4093
▁Ras	-4094
▁Sii	-4095
▁Tel	-4096
▁Täp	-4097
▁Uus	-4098
▁VIN	-4099
▁Var	-4100
▁Vot	-4101
▁cor	-4102
▁eet	-4103
▁efe	-4104
▁hel	-4105
▁her	-4106
▁idi	-4107
▁ine	-4108
▁jor	-4109
▁kad	-4110
▁kär	-4111
▁lab	-4112
▁lau	-4113
▁lin	-4114
▁lüh	-4115
▁lül	-4116
▁mah	-4117
▁näl	-4118
▁püü	-4119
▁rüh	-4120
▁sar	-4121
▁sen	-4122
▁tah	-4123
▁the	-4124
▁top	-4125
▁tub	-4126
▁ven	-4127
▁vot	-4128
▁yks	-4129
anded	-4130
chine	-4131
dinud	-4132
eedik	-4133
eetse	-4134
iajal	-4135
ikese	-4136
ileti	-4137
ilisi	-4138
istes	-4139
jelda	-4140
ksama	-4141
kõige	-4142
maine	-4143
mbris	-4144
misvõ	-4145
nased	-4146
ndeid	-4147
nneks	-4148
nusta	-4149
oline	-4150
oloog	-4151
onaal	-4152
osity	-4153
pruul	-4154
tõttu	-4155
ustav	-4156
vadki	-4157
vähem	-4158
▁Ajas	-4159
▁Enda	-4160
▁Enne	-4161
▁Ette	-4162
▁Just	-4163
▁Lenn	-4164
▁Must	-4165
▁Niis	-4166
▁Peab	-4167
▁Põld	-4168
▁Raha	-4169
▁SARS	-4170
▁Tark	-4171
▁Vahe	-4172
▁Viir	-4173
▁aias	-4174
▁bana	-4175
▁edas	-4176
▁epid	-4177
▁fakt	-4178
▁grip	-4179
▁halb	-4180
▁hing	-4181
▁hint	-4182
▁http	-4183
▁hulk	-4184
▁hüpp	-4185
▁jura	-4186
▁jäid	-4187
▁kaob	-4188
▁kuld	-4189
▁kult	-4190
▁käed	-4191
▁käis	-4192
▁külv	-4193
▁lahk	-4194
▁laps	-4195
▁liha	-4196
▁liig	-4197
▁lõpe	-4198
▁maad	-4199
▁mehe	-4200
▁mete	-4201
▁mult	-4202
▁mõnu	-4203
▁mõõt	-4204
▁niit	-4205
▁nuht	-4206
▁odav	-4207
▁okei	-4208
▁paik	-4209
▁pakk	-4210
▁pesa	-4211
▁piib	-4212
▁pika	-4213
▁pist	-4214
▁puht	-4215
▁põde	-4216
▁püüd	-4217
▁rati	-4218
▁rist	-4219
▁romz	-4220
▁room	-4221
▁sini	-4222
▁soom	-4223
▁sort	-4224
▁sugu	-4225
▁sõnu	-4226
▁süüd	-4227
▁taas	-4228
▁taks	-4229
▁tarv	-4230
▁tera	-4231
▁täps	-4232
▁ukse	-4233
▁uued	-4234
▁õied	-4235
▁üleü	-4236
amaani	-4237
asikad	-4238
imisel	-4239
istama	-4240
itused	-4241
jandus	-4242
kaitse	-4243
levipo	-4244
nevalt	-4245
rebane	-4246
ritest	-4247
setest	-4248
sugune	-4249
usmari	-4250
ustega	-4251
uurija	-4252
▁Covid	-4253
▁Elvis	-4254
▁Flash	-4255
▁Light	-4256
▁Muide	-4257
▁Mõned	-4258
▁Peale	-4259
▁Prügi	-4260
▁Pärnu	-4261
▁Sulle	-4262
▁Toidu	-4263
▁ameer	-4264
▁andme	-4265
▁arvas	-4266
▁autol	-4267
▁autor	-4268
▁bussi	-4269
▁davey	-4270
▁eleme	-4271
▁erial	-4272
▁esine	-4273
▁folde	-4274
▁foori	-4275
▁garan	-4276
▁hoiab	-4277
▁hooli	-4278
▁hukka	-4279
▁hulga	-4280
▁häält	-4281
▁igast	-4282
▁impul	-4283
▁infor	-4284
▁jälgi	-4285
▁kaota	-4286
▁kaval	-4287
▁kirik	-4288
▁kohad	-4289
▁koost	-4290
▁kordi	-4291
▁kurat	-4292
▁kurja	-4293
▁külla	-4294
▁lapse	-4295
▁leian	-4296
▁lõiga	-4297
▁mitme	-4298
▁muret	-4299
▁naeru	-4300
▁naise	-4301
▁nähta	-4302
▁närvi	-4303
▁nõude	-4304
▁paika	-4305
▁pandi	-4306
▁paneb	-4307
▁pidin	-4308
▁pidur	-4309
▁pilti	-4310
▁pisut	-4311
▁poest	-4312
▁prote	-4313
▁proua	-4314
▁pudel	-4315
▁puhta	-4316
▁põlev	-4317
▁saagi	-4318
▁saame	-4319
▁selts	-4320
▁sinus	-4321
▁sööda	-4322
▁söögi	-4323
▁süüdi	-4324
▁tahes	-4325
▁talve	-4326
▁tasub	-4327
▁tehis	-4328
▁teile	-4329
▁tuhat	-4330
▁tulen	-4331
▁tänud	-4332
▁tõest	-4333
▁tõsta	-4334
▁veend	-4335
▁vihka	-4336
▁väita	-4337
▁väärt	-4338
▁võrra	-4339
▁õhtul	-4340
▁üpris	-4341
imisega	-4342
inasjut	-4343
ktsioon	-4344
onüümne	-4345
umiseks	-4346
▁Ainult	-4347
▁Natuke	-4348
▁Tahaks	-4349
▁Teised	-4350
▁Tekkis	-4351
▁Telkla	-4352
▁aastas	-4353
▁absint	-4354
▁aimugi	-4355
▁andmed	-4356
▁autoga	-4357
▁avasta	-4358
▁ehitus	-4359
▁footon	-4360
▁füüsik	-4361
▁grippi	-4362
▁haigus	-4363
▁hirmus	-4364
▁hoiata	-4365
▁hullem	-4366
▁iganes	-4367
▁igaüks	-4368
▁kardab	-4369
▁kergem	-4370
▁konsul	-4371
▁krooni	-4372
▁kujuta	-4373
▁käisin	-4374
▁kõlbab	-4375
▁lahend	-4376
▁lammas	-4377
▁lapsed	-4378
▁levita	-4379
▁lubada	-4380
▁maksta	-4381
▁meedia	-4382
▁miskit	-4383
▁mootor	-4384
▁niiske	-4385
▁objekt	-4386
▁odavad	-4387
▁otsast	-4388
▁paigal	-4389
▁paraku	-4390
▁piisab	-4391
▁pildil	-4392
▁plaani	-4393
▁poliit	-4394
▁sageli	-4395
▁sedasi	-4396
▁seisab	-4397
▁silmad	-4398
▁soovid	-4399
▁sääste	-4400
▁teises	-4401
▁temaga	-4402
▁toyota	-4403
▁tunnen	-4404
▁tuttav	-4405
▁tänase	-4406
▁uskuma	-4407
▁vahest	-4408
▁vanade	-4409
▁vanuse	-4410
▁vastas	-4411
▁veelgi	-4412
▁vägagi	-4413
▁Õnneks	-4414
▁õnneks	-4415
▁ütleks	-4416
gikuulut	-4417
kadeemia	-4418
ratsioon	-4419
tatsioon	-4420
▁Saksama	-4421
▁Täiesti	-4422
▁aastate	-4423
▁eelmise	-4424
▁endasse	-4425
▁hoiavad	-4426
▁kadunud	-4427
▁kastmis	-4428
▁kiirelt	-4429
▁kohanud	-4430
▁korraga	-4431
▁kuskile	-4432
▁kõvasti	-4433
▁levinud	-4434
▁lisatud	-4435
▁mateeri	-4436
▁meelega	-4437
▁miljoni	-4438
▁moodust	-4439
▁mootori	-4440
▁muideks	-4441
▁mäletan	-4442
▁mõeldud	-4443
▁mõelnud	-4444
▁nartsis	-4445
▁pakkuda	-4446
▁paremad	-4447
▁peaksid	-4448
▁piirkon	-4449
▁pinnase	-4450
▁püüdnud	-4451
▁rahvast	-4452
▁riikide	-4453
▁seemned	-4454
▁seisuga	-4455
▁soodust	-4456
▁surnuid	-4457
▁suutnud	-4458
▁teadsin	-4459
▁tegevus	-4460
▁tänaval	-4461
▁tõrjeks	-4462
▁õpetaja	-4463
iroloogia	-4464
▁Itaalias	-4465
▁aadressi	-4466
▁ajamasin	-4467
▁aprillil	-4468
▁artikkel	-4469
▁erinevad	-4470
▁hakkasid	-4471
▁halvasti	-4472
▁hooldeko	-4473
▁jahimees	-4474
▁juhtunud	-4475
▁kannavad	-4476
▁kindlalt	-4477
▁kirjalik	-4478
▁kirjelda	-4479
▁kirjutas	-4480
▁kogemust	-4481
▁kolmanda	-4482
▁kordades	-4483
▁kosmoses	-4484
▁käitumis	-4485
▁lamellid	-4486
▁moslemid	-4487
▁muutunud	-4488
▁olevikus	-4489
▁olukorda	-4490
▁pannakse	-4491
▁pritsida	-4492
▁põhjusel	-4493
▁raudselt	-4494
▁rullnoka	-4495
▁räägivad	-4496
▁rääkisin	-4497
▁saadakse	-4498
▁seletada	-4499
▁sipelgad	-4500
▁sisaldab	-4501
▁sügavkül	-4502
▁süsteemi	-4503
▁tegemine	-4504
▁teistest	-4505
▁tekitada	-4506
▁tellinud	-4507
▁toimunud	-4508
▁tulemuse	-4509
▁tundmatu	-4510
▁uskumatu	-4511
▁vastupid	-4512
▁võrrelda	-4513
▁öeldakse	-4514
▁ülemaail	-4515
▁ülikooli	-4516
▁Kuuuurija	-4517
▁Universum	-4518
▁arvutused	-4519
▁ennustada	-4520
▁karusmari	-4521
▁kirjutama	-4522
▁korraliku	-4523
▁kristlane	-4524
▁küsitakse	-4525
▁moslemeid	-4526
▁muinasjut	-4527
▁normaalne	-4528
▁oluliselt	-4529
▁omavalits	-4530
▁peamiselt	-4531
▁pensionär	-4532
▁proovinud	-4533
▁tahetakse	-4534
▁transport	-4535
▁universum	-4536
▁vastupidi	-4537
▁õitsemise	-4538
▁inimestele	-4539
▁isiklikult	-4540
▁järelikult	-4541
▁konkreetse	-4542
▁kuulutused	-4543
▁lahendanud	-4544
▁professori	-4545
▁rahulikult	-4546
▁räägitakse	-4547
▁samasugune	-4548
▁simulaator	-4549
▁sinirebane	-4550
▁tulevikust	-4551
▁valguskiir	-4552
▁Arvatavasti	-4553
▁Loomulikult	-4554
▁kasvuhoones	-4555
▁kvantarvuti	-4556
▁lamellidega	-4557
▁müügikuulut	-4558
▁planeeritud	-4559
▁õppejõudude	-4560
▁absoluutselt	-4561
▁kasvuhoonesse	-4562
▁kaubanduskesk	-4563
▁koroonaviiruse	-4564
▁laboratooriumis	-4565
33	-4566
90	-4567
BA	-4568
LE	-4569
RE	-4570
RI	-4571
UM	-4572
cy	-4573
do	-4574
eo	-4575
go	-4576
hQ	-4577
hm	-4578
oa	-4579
ow	-4580
rä	-4581
tf	-4582
tm	-4583
tq	-4584
▁<	-4585
▁~	-4586
▁Ö	-4587
▁’	-4588
Boy	-4589
VID	-4590
alo	-4591
bid	-4592
dup	-4593
esu	-4594
evu	-4595
har	-4596
hoi	-4597
iat	-4598
idr	-4599
iid	-4600
iip	-4601
iko	-4602
kah	-4603
kib	-4604
kuu	-4605
leb	-4606
ler	-4607
mma	-4608
nal	-4609
num	-4610
nus	-4611
ode	-4612
olü	-4613
ong	-4614
ort	-4615
osf	-4616
osk	-4617
ott	-4618
pib	-4619
pra	-4620
pud	-4621
puh	-4622
rah	-4623
rea	-4624
red	-4625
rra	-4626
sen	-4627
ska	-4628
soo	-4629
sud	-4630
tat	-4631
ted	-4632
tei	-4633
tid	-4634
tma	-4635
tsa	-4636
tut	-4637
uka	-4638
uki	-4639
ulu	-4640
utä	-4641
ved	-4642
vee	-4643
ven	-4644
veo	-4645
vii	-4646
vit	-4647
vol	-4648
yan	-4649
ydo	-4650
▁!!	-4651
▁**	-4652
▁1,	-4653
▁13	-4654
▁32	-4655
▁5.	-4656
▁7-	-4657
▁79	-4658
▁8.	-4659
▁85	-4660
▁92	-4661
▁:-	-4662
▁Ab	-4663
▁Dr	-4664
▁ER	-4665
▁Es	-4666
▁Ig	-4667
▁KO	-4668
▁KV	-4669
▁Ke	-4670
▁ON	-4671
▁Os	-4672
▁PS	-4673
▁Pi	-4674
▁Pä	-4675
▁Sc	-4676
▁TÜ	-4677
▁Tš	-4678
▁VÕ	-4679
▁ad	-4680
▁bi	-4681
▁em	-4682
▁fr	-4683
▁fä	-4684
▁ik	-4685
▁kg	-4686
▁ms	-4687
▁om	-4688
▁pH	-4689
▁ri	-4690
▁si	-4691
▁sm	-4692
▁yo	-4693
▁õu	-4694
▁ük	-4695
2020	-4696
abas	-4697
alap	-4698
alia	-4699
andi	-4700
ants	-4701
aros	-4702
asja	-4703
assi	-4704
atri	-4705
cout	-4706
dava	-4707
druk	-4708
eene	-4709
enud	-4710
flik	-4711
gata	-4712
gede	-4713
gude	-4714
hQst	-4715
hale	-4716
husi	-4717
idus	-4718
ikak	-4719
ikan	-4720
ikes	-4721
ikum	-4722
inal	-4723
inet	-4724
inii	-4725
innu	-4726
irni	-4727
ises	-4728
isev	-4729
itst	-4730
juse	-4731
kast	-4732
keid	-4733
kesi	-4734
kohe	-4735
kool	-4736
ksus	-4737
kule	-4738
kõik	-4739
lack	-4740
laev	-4741
lekt	-4742
lend	-4743
lusi	-4744
mati	-4745
mend	-4746
mida	-4747
mägi	-4748
niku	-4749
nnis	-4750
outh	-4751
pide	-4752
pilt	-4753
poed	-4754
rale	-4755
ralt	-4756
rans	-4757
rits	-4758
rium	-4759
rukt	-4760
seer	-4761
semb	-4762
sile	-4763
sita	-4764
stas	-4765
tagi	-4766
tava	-4767
tehn	-4768
teid	-4769
tsed	-4770
tsis	-4771
tuks	-4772
ubli	-4773
umma	-4774
umus	-4775
utab	-4776
vade	-4777
vend	-4778
veri	-4779
vise	-4780
äeta	-4781
äral	-4782
ärra	-4783
õbin	-4784
õnne	-4785
õpil	-4786
▁2-3	-4787
▁356	-4788
▁Aed	-4789
▁Bad	-4790
▁Blu	-4791
▁Cab	-4792
▁Cat	-4793
▁Dri	-4794
▁Edu	-4795
▁Ela	-4796
▁Gri	-4797
▁Hei	-4798
▁Jaa	-4799
▁Joh	-4800
▁Ker	-4801
▁Koh	-4802
▁Kur	-4803
▁Küs	-4804
▁Mon	-4805
▁Mrt	-4806
▁Nar	-4807
▁Oot	-4808
▁Osa	-4809
▁Pro	-4810
▁Sai	-4811
▁Tal	-4812
▁Tan	-4813
▁Tur	-4814
▁Väl	-4815
▁ane	-4816
▁arm	-4817
▁atm	-4818
▁ban	-4819
▁ein	-4820
▁hun	-4821
▁ida	-4822
▁kih	-4823
▁kip	-4824
▁kis	-4825
▁klo	-4826
▁koe	-4827
▁kyl	-4828
▁met	-4829
▁miu	-4830
▁mur	-4831
▁mää	-4832
▁müg	-4833
▁nip	-4834
▁pat	-4835
▁pin	-4836
▁pub	-4837
▁rap	-4838
▁rea	-4839
▁ros	-4840
▁san	-4841
▁sho	-4842
▁sit	-4843
▁sms	-4844
▁täh	-4845
▁ull	-4846
▁vir	-4847
▁vor	-4848
▁vul	-4849
▁vär	-4850
▁wtf	-4851
▁äge	-4852
▁äre	-4853
▁üma	-4854
aalne	-4855
aalse	-4856
alakt	-4857
amata	-4858
ander	-4859
angud	-4860
antee	-4861
arust	-4862
bauer	-4863
bertq	-4864
danud	-4865
dasid	-4866
eerin	-4867
henda	-4868
idrun	-4869
ikuks	-4870
▁	-4871
a	-4872
e	-4873
i	-4874
s	-4875
t	-4876
l	-4877
u	-4878
n	-4879
k	-4880
d	-4881
o	-4882
m	-4883
r	-4884
v	-4885
g	-4886
p	-4887
j	-4888
.	-4889
h	-4890
,	-4891
ä	-4892
õ	-4893
b	-4894
ü	-4895
:	-4896
K	-4897
M	-4898
S	-4899
ö	-4900
0	-4901
-	-4902
T	-4903
?	-4904
E	-4905
A	-4906
f	-4907
"	-4908
P	-4909
1	-4910
!	-4911
N	-4912
V	-4913
I	-4914
2	-4915
J	-4916
)	-4917
c	-4918
L	-4919
(	-4920
y	-4921
O	-4922
H	-4923
R	-4924
5	-4925
3	-4926
6	-4927
D	-4928
x	-4929
@	-4930
U	-4931
/	-4932
B	-4933
7	-4934
9	-4935
8	-4936
'	-4937
w	-4938
C	-4939
z	-4940
4	-4941
Ü	-4942
F	-4943
G	-4944
q	-4945
%	-4946
*	-4947
Õ	-4948
X	-4949
W	-4950
=	-4951
Ä	-4952
+	-4953
;	-4954
|	-4955
Z	-4956
Y	-4957
`	-4958
ò	-4959
–	-4960
_	-4961
š	-4962
Q	-4963
à	-4964
>	-4965
Ö	-4966
“	-4967
&	-4968
<	-4969
’	-4970
€	-4971
”	-4972
~	-4973
ž	-4974
„	-4975
^	-4976
«	-4977
»	-4978
ù	-4979
́	-4980
•	-4981
😀	-4982
[	-4983
\	-4984
]	-4985
ð	-4986
ó	-4987
Ś	-4988
Ž	-4989
🌴	-4990
🍹	-4991
💜	-4992
😁	-4993
😭	-4994
🙂	-4995
🤔	-4996
