<unk>	0
<s>	0
</s>	0
en	-0
ta	-1
is	-2
in	-3
an	-4
▁k	-5
ll	-6
▁.	-7
it	-8
▁j	-9
▁o	-10
▁s	-11
va	-12
▁m	-13
ti	-14
tä	-15
▁,	-16
sa	-17
▁p	-18
tu	-19
te	-20
es	-21
ka	-22
ks	-23
to	-24
as	-25
li	-26
et	-27
uo	-28
än	-29
▁ja	-30
us	-31
▁v	-32
er	-33
▁h	-34
aa	-35
▁l	-36
el	-37
ik	-38
un	-39
on	-40
al	-41
im	-42
▁on	-43
ut	-44
▁T	-45
lla	-46
▁va	-47
os	-48
▁n	-49
ty	-50
▁e	-51
ki	-52
ksi	-53
uu	-54
ja	-55
ma	-56
ää	-57
▁a	-58
ri	-59
ko	-60
ke	-61
▁ta	-62
▁S	-63
lle	-64
il	-65
▁y	-66
▁jo	-67
▁K	-68
ista	-69
▁tu	-70
den	-71
sä	-72
ur	-73
ul	-74
inen	-75
ar	-76
le	-77
▁ko	-78
vä	-79
vat	-80
▁r	-81
▁ka	-82
▁M	-83
yt	-84
oi	-85
mä	-86
ia	-87
▁1	-88
een	-89
ais	-90
mis	-91
kin	-92
op	-93
ys	-94
llä	-95
▁to	-96
em	-97
hd	-98
yö	-99
oit	-100
▁P	-101
ih	-102
taa	-103
ir	-104
ku	-105
si	-106
llis	-107
▁se	-108
▁mu	-109
▁H	-110
iin	-111
▁V	-112
pa	-113
00	-114
itä	-115
▁2	-116
▁oli	-117
▁vuo	-118
▁E	-119
että	-120
▁A	-121
ten	-122
▁si	-123
▁L	-124
kä	-125
issa	-126
▁ei	-127
nn	-128
assa	-129
utta	-130
▁ku	-131
▁te	-132
essa	-133
tti	-134
taan	-135
tö	-136
▁että	-137
aan	-138
▁kä	-139
ksen	-140
at	-141
vi	-142
kaan	-143
▁tä	-144
▁ti	-145
äh	-146
isi	-147
▁en	-148
▁R	-149
man	-150
▁vi	-151
lo	-152
uh	-153
ne	-154
or	-155
▁al	-156
▁N	-157
de	-158
▁jä	-159
mi	-160
▁myö	-161
usta	-162
ot	-163
iden	-164
la	-165
▁I	-166
isen	-167
iv	-168
▁val	-169
jä	-170
utu	-171
eh	-172
jo	-173
▁J	-174
mm	-175
▁as	-176
▁sa	-177
up	-178
▁)	-179
tel	-180
vät	-181
▁(	-182
esta	-183
▁kan	-184
▁O	-185
▁la	-186
▁B	-187
▁pää	-188
se	-189
uom	-190
▁ma	-191
ina	-192
▁19	-193
ra	-194
ssa	-195
isto	-196
pp	-197
jen	-198
ita	-199
▁Tä	-200
ään	-201
ittä	-202
▁saa	-203
ro	-204
▁li	-205
teen	-206
▁ra	-207
jan	-208
asta	-209
▁200	-210
▁myös	-211
▁yh	-212
istä	-213
▁ole	-214
ika	-215
inn	-216
▁Y	-217
maan	-218
▁:	-219
sta	-220
tta	-221
yn	-222
▁ty	-223
kka	-224
tiin	-225
esti	-226
ol	-227
ike	-228
ön	-229
sin	-230
▁er	-231
ien	-232
van	-233
▁kun	-234
uuta	-235
▁es	-236
▁hän	-237
▁nä	-238
oin	-239
uks	-240
▁per	-241
uus	-242
▁toim	-243
män	-244
ssä	-245
▁pa	-246
ed	-247
▁-	-248
▁kes	-249
▁ha	-250
▁mi	-251
kan	-252
id	-253
yh	-254
stä	-255
ossa	-256
▁tar	-257
nut	-258
oh	-259
min	-260
uro	-261
essä	-262
▁ker	-263
ella	-264
lu	-265
▁"	-266
▁voi	-267
▁ovat	-268
tin	-269
estä	-270
▁maa	-271
▁yli	-272
▁hy	-273
kun	-274
▁pal	-275
ken	-276
▁ih	-277
issä	-278
yttä	-279
ille	-280
pä	-281
na	-282
osta	-283
val	-284
elä	-285
▁Ka	-286
▁tai	-287
uksen	-288
▁mutta	-289
▁mukaan	-290
nna	-291
▁pr	-292
istu	-293
joit	-294
ky	-295
pi	-296
isä	-297
▁vä	-298
itse	-299
▁kuin	-300
▁läh	-301
▁C	-302
rit	-303
▁joka	-304
▁il	-305
ua	-306
ikka	-307
▁–	-308
kon	-309
▁Tur	-310
▁sen	-311
om	-312
ian	-313
▁ki	-314
uk	-315
hta	-316
lan	-317
eksi	-318
lais	-319
▁U	-320
re	-321
rj	-322
▁Suom	-323
alais	-324
ussa	-325
▁osa	-326
uun	-327
vaa	-328
iste	-329
▁an	-330
iten	-331
ton	-332
yy	-333
▁ol	-334
da	-335
▁he	-336
▁G	-337
äär	-338
▁pit	-339
▁kuu	-340
tus	-341
teis	-342
me	-343
▁san	-344
ha	-345
ttu	-346
▁kaik	-347
uol	-348
▁sekä	-349
opisto	-350
kuuta	-351
mista	-352
▁vuonna	-353
hdo	-354
maa	-355
elle	-356
enn	-357
kim	-358
▁po	-359
sim	-360
illa	-361
osen	-362
▁kir	-363
▁vas	-364
vin	-365
▁us	-366
llut	-367
▁3	-368
ellä	-369
etta	-370
▁tut	-371
so	-372
erk	-373
▁ar	-374
sen	-375
▁luo	-376
mat	-377
rin	-378
▁Ta	-379
oim	-380
▁jäl	-381
▁suu	-382
kaa	-383
men	-384
ttä	-385
keen	-386
▁par	-387
ity	-388
▁pä	-389
▁min	-390
ite	-391
▁työ	-392
▁*	-393
ala	-394
sti	-395
ksia	-396
minen	-397
isesti	-398
nyt	-399
▁las	-400
▁kanssa	-401
▁D	-402
kö	-403
tään	-404
▁yliopisto	-405
lä	-406
ud	-407
▁b	-408
eli	-409
▁käy	-410
ttiin	-411
isin	-412
▁lu	-413
▁Hän	-414
ana	-415
mme	-416
asti	-417
iko	-418
▁Turun	-419
han	-420
rke	-421
▁kaup	-422
▁prosen	-423
▁tie	-424
▁”	-425
ime	-426
▁Sa	-427
vu	-428
▁ky	-429
uroop	-430
▁F	-431
▁W	-432
mp	-433
ing	-434
▁kos	-435
ek	-436
▁huo	-437
ran	-438
▁kas	-439
tyi	-440
▁os	-441
itta	-442
▁lop	-443
ikä	-444
▁suo	-445
oo	-446
htu	-447
uden	-448
▁jul	-449
he	-450
jat	-451
▁var	-452
▁niin	-453
▁5	-454
▁keh	-455
vel	-456
▁sy	-457
ihin	-458
▁tule	-459
mään	-460
▁väh	-461
▁Tämä	-462
▁jälkeen	-463
▁ed	-464
▁op	-465
▁oike	-466
▁kuiten	-467
▁vuoden	-468
▁teh	-469
simmä	-470
▁ihmis	-471
io	-472
▁ollut	-473
tyy	-474
▁so	-475
itsi	-476
uuden	-477
▁d	-478
jän	-479
tio	-480
itte	-481
ttia	-482
▁jon	-483
▁no	-484
ettu	-485
▁kys	-486
pan	-487
uud	-488
▁me	-489
enki	-490
ivat	-491
▁pel	-492
▁use	-493
malla	-494
▁vain	-495
▁?	-496
▁ne	-497
liit	-498
▁4	-499
▁f	-500
enä	-501
iset	-502
▁puh	-503
▁hall	-504
kki	-505
▁ke	-506
▁sit	-507
lleen	-508
▁tapa	-509
..	-510
▁le	-511
▁sel	-512
▁sitä	-513
▁ni	-514
äärä	-515
▁kerto	-516
um	-517
▁el	-518
▁na	-519
▁hal	-520
▁liit	-521
vuo	-522
▁ri	-523
emmin	-524
massa	-525
ue	-526
vo	-527
asi	-528
vän	-529
▁oh	-530
▁perus	-531
uto	-532
▁is	-533
▁kul	-534
▁aika	-535
ni	-536
uutta	-537
ve	-538
kus	-539
nan	-540
erki	-541
inta	-542
▁kol	-543
▁ver	-544
▁suur	-545
ettiin	-546
▁ensimmä	-547
aal	-548
misen	-549
llinen	-550
hti	-551
ino	-552
▁olla	-553
neet	-554
▁van	-555
▁mitä	-556
tka	-557
hdys	-558
▁suom	-559
▁talo	-560
ip	-561
kseen	-562
▁euro	-563
▁kansa	-564
erkiksi	-565
▁kaikki	-566
nen	-567
isia	-568
rjes	-569
▁vel	-570
▁prosenttia	-571
lö	-572
kit	-573
▁mon	-574
isten	-575
▁esim	-576
▁tutkim	-577
öy	-578
▁To	-579
etti	-580
uten	-581
▁jos	-582
▁hyvä	-583
ho	-584
gin	-585
per	-586
▁Se	-587
▁koko	-588
tto	-589
oita	-590
▁2009	-591
▁jossa	-592
▁Euroop	-593
▁Suomen	-594
▁sitten	-595
▁kuitenkin	-596
▁men	-597
uv	-598
ter	-599
▁sija	-600
jaa	-601
▁maail	-602
▁kaupun	-603
▁yhteis	-604
tää	-605
▁miel	-606
▁viime	-607
tie	-608
usi	-609
▁hi	-610
▁tuo	-611
oiden	-612
oitta	-613
pu	-614
kea	-615
▁käyt	-616
▁olisi	-617
jon	-618
kas	-619
kel	-620
ker	-621
sit	-622
▁La	-623
▁päiv	-624
▁seur	-625
iti	-626
änn	-627
▁Ko	-628
▁Ma	-629
▁Pa	-630
▁har	-631
▁tunn	-632
▁sillä	-633
do	-634
ym	-635
toa	-636
ttö	-637
▁Va	-638
illä	-639
kaup	-640
kset	-641
▁kor	-642
▁nim	-643
▁jonka	-644
▁jotka	-645
hin	-646
san	-647
▁aik	-648
llisen	-649
▁!	-650
000	-651
▁väl	-652
▁yle	-653
▁itse	-654
▁koul	-655
▁yliopiston	-656
nä	-657
ilta	-658
kais	-659
▁olivat	-660
ria	-661
▁su	-662
ystä	-663
▁merk	-664
▁vielä	-665
▁g	-666
ale	-667
ivä	-668
tuu	-669
tele	-670
tion	-671
▁laa	-672
▁lisä	-673
▁tarko	-674
ili	-675
ito	-676
laa	-677
isti	-678
llan	-679
▁puo	-680
▁kiin	-681
▁puol	-682
▁eivät	-683
▁hyvin	-684
▁6	-685
ihe	-686
inä	-687
▁elä	-688
valta	-689
▁tied	-690
▁käyttä	-691
kko	-692
▁mar	-693
▁sisä	-694
alta	-695
▁Hel	-696
▁mil	-697
▁nel	-698
▁ihan	-699
▁mahdo	-700
tettiin	-701
am	-702
ee	-703
od	-704
kee	-705
via	-706
johta	-707
enkilö	-708
gel	-709
etty	-710
lloin	-711
▁esimerkiksi	-712
ksa	-713
kul	-714
mia	-715
tit	-716
▁in	-717
▁lo	-718
▁ul	-719
itus	-720
▁vir	-721
▁jota	-722
▁jäsen	-723
lin	-724
tui	-725
vää	-726
ttaa	-727
▁löy	-728
miseen	-729
▁ai	-730
mien	-731
▁yhd	-732
▁yks	-733
▁muun	-734
▁noin	-735
▁Yhdys	-736
▁Helsin	-737
ith	-738
jel	-739
kir	-740
▁Ar	-741
kään	-742
uksi	-743
▁...	-744
▁Vuo	-745
▁eli	-746
▁epä	-747
▁jat	-748
▁tava	-749
▁yrit	-750
▁7	-751
ans	-752
otta	-753
▁199	-754
▁muo	-755
▁sop	-756
ittää	-757
▁toimi	-758
no	-759
ui	-760
luo	-761
▁18	-762
▁20	-763
anta	-764
toim	-765
▁vasta	-766
yky	-767
▁Ra	-768
idän	-769
ikko	-770
joon	-771
▁tun	-772
▁uus	-773
▁vaa	-774
▁aina	-775
▁pien	-776
joitta	-777
kuussa	-778
▁tapahtu	-779
ras	-780
▁An	-781
▁Vi	-782
ikan	-783
isiä	-784
utus	-785
▁pys	-786
▁tur	-787
▁maan	-788
▁suun	-789
lainen	-790
pe	-791
po	-792
viä	-793
▁Mi	-794
▁hä	-795
alla	-796
daan	-797
elta	-798
▁ilm	-799
▁muu	-800
▁tul	-801
tettu	-802
▁hänen	-803
ris	-804
▁Re	-805
▁lä	-806
jien	-807
▁198	-808
▁Kun	-809
tojen	-810
llisesti	-811
eet	-812
its	-813
tia	-814
uot	-815
änä	-816
della	-817
eseen	-818
▁vaik	-819
▁kaksi	-820
▁määrä	-821
▁henkilö	-822
iä	-823
las	-824
mer	-825
una	-826
▁No	-827
eltä	-828
▁eri	-829
▁lis	-830
▁nyt	-831
▁sai	-832
▁raken	-833
▁siitä	-834
uksessa	-835
▁miljoon	-836
kes	-837
ksu	-838
paa	-839
tun	-840
esty	-841
talo	-842
yhti	-843
ännö	-844
masta	-845
▁Suomessa	-846
▁maailman	-847
di	-848
kis	-849
lli	-850
▁pi	-851
ento	-852
▁000	-853
▁kat	-854
▁pro	-855
mistä	-856
▁Euroopan	-857
▁8	-858
ber	-859
kia	-860
uko	-861
ver	-862
▁Ne	-863
▁Si	-864
▁pu	-865
matta	-866
uttaa	-867
vasti	-868
▁alue	-869
▁nais	-870
▁voim	-871
oa	-872
yr	-873
tty	-874
isty	-875
▁lää	-876
isiin	-877
oitti	-878
▁siir	-879
▁kuulu	-880
alainen	-881
▁muassa	-882
▁t	-883
pää	-884
ssi	-885
yty	-886
kkin	-887
rida	-888
emmän	-889
innan	-890
uksia	-891
▁ennen	-892
▁c	-893
tua	-894
oike	-895
vien	-896
iseen	-897
▁tulee	-898
▁valta	-899
▁suomalais	-900
llo	-901
yys	-902
empi	-903
jana	-904
ohjo	-905
▁ede	-906
järjes	-907
▁tärke	-908
▁vastaan	-909
log	-910
lta	-911
pal	-912
raa	-913
▁En	-914
tien	-915
össä	-916
ittaa	-917
▁Mith	-918
▁jouk	-919
▁vuos	-920
▁yhte	-921
iseksi	-922
▁johta	-923
0-	-924
ann	-925
ine	-926
jas	-927
ltä	-928
▁ym	-929
kana	-930
▁Venä	-931
▁ajan	-932
▁kesä	-933
▁muut	-934
▁tehd	-935
▁aikana	-936
▁vaikka	-937
▁Mithrida	-938
▁;	-939
osa	-940
ren	-941
ven	-942
ikki	-943
itti	-944
keli	-945
toja	-946
▁ase	-947
▁pid	-948
▁syö	-949
▁kasv	-950
▁yksi	-951
▁koska	-952
▁paljon	-953
tee	-954
tut	-955
▁Jo	-956
▁mat	-957
▁vah	-958
▁pitä	-959
▁teki	-960
kunnan	-961
mma	-962
tan	-963
ulu	-964
▁He	-965
▁Li	-966
▁Ti	-967
▁elo	-968
kusta	-969
▁tuli	-970
▁tämän	-971
▁mahdollis	-972
kuun	-973
otto	-974
telu	-975
▁Mar	-976
▁kon	-977
▁rah	-978
▁sil	-979
▁nous	-980
▁vaan	-981
ps	-982
ss	-983
lia	-984
llen	-985
yksi	-986
▁nuo	-987
▁asia	-988
▁teke	-989
▁euroa	-990
▁9	-991
din	-992
non	-993
väl	-994
▁Te	-995
▁uh	-996
▁ään	-997
tetta	-998
tinen	-999
▁nyky	-1000
▁erity	-1001
▁muuta	-1002
▁pitää	-1003
▁käyttö	-1004
ga	-1005
su	-1006
mio	-1007
ope	-1008
tte	-1009
tön	-1010
▁10	-1011
▁Ja	-1012
▁Sen	-1013
▁het	-1014
▁kil	-1015
oilla	-1016
vulla	-1017
▁eikä	-1018
▁halu	-1019
▁vuod	-1020
llista	-1021
tuksen	-1022
▁joutu	-1023
▁musta	-1024
▁sella	-1025
▁usein	-1026
hon	-1027
var	-1028
▁mo	-1029
▁sä	-1030
iken	-1031
▁aja	-1032
▁hel	-1033
▁opis	-1034
ittäin	-1035
▁liitty	-1036
▁vuotta	-1037
▁lisäksi	-1038
▁voidaan	-1039
bu	-1040
ura	-1041
uri	-1042
▁15	-1043
mmen	-1044
uole	-1045
▁Myö	-1046
▁asi	-1047
▁ter	-1048
▁täy	-1049
oihin	-1050
▁aihe	-1051
▁mieh	-1052
▁saan	-1053
▁ulko	-1054
19	-1055
ch	-1056
fes	-1057
kem	-1058
tis	-1059
uka	-1060
von	-1061
▁Al	-1062
neen	-1063
pail	-1064
teet	-1065
teli	-1066
▁jää	-1067
▁ehdo	-1068
▁tote	-1069
▁Tässä	-1070
▁ongel	-1071
uudessa	-1072
▁tutkimus	-1073
iri	-1074
ryh	-1075
yyn	-1076
▁:)	-1077
▁In	-1078
ansa	-1079
ulla	-1080
▁197	-1081
▁Jos	-1082
▁Tar	-1083
▁her	-1084
itsee	-1085
▁kapp	-1086
▁vaih	-1087
▁tilan	-1088
▁talous	-1089
ck	-1090
▁ä	-1091
son	-1092
ula	-1093
▁Le	-1094
▁un	-1095
asto	-1096
attu	-1097
olla	-1098
osti	-1099
ulta	-1100
voim	-1101
▁Kes	-1102
▁ruo	-1103
▁suh	-1104
▁lisää	-1105
▁pitkä	-1106
johtaja	-1107
▁olevan	-1108
▁enemmän	-1109
bi	-1110
gi	-1111
je	-1112
aar	-1113
▁Ha	-1114
▁re	-1115
into	-1116
ivan	-1117
▁syn	-1118
ilais	-1119
▁Kiin	-1120
tetaan	-1121
▁Tämän	-1122
▁korke	-1123
▁kuten	-1124
▁keskus	-1125
kk	-1126
ani	-1127
ara	-1128
dan	-1129
koi	-1130
mar	-1131
tar	-1132
uta	-1133
▁EU	-1134
voit	-1135
▁tois	-1136
▁lähes	-1137
▁paika	-1138
▁valmis	-1139
▁kehittä	-1140
kke	-1141
kkä	-1142
luv	-1143
tes	-1144
▁Nä	-1145
▁On	-1146
▁hyö	-1147
▁onn	-1148
▁ryh	-1149
etaan	-1150
ukset	-1151
▁koti	-1152
uuteen	-1153
▁joten	-1154
▁saman	-1155
▁tutki	-1156
▁kertoo	-1157
▁vastaa	-1158
▁kirjoit	-1159
lj	-1160
mo	-1161
rä	-1162
▁−	-1163
iva	-1164
osi	-1165
uut	-1166
▁eh	-1167
alan	-1168
eman	-1169
erin	-1170
▁Tuo	-1171
inväl	-1172
ollis	-1173
vassa	-1174
▁siis	-1175
▁neljä	-1176
▁sanoi	-1177
yd	-1178
ako	-1179
jär	-1180
▁Es	-1181
▁Ro	-1182
▁vo	-1183
kkaa	-1184
sori	-1185
▁Yli	-1186
▁juu	-1187
▁met	-1188
kunta	-1189
tusta	-1190
västi	-1191
▁Ruot	-1192
▁arvi	-1193
▁kuul	-1194
▁muod	-1195
ohjois	-1196
▁suunn	-1197
fessori	-1198
▁hyväks	-1199
▁vuoksi	-1200
vy	-1201
aam	-1202
alo	-1203
isa	-1204
len	-1205
▁13	-1206
▁16	-1207
▁Po	-1208
elin	-1209
miin	-1210
tiiv	-1211
tuks	-1212
▁Työ	-1213
▁opp	-1214
ingas	-1215
llaan	-1216
oliti	-1217
tynyt	-1218
▁asun	-1219
▁järj	-1220
▁mikä	-1221
▁myöh	-1222
▁vanh	-1223
esiden	-1224
teiden	-1225
▁käyte	-1226
▁sanoo	-1227
▁kautta	-1228
▁kertoi	-1229
kku	-1230
▁et	-1231
ihen	-1232
▁kah	-1233
mässä	-1234
tunut	-1235
yhtiö	-1236
▁amma	-1237
▁kann	-1238
▁lopp	-1239
▁mies	-1240
▁näky	-1241
▁olen	-1242
▁sair	-1243
▁käytä	-1244
ministe	-1245
▁isännö	-1246
ron	-1247
etin	-1248
ohja	-1249
opim	-1250
osto	-1251
vaan	-1252
▁asu	-1253
▁kaa	-1254
▁myy	-1255
mällä	-1256
▁alku	-1257
▁väli	-1258
ukseen	-1259
▁kehit	-1260
▁kysym	-1261
▁Helsingin	-1262
ag	-1263
ig	-1264
ero	-1265
unn	-1266
▁12	-1267
▁yl	-1268
ikon	-1269
▁kur	-1270
vuoti	-1271
▁Myös	-1272
▁minä	-1273
▁kiinn	-1274
▁koske	-1275
▁järjes	-1276
▁kertaa	-1277
▁palvel	-1278
▁osallis	-1279
ba	-1280
ano	-1281
eks	-1282
era	-1283
eri	-1284
eta	-1285
hän	-1286
ila	-1287
ile	-1288
lue	-1289
mät	-1290
ppu	-1291
▁Ch	-1292
▁Pe	-1293
telä	-1294
uhti	-1295
utti	-1296
vais	-1297
▁ken	-1298
▁oma	-1299
yttää	-1300
▁2006	-1301
▁kier	-1302
▁kuva	-1303
▁liik	-1304
astaan	-1305
▁tehtä	-1306
uksesta	-1307
▁presiden	-1308
dä	-1309
ge	-1310
lis	-1311
tom	-1312
▁Is	-1313
▁ro	-1314
▁tö	-1315
ensä	-1316
isim	-1317
kone	-1318
rian	-1319
toon	-1320
yttö	-1321
▁kau	-1322
▁rat	-1323
emmis	-1324
vista	-1325
▁2008	-1326
▁kiel	-1327
▁tämä	-1328
▁esiin	-1329
miseksi	-1330
▁seuraa	-1331
▁Yhdysvalta	-1332
,5	-1333
▁%	-1334
kuu	-1335
ros	-1336
tyä	-1337
yks	-1338
ikin	-1339
kiin	-1340
▁The	-1341
▁eur	-1342
pahtu	-1343
▁myön	-1344
▁usko	-1345
ittiin	-1346
▁josta	-1347
▁lento	-1348
▁muuto	-1349
▁tehdä	-1350
▁velka	-1351
▁aikaan	-1352
▁siihen	-1353
▁yhteen	-1354
▁pitäisi	-1355
▁Mithridates	-1356
jö	-1357
of	-1358
▁i	-1359
oid	-1360
ota	-1361
▁Mo	-1362
aika	-1363
iinä	-1364
iksi	-1365
insa	-1366
kunn	-1367
▁194	-1368
▁Mik	-1369
▁Tul	-1370
▁han	-1371
▁jal	-1372
isenä	-1373
▁2007	-1374
▁ehkä	-1375
▁julk	-1376
▁lain	-1377
▁tarv	-1378
istaan	-1379
▁kyllä	-1380
▁niitä	-1381
▁vaike	-1382
▁vähän	-1383
misesta	-1384
▁julkais	-1385
▁jäsenval	-1386
sy	-1387
kor	-1388
til	-1389
alis	-1390
ehto	-1391
onin	-1392
riin	-1393
ttöm	-1394
ulun	-1395
uttu	-1396
viin	-1397
▁Kai	-1398
▁Pal	-1399
▁odo	-1400
▁ran	-1401
jaksi	-1402
keutu	-1403
oille	-1404
▁osaa	-1405
estaan	-1406
▁histo	-1407
▁juuri	-1408
▁kirja	-1409
▁ohjel	-1410
▁päivä	-1411
ituksen	-1412
utuksen	-1413
▁hieman	-1414
▁ammatti	-1415
▁jolloin	-1416
▁käyttää	-1417
▁onnistu	-1418
▁opiskeli	-1419
▁ensimmäinen	-1420
yp	-1421
oja	-1422
sia	-1423
tik	-1424
työ	-1425
vus	-1426
▁17	-1427
▁Ba	-1428
▁Lo	-1429
▁it	-1430
▁uu	-1431
itel	-1432
mmin	-1433
tali	-1434
ueen	-1435
▁its	-1436
▁kuo	-1437
ikkaa	-1438
luvun	-1439
missa	-1440
oissa	-1441
teita	-1442
tisen	-1443
ysten	-1444
▁enää	-1445
▁näin	-1446
▁teks	-1447
▁toiv	-1448
▁työn	-1449
ittele	-1450
joiden	-1451
kaupun	-1452
▁antaa	-1453
▁heinä	-1454
▁perin	-1455
▁tarjo	-1456
▁voima	-1457
▁maahan	-1458
▁neljän	-1459
▁poliit	-1460
▁toimin	-1461
▁markkin	-1462
▁päivänä	-1463
järjestel	-1464
▁erittäin	-1465
▁merkittä	-1466
▁professori	-1467
▁Yhdysvaltain	-1468
by	-1469
yä	-1470
▁Z	-1471
gen	-1472
jia	-1473
kos	-1474
ore	-1475
tal	-1476
ude	-1477
▁Br	-1478
teri	-1479
urin	-1480
ähkö	-1481
▁Tai	-1482
▁Vir	-1483
▁koh	-1484
▁Lisä	-1485
▁jopa	-1486
▁mais	-1487
▁neuv	-1488
▁nope	-1489
▁otta	-1490
▁tasa	-1491
▁voit	-1492
itteli	-1493
▁ilman	-1494
▁kunin	-1495
▁liike	-1496
▁päätö	-1497
▁ainakin	-1498
▁hallitsi	-1499
▁kansainväl	-1500
ic	-1501
ov	-1502
emp	-1503
hto	-1504
imp	-1505
▁3.	-1506
▁Ku	-1507
▁hu	-1508
▁ik	-1509
aali	-1510
hall	-1511
kian	-1512
puol	-1513
ukku	-1514
▁kut	-1515
▁käs	-1516
▁tal	-1517
kinto	-1518
kirja	-1519
kohta	-1520
ottaa	-1521
valla	-1522
▁auto	-1523
▁kyse	-1524
▁muka	-1525
▁näyt	-1526
▁selv	-1527
▁tulo	-1528
▁vapa	-1529
▁ympä	-1530
anskan	-1531
kinnon	-1532
▁huhti	-1533
▁kolme	-1534
▁muita	-1535
▁tieto	-1536
▁vaati	-1537
▁voisi	-1538
▁kauppa	-1539
▁kuinka	-1540
▁marras	-1541
▁rakenn	-1542
▁saanut	-1543
▁Lisäksi	-1544
▁Pohjois	-1545
▁perusta	-1546
▁saattaa	-1547
▁järjestä	-1548
▁valmista	-1549
du	-1550
äs	-1551
ers	-1552
ira	-1553
rah	-1554
riä	-1555
sel	-1556
tye	-1557
▁II	-1558
▁Th	-1559
emin	-1560
kien	-1561
mmik	-1562
oito	-1563
sken	-1564
usti	-1565
▁Kre	-1566
▁Val	-1567
▁Var	-1568
▁arv	-1569
▁inf	-1570
▁juh	-1571
▁puu	-1572
▁sul	-1573
telee	-1574
vaksi	-1575
vasta	-1576
▁yllä	-1577
essaan	-1578
ksesta	-1579
▁hetke	-1580
▁keski	-1581
▁kokon	-1582
▁lääke	-1583
▁miten	-1584
▁siinä	-1585
▁tällä	-1586
▁uutta	-1587
alaiset	-1588
▁edusta	-1589
▁joiden	-1590
▁joissa	-1591
▁kulttu	-1592
▁meidän	-1593
▁puheen	-1594
▁yksity	-1595
▁kuningas	-1596
10	-1597
DP	-1598
ce	-1599
yi	-1600
imi	-1601
imo	-1602
mär	-1603
oni	-1604
▁ir	-1605
edia	-1606
elan	-1607
itys	-1608
llin	-1609
rita	-1610
ulle	-1611
unsa	-1612
▁Car	-1613
▁Kir	-1614
▁Nyt	-1615
▁lev	-1616
▁mel	-1617
▁sää	-1618
lleet	-1619
oitus	-1620
puole	-1621
rilla	-1622
telua	-1623
▁alle	-1624
▁loka	-1625
▁luku	-1626
▁tila	-1627
laisen	-1628
▁Espan	-1629
▁aivan	-1630
▁asian	-1631
▁eloku	-1632
▁eriko	-1633
▁jatku	-1634
▁julka	-1635
▁lasku	-1636
▁pelaa	-1637
▁touko	-1638
▁yhden	-1639
▁Vuonna	-1640
▁heidän	-1641
▁jotain	-1642
▁mitään	-1643
▁oikeus	-1644
▁tammik	-1645
▁voitti	-1646
▁kappale	-1647
▁tavalla	-1648
ministeri	-1649
▁kansallis	-1650
▁myöhemmin	-1651
▁erityisesti	-1652
1.	-1653
00-	-1654
nin	-1655
sio	-1656
uli	-1657
▁1.	-1658
▁Lu	-1659
alue	-1660
isko	-1661
nään	-1662
▁Ber	-1663
▁uud	-1664
aatto	-1665
päivä	-1666
tilas	-1667
ville	-1668
yksen	-1669
▁aiko	-1670
▁anta	-1671
▁kahd	-1672
▁kohd	-1673
▁naut	-1674
▁sano	-1675
▁tode	-1676
▁tätä	-1677
oittaa	-1678
uroopp	-1679
▁Hänen	-1680
▁alkoi	-1681
▁jolla	-1682
▁käsit	-1683
▁loppu	-1684
▁sisäl	-1685
▁sopim	-1686
▁Venäjä	-1687
▁päivän	-1688
▁päästä	-1689
▁suosit	-1690
▁toisen	-1691
▁useita	-1692
▁käytänn	-1693
▁lähtien	-1694
▁vuodesta	-1695
ff	-1696
st	-1697
är	-1698
ase	-1699
emi	-1700
ise	-1701
▁14	-1702
▁So	-1703
▁au	-1704
▁yr	-1705
bumi	-1706
emme	-1707
kiel	-1708
koon	-1709
▁Har	-1710
▁Itä	-1711
▁SDP	-1712
▁Suu	-1713
▁Tut	-1714
▁lin	-1715
▁nor	-1716
▁pes	-1717
▁poi	-1718
▁pur	-1719
▁pyr	-1720
ostaa	-1721
ykset	-1722
yksiä	-1723
▁Esim	-1724
▁aino	-1725
▁ilma	-1726
▁menn	-1727
▁pala	-1728
▁piir	-1729
▁yhtä	-1730
▁aikaa	-1731
▁euron	-1732
▁itsen	-1733
▁katso	-1734
▁keske	-1735
▁turva	-1736
▁kansan	-1737
▁maalis	-1738
▁muiden	-1739
▁niiden	-1740
▁toinen	-1741
▁tänään	-1742
▁yhteyd	-1743
▁Venäjän	-1744
▁aiemmin	-1745
▁kaupung	-1746
▁työsken	-1747
▁toiminta	-1748
▁miljoonaa	-1749
ok	-1750
ör	-1751
▁0	-1752
aat	-1753
eni	-1754
jek	-1755
onn	-1756
stö	-1757
▁Mä	-1758
ksan	-1759
voin	-1760
▁195	-1761
▁Por	-1762
▁Suo	-1763
▁aam	-1764
▁ava	-1765
▁pah	-1766
▁sin	-1767
▁sov	-1768
▁syy	-1769
▁tyy	-1770
iston	-1771
kerta	-1772
ohjel	-1773
sopim	-1774
▁linn	-1775
▁main	-1776
▁oman	-1777
▁sään	-1778
▁vies	-1779
▁Tästä	-1780
▁komis	-1781
▁kuuka	-1782
▁pysty	-1783
▁saada	-1784
▁tiede	-1785
▁tässä	-1786
telussa	-1787
▁elämän	-1788
▁sijaan	-1789
▁sijoit	-1790
▁suorit	-1791
▁euroopp	-1792
▁vuosina	-1793
▁lokakuuta	-1794
▁kuitenkaan	-1795
▁yhteydessä	-1796
dy	-1797
ath	-1798
der	-1799
ell	-1800
mpp	-1801
sää	-1802
uja	-1803
▁30	-1804
▁50	-1805
▁Ki	-1806
▁Ky	-1807
glan	-1808
ikku	-1809
isyy	-1810
änyt	-1811
▁Kys	-1812
▁Pää	-1813
▁Yle	-1814
▁juo	-1815
▁kri	-1816
▁lah	-1817
▁poh	-1818
jassa	-1819
matto	-1820
mästä	-1821
▁2005	-1822
▁edes	-1823
▁heti	-1824
▁myyn	-1825
▁näkö	-1826
▁taas	-1827
▁tiet	-1828
politi	-1829
teessa	-1830
tyivät	-1831
▁seura	-1832
▁sähkö	-1833
▁terve	-1834
▁tunte	-1835
iheessa	-1836
llisuus	-1837
luvulla	-1838
▁huomio	-1839
▁mootto	-1840
▁muistu	-1841
▁voivat	-1842
▁mielestä	-1843
▁Yliopisto	-1844
▁isännöitsi	-1845
▁tarkoittaa	-1846
▁ensimmäisen	-1847
gh	-1848
rö	-1849
ät	-1850
▁Å	-1851
200	-1852
gia	-1853
htä	-1854
ihd	-1855
kiä	-1856
llö	-1857
por	-1858
ppa	-1859
–19	-1860
▁22	-1861
▁Ho	-1862
▁or	-1863
ehti	-1864
ilen	-1865
ittu	-1866
jaan	-1867
tiön	-1868
ytti	-1869
▁Luo	-1870
▁Osa	-1871
▁San	-1872
▁etu	-1873
▁lap	-1874
▁mur	-1875
▁pan	-1876
▁sal	-1877
jalla	-1878
kasta	-1879
korke	-1880
mättä	-1881
tella	-1882
▁johd	-1883
▁joul	-1884
▁laps	-1885
▁pois	-1886
▁sosi	-1887
▁taka	-1888
ittain	-1889
laiset	-1890
liitto	-1891
lliset	-1892
palvel	-1893
tuksia	-1894
uksien	-1895
yhtiön	-1896
▁Itali	-1897
▁johon	-1898
▁liian	-1899
▁puole	-1900
▁puoli	-1901
▁tehty	-1902
▁tästä	-1903
▁uuden	-1904
▁ymmär	-1905
ityksen	-1906
lliseen	-1907
uksella	-1908
uksissa	-1909
▁aikais	-1910
▁avulla	-1911
▁kerran	-1912
▁keskit	-1913
▁kolman	-1914
▁mukana	-1915
▁varsin	-1916
korkeako	-1917
▁vuoteen	-1918
▁välillä	-1919
▁hetkellä	-1920
▁Esimerkiksi	-1921
ah	-1922
ju	-1923
ere	-1924
isu	-1925
met	-1926
pel	-1927
sar	-1928
tiö	-1929
yte	-1930
▁mm	-1931
▁ur	-1932
▁ve	-1933
esin	-1934
gais	-1935
kein	-1936
mieh	-1937
rien	-1938
tava	-1939
töön	-1940
▁Min	-1941
▁Teh	-1942
▁Täh	-1943
▁ann	-1944
▁eaa	-1945
▁kar	-1946
▁kär	-1947
▁mun	-1948
▁por	-1949
▁vih	-1950
deksi	-1951
kunna	-1952
lassa	-1953
tista	-1954
▁Kaup	-1955
▁Tätä	-1956
▁kävi	-1957
▁lait	-1958
▁luki	-1959
▁pain	-1960
▁uusi	-1961
▁halua	-1962
▁hoita	-1963
▁nousi	-1964
▁ruoka	-1965
▁viisi	-1966
▁vuosi	-1967
antaina	-1968
laisten	-1969
▁Kaijas	-1970
▁Mikkel	-1971
▁kymmen	-1972
▁luotto	-1973
▁puolue	-1974
▁vallan	-1975
▁samalla	-1976
▁toimitus	-1977
▁kesäkuuta	-1978
▁toukokuuta	-1979
▁marraskuuta	-1980
dyn	-1981
hol	-1982
hos	-1983
ill	-1984
kat	-1985
ket	-1986
kkö	-1987
lio	-1988
lit	-1989
lus	-1990
miä	-1991
yvä	-1992
▁Ke	-1993
▁Kä	-1994
▁ap	-1995
alle	-1996
ambi	-1997
ikkö	-1998
immä	-1999
ivät	-2000
mmat	-2001
nnon	-2002
työn	-2003
vaik	-2004
yden	-2005
▁And	-2006
▁Per	-2007
▁Vim	-2008
▁Yor	-2009
▁bio	-2010
▁sar	-2011
janta	-2012
kesku	-2013
kista	-2014
määrä	-2015
sivät	-2016
yyttä	-2017
▁Brys	-2018
▁hava	-2019
▁hien	-2020
▁huol	-2021
▁kolm	-2022
▁lähd	-2023
▁nuor	-2024
▁rauh	-2025
▁valo	-2026
▁varm	-2027
▁ystä	-2028
attuna	-2029
ksessa	-2030
laisia	-2031
vallan	-2032
▁Etelä	-2033
▁Tällä	-2034
▁hoito	-2035
▁jotta	-2036
▁kasva	-2037
▁maksa	-2038
▁yleis	-2039
teeseen	-2040
▁Kiinan	-2041
▁maassa	-2042
▁toimii	-2043
▁toista	-2044
▁viikon	-2045
alaisten	-2046
▁todella	-2047
▁yleensä	-2048
▁kaupunki	-2049
▁sijaitse	-2050
▁yhteensä	-2051
▁tammikuuta	-2052
50	-2053
ad	-2054
be	-2055
bo	-2056
ds	-2057
nö	-2058
pl	-2059
dio	-2060
eor	-2061
ilu	-2062
keä	-2063
kse	-2064
nni	-2065
res	-2066
rio	-2067
tor	-2068
▁7.	-2069
▁KT	-2070
▁de	-2071
▁py	-2072
eita	-2073
innä	-2074
ksiä	-2075
käri	-2076
liin	-2077
perä	-2078
sion	-2079
tied	-2080
tila	-2081
ttää	-2082
tune	-2083
udet	-2084
ukka	-2085
vana	-2086
▁196	-2087
▁Kon	-2088
▁Maa	-2089
▁Mon	-2090
▁New	-2091
▁Oba	-2092
▁Til	-2093
▁kal	-2094
▁naa	-2095
aalta	-2096
gissä	-2097
isena	-2098
itsem	-2099
jasta	-2100
lamen	-2101
mille	-2102
telun	-2103
usten	-2104
uusto	-2105
vänsä	-2106
▁2003	-2107
▁Talo	-2108
▁alka	-2109
▁help	-2110
▁osta	-2111
▁puhu	-2112
▁saav	-2113
▁vaka	-2114
▁vara	-2115
▁verk	-2116
▁verr	-2117
aisten	-2118
isessä	-2119
isesta	-2120
isille	-2121
itetty	-2122
joukku	-2123
uuksia	-2124
▁Kansa	-2125
▁huoli	-2126
▁hyvää	-2127
▁joita	-2128
▁valti	-2129
markkin	-2130
misestä	-2131
▁arvioi	-2132
▁joilla	-2133
▁muuten	-2134
▁olleet	-2135
▁tiista	-2136
▁erilais	-2137
▁jälleen	-2138
▁kilpail	-2139
▁ratkais	-2140
▁valtion	-2141
▁alueella	-2142
▁elokuuta	-2143
▁matkusta	-2144
▁tulevais	-2145
▁vaiheessa	-2146
▁Kaijasilta	-2147
▁Mikkelinsa	-2148
▁puolestaan	-2149
,7	-2150
hi	-2151
ii	-2152
ry	-2153
▁/	-2154
ene	-2155
enp	-2156
opp	-2157
pin	-2158
tek	-2159
toi	-2160
upa	-2161
yhd	-2162
▁26	-2163
▁27	-2164
▁4.	-2165
▁Ei	-2166
▁äl	-2167
auto	-2168
emok	-2169
ikke	-2170
ilos	-2171
imen	-2172
kate	-2173
ksin	-2174
päiv	-2175
vaih	-2176
▁Par	-2177
▁Pro	-2178
▁hen	-2179
▁inn	-2180
▁kpl	-2181
▁mer	-2182
▁näh	-2183
itään	-2184
llöin	-2185
nolog	-2186
tyeen	-2187
▁Tied	-2188
▁Tois	-2189
▁saar	-2190
▁säil	-2191
▁tänä	-2192
▁vira	-2193
isestä	-2194
▁artik	-2195
▁kohti	-2196
▁missä	-2197
▁ottaa	-2198
▁suuri	-2199
▁vaale	-2200
tieteen	-2201
uksista	-2202
▁joukku	-2203
▁julkis	-2204
▁kuuluu	-2205
▁laajen	-2206
▁luokit	-2207
▁omista	-2208
▁tehnyt	-2209
▁tullut	-2210
▁tärkeä	-2211
▁yhdeks	-2212
puolella	-2213
▁Ranskan	-2214
▁vaikutu	-2215
▁edelleen	-2216
▁huomatta	-2217
▁olemassa	-2218
▁prosentin	-2219
▁sijaitsee	-2220
20	-2221
ea	-2222
py	-2223
pö	-2224
...	-2225
all	-2226
har	-2227
lää	-2228
mää	-2229
nes	-2230
nne	-2231
oon	-2232
sut	-2233
tän	-2234
usa	-2235
vas	-2236
äni	-2237
▁24	-2238
▁Ni	-2239
▁ot	-2240
▁rä	-2241
aati	-2242
emen	-2243
hoja	-2244
itin	-2245
koja	-2246
ller	-2247
lusc	-2248
näkö	-2249
onen	-2250
onto	-2251
ottu	-2252
roid	-2253
teki	-2254
tely	-2255
▁Joh	-2256
▁KTM	-2257
▁Sar	-2258
▁kre	-2259
▁lau	-2260
▁tor	-2261
aisen	-2262
empaa	-2263
imman	-2264
ineen	-2265
manis	-2266
menta	-2267
neksi	-2268
ryhmä	-2269
sissa	-2270
uomen	-2271
▁Yhti	-2272
▁enna	-2273
▁musi	-2274
▁peli	-2275
▁poli	-2276
▁ruot	-2277
▁sota	-2278
▁tuke	-2279
▁tuot	-2280
▁täys	-2281
eminaa	-2282
ilosof	-2283
intään	-2284
isissa	-2285
ksellä	-2286
llisia	-2287
▁Tälla	-2288
▁alkaa	-2289
▁hänet	-2290
▁kokem	-2291
▁minkä	-2292
▁tekee	-2293
▁tietä	-2294
▁tähän	-2295
▁vuoro	-2296
▁yhdys	-2297
alaisen	-2298
kkaasti	-2299
uudesta	-2300
▁Vaikka	-2301
▁haasta	-2302
▁kannat	-2303
▁kappal	-2304
▁kolmen	-2305
▁normaa	-2306
▁rajoit	-2307
▁riittä	-2308
▁toimia	-2309
▁vaihto	-2310
▁valtio	-2311
oittanut	-2312
▁Berlusc	-2313
▁Tapahtu	-2314
▁lopulta	-2315
▁sairaal	-2316
▁kaikkien	-2317
▁käyttöön	-2318
▁verrattuna	-2319
▁maaliskuuta	-2320
▁Mithridateen	-2321
,2	-2322
3.	-2323
zz	-2324
▁&	-2325
▁w	-2326
▁ö	-2327
etu	-2328
gan	-2329
haa	-2330
kua	-2331
läh	-2332
ppi	-2333
saa	-2334
tra	-2335
vio	-2336
▁11	-2337
▁Ca	-2338
▁Co	-2339
▁Ed	-2340
▁Il	-2341
▁Me	-2342
▁Oy	-2343
▁Su	-2344
▁Un	-2345
▁ak	-2346
▁of	-2347
▁pe	-2348
anne	-2349
asin	-2350
imme	-2351
istö	-2352
olta	-2353
osin	-2354
paan	-2355
saan	-2356
visi	-2357
ässä	-2358
▁100	-2359
▁193	-2360
▁Hen	-2361
▁Kol	-2362
▁Nor	-2363
▁yhä	-2364
emman	-2365
ikkan	-2366
jalle	-2367
ksiin	-2368
maksi	-2369
telin	-2370
ttävä	-2371
ustaa	-2372
vissa	-2373
äärän	-2374
▁Nyky	-2375
▁jälj	-2376
▁meta	-2377
▁nähd	-2378
▁omaa	-2379
▁pais	-2380
▁sata	-2381
▁syys	-2382
▁tuom	-2383
▁vahv	-2384
▁vall	-2385
ekiste	-2386
isellä	-2387
kaupan	-2388
ksella	-2389
tutkim	-2390
uksiin	-2391
▁jalka	-2392
▁kerro	-2393
▁kuvaa	-2394
▁milla	-2395
▁seksu	-2396
▁tälla	-2397
▁vaali	-2398
▁vanke	-2399
misessa	-2400
vuotias	-2401
▁Nokian	-2402
▁asunto	-2403
▁jonkin	-2404
▁kaiken	-2405
▁kiinni	-2406
▁naisen	-2407
▁päälle	-2408
▁syystä	-2409
▁ihmiset	-2410
▁seitsem	-2411
▁tärkeää	-2412
▁nopeasti	-2413
▁parlamen	-2414
▁selvästi	-2415
▁kaupungin	-2416
▁kirjoitta	-2417
▁kulttuuri	-2418
▁tiistaina	-2419
▁huhtikuuta	-2420
▁presidentin	-2421
,4	-2422
th	-2423
bor	-2424
div	-2425
ins	-2426
kar	-2427
koa	-2428
kur	-2429
kää	-2430
mon	-2431
mpi	-2432
ppo	-2433
puo	-2434
sor	-2435
tur	-2436
▁Ad	-2437
elma	-2438
idon	-2439
iltä	-2440
kona	-2441
omet	-2442
otus	-2443
siin	-2444
unut	-2445
uuto	-2446
yrit	-2447
▁Bel	-2448
▁Juh	-2449
▁Kar	-2450
▁Ris	-2451
▁Roo	-2452
▁Tie	-2453
▁Toi	-2454
▁Use	-2455
▁ide	-2456
▁itä	-2457
▁kiv	-2458
▁ris	-2459
▁suk	-2460
▁taa	-2461
▁the	-2462
▁uut	-2463
aiset	-2464
assan	-2465
istyö	-2466
kassa	-2467
ongel	-2468
oston	-2469
sodan	-2470
tonsa	-2471
tuvat	-2472
uttua	-2473
vissä	-2474
▁Iran	-2475
▁Koko	-2476
▁Maan	-2477
▁Suur	-2478
▁elin	-2479
▁istu	-2480
▁koke	-2481
▁lähe	-2482
▁mene	-2483
▁neli	-2484
▁osan	-2485
▁pysy	-2486
▁riko	-2487
▁savu	-2488
▁teho	-2489
▁ulos	-2490
▁vier	-2491
ksista	-2492
laista	-2493
talous	-2494
teistö	-2495
udella	-2496
▁Keski	-2497
▁kevät	-2498
▁laito	-2499
▁laski	-2500
▁matka	-2501
▁minua	-2502
▁pääse	-2503
▁saatu	-2504
▁vähen	-2505
aattori	-2506
▁esittä	-2507
▁joista	-2508
▁kasvoi	-2509
▁kieltä	-2510
▁myynti	-2511
▁osalta	-2512
▁suurin	-2513
▁tavoit	-2514
▁tiedon	-2515
▁viikko	-2516
▁yritys	-2517
kunnassa	-2518
oituksen	-2519
▁Bryssel	-2520
▁Yhdysva	-2521
▁menesty	-2522
▁näkökul	-2523
▁peruste	-2524
▁silloin	-2525
▁yhdessä	-2526
▁Espanjan	-2527
▁alkuperä	-2528
▁koulutus	-2529
▁toimitta	-2530
▁seitsemän	-2531
▁tarkoitus	-2532
▁ainoastaan	-2533
▁Helsingissä	-2534
▁koulutuksen	-2535
▁suomalainen	-2536
▁yliopistossa	-2537
17	-2538
IK	-2539
LE	-2540
▁u	-2541
dia	-2542
dän	-2543
esi	-2544
kil	-2545
län	-2546
peä	-2547
rab	-2548
tim	-2549
tys	-2550
▁28	-2551
▁;)	-2552
▁Da	-2553
▁EK	-2554
▁Hä	-2555
▁Pi	-2556
▁Vä	-2557
▁da	-2558
alin	-2559
alit	-2560
gian	-2561
imaa	-2562
kean	-2563
koti	-2564
oitu	-2565
ojen	-2566
pall	-2567
peli	-2568
teja	-2569
utin	-2570
utui	-2571
yssä	-2572
▁Gor	-2573
▁Tal	-2574
▁Tää	-2575
▁eks	-2576
▁pos	-2577
▁pun	-2578
▁pyy	-2579
▁tek	-2580
▁tod	-2581
emmat	-2582
enkin	-2583
enälä	-2584
estar	-2585
istan	-2586
jalta	-2587
järvi	-2588
kistu	-2589
osten	-2590
paika	-2591
piste	-2592
pääll	-2593
tunti	-2594
ustan	-2595
ustus	-2596
yhtye	-2597
▁arvo	-2598
▁herä	-2599
▁ilme	-2600
▁joku	-2601
▁kaun	-2602
▁lask	-2603
▁maks	-2604
▁piti	-2605
▁puto	-2606
▁rita	-2607
▁taso	-2608
▁uude	-2609
käyttö	-2610
liiton	-2611
oikeus	-2612
teeksi	-2613
teissa	-2614
toista	-2615
▁Japan	-2616
▁Pekka	-2617
▁Tähän	-2618
▁aloit	-2619
▁huono	-2620
▁kieli	-2621
▁luenn	-2622
▁poika	-2623
▁runsa	-2624
▁takia	-2625
▁tutus	-2626
▁vapaa	-2627
▁yksin	-2628
iteetti	-2629
kilpail	-2630
llisten	-2631
tapahtu	-2632
▁haluaa	-2633
▁inflaa	-2634
▁kahden	-2635
▁kasvat	-2636
▁näyttä	-2637
▁samaan	-2638
▁siellä	-2639
▁säännö	-2640
▁tavara	-2641
▁tietoa	-2642
▁viiden	-2643
▁yrittä	-2644
vuotiaan	-2645
▁Kreikan	-2646
▁koulutu	-2647
▁maahanm	-2648
▁opiskel	-2649
▁parempi	-2650
▁sosiaal	-2651
▁tehdään	-2652
▁teollis	-2653
▁viestin	-2654
johtajana	-2655
▁esitteli	-2656
▁kokonais	-2657
▁suoritta	-2658
▁talouden	-2659
▁toiminut	-2660
▁vaikutta	-2661
▁käytetään	-2662
▁pääkaupun	-2663
▁Yhdysvallo	-2664
▁jäsenvalti	-2665
▁muistuttaa	-2666
▁jäsenvaltio	-2667
▁+	-2668
dow	-2669
ele	-2670
ese	-2671
for	-2672
ger	-2673
ivi	-2674
jät	-2675
ori	-2676
rip	-2677
sto	-2678
suo	-2679
tuo	-2680
töä	-2681
ytä	-2682
▁2.	-2683
▁25	-2684
▁Mu	-2685
▁Na	-2686
▁Yh	-2687
inna	-2688
itie	-2689
koul	-2690
mäki	-2691
päin	-2692
saar	-2693
tern	-2694
tina	-2695
ujen	-2696
ukan	-2697
vään	-2698
ypuh	-2699
äivä	-2700
▁Mic	-2701
▁Ori	-2702
▁Saa	-2703
▁Sam	-2704
▁Tek	-2705
▁Tun	-2706
▁Tän	-2707
▁lyh	-2708
▁län	-2709
▁nat	-2710
▁rii	-2711
▁sis	-2712
▁sur	-2713
▁tan	-2714
▁til	-2715
▁tää	-2716
▁ölj	-2717
ennon	-2718
isuus	-2719
kenut	-2720
kojen	-2721
lehti	-2722
llegi	-2723
lueen	-2724
mansa	-2725
mättö	-2726
ointi	-2727
sille	-2728
tehtä	-2729
tetty	-2730
tilan	-2731
tistä	-2732
tteja	-2733
tänyt	-2734
äärin	-2735
▁Ardu	-2736
▁Iber	-2737
▁Kata	-2738
▁Mies	-2739
▁Neuv	-2740
▁ajat	-2741
▁ensi	-2742
▁joko	-2743
▁koos	-2744
▁laaj	-2745
▁nämä	-2746
▁omin	-2747
▁unoh	-2748
▁väki	-2749
ikkaan	-2750
intaan	-2751
ottelu	-2752
tietee	-2753
tilaan	-2754
voitta	-2755
▁Saksa	-2756
▁Suomi	-2757
▁Viime	-2758
▁arvos	-2759
▁ensin	-2760
▁ilmen	-2761
▁johtu	-2762
▁kuole	-2763
▁käynn	-2764
▁melko	-2765
▁saata	-2766
▁toden	-2767
▁tulla	-2768
▁uusia	-2769
mioistu	-2770
teisiin	-2771
ttömyys	-2772
tyminen	-2773
▁Kaikki	-2774
▁Tänään	-2775
▁hyökkä	-2776
▁joutui	-2777
▁kierro	-2778
▁lisään	-2779
▁löytyy	-2780
▁nainen	-2781
▁päivää	-2782
▁saakka	-2783
▁takana	-2784
▁tarkas	-2785
▁tuotta	-2786
▁ympäri	-2787
ekisterö	-2788
llisessa	-2789
oikeuden	-2790
▁Ensimmä	-2791
▁humanis	-2792
▁ilmesty	-2793
▁hallitus	-2794
▁mielenki	-2795
▁perjanta	-2796
▁seksuaal	-2797
▁vahvista	-2798
▁varmasti	-2799
▁kuninkaan	-2800
▁uudelleen	-2801
▁valittiin	-2802
▁huolimatta	-2803
▁käytettiin	-2804
▁yhdysvalta	-2805
▁Brysselissä	-2806
▁käytännössä	-2807
▁prosenttiin	-2808
▁tutkimuksen	-2809
▁isännöitsijä	-2810
▁kauppakorkeako	-2811
,8	-2812
,9	-2813
VA	-2814
ru	-2815
ür	-2816
-19	-2817
ard	-2818
hat	-2819
her	-2820
ire	-2821
joa	-2822
kik	-2823
kot	-2824
kän	-2825
mus	-2826
par	-2827
pöl	-2828
sky	-2829
sun	-2830
udu	-2831
use	-2832
vis	-2833
öyh	-2834
▁21	-2835
▁Ag	-2836
▁It	-2837
▁Ul	-2838
▁We	-2839
▁cm	-2840
▁yö	-2841
arvo	-2842
asia	-2843
ehdo	-2844
este	-2845
ikaa	-2846
kelä	-2847
llyt	-2848
mian	-2849
ssin	-2850
suun	-2851
tona	-2852
tuus	-2853
unta	-2854
yörä	-2855
▁EKP	-2856
▁Han	-2857
▁Jär	-2858
▁Las	-2859
▁Läh	-2860
▁Ste	-2861
▁Uus	-2862
▁Ven	-2863
▁haa	-2864
▁hil	-2865
▁hui	-2866
▁mik	-2867
▁mää	-2868
▁num	-2869
▁pen	-2870
▁pör	-2871
▁ras	-2872
▁rus	-2873
▁uni	-2874
aatti	-2875
anoma	-2876
aston	-2877
emaan	-2878
ettua	-2879
ilija	-2880
immat	-2881
innon	-2882
intaa	-2883
istaa	-2884
jille	-2885
joita	-2886
ketti	-2887
kkeen	-2888
malle	-2889
maton	-2890
oista	-2891
pohja	-2892
ppado	-2893
raken	-2894
terin	-2895
tiota	-2896
tonen	-2897
uolaa	-2898
valti	-2899
▁2000	-2900
▁Carl	-2901
▁Mitä	-2902
▁Olen	-2903
▁Toim	-2904
▁alla	-2905
▁ennä	-2906
▁ilta	-2907
▁komm	-2908
▁kään	-2909
▁löyd	-2910
▁nimi	-2911
▁perä	-2912
▁pidä	-2913
▁päät	-2914
▁tuon	-2915
Euroop	-2916
alueen	-2917
ellään	-2918
enpite	-2919
ettävä	-2920
itepöl	-2921
liiken	-2922
llistä	-2923
paikka	-2924
tilais	-2925
tuivat	-2926
ustann	-2927
▁auton	-2928
▁joulu	-2929
▁kovin	-2930
▁kuoli	-2931
▁laiva	-2932
▁lähte	-2933
▁maali	-2934
▁muoto	-2935
▁myötä	-2936
▁nosta	-2937
▁oleva	-2938
▁parha	-2939
▁piste	-2940
▁saksa	-2941
▁sivus	-2942
▁sovel	-2943
▁tyttö	-2944
▁viera	-2945
▁yhtiö	-2946
asiassa	-2947
dynasti	-2948
emmisto	-2949
emmistö	-2950
joukkue	-2951
▁Saksan	-2952
▁alueen	-2953
▁englan	-2954
▁euroon	-2955
▁itsenä	-2956
▁kesken	-2957
▁liitto	-2958
▁miehen	-2959
▁politi	-2960
▁saivat	-2961
▁vaikea	-2962
▁venälä	-2963
talouden	-2964
▁Italian	-2965
▁Ruotsin	-2966
▁entinen	-2967
▁filosof	-2968
▁harjoit	-2969
▁johtaja	-2970
▁keskivi	-2971
▁kilomet	-2972
▁lahjoit	-2973
▁näyttää	-2974
▁rangais	-2975
▁taloude	-2976
▁tarkoit	-2977
▁tekijän	-2978
▁keskusta	-2979
▁laskeutu	-2980
▁markkina	-2981
▁mennessä	-2982
▁tunnettu	-2983
▁yhteisön	-2984
▁suunnitel	-2985
▁yhteistyö	-2986
▁kehittämis	-2987
▁kirjoittaa	-2988
▁ensimmäistä	-2989
▁heinäkuussa	-2990
▁julkaistiin	-2991
▁perusteella	-2992
▁presidentti	-2993
▁voimakkaasti	-2994
▁puheenjohtaja	-2995
▁Yhdysvalloissa	-2996
▁toimitusjohtaja	-2997
,1	-2998
,3	-2999
,6	-3000
63	-3001
IM	-3002
Rf	-3003
TA	-3004
ös	-3005
▁Ä	-3006
ain	-3007
don	-3008
euv	-3009
fel	-3010
gra	-3011
hön	-3012
iaa	-3013
keh	-3014
kut	-3015
mit	-3016
ppä	-3017
puh	-3018
ric	-3019
roi	-3020
▁29	-3021
▁5.	-3022
▁Bo	-3023
▁El	-3024
▁Hi	-3025
▁My	-3026
▁Sy	-3027
▁ho	-3028
▁od	-3029
astu	-3030
hden	-3031
imon	-3032
ison	-3033
järv	-3034
kkia	-3035
llon	-3036
luku	-3037
mies	-3038
sian	-3039
siiv	-3040
tapa	-3041
tian	-3042
ulit	-3043
ynyt	-3044
äiri	-3045
ääke	-3046
östä	-3047
▁20.	-3048
▁27.	-3049
▁400	-3050
▁Elo	-3051
▁Kor	-3052
▁Kos	-3053
▁Mit	-3054
▁Oli	-3055
▁YLE	-3056
▁ehd	-3057
▁iso	-3058
▁joh	-3059
▁pih	-3060
▁sup	-3061
▁tee	-3062
▁Åke	-3063
destä	-3064
eensa	-3065
ettom	-3066
ilman	-3067
impia	-3068
innin	-3069
intar	-3070
jöitä	-3071
kkien	-3072
konen	-3073
kästä	-3074
piiri	-3075
reita	-3076
teitä	-3077
uissa	-3078
vaali	-3079
vansa	-3080
villa	-3081
▁2001	-3082
▁2004	-3083
▁2010	-3084
▁Repo	-3085
▁emme	-3086
▁esit	-3087
▁haku	-3088
▁kats	-3089
▁kulu	-3090
▁kunn	-3091
▁ohja	-3092
▁omis	-3093
▁osto	-3094
▁perh	-3095
▁suku	-3096
▁suos	-3097
▁tele	-3098
▁vali	-3099
▁vide	-3100
▁väit	-3101
estään	-3102
ikkona	-3103
poliit	-3104
udessa	-3105
▁Miksi	-3106
▁Obama	-3107
▁Tehty	-3108
▁edell	-3109
▁etelä	-3110
▁kasvu	-3111
▁korko	-3112
▁kutsu	-3113
▁massa	-3114
▁minun	-3115
▁näkyy	-3116
▁pikku	-3117
▁rapor	-3118
▁silti	-3119
▁synty	-3120
▁tilas	-3121
▁tulos	-3122
▁valit	-3123
emokraa	-3124
kkaiden	-3125
oitusta	-3126
▁Iranin	-3127
▁Isännö	-3128
▁Risper	-3129
▁Tutkim	-3130
▁alussa	-3131
▁esille	-3132
▁joskus	-3133
▁liiken	-3134
▁mielen	-3135
▁oikein	-3136
▁opetta	-3137
▁paljas	-3138
▁pelasi	-3139
▁projek	-3140
▁päätös	-3141
▁tilais	-3142
▁valkea	-3143
▁välttä	-3144
▁älypuh	-3145
lliseksi	-3146
valmista	-3147
▁edellis	-3148
▁ihmisen	-3149
▁koskaan	-3150
▁pitänyt	-3151
▁potilas	-3152
▁siirtyi	-3153
▁viikonl	-3154
keskuksen	-3155
▁isännöin	-3156
▁kannalta	-3157
▁käytössä	-3158
▁myöskään	-3159
▁näytteli	-3160
▁osoittaa	-3161
▁perustuu	-3162
▁takaisin	-3163
▁televisi	-3164
▁valuutta	-3165
▁vähemmän	-3166
▁yhdeksän	-3167
▁julkaistu	-3168
▁kannattaa	-3169
▁syyskuuta	-3170
▁tunnetaan	-3171
▁vähintään	-3172
▁suomalaisen	-3173
SA	-3174
TV	-3175
ak	-3176
ji	-3177
eja	-3178
iky	-3179
ily	-3180
imä	-3181
jal	-3182
jun	-3183
kal	-3184
koh	-3185
mas	-3186
mik	-3187
oku	-3188
ong	-3189
pol	-3190
uis	-3191
uki	-3192
▁58	-3193
▁EM	-3194
▁Ol	-3195
▁Op	-3196
▁Tš	-3197
▁aa	-3198
bert	-3199
emmä	-3200
iaan	-3201
ilin	-3202
irin	-3203
joja	-3204
kesä	-3205
kkää	-3206
kkös	-3207
koko	-3208
lain	-3209
llia	-3210
menn	-3211
oili	-3212
oksi	-3213
olin	-3214
raan	-3215
ruun	-3216
sien	-3217
sina	-3218
tori	-3219
▁13.	-3220
▁15.	-3221
▁19.	-3222
▁201	-3223
▁Kul	-3224
▁Kuo	-3225
▁Kuu	-3226
▁Lin	-3227
▁MTV	-3228
▁Man	-3229
▁Pen	-3230
▁Pit	-3231
▁Rat	-3232
▁Ter	-3233
▁Tra	-3234
▁ala	-3235
▁amp	-3236
▁luu	-3237
▁ope	-3238
▁pol	-3239
▁sav	-3240
▁uun	-3241
▁äär	-3242
asian	-3243
dassa	-3244
gambi	-3245
istel	-3246
tautu	-3247
teena	-3248
ttien	-3249
uudet	-3250
uussa	-3251
vinto	-3252
▁Khos	-3253
▁Oike	-3254
▁Poli	-3255
▁Sitä	-3256
▁Tamm	-3257
▁Ulko	-3258
▁Uusi	-3259
▁aine	-3260
▁anal	-3261
▁asem	-3262
▁asti	-3263
▁hinn	-3264
▁ilmi	-3265
▁jaka	-3266
▁kone	-3267
▁kuts	-3268
▁kylä	-3269
▁lehd	-3270
▁meni	-3271
▁pako	-3272
▁pian	-3273
▁puna	-3274
▁pääs	-3275
▁rann	-3276
▁sama	-3277
▁tyyd	-3278
▁ydin	-3279
iselle	-3280
isessa	-3281
isilla	-3282
itystä	-3283
joista	-3284
kauppa	-3285
keskus	-3286
neiden	-3287
ryhmän	-3288
tettua	-3289
ttömyy	-3290
utensa	-3291
vaitse	-3292
vallat	-3293
yhteis	-3294
yväsky	-3295
▁Matti	-3296
▁Mutta	-3297
▁Turku	-3298
▁Uuden	-3299
▁apura	-3300
▁eilen	-3301
▁häntä	-3302
▁jatko	-3303
▁jokin	-3304
▁korva	-3305
▁lintu	-3306
▁lähti	-3307
▁mihin	-3308
▁pakko	-3309
▁perhe	-3310
▁pohja	-3311
▁puhua	-3312
▁pääsi	-3313
▁sinne	-3314
▁siten	-3315
▁tilaa	-3316
▁valmi	-3317
▁verta	-3318
alaista	-3319
ilainen	-3320
itetaan	-3321
▁Keskus	-3322
▁hiukan	-3323
▁kotiin	-3324
▁lasten	-3325
▁linnan	-3326
▁maasta	-3327
▁mieltä	-3328
▁määrit	-3329
▁niistä	-3330
▁ruotsa	-3331
▁saavat	-3332
▁sassan	-3333
▁syntyi	-3334
▁totesi	-3335
▁tulisi	-3336
▁verran	-3337
▁voitta	-3338
ituksena	-3339
▁Android	-3340
▁Kappado	-3341
▁Silloin	-3342
▁Tällöin	-3343
▁asiassa	-3344
▁kustann	-3345
▁lähinnä	-3346
▁noussut	-3347
▁ongelma	-3348
▁rakenta	-3349
▁tulevat	-3350
▁uudistu	-3351
▁valinta	-3352
▁voimaan	-3353
▁äänesty	-3354
kirjoitta	-3355
llisuuden	-3356
▁Katainen	-3357
▁aiheutta	-3358
▁joukkoon	-3359
▁kaikissa	-3360
▁kaudella	-3361
▁kokonaan	-3362
▁kuninkaa	-3363
▁kuuluvat	-3364
▁nykyisin	-3365
▁oikeasti	-3366
▁puolella	-3367
▁tutkijat	-3368
▁Toisaalta	-3369
▁kansalais	-3370
▁komission	-3371
▁pitkäaika	-3372
▁rekisterö	-3373
▁asiantunti	-3374
▁heinäkuuta	-3375
▁kappaletta	-3376
▁miljoonaan	-3377
▁osallistui	-3378
▁sopimuksen	-3379
▁tapauksessa	-3380
▁huomattavasti	-3381
▁jäsenvaltioissa	-3382
21	-3383
ES	-3384
PS	-3385
XX	-3386
gn	-3387
mö	-3388
ou	-3389
ub	-3390
xf	-3391
est	-3392
ijo	-3393
jin	-3394
jää	-3395
kuo	-3396
nim	-3397
ola	-3398
ret	-3399
rik	-3400
teg	-3401
umm	-3402
ute	-3403
▁9.	-3404
▁De	-3405
▁Ih	-3406
▁Sc	-3407
▁Ve	-3408
▁km	-3409
▁mä	-3410
▁up	-3411
anin	-3412
atta	-3413
berg	-3414
ennä	-3415
imeä	-3416
irek	-3417
ivaa	-3418
kija	-3419
kyky	-3420
mana	-3421
merk	-3422
rill	-3423
seja	-3424
ssia	-3425
tilä	-3426
ttyä	-3427
tulo	-3428
tuot	-3429
umin	-3430
usli	-3431
ytyi	-3432
änsä	-3433
▁Ari	-3434
▁Elä	-3435
▁III	-3436
▁Jus	-3437
▁Kaa	-3438
▁Kan	-3439
▁Lar	-3440
▁Lop	-3441
▁Mää	-3442
▁Pan	-3443
▁Sto	-3444
▁Van	-3445
▁Vas	-3446
▁Wil	-3447
▁Wol	-3448
▁ens	-3449
▁hoi	-3450
▁jär	-3451
▁oll	-3452
▁pik	-3453
▁rik	-3454
▁ruu	-3455
▁sol	-3456
▁sor	-3457
▁tap	-3458
▁teo	-3459
▁von	-3460
▁ylä	-3461
aisia	-3462
isari	-3463
istää	-3464
ityks	-3465
jista	-3466
ketta	-3467
kinen	-3468
kkaan	-3469
koita	-3470
meren	-3471
uista	-3472
välin	-3473
▁Kaar	-3474
▁Kari	-3475
▁Näin	-3476
▁Tänä	-3477
▁Yksi	-3478
▁alko	-3479
▁alun	-3480
▁erää	-3481
▁etsi	-3482
▁kesk	-3483
▁kiih	-3484
▁komp	-3485
▁kood	-3486
▁läpi	-3487
▁maus	-3488
▁onko	-3489
▁otti	-3490
▁pron	-3491
▁pysä	-3492
▁sais	-3493
▁suhd	-3494
▁tosi	-3495
Suomen	-3496
divers	-3497
ikolla	-3498
iltaan	-3499
isissä	-3500
kauden	-3501
lemmat	-3502
luokit	-3503
maiden	-3504
mattom	-3505
osassa	-3506
teesta	-3507
teista	-3508
tukset	-3509
tämään	-3510
udesta	-3511
ukuuta	-3512
▁Brita	-3513
▁Peter	-3514
▁avoim	-3515
▁hilja	-3516
▁itsel	-3517
▁jätti	-3518
▁kamer	-3519
▁kanna	-3520
▁kumpp	-3521
▁käydä	-3522
▁laske	-3523
▁mahta	-3524
▁media	-3525
▁mieli	-3526
▁nimen	-3527
▁onkin	-3528
▁paran	-3529
▁riste	-3530
▁saapu	-3531
▁takaa	-3532
▁tarpe	-3533
▁tuhan	-3534
▁tyypi	-3535
▁tyyty	-3536
▁uhkaa	-3537
▁vanha	-3538
▁voida	-3539
▁yhtye	-3540
innasta	-3541
llegium	-3542
neeseen	-3543
osentti	-3544
tettava	-3545
vaikutu	-3546
▁Micros	-3547
▁Määttä	-3548
▁Varsin	-3549
▁Vuoden	-3550
▁Wolter	-3551
▁jatkaa	-3552
▁kielen	-3553
▁kukaan	-3554
▁kunnan	-3555
▁kuului	-3556
▁laitte	-3557
▁laskee	-3558
▁muodos	-3559
▁mustan	-3560
▁palasi	-3561
▁putosi	-3562
▁päätti	-3563
▁teksti	-3564
▁tiedot	-3565
▁tietää	-3566
▁täysin	-3567
▁täytyy	-3568
▁vastus	-3569
▁yhtään	-3570
ittämään	-3571
tuksessa	-3572
valmenta	-3573
▁Arduino	-3574
▁Iberian	-3575
▁Tilasto	-3576
▁esimerk	-3577
▁histori	-3578
▁ihmistä	-3579
▁kiinnos	-3580
▁liittyy	-3581
▁ominais	-3582
▁perusti	-3583
▁pohjois	-3584
▁saadaan	-3585
▁seminaa	-3586
▁sovelle	-3587
▁sovelta	-3588
▁tilanne	-3589
▁äänestä	-3590
▁Maailman	-3591
▁historia	-3592
▁huomiota	-3593
▁johdosta	-3594
▁kymmenen	-3595
▁muodossa	-3596
▁puolesta	-3597
▁tarvitse	-3598
▁tiedotus	-3599
▁vastusta	-3600
▁vuodelta	-3601
oikeuksien	-3602
▁Venäjällä	-3603
▁kaikkiaan	-3604
▁muutoksia	-3605
▁sellainen	-3606
▁sellaisen	-3607
▁todennäkö	-3608
▁yritysten	-3609
▁Euroopassa	-3610
▁Kansainväl	-3611
▁joulukuuta	-3612
▁lauantaina	-3613
▁Yhdysvallat	-3614
▁aikaisemmin	-3615
▁toistaiseksi	-3616
▁keskiviikkona	-3617
▁maailmansodan	-3618
4.	-3619
AA	-3620
HL	-3621
Ma	-3622
cC	-3623
fi	-3624
ld	-3625
mb	-3626
▁Q	-3627
ang	-3628
ass	-3629
bat	-3630
edi	-3631
eko	-3632
ena	-3633
eva	-3634
ffe	-3635
ipä	-3636
jar	-3637
kra	-3638
kyn	-3639
lah	-3640
nis	-3641
pas	-3642
pit	-3643
pos	-3644
pro	-3645
pun	-3646
rad	-3647
rig	-3648
ser	-3649
ska	-3650
ste	-3651
tic	-3652
tot	-3653
uti	-3654
uvo	-3655
väh	-3656
zin	-3657
▁35	-3658
▁40	-3659
▁6.	-3660
▁80	-3661
▁CE	-3662
▁Gu	-3663
▁Hu	-3664
▁Os	-3665
▁Ri	-3666
▁Rä	-3667
▁Za	-3668
▁my	-3669
atin	-3670
cker	-3671
eena	-3672
evat	-3673
haan	-3674
hais	-3675
htia	-3676
ihte	-3677
ikom	-3678
itun	-3679
kaus	-3680
kono	-3681
pito	-3682
pitä	-3683
syko	-3684
tisi	-3685
tois	-3686
ttua	-3687
tymä	-3688
ytty	-3689
–200	-3690
▁18.	-3691
▁For	-3692
▁Hal	-3693
▁Kat	-3694
▁Kim	-3695
▁McC	-3696
▁Nuo	-3697
▁Tom	-3698
▁Tuk	-3699
▁Wor	-3700
▁Yhd	-3701
▁hid	-3702
▁häv	-3703
▁ikä	-3704
▁isä	-3705
▁kel	-3706
▁ksy	-3707
▁kuv	-3708
▁kyl	-3709
▁lii	-3710
▁loh	-3711
▁ohi	-3712
▁pil	-3713
▁raa	-3714
▁sam	-3715
▁tür	-3716
annut	-3717
arath	-3718
bumin	-3719
eorgi	-3720
ettel	-3721
ettää	-3722
gisti	-3723
imaan	-3724
istys	-3725
itali	-3726
jojen	-3727
jäsen	-3728
kaani	-3729
luonn	-3730
miset	-3731
musta	-3732
ninen	-3733
nissa	-3734
oksen	-3735
sukka	-3736
tilaa	-3737
tävät	-3738
uteen	-3739
▁2...	-3740
▁Char	-3741
▁Finn	-3742
▁Itse	-3743
▁Laod	-3744
▁Mikä	-3745
▁Myöh	-3746
▁Onni	-3747
▁Rosa	-3748
▁Sano	-3749
▁Tall	-3750
▁Tamp	-3751
▁YLEn	-3752
▁alan	-3753
▁brit	-3754
▁herk	-3755
▁huom	-3756
▁jaks	-3757
▁jään	-3758
▁kuun	-3759
▁laul	-3760
▁levy	-3761
▁liha	-3762
▁luon	-3763
▁ohje	-3764
▁pann	-3765
▁pela	-3766
▁sing	-3767
▁talv	-3768
▁tarp	-3769
▁voin	-3770
edusta	-3771
ettava	-3772
ikassa	-3773
isimme	-3774
joille	-3775
kuntaa	-3776
logian	-3777
rabian	-3778
teilla	-3779
tetään	-3780
vuoren	-3781
▁Akate	-3782
▁Kunin	-3783
▁Lääke	-3784
▁Mitro	-3785
▁Ponto	-3786
▁Portu	-3787
▁Putin	-3788
▁Yhtiö	-3789
▁aller	-3790
▁asiaa	-3791
▁direk	-3792
▁epäil	-3793
▁eteen	-3794
▁ikään	-3795
▁jaksa	-3796
▁johti	-3797
▁johto	-3798
▁kauan	-3799
▁kuvia	-3800
▁kysyn	-3801
▁maksu	-3802
▁monia	-3803
▁myymä	-3804
▁näkem	-3805
▁ollen	-3806
▁oppia	-3807
▁osoit	-3808
▁sanan	-3809
▁suosi	-3810
▁uskoo	-3811
▁virhe	-3812
▁virka	-3813
▁Åkeby	-3814
immista	-3815
ittelee	-3816
llisena	-3817
miselle	-3818
taisiin	-3819
▁Kaupun	-3820
▁Talous	-3821
▁Toisin	-3822
▁Tukhol	-3823
▁alusta	-3824
▁asetus	-3825
▁juusto	-3826
▁kirkon	-3827
▁koskee	-3828
▁kotima	-3829
▁kuning	-3830
▁liikke	-3831
▁liikku	-3832
▁löytyi	-3833
▁meillä	-3834
▁mestar	-3835
▁miljar	-3836
▁muutti	-3837
▁ohella	-3838
▁suolaa	-3839
▁taakse	-3840
▁tarkka	-3841
▁tausta	-3842
▁tietty	-3843
▁työelä	-3844
▁ulkoma	-3845
▁uuteen	-3846
▁viesti	-3847
▁yleisö	-3848
hallitsi	-3849
järjesty	-3850
kaupasta	-3851
▁Jyväsky	-3852
▁aloitti	-3853
▁asiasta	-3854
▁entistä	-3855
▁haluais	-3856
▁harvoin	-3857
▁itsensä	-3858
▁kehitty	-3859
▁loppuun	-3860
▁minulla	-3861
▁naisten	-3862
▁nimellä	-3863
▁perheen	-3864
▁pukeutu	-3865
▁suositu	-3866
▁tutustu	-3867
▁yhteisö	-3868
dynastian	-3869
istettiin	-3870
päällikkö	-3871
tieteiden	-3872
vuotiaana	-3873
▁Microsof	-3874
▁Tammelan	-3875
▁Yhdysval	-3876
▁huomioon	-3877
▁ilmoitti	-3878
▁joukossa	-3879
▁julkisen	-3880
▁neljänne	-3881
▁ongelmia	-3882
▁perustus	-3883
▁saavutta	-3884
▁sisältää	-3885
▁suvaitse	-3886
▁tekemään	-3887
kesäkuussa	-3888
liikenteen	-3889
ministerin	-3890
▁Ruotsissa	-3891
▁aiheuttaa	-3892
▁asetuksen	-3893
▁harjoitta	-3894
▁historian	-3895
▁kuukauden	-3896
▁miljoonan	-3897
▁terveyden	-3898
▁toimintaa	-3899
▁Yliopiston	-3900
▁ilmeisesti	-3901
▁mukaisesti	-3902
▁oikeastaan	-3903
▁onnistunut	-3904
▁Mikkelinsaa	-3905
▁mahdollista	-3906
▁sairaalassa	-3907
▁sovelletaan	-3908
▁Mikkelinsaar	-3909
▁mielenkiinto	-3910
▁talouspoliti	-3911
▁ulkopuolella	-3912
▁tulevaisuudessa	-3913
40	-3914
KU	-3915
PM	-3916
rr	-3917
sh	-3918
sp	-3919
ux	-3920
wa	-3921
xe	-3922
IMO	-3923
ban	-3924
bur	-3925
cli	-3926
con	-3927
cor	-3928
dos	-3929
ean	-3930
ela	-3931
hun	-3932
ide	-3933
ini	-3934
ish	-3935
juo	-3936
kys	-3937
mmi	-3938
muo	-3939
oog	-3940
ova	-3941
red	-3942
roa	-3943
rot	-3944
tro	-3945
uma	-3946
vil	-3947
vyy	-3948
ysi	-3949
▁Ai	-3950
▁Be	-3951
▁Di	-3952
▁Jä	-3953
▁MI	-3954
▁Mö	-3955
▁Oh	-3956
▁VI	-3957
Kore	-3958
aine	-3959
arin	-3960
ckin	-3961
ehme	-3962
ekko	-3963
etys	-3964
felt	-3965
gres	-3966
igan	-3967
ikun	-3968
ilun	-3969
inon	-3970
irvi	-3971
ispa	-3972
itty	-3973
jiin	-3974
joki	-3975
keaa	-3976
kejä	-3977
kinä	-3978
kkan	-3979
land	-3980
maat	-3981
meen	-3982
miel	-3983
mpia	-3984
mäen	-3985
määr	-3986
olan	-3987
olle	-3988
omus	-3989
pano	-3990
taso	-3991
tena	-3992
tite	-3993
toin	-3994
upin	-3995
utua	-3996
utun	-3997
vell	-3998
vyys	-3999
yllä	-4000
ymys	-4001
ysan	-4002
▁10.	-4003
▁16.	-4004
▁192	-4005
▁21.	-4006
▁Aam	-4007
▁Ale	-4008
▁Bal	-4009
▁Bin	-4010
▁Jul	-4011
▁Kas	-4012
▁Mer	-4013
▁Mol	-4014
▁Sal	-4015
▁Sää	-4016
▁Tor	-4017
▁UPM	-4018
▁Ver	-4019
▁Vol	-4020
▁Väh	-4021
▁and	-4022
▁fin	-4023
▁hor	-4024
▁jäi	-4025
▁kyt	-4026
▁lat	-4027
▁man	-4028
▁mus	-4029
▁pyö	-4030
▁run	-4031
▁siv	-4032
▁tah	-4033
▁tyh	-4034
▁vai	-4035
Brita	-4036
asili	-4037
astus	-4038
eljän	-4039
ettaa	-4040
hansa	-4041
ikais	-4042
ingin	-4043
ingon	-4044
irate	-4045
ittel	-4046
itten	-4047
kalla	-4048
kasti	-4049
maksu	-4050
milla	-4051
nalla	-4052
oiksi	-4053
ottel	-4054
relle	-4055
ristö	-4056
tekni	-4057
tieto	-4058
tille	-4059
tisia	-4060
tyvät	-4061
viksi	-4062
vistä	-4063
äiriö	-4064
▁1000	-4065
▁1985	-4066
▁1987	-4067
▁1990	-4068
▁1994	-4069
▁Aina	-4070
▁Geor	-4071
▁Hall	-4072
▁John	-4073
▁Kana	-4074
▁Koti	-4075
▁Niin	-4076
▁Pari	-4077
▁Paul	-4078
▁Star	-4079
▁Tapi	-4080
▁Thom	-4081
▁Tuli	-4082
▁Tunn	-4083
▁Vain	-4084
▁Vali	-4085
▁anne	-4086
▁kerä	-4087
▁kylj	-4088
▁kärä	-4089
▁laus	-4090
▁leik	-4091
▁luov	-4092
▁sivu	-4093
▁synn	-4094
aamaan	-4095
albumi	-4096
eltaan	-4097
empaan	-4098
estari	-4099
illeen	-4100
illään	-4101
intarv	-4102
joissa	-4103
ksessä	-4104
ksissa	-4105
kuutus	-4106
llissa	-4107
päivän	-4108
reiden	-4109
teistä	-4110
vaatim	-4111
vaihto	-4112
vannut	-4113
vähenn	-4114
ykseen	-4115
yksiin	-4116
▁1970-	-4117
▁Ihmis	-4118
▁Islan	-4119
▁Sydow	-4120
▁Tulos	-4121
▁Viron	-4122
▁antoi	-4123
▁estää	-4124
▁gambi	-4125
▁huoma	-4126
▁hyvän	-4127
▁ikkun	-4128
▁jääki	-4129
▁kello	-4130
▁korja	-4131
▁kunta	-4132
▁kysel	-4133
▁käsin	-4134
▁lasta	-4135
▁laula	-4136
▁lihan	-4137
▁luonn	-4138
▁mennä	-4139
▁miksi	-4140
▁minut	-4141
▁neliö	-4142
▁näitä	-4143
▁oppil	-4144
▁osana	-4145
▁puuta	-4146
▁pyrki	-4147
▁salaa	-4148
▁samaa	-4149
▁selvi	-4150
▁siksi	-4151
▁suoja	-4152
▁tomaa	-4153
▁tosin	-4154
▁tukea	-4155
▁tuomi	-4156
▁vaihd	-4157
alaisia	-4158
ennolla	-4159
intojen	-4160
itepöly	-4161
ittänyt	-4162
luvulta	-4163
nniassa	-4164
tukseen	-4165
täntöön	-4166
uskunta	-4167
▁Intern	-4168
▁McCain	-4169
▁Mirian	-4170
▁Pirate	-4171
▁Turkin	-4172
▁edessä	-4173
▁epäonn	-4174
▁hallit	-4175
▁heikko	-4176
▁helppo	-4177
▁hinnat	-4178
▁huoles	-4179
▁jäänyt	-4180
▁kasvaa	-4181
▁kasvua	-4182
▁kauden	-4183
▁keskim	-4184
▁kokoon	-4185
▁käytti	-4186
▁lapsen	-4187
▁lapset	-4188
▁mikään	-4189
▁muisto	-4190
▁niihin	-4191
▁olemme	-4192
▁opinto	-4193
▁osaksi	-4194
▁päässä	-4195
▁riippu	-4196
▁saatta	-4197
▁syntyy	-4198
▁tallen	-4199
▁tarjoa	-4200
▁täällä	-4201
▁vastuu	-4202
▁verkko	-4203
järjestö	-4204
llisesta	-4205
luokitus	-4206
tuksesta	-4207
uttamaan	-4208
▁Arabian	-4209
▁entisen	-4210
▁hyväksy	-4211
▁joukkue	-4212
▁jäsenet	-4213
▁keisari	-4214
▁kreikka	-4215
▁lainsää	-4216
▁liittyi	-4217
▁lähellä	-4218
▁palvelu	-4219
▁tehtävä	-4220
▁tekstin	-4221
▁työvoim	-4222
▁vaalean	-4223
▁valtiop	-4224
▁velkaan	-4225
palkinnon	-4226
toiminnan	-4227
▁Ariarath	-4228
▁Neuvosto	-4229
▁hallinto	-4230
▁helposti	-4231
▁kaikille	-4232
▁kehittää	-4233
▁kommento	-4234
▁maailmaa	-4235
▁mielessä	-4236
▁muodosta	-4237
▁oikeisto	-4238
▁paikalla	-4239
▁pronssia	-4240
▁puolelle	-4241
▁rahoitus	-4242
▁vaikutus	-4243
▁vuodessa	-4244
sopimuksen	-4245
▁itselleen	-4246
▁järjestel	-4247
▁liittyvät	-4248
▁osallistu	-4249
▁toiminnan	-4250
▁työskenne	-4251
▁vaikuttaa	-4252
▁viestintä	-4253
▁yleisesti	-4254
▁Helsinkiin	-4255
▁neuvottelu	-4256
▁täytäntöön	-4257
▁voitaisiin	-4258
▁vähemmistö	-4259
▁älypuhelin	-4260
talousvähenn	-4261
▁Kappadokian	-4262
▁ensimmäiset	-4263
▁ihmiskaupan	-4264
▁suomalaiset	-4265
▁tiedekunnan	-4266
▁valuuttarah	-4267
▁yhteiskunna	-4268
▁mahdollisuus	-4269
,0	-4270
13	-4271
CT	-4272
qu	-4273
sl	-4274
ts	-4275
▁'	-4276
det	-4277
epä	-4278
gyp	-4279
huo	-4280
ikö	-4281
ima	-4282
imm	-4283
key	-4284
ler	-4285
lub	-4286
lön	-4287
oma	-4288
piä	-4289
pla	-4290
siä	-4291
tif	-4292
und	-4293
ure	-4294
vid	-4295
vir	-4296
yin	-4297
öri	-4298
▁%:	-4299
▁Ga	-4300
▁HS	-4301
▁IM	-4302
▁Tö	-4303
▁aj	-4304
▁br	-4305
▁co	-4306
▁lö	-4307
IKKU	-4308
atar	-4309
dään	-4310
euvo	-4311
evan	-4312
hous	-4313
imet	-4314
itto	-4315
joen	-4316
kohd	-4317
kula	-4318
lass	-4319
laus	-4320
lehd	-4321
lleg	-4322
mari	-4323
ming	-4324
mmon	-4325
mpaa	-4326
neuv	-4327
olen	-4328
pala	-4329
ppal	-4330
roja	-4331
tenä	-4332
tero	-4333
ukse	-4334
uram	-4335
utut	-4336
utuu	-4337
vall	-4338
vene	-4339
väen	-4340
väli	-4341
ynti	-4342
änen	-4343
ääri	-4344
▁29.	-4345
▁500	-4346
▁Bro	-4347
▁Eli	-4348
▁Gli	-4349
▁ICT	-4350
▁Kok	-4351
▁Poh	-4352
▁Tee	-4353
▁Vil	-4354
▁War	-4355
▁ain	-4356
▁auk	-4357
▁kim	-4358
▁len	-4359
▁lup	-4360
▁näy	-4361
▁olo	-4362
▁sum	-4363
▁toi	-4364
▁vie	-4365
▁vil	-4366
▁yön	-4367
VAIMO	-4368
aiska	-4369
anska	-4370
asema	-4371
desta	-4372
eloku	-4373
emieh	-4374
esluo	-4375
inoja	-4376
intoa	-4377
isiko	-4378
isinä	-4379
isyys	-4380
itiiv	-4381
itium	-4382
kalta	-4383
kissa	-4384
kärin	-4385
lleni	-4386
lomet	-4387
ltaan	-4388
mento	-4389
mänsä	-4390
pallo	-4391
paper	-4392
pissa	-4393
raali	-4394
siaan	-4395
ssaan	-4396
tanut	-4397
tissa	-4398
torin	-4399
ttava	-4400
ttölä	-4401
tuksi	-4402
uinen	-4403
uotta	-4404
upara	-4405
vaale	-4406
väksi	-4407
ytänn	-4408
yökkä	-4409
▁1989	-4410
▁1997	-4411
▁Eero	-4412
▁Espo	-4413
▁Kyse	-4414
▁MIES	-4415
▁Puol	-4416
▁Room	-4417
▁Stan	-4418
▁Tasa	-4419
▁Voim	-4420
▁Yrit	-4421
▁amer	-4422
▁anti	-4423
▁avio	-4424
▁data	-4425
▁elää	-4426
▁ener	-4427
▁haus	-4428
▁häir	-4429
▁kaip	-4430
▁kaks	-4431
▁keng	-4432
▁krit	-4433
▁lämp	-4434
▁moni	-4435
▁naap	-4436
▁naim	-4437
▁pari	-4438
▁pohd	-4439
▁päin	-4440
▁raha	-4441
▁raja	-4442
▁reag	-4443
▁sala	-4444
▁seka	-4445
▁sula	-4446
▁tein	-4447
▁toki	-4448
▁torj	-4449
▁vetä	-4450
▁visu	-4451
▁vähä	-4452
▁väri	-4453
Aasian	-4454
atteri	-4455
detään	-4456
ditaan	-4457
ehtori	-4458
ellaan	-4459
ettuja	-4460
ikansa	-4461
isteen	-4462
jöiden	-4463
kainen	-4464
kotilo	-4465
kselle	-4466
mmentä	-4467
oimaan	-4468
rjassa	-4469
teisiä	-4470
tekijä	-4471
ukkaan	-4472
uksena	-4473
utettu	-4474
vitaan	-4475
▁1980-	-4476
▁Hieta	-4477
▁Järne	-4478
▁Neste	-4479
▁Norde	-4480
▁PIKKU	-4481
▁Tieto	-4482
▁alkan	-4483
▁autta	-4484
▁dolla	-4485
▁elämä	-4486
▁erään	-4487
▁hakea	-4488
▁hetki	-4489
▁häpeä	-4490
▁jakoi	-4491
▁jalan	-4492
▁juhli	-4493
▁jäädä	-4494
▁kalta	-4495
▁kerää	-4496
▁kestä	-4497
▁kevää	-4498
▁kilpa	-4499
▁kohta	-4500
▁kuusi	-4501
▁laina	-4502
▁laulu	-4503
▁makka	-4504
▁metsä	-4505
▁monet	-4506
▁nähdä	-4507
▁näppä	-4508
▁ohjaa	-4509
▁omaan	-4510
▁osake	-4511
▁osuus	-4512
▁paras	-4513
▁pehme	-4514
▁pieni	-4515
▁pohjo	-4516
▁prins	-4517
▁psyko	-4518
▁rauta	-4519
▁sanat	-4520
▁tohto	-4521
▁tukee	-4522
▁tuntu	-4523
▁tänne	-4524
▁täyde	-4525
▁vaell	-4526
▁vaimo	-4527
ellinen	-4528
innassa	-4529
isuuden	-4530
isuutta	-4531
itetään	-4532
järveen	-4533
lähetti	-4534
lääkäri	-4535
misessä	-4536
mäntapa	-4537
säätiön	-4538
uringon	-4539
uttivat	-4540
▁Albumi	-4541
▁Binder	-4542
▁Gorbat	-4543
▁Heikki	-4544
▁Molvan	-4545
▁Mustan	-4546
▁Ratcli	-4547
▁Rooman	-4548
▁Toinen	-4549
▁Toisen	-4550
▁Täällä	-4551
▁Yhtiön	-4552
▁aktiiv	-4553
▁albumi	-4554
▁alkuun	-4555
▁ennäty	-4556
▁harras	-4557
▁helmik	-4558
▁hoitaa	-4559
▁joukko	-4560
▁joulun	-4561
▁kriisi	-4562
▁liikaa	-4563
▁lukiol	-4564
▁lääkke	-4565
▁metrin	-4566
▁metriä	-4567
▁miestä	-4568
▁minuut	-4569
▁poista	-4570
▁puutar	-4571
▁päällä	-4572
▁ryhmän	-4573
▁selkeä	-4574
▁sijais	-4575
▁suomen	-4576
▁suunta	-4577
▁suuria	-4578
▁syyttä	-4579
▁tanssi	-4580
▁töissä	-4581
▁vaimon	-4582
▁valtaa	-4583
▁voimme	-4584
▁vuosin	-4585
▁väitös	-4586
▁yksilö	-4587
▁yritti	-4588
itettiin	-4589
ittaessa	-4590
kukotilo	-4591
palkinto	-4592
palloili	-4593
▁Belgian	-4594
▁Carlson	-4595
▁Möttölä	-4596
▁Poliisi	-4597
▁Raupara	-4598
▁Suomeen	-4599
▁Turussa	-4600
▁aikoina	-4601
▁aikojen	-4602
▁asioita	-4603
▁elämään	-4604
▁esittää	-4605
▁eurolla	-4606
▁ihmisiä	-4607
▁itseään	-4608
▁jostain	-4609
▁laittaa	-4610
▁lopussa	-4611
▁lähetti	-4612
▁muutama	-4613
▁nykyään	-4614
▁nähdään	-4615
▁osoitta	-4616
▁päättyi	-4617
▁rajalla	-4618
▁sivusto	-4619
▁toisten	-4620
▁tunnetu	-4621
▁tutkija	-4622
▁tyytyvä	-4623
▁unionin	-4624
▁valitsi	-4625
▁velkaka	-4626
▁yrittää	-4627
ottavasti	-4628
teellisen	-4629
▁Eurooppa	-4630
▁Kaudella	-4631
▁Toiseksi	-4632
▁amerikka	-4633
▁arvioida	-4634
▁brittilä	-4635
▁elintarv	-4636
▁hallitse	-4637
▁halutaan	-4638
▁ihmisten	-4639
▁joutuvat	-4640
▁julkaisi	-4641
▁järjesti	-4642
▁kertovat	-4643
▁komissio	-4644
▁korostaa	-4645
▁koskevat	-4646
▁kotitalo	-4647
▁kuluessa	-4648
▁liikenne	-4649
▁liittyvä	-4650
▁mielenos	-4651
▁myönteis	-4652
▁neuvosto	-4653
▁suuntaan	-4654
▁tapahtui	-4655
▁tietojen	-4656
▁toisella	-4657
▁viikolla	-4658
ennonjohta	-4659
luonnollis	-4660
▁Myöhemmin	-4661
▁biodivers	-4662
▁kohteeksi	-4663
▁käytännön	-4664
▁päätöksen	-4665
▁toisaalta	-4666
järjestelmä	-4667
tutkimuksen	-4668
▁Ariarathes	-4669
▁Elämäntapa	-4670
▁PIKKUVAIMO	-4671
▁Risperidon	-4672
▁epäonnistu	-4673
▁itseluotta	-4674
▁kiinteistö	-4675
▁mielestäni	-4676
▁mustasukka	-4677
▁näyttelijä	-4678
▁teollisuus	-4679
▁yksinkerta	-4680
▁Suomalainen	-4681
▁hallituksen	-4682
▁matkustajaa	-4683
▁perjantaina	-4684
▁vuosineljän	-4685
▁ensimmäisenä	-4686
▁pääministeri	-4687
▁suomalaisten	-4688
▁suvaitsevais	-4689
▁tilanteeseen	-4690
▁tarkoituksena	-4691
▁ammattikorkeako	-4692
-2	-4693
18	-4694
4+	-4695
AK	-4696
AS	-4697
Co	-4698
DA	-4699
Lc	-4700
ej	-4701
hu	-4702
kl	-4703
yk	-4704
▁X	-4705
ahl	-4706
asu	-4707
buš	-4708
cen	-4709
del	-4710
eer	-4711
gon	-4712
hen	-4713
igh	-4714
itu	-4715
jes	-4716
jiä	-4717
kön	-4718
lat	-4719
lly	-4720
läs	-4721
mos	-4722
mys	-4723
nnä	-4724
opa	-4725
opi	-4726
ose	-4727
pen	-4728
put	-4729
rat	-4730
rid	-4731
rmä	-4732
sal	-4733
teä	-4734
udj	-4735
ust	-4736
yle	-4737
ytö	-4738
önn	-4739
▁33	-4740
▁46	-4741
▁52	-4742
▁70	-4743
▁90	-4744
▁Ah	-4745
▁Er	-4746
▁FC	-4747
▁Hy	-4748
▁Kr	-4749
▁St	-4750
▁Us	-4751
▁ex	-4752
aanh	-4753
ales	-4754
emon	-4755
ettö	-4756
ilee	-4757
imin	-4758
inno	-4759
intä	-4760
isan	-4761
▁	-4762
a	-4763
i	-4764
t	-4765
n	-4766
e	-4767
s	-4768
l	-4769
o	-4770
u	-4771
k	-4772
ä	-4773
m	-4774
r	-4775
v	-4776
j	-4777
y	-4778
p	-4779
h	-4780
.	-4781
d	-4782
,	-4783
ö	-4784
T	-4785
0	-4786
-	-4787
S	-4788
g	-4789
K	-4790
1	-4791
M	-4792
2	-4793
P	-4794
9	-4795
A	-4796
V	-4797
H	-4798
E	-4799
b	-4800
L	-4801
:	-4802
c	-4803
I	-4804
R	-4805
f	-4806
5	-4807
N	-4808
3	-4809
)	-4810
O	-4811
4	-4812
8	-4813
J	-4814
B	-4815
7	-4816
(	-4817
6	-4818
Y	-4819
C	-4820
–	-4821
U	-4822
"	-4823
D	-4824
G	-4825
F	-4826
w	-4827
*	-4828
W	-4829
”	-4830
z	-4831
?	-4832
!	-4833
x	-4834
/	-4835
;	-4836
š	-4837
−	-4838
'	-4839
X	-4840
%	-4841
+	-4842
Z	-4843
Å	-4844
&	-4845
q	-4846
Q	-4847
Ä	-4848
ü	-4849
å	-4850
á	-4851
é	-4852
[	-4853
]	-4854
í	-4855
’	-4856
>	-4857
°	-4858
à	-4859
е	-4860
ř	-4861
ž	-4862
ι	-4863
ρ	-4864
—	-4865
|	-4866
»	-4867
ú	-4868
ā	-4869
ū	-4870
ż	-4871
ς	-4872
О	-4873
а	-4874
л	-4875
р	-4876
т	-4877
‘	-4878
#	-4879
ņ	-4880
ō	-4881
Š	-4882
ά	-4883
ν	-4884
ο	-4885
А	-4886
в	-4887
о	-4888
с	-4889
“	-4890
⁄	-4891
島	-4892
釣	-4893
魚	-4894
<	-4895
«	-4896
±	-4897
Ö	-4898
è	-4899
ë	-4900
č	-4901
́	-4902
Δ	-4903
α	-4904
δ	-4905
ε	-4906
θ	-4907
τ	-4908
ό	-4909
С	-4910
х	-4911
ь	-4912
ա	-4913
ր	-4914
ר	-4915
ا	-4916
ر	-4917
ი	-4918
ო	-4919
ḥ	-4920
台	-4921
$	-4922
=	-4923
@	-4924
~	-4925
®	-4926
À	-4927
Á	-4928
É	-4929
Î	-4930
×	-4931
ã	-4932
ç	-4933
ć	-4934
ğ	-4935
ī	-4936
ı	-4937
ł	-4938
ń	-4939
ş	-4940
Ž	-4941
ǎ	-4942
Ε	-4943
Λ	-4944
Μ	-4945
έ	-4946
η	-4947
κ	-4948
μ	-4949
π	-4950
σ	-4951
υ	-4952
ω	-4953
Б	-4954
Н	-4955
б	-4956
г	-4957
д	-4958
ж	-4959
з	-4960
и	-4961
й	-4962
к	-4963
м	-4964
н	-4965
п	-4966
у	-4967
ф	-4968
ц	-4969
ч	-4970
ш	-4971
щ	-4972
ъ	-4973
ы	-4974
э	-4975
ю	-4976
я	-4977
ё	-4978
Ա	-4979
տ	-4980
א	-4981
ט	-4982
آ	-4983
ت	-4984
ა	-4985
ვ	-4986
ნ	-4987
რ	-4988
ს	-4989
ხ	-4990
ὐ	-4991
尖	-4992
群	-4993
諸	-4994
閣	-4995
魏	-4996
