<unk>	0
<s>	0
</s>	0
▁a	-0
sz	-1
el	-2
▁,	-3
▁m	-4
en	-5
et	-6
▁k	-7
gy	-8
er	-9
▁.	-10
an	-11
▁t	-12
at	-13
▁h	-14
ek	-15
▁sz	-16
és	-17
▁az	-18
al	-19
em	-20
ár	-21
ak	-22
▁v	-23
or	-24
ál	-25
▁n	-26
on	-27
eg	-28
in	-29
án	-30
▁f	-31
ol	-32
ás	-33
▁A	-34
ez	-35
es	-36
is	-37
tt	-38
ok	-39
ik	-40
én	-41
▁l	-42
ar	-43
▁el	-44
ég	-45
ér	-46
egy	-47
cs	-48
os	-49
át	-50
▁b	-51
ül	-52
▁p	-53
▁s	-54
ág	-55
él	-56
ban	-57
▁és	-58
ít	-59
ét	-60
▁kö	-61
oz	-62
▁meg	-63
ben	-64
▁egy	-65
ett	-66
il	-67
▁is	-68
ed	-69
▁j	-70
ad	-71
it	-72
ott	-73
bb	-74
ogy	-75
▁r	-76
szt	-77
ap	-78
▁d	-79
am	-80
int	-81
▁hogy	-82
▁—	-83
ék	-84
áll	-85
ut	-86
agy	-87
ség	-88
▁szer	-89
as	-90
om	-91
▁nem	-92
ig	-93
▁M	-94
ány	-95
ák	-96
ja	-97
ra	-98
ul	-99
év	-100
▁cs	-101
▁köz	-102
nak	-103
ely	-104
az	-105
ép	-106
ól	-107
ta	-108
▁E	-109
re	-110
nek	-111
ény	-112
ért	-113
ni	-114
▁K	-115
ör	-116
▁"	-117
▁al	-118
ci	-119
▁1	-120
▁am	-121
aj	-122
ag	-123
▁ki	-124
áz	-125
het	-126
ök	-127
▁i	-128
▁ak	-129
og	-130
ov	-131
ai	-132
ám	-133
ész	-134
len	-135
▁Az	-136
▁fel	-137
ől	-138
▁S	-139
ság	-140
ot	-141
iz	-142
ind	-143
▁ez	-144
ent	-145
▁le	-146
▁B	-147
hat	-148
▁év	-149
▁áll	-150
osz	-151
ált	-152
us	-153
ill	-154
olt	-155
ön	-156
ők	-157
end	-158
▁ú	-159
szer	-160
un	-161
art	-162
▁T	-163
ud	-164
ny	-165
▁kor	-166
ír	-167
ell	-168
av	-169
▁:	-170
▁már	-171
▁ut	-172
vet	-173
ep	-174
▁g	-175
▁ny	-176
od	-177
esz	-178
ont	-179
ev	-180
▁H	-181
ber	-182
est	-183
▁hi	-184
ond	-185
ött	-186
öz	-187
▁19	-188
ében	-189
ej	-190
ók	-191
▁tör	-192
agyar	-193
aság	-194
ezet	-195
illi	-196
▁mind	-197
▁jel	-198
▁ter	-199
▁P	-200
▁de	-201
szág	-202
uk	-203
úl	-204
▁volt	-205
mány	-206
ország	-207
▁milli	-208
te	-209
áb	-210
▁él	-211
ab	-212
ös	-213
▁c	-214
▁tö	-215
unk	-216
▁for	-217
ember	-218
ában	-219
▁leg	-220
▁amely	-221
ént	-222
▁elő	-223
oly	-224
zet	-225
▁ér	-226
ások	-227
▁rend	-228
ció	-229
▁gy	-230
▁id	-231
▁még	-232
▁csak	-233
eh	-234
ém	-235
▁V	-236
▁azt	-237
▁sem	-238
aszt	-239
ének	-240
▁ker	-241
▁hely	-242
▁nagy	-243
▁szerint	-244
öv	-245
▁G	-246
kor	-247
iszt	-248
▁két	-249
▁mag	-250
▁mint	-251
öl	-252
ert	-253
elm	-254
ása	-255
▁több	-256
ív	-257
▁F	-258
elő	-259
▁szám	-260
▁N	-261
azd	-262
elt	-263
nök	-264
olg	-265
▁tart	-266
áv	-267
▁I	-268
▁R	-269
ony	-270
▁mi	-271
ajd	-272
kez	-273
▁lát	-274
ur	-275
ód	-276
ült	-277
ette	-278
▁hat	-279
▁lehet	-280
ei	-281
▁J	-282
▁z	-283
ják	-284
▁Sz	-285
áros	-286
▁kül	-287
▁ellen	-288
tak	-289
▁mű	-290
▁új	-291
▁állam	-292
azdaság	-293
ba	-294
ia	-295
um	-296
ük	-297
ős	-298
ára	-299
▁jelent	-300
▁or	-301
edig	-302
▁kormány	-303
▁(	-304
▁)	-305
gat	-306
tat	-307
ügy	-308
ának	-309
▁szem	-310
id	-311
▁u	-312
alm	-313
asz	-314
koz	-315
árt	-316
▁er	-317
ítás	-318
▁199	-319
▁val	-320
ch	-321
▁2	-322
▁L	-323
ház	-324
▁be	-325
eket	-326
▁kell	-327
▁magyar	-328
00	-329
ob	-330
áj	-331
éz	-332
hoz	-333
ább	-334
ály	-335
ély	-336
▁ar	-337
▁szerb	-338
mű	-339
att	-340
eti	-341
vat	-342
árs	-343
▁át	-344
ikus	-345
▁van	-346
je	-347
ín	-348
ór	-349
ót	-350
▁D	-351
▁ért	-352
▁között	-353
ói	-354
enn	-355
ult	-356
gyan	-357
▁nap	-358
▁vég	-359
▁után	-360
va	-361
lan	-362
▁pr	-363
enek	-364
okat	-365
▁biz	-366
▁kör	-367
▁tud	-368
▁ember	-369
▁ugyan	-370
ün	-371
▁3	-372
▁C	-373
▁O	-374
ked	-375
köz	-376
▁hó	-377
▁ig	-378
▁fog	-379
etlen	-380
▁száz	-381
▁pedig	-382
be	-383
ir	-384
árd	-385
ást	-386
▁ad	-387
▁fő	-388
▁ha	-389
eszt	-390
ható	-391
osan	-392
ület	-393
ülés	-394
▁alk	-395
▁tel	-396
▁vál	-397
op	-398
▁ő	-399
dés	-400
ére	-401
ilág	-402
mény	-403
oszt	-404
▁han	-405
▁mond	-406
▁millió	-407
íz	-408
vez	-409
▁an	-410
ként	-411
ítés	-412
▁aki	-413
▁kez	-414
▁gazdaság	-415
kö	-416
ós	-417
ebb	-418
eng	-419
for	-420
▁ép	-421
alom	-422
eked	-423
esen	-424
olit	-425
utat	-426
▁els	-427
▁minden	-428
▁milliárd	-429
ani	-430
ből	-431
isz	-432
leg	-433
ost	-434
▁bel	-435
▁kép	-436
ított	-437
▁vezet	-438
fő	-439
im	-440
éd	-441
abb	-442
vel	-443
▁ami	-444
által	-445
▁alap	-446
▁kész	-447
▁élet	-448
▁egyik	-449
▁orosz	-450
ug	-451
zs	-452
lat	-453
ról	-454
ről	-455
usz	-456
ács	-457
ikai	-458
vény	-459
áció	-460
▁kap	-461
▁más	-462
▁forint	-463
ve	-464
ból	-465
ton	-466
ési	-467
▁kér	-468
▁elnök	-469
▁követ	-470
▁polit	-471
ád	-472
őd	-473
dek	-474
fel	-475
ták	-476
óta	-477
últ	-478
▁in	-479
adás	-480
össz	-481
oszov	-482
▁azon	-483
iniszt	-484
▁hivat	-485
eb	-486
eny	-487
ján	-488
lam	-489
old	-490
▁ir	-491
▁ír	-492
atok	-493
ével	-494
▁hoz	-495
▁foly	-496
▁szín	-497
▁tört	-498
▁Magyar	-499
▁Z	-500
obb	-501
okr	-502
oll	-503
ter	-504
ése	-505
▁Ez	-506
▁né	-507
▁ok	-508
alék	-509
eres	-510
▁hét	-511
▁par	-512
▁tan	-513
emény	-514
▁igaz	-515
▁majd	-516
▁akkor	-517
▁szerep	-518
ló	-519
bán	-520
hez	-521
nap	-522
ási	-523
ász	-524
ést	-525
▁ár	-526
incs	-527
ogat	-528
udap	-529
▁tal	-530
esség	-531
▁most	-532
▁munk	-533
▁visz	-534
▁össz	-535
▁világ	-536
▁érdek	-537
▁százalék	-538
ző	-539
óp	-540
▁4	-541
ank	-542
kal	-543
tet	-544
óbb	-545
öld	-546
▁cí	-547
ását	-548
émet	-549
étel	-550
▁cég	-551
▁idő	-552
▁ism	-553
▁jöv	-554
▁oly	-555
emokr	-556
omány	-557
▁vagy	-558
udapest	-559
▁nemzet	-560
iniszter	-561
ort	-562
pen	-563
énz	-564
▁ah	-565
ossz	-566
▁Egy	-567
▁kat	-568
▁kon	-569
állal	-570
állít	-571
▁által	-572
▁vezető	-573
SZ	-574
jt	-575
▁É	-576
ily	-577
lov	-578
tel	-579
val	-580
éld	-581
önt	-582
ütt	-583
árgy	-584
▁hal	-585
▁nev	-586
▁tők	-587
▁óta	-588
lovák	-589
ontos	-590
vezet	-591
▁cseh	-592
▁péld	-593
▁szab	-594
▁olyan	-595
▁választ	-596
ic	-597
őz	-598
elés	-599
▁sok	-600
ekben	-601
▁arra	-602
▁első	-603
▁jövő	-604
▁mell	-605
▁rész	-606
▁szav	-607
▁vált	-608
▁annak	-609
emokrat	-610
na	-611
öt	-612
▁Á	-613
▁ü	-614
eni	-615
nyi	-616
vis	-617
ába	-618
▁es	-619
▁ol	-620
elet	-621
ikor	-622
ábor	-623
árom	-624
ával	-625
óság	-626
▁ezt	-627
▁ked	-628
▁növ	-629
ajdon	-630
ilyen	-631
ozott	-632
▁lesz	-633
▁egyes	-634
▁külön	-635
▁város	-636
ulajdon	-637
ársaság	-638
▁kérdés	-639
▁parlam	-640
▁történ	-641
őr	-642
▁5	-643
▁W	-644
aly	-645
fog	-646
tek	-647
zék	-648
áld	-649
ánt	-650
ója	-651
▁Or	-652
▁em	-653
▁ma	-654
sége	-655
vány	-656
vész	-657
ális	-658
észt	-659
▁elm	-660
▁ill	-661
▁kis	-662
▁lak	-663
▁per	-664
▁sik	-665
▁tag	-666
▁tám	-667
▁táv	-668
almaz	-669
ovább	-670
város	-671
▁doll	-672
▁mert	-673
▁alkot	-674
▁előtt	-675
▁hanem	-676
▁kerül	-677
▁miatt	-678
▁tiszt	-679
▁török	-680
▁valam	-681
▁azonban	-682
▁hivatal	-683
▁tulajdon	-684
ki	-685
őt	-686
▁6	-687
and	-688
ics	-689
kod	-690
ocs	-691
szen	-692
álat	-693
éter	-694
▁aut	-695
▁mar	-696
▁seg	-697
▁vis	-698
▁vár	-699
avaly	-700
elnök	-701
▁című	-702
▁dolg	-703
▁megy	-704
▁szak	-705
▁term	-706
▁együtt	-707
▁tovább	-708
▁mintegy	-709
▁személy	-710
▁Budapest	-711
▁gazdasági	-712
▁parlament	-713
▁politikai	-714
pr	-715
ub	-716
▁?	-717
▁e	-718
kel	-719
ván	-720
üli	-721
ően	-722
▁El	-723
alak	-724
csak	-725
hely	-726
ozat	-727
áról	-728
▁int	-729
▁túl	-730
▁zen	-731
▁úgy	-732
egész	-733
ették	-734
okban	-735
▁gond	-736
▁kezd	-737
▁mely	-738
▁telj	-739
▁évek	-740
▁albán	-741
▁illet	-742
▁jelen	-743
állítás	-744
▁vállal	-745
▁egyszer	-746
▁mellett	-747
▁amelynek	-748
▁rendszer	-749
▁Magyarország	-750
ft	-751
éb	-752
ard	-753
ist	-754
ját	-755
kép	-756
lát	-757
oci	-758
sal	-759
tam	-760
vár	-761
ául	-762
▁út	-763
ején	-764
enne	-765
etem	-766
ését	-767
óbbi	-768
▁fél	-769
▁jár	-770
▁ott	-771
osság	-772
▁besz	-773
▁hang	-774
▁hozz	-775
▁pénz	-776
▁semm	-777
▁azért	-778
▁egész	-779
▁három	-780
▁nincs	-781
oszovói	-782
▁hiszen	-783
▁ország	-784
▁tavaly	-785
▁például	-786
0-	-787
▁8	-788
▁U	-789
▁í	-790
dul	-791
ecs	-792
eit	-793
enc	-794
iai	-795
jel	-796
lal	-797
élk	-798
arab	-799
elem	-800
közi	-801
nagy	-802
szak	-803
uróp	-804
zett	-805
őség	-806
▁Kft	-807
▁Köz	-808
▁ind	-809
▁jog	-810
▁saj	-811
▁sor	-812
▁vél	-813
leked	-814
▁föld	-815
▁nyil	-816
▁négy	-817
▁párt	-818
▁kapcs	-819
▁német	-820
▁főváros	-821
▁szlovák	-822
▁tartomány	-823
▁nemzetközi	-824
ió	-825
lt	-826
oh	-827
ög	-828
adó	-829
ant	-830
ass	-831
dig	-832
ező	-833
ika	-834
ilm	-835
itk	-836
uár	-837
ája	-838
áló	-839
ölt	-840
▁ed	-841
▁jó	-842
▁op	-843
elmi	-844
izet	-845
reng	-846
tart	-847
ános	-848
éről	-849
▁200	-850
▁Nem	-851
▁bal	-852
▁fej	-853
▁haj	-854
▁hír	-855
▁jut	-856
▁kam	-857
▁kív	-858
▁mód	-859
előtt	-860
ezett	-861
oldal	-862
olgár	-863
▁akad	-864
▁akik	-865
▁alak	-866
▁ezer	-867
▁gyak	-868
▁múlt	-869
▁szob	-870
▁szép	-871
▁irány	-872
▁közös	-873
▁megsz	-874
▁szoci	-875
nagyobb	-876
▁helyzet	-877
▁számára	-878
▁törvény	-879
▁földreng	-880
▁koszovói	-881
▁legnagyobb	-882
ib	-883
st	-884
vő	-885
út	-886
ür	-887
űn	-888
űz	-889
elv	-890
meg	-891
ozó	-892
pad	-893
sze	-894
ökk	-895
újt	-896
úly	-897
▁Br	-898
▁Cs	-899
▁SP	-900
▁en	-901
▁fi	-902
▁ám	-903
▁ór	-904
ason	-905
ezte	-906
form	-907
itás	-908
olna	-909
oszk	-910
ukat	-911
ékes	-912
övet	-913
ügym	-914
▁bar	-915
▁bet	-916
▁har	-917
▁lép	-918
▁tíz	-919
▁így	-920
atkoz	-921
követ	-922
ottak	-923
séget	-924
▁ahol	-925
▁akar	-926
▁dönt	-927
▁form	-928
▁jegy	-929
▁megt	-930
▁oszt	-931
▁vesz	-932
asonló	-933
viselő	-934
▁alatt	-935
▁csökk	-936
▁darab	-937
▁hiány	-938
▁szerd	-939
▁szint	-940
▁telep	-941
▁éppen	-942
országi	-943
▁dollár	-944
▁mindig	-945
▁szabad	-946
▁utóbbi	-947
▁állami	-948
▁albánok	-949
▁kapcsol	-950
▁ellenzék	-951
áldemokrat	-952
▁kiállítás	-953
▁miniszter	-954
▁földrengés	-955
ac	-956
fi	-957
ip	-958
uc	-959
őv	-960
NSZ	-961
ang	-962
any	-963
ari	-964
ing	-965
ium	-966
nál	-967
ran	-968
tól	-969
ver	-970
ünk	-971
▁Am	-972
▁En	-973
▁Ha	-974
▁Rt	-975
▁re	-976
alád	-977
ehet	-978
eset	-979
hető	-980
inak	-981
inek	-982
ugat	-983
vált	-984
ából	-985
örök	-986
▁Dub	-987
▁Tud	-988
▁bír	-989
▁dél	-990
▁est	-991
▁ide	-992
▁kom	-993
▁ügy	-994
almas	-995
atlan	-996
elked	-997
orban	-998
oszkv	-999
oztat	-1000
érték	-1001
ített	-1002
üntet	-1003
▁ENSZ	-1004
▁közt	-1005
▁legy	-1006
▁megm	-1007
▁nyom	-1008
▁oper	-1009
▁szól	-1010
▁való	-1011
urópai	-1012
▁János	-1013
▁belül	-1014
▁eddig	-1015
▁felad	-1016
▁ilyen	-1017
▁siker	-1018
▁vissz	-1019
▁állít	-1020
▁Koszov	-1021
▁amikor	-1022
▁gyakor	-1023
▁nagyon	-1024
▁polgár	-1025
▁tanács	-1026
▁helyett	-1027
▁illetve	-1028
▁viszony	-1029
▁szociáldemokrat	-1030
ka	-1031
mm	-1032
tó	-1033
tú	-1034
tő	-1035
úz	-1036
adt	-1037
ame	-1038
cek	-1039
cia	-1040
ich	-1041
köd	-1042
láv	-1043
lés	-1044
nok	-1045
ors	-1046
von	-1047
vos	-1048
zel	-1049
ört	-1050
▁30	-1051
▁Ak	-1052
▁Er	-1053
▁Gy	-1054
▁Ki	-1055
▁ön	-1056
anak	-1057
ciók	-1058
hány	-1059
ivat	-1060
kocs	-1061
otta	-1062
ozás	-1063
ségi	-1064
▁Fer	-1065
▁SPD	-1066
▁elt	-1067
▁elv	-1068
▁haz	-1069
▁kil	-1070
▁kit	-1071
▁lég	-1072
▁rom	-1073
▁teh	-1074
▁von	-1075
ecsen	-1076
edett	-1077
oknak	-1078
áború	-1079
állap	-1080
▁bank	-1081
▁elég	-1082
▁megb	-1083
▁name	-1084
▁nélk	-1085
▁pont	-1086
▁tesz	-1087
▁tény	-1088
▁álló	-1089
▁újra	-1090
árgyak	-1091
ébként	-1092
▁hossz	-1093
▁hónap	-1094
▁közül	-1095
▁magas	-1096
▁másik	-1097
▁részt	-1098
▁saját	-1099
▁segít	-1100
▁szolg	-1101
▁talál	-1102
▁bizony	-1103
▁család	-1104
▁fontos	-1105
▁rendez	-1106
▁rendőr	-1107
▁teljes	-1108
gazdaság	-1109
▁folytat	-1110
▁hasonló	-1111
▁készült	-1112
▁növeked	-1113
▁szerbek	-1114
▁várható	-1115
▁következ	-1116
▁kormányfő	-1117
▁képviselő	-1118
▁település	-1119
▁miniszterelnök	-1120
7-	-1121
fl	-1122
ró	-1123
sp	-1124
ső	-1125
éj	-1126
íj	-1127
ób	-1128
öd	-1129
▁Í	-1130
▁Ú	-1131
ata	-1132
ejt	-1133
elk	-1134
erg	-1135
ess	-1136
ion	-1137
ner	-1138
től	-1139
évő	-1140
ítő	-1141
▁11	-1142
▁EU	-1143
▁Zs	-1144
▁ab	-1145
▁Ál	-1146
avas	-1147
ekvő	-1148
ista	-1149
iség	-1150
nyag	-1151
pont	-1152
ször	-1153
után	-1154
ásár	-1155
ésre	-1156
▁Mik	-1157
▁Tit	-1158
▁ber	-1159
▁fér	-1160
▁kan	-1161
▁kel	-1162
▁lap	-1163
▁min	-1164
▁moz	-1165
▁mér	-1166
▁nek	-1167
▁zár	-1168
▁Így	-1169
▁éve	-1170
alább	-1171
eknek	-1172
keres	-1173
oport	-1174
szerű	-1175
ségét	-1176
vétel	-1177
▁Mind	-1178
▁busz	-1179
▁egym	-1180
▁ered	-1181
▁fejl	-1182
▁fenn	-1183
▁megh	-1184
▁part	-1185
▁terv	-1186
izáció	-1187
tonság	-1188
▁anyag	-1189
▁ezért	-1190
▁ideig	-1191
▁katon	-1192
▁körül	-1193
▁megny	-1194
▁mutat	-1195
▁nyelv	-1196
▁orvos	-1197
▁tagja	-1198
▁Dubcek	-1199
▁Ferenc	-1200
▁elején	-1201
▁foglal	-1202
▁gondol	-1203
▁mondta	-1204
▁néhány	-1205
▁számít	-1206
▁tervez	-1207
▁értelm	-1208
▁Koszovó	-1209
▁látható	-1210
▁látogat	-1211
▁színpad	-1212
▁termész	-1213
▁ugyanis	-1214
▁viszont	-1215
▁ellenére	-1216
▁jelentés	-1217
▁közleked	-1218
▁legalább	-1219
▁lehetett	-1220
▁valamint	-1221
▁vezetője	-1222
▁alkotmány	-1223
▁hivatalos	-1224
ügyminiszter	-1225
ly	-1226
né	-1227
up	-1228
új	-1229
▁-	-1230
ens	-1231
ept	-1232
ern	-1233
ers	-1234
faj	-1235
fél	-1236
ism	-1237
jet	-1238
kar	-1239
let	-1240
lék	-1241
men	-1242
mér	-1243
nió	-1244
orl	-1245
ozs	-1246
tag	-1247
ven	-1248
vél	-1249
▁10	-1250
▁An	-1251
▁In	-1252
▁mu	-1253
▁zs	-1254
▁ők	-1255
amat	-1256
aszn	-1257
ekre	-1258
endő	-1259
foly	-1260
föld	-1261
ilis	-1262
kori	-1263
land	-1264
szik	-1265
szám	-1266
száz	-1267
zott	-1268
álta	-1269
ásra	-1270
éhez	-1271
élet	-1272
ügyi	-1273
▁fal	-1274
▁hit	-1275
▁ház	-1276
▁jól	-1277
▁kéz	-1278
▁kór	-1279
▁lét	-1280
▁men	-1281
▁mik	-1282
▁nép	-1283
▁néz	-1284
▁sőt	-1285
▁tap	-1286
▁tér	-1287
▁vas	-1288
▁viz	-1289
ebben	-1290
eltek	-1291
ester	-1292
ovics	-1293
ovjet	-1294
séges	-1295
ugosz	-1296
ukció	-1297
ábban	-1298
▁Szer	-1299
▁amit	-1300
▁erős	-1301
▁este	-1302
▁fegy	-1303
▁film	-1304
▁hagy	-1305
▁idén	-1306
▁lévő	-1307
▁okoz	-1308
▁szor	-1309
▁szük	-1310
▁terh	-1311
▁társ	-1312
▁ének	-1313
▁úton	-1314
asztal	-1315
fontos	-1316
hetnek	-1317
olikus	-1318
ésével	-1319
ította	-1320
▁Ennek	-1321
▁Török	-1322
▁egyre	-1323
▁elfog	-1324
▁elsős	-1325
▁fizet	-1326
▁intéz	-1327
▁ismét	-1328
▁keres	-1329
▁közel	-1330
▁lenne	-1331
▁magán	-1332
▁marad	-1333
▁semmi	-1334
▁tárgy	-1335
▁évben	-1336
állapod	-1337
▁dolgoz	-1338
▁kedvez	-1339
▁került	-1340
▁korlát	-1341
▁láthat	-1342
▁megfel	-1343
▁művész	-1344
eptember	-1345
ugoszláv	-1346
▁alapján	-1347
▁csecsen	-1348
▁előadás	-1349
▁hatalom	-1350
▁hatóság	-1351
▁kellett	-1352
▁szakért	-1353
▁szemben	-1354
▁szervez	-1355
▁szállít	-1356
▁csökkent	-1357
▁egyetlen	-1358
▁jelenleg	-1359
▁jelentős	-1360
▁elsősorban	-1361
.-	-1362
VG	-1363
ef	-1364
gg	-1365
iv	-1366
ne	-1367
íg	-1368
üz	-1369
▁7	-1370
▁á	-1371
díj	-1372
ekt	-1373
emt	-1374
gel	-1375
ier	-1376
jár	-1377
lőd	-1378
man	-1379
nal	-1380
ogr	-1381
orv	-1382
osa	-1383
rel	-1384
rit	-1385
ték	-1386
utt	-1387
ánc	-1388
▁18	-1389
▁dí	-1390
▁És	-1391
▁én	-1392
▁ül	-1393
▁őr	-1394
▁őt	-1395
amar	-1396
atal	-1397
avaz	-1398
eget	-1399
elte	-1400
esek	-1401
ized	-1402
olja	-1403
rend	-1404
szab	-1405
szor	-1406
vári	-1407
álás	-1408
ától	-1409
íció	-1410
ódik	-1411
ösen	-1412
őleg	-1413
▁194	-1414
▁Fel	-1415
▁HVG	-1416
▁Sch	-1417
▁alá	-1418
▁bár	-1419
▁esz	-1420
▁fot	-1421
▁imm	-1422
▁ját	-1423
▁lem	-1424
▁neh	-1425
▁raj	-1426
▁szó	-1427
▁tak	-1428
▁tek	-1429
▁vel	-1430
▁vit	-1431
▁ész	-1432
galom	-1433
jában	-1434
jának	-1435
ségek	-1436
telen	-1437
világ	-1438
özben	-1439
őként	-1440
▁1999	-1441
▁Tito	-1442
▁csin	-1443
▁ezek	-1444
▁ezen	-1445
▁felk	-1446
▁felt	-1447
▁kiad	-1448
▁kult	-1449
▁köny	-1450
▁lett	-1451
▁maga	-1452
▁muzs	-1453
▁nyug	-1454
▁pály	-1455
▁szót	-1456
▁test	-1457
▁tett	-1458
▁titk	-1459
▁épít	-1460
fordul	-1461
művész	-1462
ásokat	-1463
ítvány	-1464
▁abban	-1465
▁arról	-1466
▁egyed	-1467
▁férfi	-1468
▁gyors	-1469
▁halál	-1470
▁héten	-1471
▁keret	-1472
▁kíván	-1473
▁megér	-1474
▁működ	-1475
▁támad	-1476
▁veszt	-1477
▁volna	-1478
▁állás	-1479
▁érték	-1480
▁újság	-1481
▁beszél	-1482
▁elmúlt	-1483
▁elnöke	-1484
▁készül	-1485
▁kórház	-1486
▁közvet	-1487
▁legyen	-1488
▁miután	-1489
▁persze	-1490
▁szavak	-1491
▁vannak	-1492
▁akadály	-1493
▁emberek	-1494
▁ezelőtt	-1495
▁feladat	-1496
▁hajland	-1497
▁nagyobb	-1498
▁nyilván	-1499
▁szerdán	-1500
▁támogat	-1501
▁államfő	-1502
fontosabb	-1503
▁alkalmaz	-1504
▁amelyben	-1505
▁folyamat	-1506
▁hivatkoz	-1507
▁ideiglen	-1508
▁jegyzett	-1509
▁korábban	-1510
▁követően	-1511
▁társaság	-1512
▁történet	-1513
▁biztonság	-1514
▁foglalkoz	-1515
▁gyakorlat	-1516
▁helyettes	-1517
▁lehetőség	-1518
▁nagykövet	-1519
▁természet	-1520
▁ugyancsak	-1521
▁várhatóan	-1522
▁megállapod	-1523
▁parlamenti	-1524
▁szeptember	-1525
▁Törökország	-1526
▁legfontosabb	-1527
,5	-1528
5-	-1529
ck	-1530
ex	-1531
fr	-1532
lő	-1533
za	-1534
őj	-1535
▁;	-1536
▁Ö	-1537
ait	-1538
all	-1539
eli	-1540
era	-1541
gyű	-1542
iac	-1543
ikt	-1544
ilt	-1545
ink	-1546
iák	-1547
kos	-1548
kív	-1549
lav	-1550
lám	-1551
mel	-1552
nem	-1553
oda	-1554
olc	-1555
pal	-1556
róf	-1557
szk	-1558
tos	-1559
van	-1560
váj	-1561
zen	-1562
émi	-1563
ógy	-1564
öny	-1565
üsp	-1566
üzd	-1567
ővé	-1568
▁40	-1569
▁Al	-1570
▁De	-1571
▁Ma	-1572
▁sí	-1573
▁öt	-1574
akad	-1575
ancs	-1576
atot	-1577
emek	-1578
encs	-1579
enni	-1580
hang	-1581
okra	-1582
onyi	-1583
szem	-1584
szín	-1585
szön	-1586
ttal	-1587
társ	-1588
uház	-1589
uszt	-1590
ákat	-1591
ókat	-1592
▁100	-1593
▁195	-1594
▁Meg	-1595
▁Mit	-1596
▁att	-1597
▁bev	-1598
▁gép	-1599
▁igy	-1600
▁kim	-1601
▁kiv	-1602
▁nov	-1603
▁tet	-1604
▁tev	-1605
▁tűz	-1606
ellem	-1607
elmet	-1608
elték	-1609
esebb	-1610
esült	-1611
hatja	-1612
határ	-1613
idesz	-1614
kocsi	-1615
ködés	-1616
okkal	-1617
orvát	-1618
áltat	-1619
ászló	-1620
íteni	-1621
ósság	-1622
üspök	-1623
▁Mert	-1624
▁aján	-1625
▁alig	-1626
▁győz	-1627
▁infl	-1628
▁jogi	-1629
▁kény	-1630
▁költ	-1631
▁ment	-1632
▁márk	-1633
▁nyit	-1634
▁olaj	-1635
▁otth	-1636
▁prod	-1637
▁szen	-1638
▁szék	-1639
▁súly	-1640
▁vers	-1641
▁zene	-1642
▁őket	-1643
mester	-1644
mények	-1645
ottság	-1646
▁Német	-1647
▁Orbán	-1648
▁Orosz	-1649
▁Pedig	-1650
▁Péter	-1651
▁barát	-1652
▁hitel	-1653
▁igény	-1654
▁immár	-1655
▁ismer	-1656
▁javas	-1657
▁körny	-1658
▁kötel	-1659
▁level	-1660
▁levél	-1661
▁nyolc	-1662
▁nyújt	-1663
▁olasz	-1664
▁szobr	-1665
▁száma	-1666
▁talán	-1667
▁tette	-1668
▁végén	-1669
kedelmi	-1670
tárgyak	-1671
▁ismert	-1672
▁jövőre	-1673
▁kialak	-1674
▁megjel	-1675
▁nélkül	-1676
▁püspök	-1677
▁szinte	-1678
▁szövet	-1679
▁tekint	-1680
hetetlen	-1681
▁beruház	-1682
▁először	-1683
▁igazgat	-1684
▁nemzeti	-1685
▁rendkív	-1686
▁terület	-1687
▁történt	-1688
▁életben	-1689
▁eredmény	-1690
▁fenntart	-1691
▁hajlandó	-1692
▁hosszabb	-1693
▁lehetővé	-1694
▁megmutat	-1695
▁megérkez	-1696
▁miközben	-1697
▁november	-1698
▁egyébként	-1699
▁ellenzéki	-1700
▁kapcsolat	-1701
▁katolikus	-1702
▁közvetlen	-1703
▁nyilatkoz	-1704
▁tapasztal	-1705
▁jelentette	-1706
▁köztársaság	-1707
▁Magyarországon	-1708
1-	-1709
2-	-1710
4-	-1711
9-	-1712
BE	-1713
DS	-1714
MF	-1715
dr	-1716
ha	-1717
if	-1718
sg	-1719
tr	-1720
óz	-1721
IDS	-1722
akt	-1723
amb	-1724
des	-1725
egr	-1726
eje	-1727
ejű	-1728
isk	-1729
ius	-1730
jen	-1731
juk	-1732
lcs	-1733
lob	-1734
lás	-1735
lém	-1736
mus	-1737
nep	-1738
nia	-1739
nny	-1740
oló	-1741
omb	-1742
ord	-1743
raj	-1744
röd	-1745
tét	-1746
uch	-1747
ung	-1748
utó	-1749
árm	-1750
écs	-1751
éig	-1752
öbb	-1753
úni	-1754
ügg	-1755
▁12	-1756
▁Jó	-1757
▁ci	-1758
▁rá	-1759
▁ít	-1760
▁ün	-1761
▁üt	-1762
BESZ	-1763
alan	-1764
atív	-1765
elik	-1766
enci	-1767
ezés	-1768
hard	-1769
heti	-1770
hogy	-1771
házi	-1772
igaz	-1773
iket	-1774
izán	-1775
jabb	-1776
lene	-1777
olaj	-1778
olán	-1779
port	-1780
túra	-1781
ulás	-1782
upán	-1783
vájc	-1784
ához	-1785
áját	-1786
ájék	-1787
álód	-1788
élés	-1789
évén	-1790
ölte	-1791
örgy	-1792
övid	-1793
▁Azt	-1794
▁IMF	-1795
▁Kov	-1796
▁Sim	-1797
▁cél	-1798
▁erő	-1799
▁fin	-1800
▁had	-1801
▁hid	-1802
▁hol	-1803
▁hóm	-1804
▁hős	-1805
▁itt	-1806
▁kal	-1807
▁kar	-1808
▁kev	-1809
▁kif	-1810
▁kik	-1811
▁leb	-1812
▁let	-1813
▁lez	-1814
▁mög	-1815
▁múl	-1816
▁pár	-1817
▁vez	-1818
▁áld	-1819
▁élő	-1820
aként	-1821
egyed	-1822
ekkor	-1823
emben	-1824
icska	-1825
ismer	-1826
közel	-1827
leges	-1828
oblém	-1829
ogram	-1830
okból	-1831
ondon	-1832
ották	-1833
ultak	-1834
uális	-1835
állam	-1836
ékeny	-1837
éppen	-1838
ízott	-1839
óknak	-1840
únius	-1841
ülése	-1842
ődött	-1843
▁1997	-1844
▁AIDS	-1845
▁Tudj	-1846
▁akit	-1847
▁figy	-1848
▁harc	-1849
▁küzd	-1850
▁legk	-1851
▁lelk	-1852
▁megf	-1853
▁megk	-1854
▁szív	-1855
▁állt	-1856
▁írta	-1857
háború	-1858
kovics	-1859
olások	-1860
szerző	-1861
ugatra	-1862
váltás	-1863
álaszt	-1864
ésének	-1865
▁EBESZ	-1866
▁Svájc	-1867
▁Szerb	-1868
▁adott	-1869
▁ahogy	-1870
▁benne	-1871
▁ebben	-1872
▁emlék	-1873
▁ennek	-1874
▁fegyv	-1875
▁hamar	-1876
▁haszn	-1877
▁igyek	-1878
▁játsz	-1879
▁kutat	-1880
▁kölcs	-1881
▁könny	-1882
▁közön	-1883
▁magát	-1884
▁munka	-1885
▁műfaj	-1886
▁oldal	-1887
▁rövid	-1888
▁takar	-1889
▁tehát	-1890
▁teszi	-1891
▁tudni	-1892
▁tájék	-1893
▁Állam	-1894
▁állap	-1895
▁érint	-1896
▁érkez	-1897
▁észre	-1898
▁újabb	-1899
▁ünnep	-1900
asztróf	-1901
ogyaszt	-1902
oszkvai	-1903
▁Kovács	-1904
▁László	-1905
▁Moszkv	-1906
▁Schröd	-1907
▁biztos	-1908
▁csupán	-1909
▁elleni	-1910
▁fiatal	-1911
▁horvát	-1912
▁idején	-1913
▁köszön	-1914
▁mérték	-1915
▁privat	-1916
▁szavaz	-1917
▁szület	-1918
▁talált	-1919
▁társad	-1920
▁voltak	-1921
udapesti	-1922
▁Európai	-1923
▁katonai	-1924
▁kellene	-1925
▁közötti	-1926
▁külföld	-1927
▁nemcsak	-1928
▁problém	-1929
▁szovjet	-1930
▁tárgyal	-1931
▁többség	-1932
▁vezetői	-1933
országban	-1934
▁Simicska	-1935
▁egyszerű	-1936
▁együttmű	-1937
▁ellentét	-1938
▁fejleszt	-1939
▁infláció	-1940
▁megyében	-1941
▁moszkvai	-1942
▁partizán	-1943
▁pontosan	-1944
▁sikerült	-1945
▁szerencs	-1946
▁szeretem	-1947
▁találkoz	-1948
▁teljesen	-1949
▁testület	-1950
▁tevékeny	-1951
▁érdeklőd	-1952
▁budapesti	-1953
▁jugoszláv	-1954
▁megfelelő	-1955
▁politikus	-1956
▁szakértők	-1957
▁szervezet	-1958
▁színpadra	-1959
▁érdekében	-1960
▁alapítvány	-1961
▁katasztróf	-1962
▁rendkívüli	-1963
▁százalékos	-1964
▁vállalatok	-1965
▁választások	-1966
▁külügyminiszter	-1967
8-	-1968
AT	-1969
bé	-1970
sa	-1971
só	-1972
ze	-1973
zó	-1974
ís	-1975
ón	-1976
őn	-1977
ATO	-1978
abi	-1979
aki	-1980
api	-1981
bev	-1982
biz	-1983
bum	-1984
dék	-1985
ebr	-1986
ene	-1987
evő	-1988
ezi	-1989
ezn	-1990
ezt	-1991
fer	-1992
gal	-1993
gép	-1994
har	-1995
hov	-1996
iet	-1997
ina	-1998
ipl	-1999
itt	-2000
jai	-2001
jon	-2002
kán	-2003
két	-2004
lak	-2005
mal	-2006
mun	-2007
oha	-2008
orr	-2009
rag	-2010
rák	-2011
rég	-2012
sel	-2013
sor	-2014
szi	-2015
sék	-2016
vas	-2017
vid	-2018
véd	-2019
zal	-2020
ású	-2021
ító	-2022
óra	-2023
úsz	-2024
űjt	-2025
űtő	-2026
▁20	-2027
▁Gr	-2028
▁Ig	-2029
▁Ko	-2030
▁Mi	-2031
▁Mű	-2032
▁Ny	-2033
▁Op	-2034
▁Pr	-2035
▁Tu	-2036
▁ap	-2037
▁fr	-2038
▁nő	-2039
▁te	-2040
▁ör	-2041
adni	-2042
akon	-2043
aliz	-2044
andó	-2045
ania	-2046
bank	-2047
besz	-2048
cius	-2049
eged	-2050
eman	-2051
epül	-2052
ereg	-2053
erek	-2054
essz	-2055
film	-2056
gyel	-2057
ifik	-2058
ilap	-2059
itet	-2060
iton	-2061
junk	-2062
jára	-2063
kezd	-2064
káni	-2065
lgat	-2066
nyal	-2067
okba	-2068
okon	-2069
olta	-2070
olás	-2071
omag	-2072
ovic	-2073
ozni	-2074
pénz	-2075
szól	-2076
ábbi	-2077
ájuk	-2078
álja	-2079
ásai	-2080
áért	-2081
éből	-2082
énél	-2083
ésbé	-2084
ézet	-2085
örös	-2086
▁196	-2087
▁Bun	-2088
▁Elő	-2089
▁Ger	-2090
▁Már	-2091
▁bef	-2092
▁bem	-2093
▁eng	-2094
▁föl	-2095
▁gar	-2096
▁kiz	-2097
▁lél	-2098
▁mes	-2099
▁míg	-2100
▁műv	-2101
▁reg	-2102
▁ton	-2103
▁érz	-2104
▁évt	-2105
adást	-2106
aguár	-2107
ainak	-2108
ambul	-2109
anács	-2110
egség	-2111
ergia	-2112
hetik	-2113
iktor	-2114
iplom	-2115
irend	-2116
isták	-2117
jával	-2118
kezet	-2119
kincs	-2120
lanul	-2121
lehet	-2122
obban	-2123
ozást	-2124
talan	-2125
unkat	-2126
uttat	-2127
álása	-2128
ármaz	-2129
ítani	-2130
ítási	-2131
örtén	-2132
úttal	-2133
▁2000	-2134
▁Andr	-2135
▁Brók	-2136
▁Cseh	-2137
▁Kfor	-2138
▁Mart	-2139
▁NATO	-2140
▁Unió	-2141
▁akár	-2142
▁diák	-2143
▁elsz	-2144
▁erre	-2145
▁eset	-2146
▁febr	-2147
▁fűtő	-2148
▁haza	-2149
▁kedd	-2150
▁kiem	-2151
▁komp	-2152
▁küld	-2153
▁piac	-2154
▁rajz	-2155
▁szél	-2156
▁tőke	-2157
▁utal	-2158
▁utas	-2159
▁vele	-2160
▁vett	-2161
▁vill	-2162
▁éven	-2163
▁éves	-2164
cember	-2165
elmúlt	-2166
emelés	-2167
galmaz	-2168
gatlan	-2169
hatnak	-2170
hattak	-2171
kezelő	-2172
meneti	-2173
orlasz	-2174
ozások	-2175
szabad	-2176
szerep	-2177
teremt	-2178
uchner	-2179
ítmény	-2180
ítását	-2181
ítését	-2182
▁Ezért	-2183
▁Pilis	-2184
▁Zeman	-2185
▁akció	-2186
▁album	-2187
▁arány	-2188
▁aztán	-2189
▁azóta	-2190
▁elind	-2191
▁ellát	-2192
▁ezzel	-2193
▁finom	-2194
▁fogad	-2195
▁gyűjt	-2196
▁határ	-2197
▁helyi	-2198
▁hozzá	-2199
▁házak	-2200
▁hétfő	-2201
▁indul	-2202
▁jármű	-2203
▁könyv	-2204
▁lezár	-2205
▁megye	-2206
▁miért	-2207
▁másod	-2208
▁mégis	-2209
▁méter	-2210
▁nehéz	-2211
▁rossz	-2212
▁révén	-2213
▁távol	-2214
▁tömeg	-2215
▁venni	-2216
▁vizsg	-2217
▁árver	-2218
▁össze	-2219
ancsnok	-2220
csoport	-2221
igazgat	-2222
lovákia	-2223
oztatta	-2224
ítottak	-2225
ügyelet	-2226
▁Bundes	-2227
▁London	-2228
▁Minden	-2229
▁Viktor	-2230
▁akkori	-2231
▁anyagi	-2232
▁beszéd	-2233
▁diplom	-2234
▁eddigi	-2235
▁egymás	-2236
▁elmond	-2237
▁embere	-2238
▁főként	-2239
▁helyet	-2240
▁hogyan	-2241
▁háború	-2242
▁jellem	-2243
▁jutott	-2244
▁június	-2245
▁kamion	-2246
▁kanton	-2247
▁különb	-2248
▁megfog	-2249
▁megyei	-2250
▁muzsik	-2251
▁mögött	-2252
▁negyed	-2253
▁otthon	-2254
▁remény	-2255
▁segély	-2256
▁szeret	-2257
▁szerző	-2258
▁szobor	-2259
▁tudott	-2260
▁valami	-2261
▁vissza	-2262
▁válság	-2263
▁érvény	-2264
▁összeg	-2265
hatatlan	-2266
junktúra	-2267
rendszer	-2268
sztambul	-2269
▁Gerhard	-2270
▁Tudjman	-2271
▁akiknek	-2272
▁amelyet	-2273
▁azonnal	-2274
▁baleset	-2275
▁balkáni	-2276
▁bariton	-2277
▁bírálat	-2278
▁csoport	-2279
▁egyetem	-2280
▁egykori	-2281
▁elismer	-2282
▁február	-2283
▁hallgat	-2284
▁igyekez	-2285
▁kedvező	-2286
▁kereszt	-2287
▁kölcsön	-2288
▁költség	-2289
▁környék	-2290
▁közölte	-2291
▁magukat	-2292
▁melynek	-2293
▁március	-2294
▁módszer	-2295
▁működik	-2296
▁okozott	-2297
▁program	-2298
▁takarék	-2299
▁tartott	-2300
▁tavalyi	-2301
▁verseny	-2302
▁áldozat	-2303
▁állítja	-2304
▁értékes	-2305
▁évtized	-2306
▁Kouchner	-2307
▁Martonyi	-2308
▁fogyaszt	-2309
▁forgalom	-2310
▁forintra	-2311
▁fűtőolaj	-2312
▁hatalmas	-2313
▁javaslat	-2314
▁jóllehet	-2315
▁kérdések	-2316
▁megjelen	-2317
▁napirend	-2318
▁szerbiai	-2319
▁városban	-2320
▁évfordul	-2321
▁Budapesti	-2322
▁bizottság	-2323
▁fegyveres	-2324
▁hamarosan	-2325
▁közelmúlt	-2326
▁különösen	-2327
▁megteremt	-2328
▁produkció	-2329
▁százaléka	-2330
▁támadások	-2331
emokratikus	-2332
▁ideiglenes	-2333
▁százalékát	-2334
▁érdeklődők	-2335
▁értelmében	-2336
▁katasztrófa	-2337
▁közlekedési	-2338
▁megállapodás	-2339
▁polgármester	-2340
▁teljesítmény	-2341
▁együttműködés	-2342
▁helyettesítés	-2343
▁magyarországi	-2344
▁rendszerváltás	-2345
,2	-2346
,6	-2347
..	-2348
II	-2349
br	-2350
ca	-2351
ce	-2352
gr	-2353
hi	-2354
ht	-2355
me	-2356
of	-2357
zi	-2358
ái	-2359
ík	-2360
íl	-2361
úf	-2362
ői	-2363
▁!	-2364
▁9	-2365
▁Q	-2366
▁Y	-2367
▁Ő	-2368
ack	-2369
aik	-2370
arz	-2371
bil	-2372
bír	-2373
chn	-2374
dal	-2375
dem	-2376
dib	-2377
dió	-2378
dén	-2379
edt	-2380
eme	-2381
erm	-2382
esi	-2383
etű	-2384
eum	-2385
get	-2386
hit	-2387
idó	-2388
idő	-2389
iát	-2390
kör	-2391
lag	-2392
lós	-2393
omp	-2394
onc	-2395
ota	-2396
red	-2397
rem	-2398
rep	-2399
sem	-2400
ssz	-2401
ste	-2402
tők	-2403
uló	-2404
una	-2405
uty	-2406
yer	-2407
zat	-2408
zon	-2409
zők	-2410
ünt	-2411
ürk	-2412
ője	-2413
őlt	-2414
őtt	-2415
űnt	-2416
▁15	-2417
▁31	-2418
▁50	-2419
▁60	-2420
▁Fő	-2421
▁Kl	-2422
▁Vl	-2423
▁at	-2424
▁dr	-2425
▁ex	-2426
▁ko	-2427
▁st	-2428
▁ur	-2429
▁Ár	-2430
▁Én	-2431
▁Ép	-2432
▁Új	-2433
▁ür	-2434
abin	-2435
adik	-2436
akat	-2437
alló	-2438
alér	-2439
anci	-2440
apír	-2441
atai	-2442
atik	-2443
azon	-2444
bben	-2445
cell	-2446
cert	-2447
cion	-2448
eire	-2449
eken	-2450
elme	-2451
enki	-2452
etik	-2453
ezer	-2454
ezik	-2455
ford	-2456
féle	-2457
iaci	-2458
ileg	-2459
ilos	-2460
inda	-2461
iási	-2462
kább	-2463
lyan	-2464
megb	-2465
olni	-2466
omsz	-2467
ozta	-2468
pari	-2469
szky	-2470
sága	-2471
sági	-2472
titk	-2473
tunk	-2474
ulni	-2475
ájus	-2476
álló	-2477
émia	-2478
éves	-2479
éért	-2480
ísér	-2481
óval	-2482
üket	-2483
ődik	-2484
ősít	-2485
▁...	-2486
▁Aki	-2487
▁Bár	-2488
▁Ist	-2489
▁Kar	-2490
▁Kat	-2491
▁Két	-2492
▁Mar	-2493
▁Ora	-2494
▁Per	-2495
▁Van	-2496
▁ang	-2497
▁bőv	-2498
▁dzs	-2499
▁elj	-2500
▁elz	-2501
▁fed	-2502
▁isz	-2503
▁jan	-2504
▁jön	-2505
▁júl	-2506
▁kár	-2507
▁kés	-2508
▁köt	-2509
▁mat	-2510
▁mer	-2511
▁mit	-2512
▁név	-2513
▁nők	-2514
▁rat	-2515
▁seb	-2516
▁sír	-2517
▁tem	-2518
▁tol	-2519
▁tév	-2520
▁tűn	-2521
▁uni	-2522
▁véd	-2523
agyon	-2524
akadt	-2525
anyag	-2526
arzan	-2527
asson	-2528
asztó	-2529
egnap	-2530
egyei	-2531
ekkel	-2532
ektet	-2533
előre	-2534
endég	-2535
enger	-2536
ezník	-2537
hovac	-2538
ipari	-2539
istin	-2540
iában	-2541
janak	-2542
jeszt	-2543
kedés	-2544
okhoz	-2545
olnay	-2546
olozs	-2547
onyol	-2548
onyos	-2549
orosz	-2550
oslav	-2551
részt	-2552
szaki	-2553
szich	-2554
sztön	-2555
szánt	-2556
tabil	-2557
tében	-2558
tóber	-2559
túdió	-2560
vonal	-2561
vásár	-2562
zetes	-2563
állás	-2564
álták	-2565
ándék	-2566
árnap	-2567
áshoz	-2568
ással	-2569
ényeg	-2570
érium	-2571
ítési	-2572
ópály	-2573
▁Akad	-2574
▁Bank	-2575
▁Bécs	-2576
▁Fran	-2577
▁Ikar	-2578
▁Józs	-2579
▁Mint	-2580
▁Mitr	-2581
▁Pozs	-2582
▁Traj	-2583
▁azaz	-2584
▁becs	-2585
▁bele	-2586
▁bány	-2587
▁csat	-2588
▁díja	-2589
▁elej	-2590
▁erők	-2591
▁esik	-2592
▁eszt	-2593
▁felh	-2594
▁feny	-2595
▁fest	-2596
▁ford	-2597
▁fény	-2598
▁függ	-2599
▁glob	-2600
▁gyan	-2601
▁gyár	-2602
▁harm	-2603
▁igen	-2604
▁kegy	-2605
▁list	-2606
▁némi	-2607
▁rest	-2608
▁soha	-2609
▁szét	-2610
▁sújt	-2611
▁tölt	-2612
▁utaz	-2613
▁utol	-2614
▁ülés	-2615
abinet	-2616
atikán	-2617
cellár	-2618
evésbé	-2619
házban	-2620
háznak	-2621
ivatal	-2622
kéntes	-2623
méretű	-2624
oldalú	-2625
omszéd	-2626
ométer	-2627
ossági	-2628
osztás	-2629
század	-2630
tuális	-2631
vállal	-2632
ásának	-2633
éseket	-2634
ítania	-2635
▁1999.	-2636
▁Egyes	-2637
▁Erste	-2638
▁Kiadó	-2639
▁Milos	-2640
▁Olyan	-2641
▁adtak	-2642
▁ahhoz	-2643
▁amint	-2644
▁attól	-2645
▁autób	-2646
▁azzal	-2647
▁belső	-2648
▁ekkor	-2649
▁erről	-2650
▁fekvő	-2651
▁fogja	-2652
▁félre	-2653
▁hideg	-2654
▁hiába	-2655
▁híres	-2656
▁igazi	-2657
▁koron	-2658
▁kultú	-2659
▁képes	-2660
▁kísér	-2661
▁kívül	-2662
▁legut	-2663
▁lemez	-2664
▁lélek	-2665
▁létre	-2666
▁menek	-2667
▁mikor	-2668
▁május	-2669
▁mások	-2670
▁módon	-2671
▁múlva	-2672
▁napra	-2673
▁olvas	-2674
▁puszt	-2675
▁repül	-2676
▁szenv	-2677
▁tanul	-2678
▁tartó	-2679
▁tetsz	-2680
▁tudja	-2681
▁tábor	-2682
▁távon	-2683
▁törzs	-2684
▁tőket	-2685
▁tőkéj	-2686
▁vehet	-2687
▁végre	-2688
▁zsidó	-2689
▁árbev	-2690
▁évvel	-2691
▁írója	-2692
ekedett	-2693
eszélés	-2694
etlenül	-2695
omagter	-2696
szállít	-2697
ságosan	-2698
unkások	-2699
ítására	-2700
▁Amikor	-2701
▁Grozni	-2702
▁István	-2703
▁Miklós	-2704
▁Persze	-2705
▁Rezník	-2706
▁Tarzan	-2707
▁Weltek	-2708
▁akinek	-2709
▁befoly	-2710
▁csinál	-2711
▁egyház	-2712
▁eltelt	-2713
▁eszköz	-2714
▁export	-2715
▁fordul	-2716
▁hiánya	-2717
▁hozott	-2718
▁hétfőn	-2719
▁inform	-2720
▁inkább	-2721
▁január	-2722
▁július	-2723
▁kaland	-2724
▁kapott	-2725
▁kedden	-2726
▁keleti	-2727
▁kisebb	-2728
▁kitevő	-2729
▁kiváló	-2730
▁kommun	-2731
▁körzet	-2732
▁körüli	-2733
▁követő	-2734
▁közgyű	-2735
▁lebont	-2736
▁legfel	-2737
▁lelkes	-2738
▁lemond	-2739
▁milyen	-2740
▁mondja	-2741
▁mérsék	-2742
▁nappal	-2743
▁nemrég	-2744
▁nyugat	-2745
▁reform	-2746
▁rendel	-2747
▁számos	-2748
▁század	-2749
▁termék	-2750
▁többek	-2751
▁tűzolt	-2752
▁vagyok	-2753
▁óriási	-2754
alizáció	-2755
felvétel	-2756
állítani	-2757
ősítette	-2758
▁Pozsony	-2759
▁Zsolnay	-2760
▁adósság	-2761
▁ahogyan	-2762
▁bemutat	-2763
▁családi	-2764
▁csökken	-2765
▁egymást	-2766
▁elfogad	-2767
▁energia	-2768
▁európai	-2769
▁ezúttal	-2770
▁felkért	-2771
▁jövőben	-2772
▁koncert	-2773
▁kortárs	-2774
▁korábbi	-2775
▁központ	-2776
▁látvány	-2777
▁megfont	-2778
▁megkezd	-2779
▁megszer	-2780
▁napilap	-2781
▁nyugdíj	-2782
▁nélküli	-2783
▁növekvő	-2784
▁osztrák	-2785
▁osztály	-2786
▁ratifik	-2787
▁szabály	-2788
▁szintén	-2789
▁szobrot	-2790
▁szándék	-2791
▁származ	-2792
▁szükség	-2793
▁továbbá	-2794
▁valóban	-2795
▁vesztes	-2796
▁veszély	-2797
▁vezette	-2798
▁vezetők	-2799
▁végzett	-2800
▁érdekes	-2801
▁években	-2802
gazdasági	-2803
művészeti	-2804
▁Orahovac	-2805
▁Schröder	-2806
▁december	-2807
▁dolláros	-2808
▁gépkocsi	-2809
▁jellemző	-2810
▁kiadvány	-2811
▁kórházba	-2812
▁közönség	-2813
▁külföldi	-2814
▁külkeres	-2815
▁lapunkat	-2816
▁napokban	-2817
▁rajzfilm	-2818
▁szerepel	-2819
▁szerepet	-2820
▁szomszéd	-2821
▁székhely	-2822
▁törvényt	-2823
▁vasárnap	-2824
▁viselked	-2825
▁vélemény	-2826
▁átmeneti	-2827
▁érvényes	-2828
▁Egyébként	-2829
▁csomagter	-2830
▁dollárnyi	-2831
▁egyesület	-2832
▁forintnyi	-2833
▁hasonlóan	-2834
▁hatóságok	-2835
▁kancellár	-2836
▁keretében	-2837
▁kilométer	-2838
▁kétoldalú	-2839
▁nincsenek	-2840
▁reményked	-2841
▁született	-2842
▁tervezett	-2843
▁árbevétel	-2844
inisztérium	-2845
▁Moszkvában	-2846
▁Trajkovics	-2847
▁fővárosban	-2848
▁hivatkozva	-2849
▁kormánynak	-2850
▁költségvet	-2851
▁különleges	-2852
▁parancsnok	-2853
▁rendezvény	-2854
▁szorgalmaz	-2855
▁szövetségi	-2856
▁tartományi	-2857
▁tisztesség	-2858
▁tulajdonos	-2859
▁társadalom	-2860
▁túlságosan	-2861
▁tőkeemelés	-2862
▁zeneszerző	-2863
▁Oroszország	-2864
▁alkalmazott	-2865
▁ellentétben	-2866
▁fejlesztési	-2867
▁konjunktúra	-2868
▁körülmények	-2869
▁települések	-2870
▁tulajdonosa	-2871
▁folyamatosan	-2872
▁közelmúltban	-2873
▁köztársasági	-2874
▁nagykövetség	-2875
▁tartományban	-2876
▁tájékoztatta	-2877
▁következtében	-2878
▁takarékossági	-2879
▁természetesen	-2880
▁Magyarországra	-2881
4.	-2882
6-	-2883
GB	-2884
IK	-2885
fj	-2886
fú	-2887
jo	-2888
nj	-2889
ná	-2890
pa	-2891
ro	-2892
se	-2893
ti	-2894
uz	-2895
vi	-2896
vá	-2897
zm	-2898
ác	-2899
ff	-2900
gá	-2901
má	-2902
oj	-2903
öm	-2904
üh	-2905
üt	-2906
űk	-2907
űr	-2908
▁w	-2909
▁ö	-2910
SZK	-2911
aar	-2912
ajt	-2913
akk	-2914
ane	-2915
ans	-2916
ash	-2917
aus	-2918
bur	-2919
bát	-2920
bör	-2921
csi	-2922
don	-2923
döz	-2924
eik	-2925
elh	-2926
els	-2927
enl	-2928
enz	-2929
erj	-2930
erv	-2931
ete	-2932
etn	-2933
fal	-2934
fic	-2935
főr	-2936
hir	-2937
höz	-2938
iat	-2939
igy	-2940
iss	-2941
itú	-2942
jön	-2943
kas	-2944
kat	-2945
lep	-2946
lev	-2947
lin	-2948
moz	-2949
mód	-2950
nev	-2951
nie	-2952
nél	-2953
odt	-2954
ogh	-2955
olf	-2956
oln	-2957
ong	-2958
onz	-2959
opp	-2960
orz	-2961
ozz	-2962
par	-2963
pót	-2964
rav	-2965
rig	-2966
rán	-2967
ráz	-2968
son	-2969
sti	-2970
tex	-2971
ull	-2972
vír	-2973
yás	-2974
zés	-2975
áci	-2976
ádi	-2977
áng	-2978
ápa	-2979
átt	-2980
élt	-2981
évi	-2982
írt	-2983
íti	-2984
óit	-2985
örű	-2986
úcs	-2987
úgy	-2988
ődő	-2989
▁1-	-2990
▁17	-2991
▁28	-2992
▁33	-2993
▁35	-2994
▁45	-2995
▁5-	-2996
▁6-	-2997
▁75	-2998
▁Bl	-2999
▁Em	-3000
▁Hi	-3001
▁ne	-3002
▁so	-3003
▁tr	-3004
▁Ér	-3005
▁Ön	-3006
▁áp	-3007
▁éj	-3008
adim	-3009
ajos	-3010
almi	-3011
amos	-3012
assa	-3013
assz	-3014
astr	-3015
atór	-3016
beli	-3017
burg	-3018
cher	-3019
csőj	-3020
dolg	-3021
ejér	-3022
ekta	-3023
eköt	-3024
elvű	-3025
elég	-3026
entr	-3027
eret	-3028
eteg	-3029
etek	-3030
ezni	-3031
gyár	-3032
hagy	-3033
hord	-3034
iber	-3035
ical	-3036
idar	-3037
ilag	-3038
irot	-3039
jebb	-3040
kező	-3041
kodó	-3042
lalt	-3043
lend	-3044
lott	-3045
lása	-3046
lési	-3047
mann	-3048
mező	-3049
mmel	-3050
mond	-3051
nőtt	-3052
odák	-3053
okás	-3054
olog	-3055
olva	-3056
orso	-3057
orít	-3058
ozók	-3059
prém	-3060
párt	-3061
rank	-3062
szal	-3063
szel	-3064
szob	-3065
súly	-3066
tató	-3067
toni	-3068
ttel	-3069
uccs	-3070
ulat	-3071
unió	-3072
zmit	-3073
ácia	-3074
áján	-3075
ánti	-3076
árca	-3077
ásba	-3078
ásán	-3079
átor	-3080
ázis	-3081
égen	-3082
éget	-3083
ésen	-3084
éteg	-3085
ítja	-3086
óban	-3087
óbál	-3088
ódás	-3089
öket	-3090
ötte	-3091
újra	-3092
őkep	-3093
őtér	-3094
őzeg	-3095
▁10-	-3096
▁198	-3097
▁Ami	-3098
▁Any	-3099
▁Bad	-3100
▁Bal	-3101
▁Bar	-3102
▁Bel	-3103
▁Car	-3104
▁Hav	-3105
▁Jar	-3106
▁KGB	-3107
▁Kap	-3108
▁Kül	-3109
▁Leg	-3110
▁Mag	-3111
▁Mel	-3112
▁Moz	-3113
▁Még	-3114
▁Múz	-3115
▁Nap	-3116
▁Nis	-3117
▁Tam	-3118
▁Tib	-3119
▁Tui	-3120
▁Vác	-3121
▁baj	-3122
▁bej	-3123
▁bíz	-3124
▁cím	-3125
▁dal	-3126
▁din	-3127
▁ebb	-3128
▁elk	-3129
▁elé	-3130
▁etn	-3131
▁eur	-3132
▁fűz	-3133
▁hom	-3134
▁hum	-3135
▁hál	-3136
▁hát	-3137
▁hív	-3138
▁hól	-3139
▁ifj	-3140
▁ing	-3141
▁lel	-3142
▁mod	-3143
▁mon	-3144
▁neg	-3145
▁pan	-3146
▁pót	-3147
▁rem	-3148
▁rit	-3149
▁rög	-3150
▁til	-3151
▁tuc	-3152
▁tél	-3153
▁tém	-3154
▁utc	-3155
▁vet	-3156
▁vir	-3157
▁Úgy	-3158
▁átt	-3159
▁élt	-3160
▁író	-3161
▁újj	-3162
abiuc	-3163
adtak	-3164
aiban	-3165
akció	-3166
akkor	-3167
alkod	-3168
almat	-3169
ancia	-3170
aránt	-3171
demes	-3172
eiben	-3173
einek	-3174
ekből	-3175
elyik	-3176
enben	-3177
entes	-3178
erejű	-3179
ertőz	-3180
erült	-3181
essel	-3182
estek	-3183
etett	-3184
eztek	-3185
eztet	-3186
ezése	-3187
fajta	-3188
hatók	-3189
ichel	-3190
ietme	-3191
igány	-3192
iszen	-3193
járól	-3194
lakát	-3195
lések	-3196
ménye	-3197
olnak	-3198
olták	-3199
olása	-3200
ontra	-3201
oztak	-3202
papír	-3203
polit	-3204
ragéd	-3205
sereg	-3206
színű	-3207
ságot	-3208
ságát	-3209
ségbe	-3210
tatás	-3211
tehet	-3212
tiszt	-3213
uszon	-3214
vanov	-3215
vidék	-3216
visel	-3217
áltak	-3218
áltam	-3219
ástól	-3220
élnek	-3221
ésére	-3222
étlen	-3223
ítják	-3224
ítója	-3225
ódtak	-3226
öntik	-3227
örgyi	-3228
örtök	-3229
össze	-3230
úfolt	-3231
ősége	-3232
őségű	-3233
▁1992	-3234
▁1993	-3235
▁1998	-3236
▁Amad	-3237
▁Bern	-3238
▁Bond	-3239
▁Első	-3240
▁Fort	-3241
▁Hans	-3242
▁Krav	-3243
▁Közt	-3244
▁Makk	-3245
▁NSZK	-3246
▁Pier	-3247
▁Saar	-3248
▁Vesz	-3249
▁Volf	-3250
▁Zene	-3251
▁amer	-3252
▁autó	-3253
▁benn	-3254
▁csap	-3255
▁csod	-3256
▁csüt	-3257
▁dísz	-3258
▁előd	-3259
▁fele	-3260
▁felé	-3261
▁forr	-3262
▁fotó	-3263
▁fran	-3264
▁gazd	-3265
▁hajt	-3266
▁hegy	-3267
▁húsz	-3268
▁ideg	-3269
▁infr	-3270
▁járt	-3271
▁kedv	-3272
▁keny	-3273
▁kett	-3274
▁koal	-3275
▁kocs	-3276
▁konk	-3277
▁konz	-3278
▁képz	-3279
▁kérd	-3280
▁közl	-3281
▁közz	-3282
▁közé	-3283
▁lass	-3284
▁magá	-3285
▁mély	-3286
▁neki	-3287
▁perc	-3288
▁pill	-3289
▁pápa	-3290
▁rang	-3291
▁reng	-3292
▁ropp	-3293
▁tilt	-3294
▁tran	-3295
▁utód	-3296
▁vall	-3297
▁vegy	-3298
▁áron	-3299
▁érte	-3300
▁évig	-3301
▁írva	-3302
▁ítél	-3303
▁órák	-3304
▁órás	-3305
▁öreg	-3306
▁örök	-3307
▁őszi	-3308
adásul	-3309
astruk	-3310
aszkod	-3311
asznál	-3312
atikus	-3313
beszéd	-3314
ciókat	-3315
dibusz	-3316
ehavaz	-3317
elkedő	-3318
ellett	-3319
eltség	-3320
emberg	-3321
esetre	-3322
essége	-3323
ezhető	-3324
hatják	-3325
hattam	-3326
imista	-3327
itúció	-3328
jelent	-3329
keleti	-3330
kocsik	-3331
közben	-3332
odalom	-3333
olidar	-3334
onnyal	-3335
ozíció	-3336
szerek	-3337
tatott	-3338
tenger	-3339
ukciók	-3340
urális	-3341
váriak	-3342
zottak	-3343
ámogat	-3344
árólag	-3345
ásához	-3346
ásával	-3347
érülés	-3348
ésében	-3349
éséről	-3350
ítheti	-3351
ógyász	-3352
önyörű	-3353
▁1990-	-3354
▁1992-	-3355
▁1994-	-3356
▁1997-	-3357
▁Corso	-3358
▁Európ	-3359
▁Fejér	-3360
▁Galér	-3361
▁Hiába	-3362
▁Inter	-3363
▁Opera	-3364
▁Pirot	-3365
▁Tőkep	-3366
▁Volán	-3367
▁amire	-3368
▁amúgy	-3369
▁angol	-3370
▁arany	-3371
▁attas	-3372
▁cégek	-3373
▁defic	-3374
▁döntő	-3375
▁ebből	-3376
▁egyez	-3377
▁eleji	-3378
▁elkép	-3379
▁elvet	-3380
▁elvár	-3381
▁előbb	-3382
▁enged	-3383
▁esett	-3384
▁esély	-3385
▁gyógy	-3386
▁hangz	-3387
▁harag	-3388
▁havaz	-3389
▁hibát	-3390
▁időre	-3391
▁indok	-3392
▁jóval	-3393
▁jöved	-3394
▁kamar	-3395
▁kelet	-3396
▁képei	-3397
▁közép	-3398
▁lakói	-3399
▁legsz	-3400
▁minél	-3401
▁mivel	-3402
▁munká	-3403
▁máris	-3404
▁napon	-3405
▁nehez	-3406
▁nekem	-3407
▁nekik	-3408
▁poszt	-3409
▁puccs	-3410
▁rajta	-3411
▁remek	-3412
▁része	-3413
▁réteg	-3414
▁sajtó	-3415
▁senki	-3416
▁sincs	-3417
▁sofőr	-3418
▁sokak	-3419
▁során	-3420
▁szóló	-3421
▁techn	-3422
▁tehet	-3423
▁tized	-3424
▁tonna	-3425
▁tudta	-3426
▁térni	-3427
▁túlél	-3428
▁tűnik	-3429
▁utáni	-3430
▁utóbb	-3431
▁vitás	-3432
▁válik	-3433
▁vásár	-3434
▁végig	-3435
▁zenét	-3436
▁átlag	-3437
▁élnek	-3438
▁élvez	-3439
▁ötven	-3440
▁útján	-3441
adósság	-3442
alommal	-3443
antikai	-3444
atokkal	-3445
atórium	-3446
eletben	-3447
enntart	-3448
essenek	-3449
ezetlen	-3450
felszer	-3451
hivatal	-3452
intézet	-3453
iskolán	-3454
itással	-3455
oldalon	-3456
olgálat	-3457
ományos	-3458
ritikus	-3459
ségéből	-3460
telenek	-3461
választ	-3462
általán	-3463
álódott	-3464
▁András	-3465
▁Babiuc	-3466
▁Bróker	-3467
▁Csehsz	-3468
▁Eichel	-3469
▁Fidesz	-3470
▁Franjo	-3471
▁György	-3472
▁Hiszen	-3473
▁Ivanov	-3474
▁Jaguár	-3475
▁József	-3476
▁Kontra	-3477
▁Megyei	-3478
▁Múzeum	-3479
▁Tegnap	-3480
▁Tietme	-3481
▁Vladim	-3482
▁Václav	-3483
▁adatok	-3484
▁akarja	-3485
▁alkotó	-3486
▁aukció	-3487
▁beszám	-3488
▁betölt	-3489
▁bonyol	-3490
▁buszok	-3491
▁büntet	-3492
▁címmel	-3493
▁demokr	-3494
▁döntés	-3495
▁egyben	-3496
▁egyedi	-3497
▁eladás	-3498
▁elemek	-3499
▁elhang	-3500
▁ellene	-3501
▁emberi	-3502
▁embert	-3503
▁felold	-3504
▁fertőz	-3505
▁fogják	-3506
▁fognak	-3507
▁gyerek	-3508
▁hatály	-3509
▁helyre	-3510
▁hosszú	-3511
▁hozzát	-3512
▁hólánc	-3513
▁igazán	-3514
▁integr	-3515
▁irodák	-3516
▁iszlám	-3517
▁jobban	-3518
▁jönnek	-3519
▁kedvel	-3520
▁kilenc	-3521
▁kolozs	-3522
▁kompon	-3523
▁kézzel	-3524
▁köztük	-3525
▁listán	-3526
▁lényeg	-3527
▁lépett	-3528
▁meghal	-3529
▁meghív	-3530
▁megkap	-3531
▁menjen	-3532
▁munkám	-3533
▁munkát	-3534
▁márkát	-3535
▁másfél	-3536
▁mérleg	-3537
▁nyelvi	-3538
▁okozta	-3539
▁okozza	-3540
▁pszich	-3541
▁pártja	-3542
▁regény	-3543
▁ritmus	-3544
▁sikert	-3545
▁sokkal	-3546
▁stabil	-3547
▁szakad	-3548
▁szavai	-3549
▁szekta	-3550
▁szótár	-3551
▁súlyos	-3552
▁tartós	-3553
▁teremt	-3554
▁tiltak	-3555
▁titkos	-3556
▁tragéd	-3557
▁vagyon	-3558
▁vendég	-3559
▁válasz	-3560
▁végleg	-3561
▁végéig	-3562
▁átalak	-3563
▁életre	-3564
▁életét	-3565
▁épület	-3566
▁észrev	-3567
▁ítélet	-3568
▁ülésén	-3569
eléseket	-3570
lekedési	-3571
lendülés	-3572
olgáltat	-3573
állítása	-3574
ítésében	-3575
útkezelő	-3576
▁Bernard	-3577
▁Egyetem	-3578
▁Fortuna	-3579
▁Műszaki	-3580
▁Szovjet	-3581
▁Welteke	-3582
▁alakult	-3583
▁amelyen	-3584
▁azokban	-3585
▁bevezet	-3586
▁egyedül	-3587
▁elakadt	-3588
▁emelked	-3589
▁eredeti	-3590
▁erősebb	-3591
▁felnőtt	-3592
▁felében	-3593
▁francia	-3594
▁fénykép	-3595
▁gondolt	-3596
▁hasznos	-3597
▁kabinet	-3598
▁katonák	-3599
▁kezelés	-3600
▁kezében	-3601
▁kultúra	-3602
▁kérdést	-3603
▁kívánja	-3604
▁könnyen	-3605
▁közösen	-3606
▁megment	-3607
▁megoszt	-3608
▁mondták	-3609
▁mostani	-3610
▁második	-3611
▁múltban	-3612
▁negatív	-3613
▁nevezte	-3614
▁németek	-3615
▁október	-3616
▁oroszok	-3617
▁partner	-3618
▁perújra	-3619
▁polgári	-3620
▁politik	-3621
▁példány	-3622
▁roppant	-3623
▁sajátos	-3624
▁sikeres	-3625
▁sorozat	-3626
▁szemmel	-3627
▁sújtott	-3628
▁tartani	-3629
▁tartják	-3630
▁titkára	-3631
▁további	-3632
▁tényező	-3633
▁villany	-3634
▁zsúfolt	-3635
▁Államok	-3636
▁állapot	-3637
▁élelmet	-3638
▁újságír	-3639
▁üresség	-3640
megbízott	-3641
sztambuli	-3642
▁Akadémia	-3643
▁Egyesült	-3644
▁Groznijt	-3645
▁Jaroslav	-3646
▁Merthogy	-3647
▁Veszprém	-3648
▁Zeneakad	-3649
▁autóbusz	-3650
▁autópály	-3651
▁befolyás	-3652
▁betegség	-3653
▁egyaránt	-3654
▁egyelőre	-3655
▁elmondta	-3656
▁esztendő	-3657
▁feltétel	-3658
▁fizetett	-3659
▁forintos	-3660
▁félreért	-3661
▁hangsúly	-3662
▁ingatlan	-3663
▁kamionok	-3664
▁kereslet	-3665
▁kerestek	-3666
▁kerülhet	-3667
▁kevesebb	-3668
▁kezesség	-3669
▁kitüntet	-3670
▁koalíció	-3671
▁korszerű	-3672
▁kényszer	-3673
▁külvilág	-3674
▁lakosság	-3675
▁magasabb	-3676
▁maradnak	-3677
▁megfogad	-3678
▁megközel	-3679
▁megvásár	-3680
▁midibusz	-3681
▁mindenki	-3682
▁nyújtott	-3683
▁népszerű	-3684
▁privatiz	-3685
▁püspökök	-3686
▁rengeteg	-3687
▁részvény	-3688
▁segítség	-3689
▁szavazat	-3690
▁szerepét	-3691
▁szeretné	-3692
▁szobrász	-3693
▁szolgáló	-3694
▁színházi	-3695
▁termelés	-3696
▁továbbra	-3697
▁tábornok	-3698
▁törzstők	-3699
▁tűzoltók	-3700
▁vállalat	-3701
▁változat	-3702
▁véletlen	-3703
▁évszázad	-3704
▁önkéntes	-3705
etlenséget	-3706
orlaszokat	-3707
▁Jugoszláv	-3708
▁Tietmeyer	-3709
▁bizonnyal	-3710
▁bonyolult	-3711
▁csütörtök	-3712
▁dolgozott	-3713
▁elfoglalt	-3714
▁elégedett	-3715
▁fertőzött	-3716
▁hagyomány	-3717
▁helyezett	-3718
▁hiányában	-3719
▁illetékes	-3720
▁intézmény	-3721
▁kezdemény	-3722
▁kezdődött	-3723
▁kialakult	-3724
▁kizárólag	-3725
▁kórházban	-3726
▁kölcsönös	-3727
▁köszönhet	-3728
▁következő	-3729
▁közgyűlés	-3730
▁közlemény	-3731
▁legutóbbi	-3732
▁levelében	-3733
▁menekülés	-3734
▁mindössze	-3735
▁műtárgyak	-3736
▁rendőrség	-3737
▁repülőtér	-3738
▁szabadság	-3739
▁személyes	-3740
▁szerepelt	-3741
▁szerkezet	-3742
▁szerződés	-3743
▁székhelyű	-3744
▁szükséges	-3745
▁valószínű	-3746
▁államtitk	-3747
▁évforduló	-3748
▁Budapestre	-3749
▁Bundesbank	-3750
▁Koszovóban	-3751
▁Pilisszánt	-3752
▁egyáltalán	-3753
▁elhangzott	-3754
▁folyamatos	-3755
▁hihetetlen	-3756
▁hómunkások	-3757
▁igazgatója	-3758
▁igazolások	-3759
▁igyekeznek	-3760
▁információ	-3761
▁infrastruk	-3762
▁ismeretlen	-3763
▁isztambuli	-3764
▁köszönhető	-3765
▁legalábbis	-3766
▁legfeljebb	-3767
▁legkevésbé	-3768
▁megkezdett	-3769
▁megszüntet	-3770
▁partizánok	-3771
▁restitúció	-3772
▁szolgáltat	-3773
▁tanácsadás	-3774
▁történelmi	-3775
▁Köztársaság	-3776
▁Németország	-3777
▁Orahovacban	-3778
▁Szovjetunió	-3779
▁beruházások	-3780
▁csehországi	-3781
▁előadásában	-3782
▁fegyveresek	-3783
▁fellendülés	-3784
▁kapcsolatok	-3785
▁kegytárgyak	-3786
▁kormánypárt	-3787
▁láthatatlan	-3788
▁megbeszélés	-3789
▁nyilatkozat	-3790
▁ratifikálta	-3791
▁szemantikai	-3792
▁szállítmány	-3793
▁százalékkal	-3794
▁tárgyalások	-3795
▁világháború	-3796
▁akadályoztat	-3797
▁alkotmányban	-3798
▁demokratikus	-3799
▁globalizáció	-3800
▁ideiglenesen	-3801
▁nyilvánosság	-3802
▁privatizáció	-3803
▁tiszteletben	-3804
▁tulajdonában	-3805
▁államadósság	-3806
▁Csehszlovákia	-3807
▁gépkocsivezet	-3808
▁megfontolások	-3809
▁szerencsétlen	-3810
▁tevékenységét	-3811
ügyminisztérium	-3812
▁Németországban	-3813
▁alkotmányerejű	-3814
▁különmegbízott	-3815
79-	-3816
brü	-3817
enő	-3818
fúv	-3819
húz	-3820
iró	-3821
kij	-3822
lim	-3823
ock	-3824
osn	-3825
spe	-3826
tem	-3827
őri	-3828
őző	-3829
▁4.	-3830
▁QI	-3831
▁Qu	-3832
▁Yb	-3833
▁ÁP	-3834
▁íg	-3835
▁üg	-3836
Kisk	-3837
ardt	-3838
arti	-3839
biai	-3840
bocs	-3841
ebek	-3842
efej	-3843
eksa	-3844
enie	-3845
enyh	-3846
főbb	-3847
grád	-3848
hajt	-3849
hite	-3850
hold	-3851
háló	-3852
iról	-3853
ival	-3854
ivid	-3855
iája	-3856
iált	-3857
jaim	-3858
ködő	-3859
lini	-3860
lyen	-3861
mecs	-3862
mozd	-3863
napi	-3864
oggá	-3865
okum	-3866
orld	-3867
pesi	-3868
prop	-3869
rier	-3870
semm	-3871
több	-3872
tőzs	-3873
való	-3874
vivő	-3875
vére	-3876
zési	-3877
ádió	-3878
ádok	-3879
árad	-3880
écsi	-3881
édes	-3882
éját	-3883
éltó	-3884
ízió	-3885
ógép	-3886
óján	-3887
őrre	-3888
őzen	-3889
űlát	-3890
▁10.	-3891
▁120	-3892
▁18-	-3893
▁350	-3894
▁400	-3895
▁500	-3896
▁600	-3897
▁Brü	-3898
▁Ezt	-3899
edő	-3900
emű	-3901
zős	-3902
óri	-3903
▁27	-3904
▁3-	-3905
jött	-3906
lani	-3907
osov	-3908
pedt	-3909
ájár	-3910
írta	-3911
ítva	-3912
ójel	-3913
▁Dis	-3914
▁FIK	-3915
▁Göd	-3916
▁Koh	-3917
▁Len	-3918
▁Lib	-3919
▁SPO	-3920
▁Wal	-3921
▁Ybl	-3922
▁afr	-3923
▁agg	-3924
▁and	-3925
▁aug	-3926
▁búz	-3927
▁bűn	-3928
▁cip	-3929
▁civ	-3930
▁dil	-3931
▁dir	-3932
▁dug	-3933
▁díj	-3934
▁ejt	-3935
▁fór	-3936
▁ily	-3937
▁kín	-3938
▁lic	-3939
▁lok	-3940
▁oda	-3941
▁sür	-3942
▁Áll	-3943
▁ára	-3944
▁írt	-3945
▁óra	-3946
▁útm	-3947
Tőzeg	-3948
aikat	-3949
aival	-3950
aktár	-3951
almát	-3952
ander	-3953
andit	-3954
assák	-3955
atták	-3956
bírás	-3957
börze	-3958
díjat	-3959
edőlt	-3960
egedi	-3961
ehhez	-3962
eklám	-3963
ekonc	-3964
ektor	-3965
elést	-3966
encia	-3967
enegr	-3968
enged	-3969
ennyi	-3970
enste	-3971
enzív	-3972
ernél	-3973
esztő	-3974
etése	-3975
fizet	-3976
flikt	-3977
gatta	-3978
gyárt	-3979
hetné	-3980
hiány	-3981
három	-3982
ilkos	-3983
ilozó	-3984
ilván	-3985
ional	-3986
iségű	-3987
iáter	-3988
iával	-3989
jaink	-3990
jével	-3991
karai	-3992
kinek	-3993
kozik	-3994
lését	-3995
méter	-3996
nyire	-3997
német	-3998
odtan	-3999
iód	-4000
jei	-4001
raf	-4002
tív	-4003
urv	-4004
zum	-4005
▁Dz	-4006
▁Go	-4007
▁MÁ	-4008
▁RT	-4009
▁Re	-4010
▁Rá	-4011
▁im	-4012
autó	-4013
étek	-4014
ülük	-4015
ődés	-4016
▁Fal	-4017
▁Gam	-4018
▁Gnj	-4019
▁God	-4020
▁Jam	-4021
▁Jár	-4022
▁MÁV	-4023
▁RTS	-4024
▁Raj	-4025
▁Vid	-4026
▁abb	-4027
▁der	-4028
▁fia	-4029
▁jór	-4030
▁kur	-4031
▁káv	-4032
altat	-4033
avart	-4034
egény	-4035
ekről	-4036
eként	-4037
elmut	-4038
elmét	-4039
entum	-4040
ertál	-4041
fogás	-4042
gette	-4043
iódus	-4044
jenek	-4045
játék	-4046
ményt	-4047
nének	-4048
oldos	-4049
ollég	-4050
olyan	-4051
osnan	-4052
osovs	-4053
osvár	-4054
ovica	-4055
parti	-4056
ppedt	-4057
senek	-4058
száma	-4059
tassa	-4060
tárgy	-4061
tézet	-4062
ullám	-4063
utyin	-4064
utóbb	-4065
vírus	-4066
ámiat	-4067
átyás	-4068
ébred	-4069
ékesf	-4070
émián	-4071
éssel	-4072
éstől	-4073
ételt	-4074
ítása	-4075
ítése	-4076
ízben	-4077
ópont	-4078
öltöz	-4079
útvon	-4080
ükhöz	-4081
üliek	-4082
ültek	-4083
őzené	-4084
▁180-	-4085
▁Bács	-4086
▁Csal	-4087
▁Dzur	-4088
▁Gyul	-4089
▁Hajd	-4090
▁Idén	-4091
▁Igen	-4092
▁Igor	-4093
▁Jack	-4094
▁Kiem	-4095
▁Kohl	-4096
▁List	-4097
▁Márp	-4098
▁Napi	-4099
IV	-4100
akr	-4101
fur	-4102
gus	-4103
inc	-4104
ise	-4105
str	-4106
tuk	-4107
ukk	-4108
ábi	-4109
ága	-4110
övő	-4111
elek	-4112
erte	-4113
kedő	-4114
niuk	-4115
rábi	-4116
átum	-4117
étől	-4118
üzet	-4119
▁19.	-4120
▁190	-4121
▁300	-4122
▁HIV	-4123
▁Ház	-4124
▁Hír	-4125
▁Pel	-4126
▁Pil	-4127
▁Páz	-4128
▁fős	-4129
▁hir	-4130
▁ném	-4131
▁rab	-4132
▁vid	-4133
▁árk	-4134
akrog	-4135
ekció	-4136
esber	-4137
ttest	-4138
ukban	-4139
unkát	-4140
álunk	-4141
áncél	-4142
ánlat	-4143
ásait	-4144
össég	-4145
▁Pest	-4146
▁Párt	-4147
▁Pénz	-4148
▁Rank	-4149
▁Rich	-4150
▁Rába	-4151
▁Szak	-4152
▁Szín	-4153
▁Tupr	-4154
▁Türk	-4155
▁Zsig	-4156
▁abba	-4157
▁adja	-4158
▁adta	-4159
▁apja	-4160
▁arat	-4161
▁assz	-4162
▁atom	-4163
▁beik	-4164
▁brig	-4165
▁csőd	-4166
▁domb	-4167
▁durv	-4168
▁erej	-4169
▁erőf	-4170
▁euró	-4171
▁falu	-4172
▁hadi	-4173
▁hird	-4174
▁hozó	-4175
▁hírt	-4176
▁hőse	-4177
▁idei	-4178
▁idéz	-4179
▁jobb	-4180
▁kamp	-4181
▁kand	-4182
▁kelt	-4183
▁kics	-4184
▁konv	-4185
▁kárt	-4186
▁legm	-4187
▁lenn	-4188
▁lába	-4189
▁láng	-4190
▁mese	-4191
▁mező	-4192
▁mozg	-4193
▁műve	-4194
▁nevű	-4195
▁nyíl	-4196
▁olcs	-4197
▁ossz	-4198
▁pest	-4199
áf	-4200
bat	-4201
hív	-4202
lel	-4203
nyá	-4204
ném	-4205
tud	-4206
uda	-4207
udi	-4208
udv	-4209
ugg	-4210
uma	-4211
ust	-4212
yal	-4213
érd	-4214
▁ta	-4215
▁Ör	-4216
ehov	-4217
embe	-4218
erus	-4219
erők	-4220
ezők	-4221
megy	-4222
nyit	-4223
oran	-4224
osok	-4225
osza	-4226
ukra	-4227
áosz	-4228
ítói	-4229
óiak	-4230
▁Bud	-4231
▁Haz	-4232
▁Hol	-4233
▁Hot	-4234
▁ezr	-4235
▁hav	-4236
▁hev	-4237
▁húz	-4238
▁mít	-4239
▁ráz	-4240
▁ütő	-4241
artam	-4242
atnyi	-4243
ehova	-4244
eszék	-4245
hatta	-4246
letek	-4247
oltak	-4248
szkij	-4249
őkész	-4250
▁Erre	-4251
▁kály	-4252
▁mont	-4253
▁nyár	-4254
▁pomp	-4255
▁reál	-4256
▁roma	-4257
▁rögz	-4258
▁svéd	-4259
▁széd	-4260
▁szöv	-4261
▁szűk	-4262
▁taks	-4263
▁tánc	-4264
▁töri	-4265
▁utat	-4266
▁vitt	-4267
▁vége	-4268
▁végi	-4269
▁Ústi	-4270
▁évre	-4271
▁ütős	-4272
▁őriz	-4273
Kiskun	-4274
agéját	-4275
alakon	-4276
aleset	-4277
alista	-4278
allgat	-4279
ashing	-4280
atkozó	-4281
cionál	-4282
egette	-4283
együtt	-4284
ekövet	-4285
elemre	-4286
elmény	-4287
elszám	-4288
enciát	-4289
ensúly	-4290
enttel	-4291
erautó	-4292
esberg	-4293
esszió	-4294
eszült	-4295
evízió	-4296
ezteti	-4297
felejt	-4298
gették	-4299
40	-4300
oc	-4301
to	-4302
ala	-4303
anó	-4304
baj	-4305
bef	-4306
ere	-4307
lik	-4308
mai	-4309
mre	-4310
viz	-4311
áza	-4312
ébe	-4313
óni	-4314
▁13	-4315
▁16	-4316
▁86	-4317
▁Kn	-4318
ajon	-4319
alit	-4320
bből	-4321
elni	-4322
ezné	-4323
izen	-4324
jobb	-4325
sall	-4326
ttől	-4327
zött	-4328
ámos	-4329
ázni	-4330
ólag	-4331
ülni	-4332
őnek	-4333
▁Kor	-4334
▁Mai	-4335
▁Sok	-4336
▁Sor	-4337
▁kid	-4338
▁kir	-4339
▁mai	-4340
▁ver	-4341
▁vív	-4342
ednek	-4343
esnek	-4344
ezési	-4345
idejű	-4346
ségre	-4347
ungel	-4348
ákkal	-4349
álják	-4350
élhet	-4351
értes	-4352
érzék	-4353
ötték	-4354
▁Imre	-4355
▁Manó	-4356
▁amik	-4357
▁forg	-4358
▁kiür	-4359
▁kora	-4360
▁kért	-4361
▁épül	-4362
amosan	-4363
aradás	-4364
hatóvá	-4365
helyen	-4366
helyez	-4367
ikusok	-4368
ismert	-4369
iséget	-4370
kedést	-4371
kezett	-4372
kezési	-4373
kodást	-4374
képpen	-4375
lottak	-4376
magyar	-4377
mérnök	-4378
nalban	-4379
nemzet	-4380
ostárs	-4381
semmis	-4382
senste	-4383
szoros	-4384
számít	-4385
szólag	-4386
sággal	-4387
séggel	-4388
taknak	-4389
tekint	-4390
udaika	-4391
ugtató	-4392
unknak	-4393
usztus	-4394
vonása	-4395
zemény	-4396
áborút	-4397
ájában	-4398
ájának	-4399
,9	-4400
ma	-4401
uv	-4402
óm	-4403
eck	-4404
rai	-4405
ríz	-4406
sák	-4407
áig	-4408
áép	-4409
éli	-4410
▁CD	-4411
▁Ch	-4412
▁Ed	-4413
▁MD	-4414
▁tb	-4415
▁ál	-4416
edni	-4417
ehív	-4418
iget	-4419
imit	-4420
inál	-4421
jain	-4422
jait	-4423
omra	-4424
ttag	-4425
zést	-4426
álin	-4427
álni	-4428
ányt	-4429
áris	-4430
éket	-4431
írai	-4432
óvat	-4433
▁Bán	-4434
▁Kam	-4435
▁Lab	-4436
▁MDF	-4437
▁Más	-4438
▁köv	-4439
▁lik	-4440
▁mot	-4441
▁tök	-4442
▁álm	-4443
aniuk	-4444
ennak	-4445
ilisi	-4446
jesen	-4447
orral	-4448
rízis	-4449
tálin	-4450
ussal	-4451
utott	-4452
vanas	-4453
ációk	-4454
▁Kiss	-4455
▁híve	-4456
▁megj	-4457
▁tévé	-4458
▁óvat	-4459
esztiv	-4460
szágos	-4461
veiket	-4462
álását	-4463
ánnyal	-4464
áradat	-4465
átásba	-4466
énekes	-4467
észeti	-4468
éséhez	-4469
ítések	-4470
óságát	-4471
övetel	-4472
újukat	-4473
ügynök	-4474
ülések	-4475
üppedt	-4476
ődését	-4477
▁1948-	-4478
▁1950-	-4479
▁1959-	-4480
▁1964-	-4481
▁1991-	-4482
▁1998-	-4483
▁1998.	-4484
▁2000.	-4485
▁2002-	-4486
▁Akkor	-4487
▁Ankar	-4488
▁Aztán	-4489
▁Brand	-4490
▁Disne	-4491
▁Ebben	-4492
▁Gnjil	-4493
▁Goebb	-4494
▁Gyula	-4495
▁Gábor	-4496
▁Hotel	-4497
▁Három	-4498
▁Ilyen	-4499
,3	-4500
da	-4501
li	-4502
adi	-4503
cot	-4504
fed	-4505
had	-4506
ine	-4507
jét	-4508
oki	-4509
orú	-4510
ozí	-4511
rom	-4512
vit	-4513
árg	-4514
éti	-4515
íni	-4516
▁KH	-4517
▁öv	-4518
▁üz	-4519
avez	-4520
elül	-4521
erbe	-4522
inél	-4523
omot	-4524
ozik	-4525
usok	-4526
ünet	-4527
▁KHV	-4528
▁Kht	-4529
▁bék	-4530
▁bér	-4531
▁mut	-4532
▁nad	-4533
▁por	-4534
▁rég	-4535
▁vád	-4536
▁vág	-4537
belül	-4538
kezik	-4539
állod	-4540
ásban	-4541
érdek	-4542
▁KHVM	-4543
▁Most	-4544
▁megs	-4545
▁régi	-4546
hatott	-4547
szerte	-4548
ágrábi	-4549
▁Izmit	-4550
▁Klaus	-4551
▁Krank	-4552
▁Külön	-4553
▁Leksa	-4554
▁Melis	-4555
▁Mivel	-4556
▁Miért	-4557
▁Napok	-4558
▁Pilin	-4559
▁Régen	-4560
▁Sokan	-4561
▁Szoci	-4562
▁Tamás	-4563
▁Tibor	-4564
▁Titót	-4565
▁Valló	-4566
▁Világ	-4567
▁Vörös	-4568
▁White	-4569
▁World	-4570
▁Zoran	-4571
▁Zsolt	-4572
▁addig	-4573
▁aktív	-4574
▁annál	-4575
▁autók	-4576
▁autós	-4577
▁befej	-4578
▁bejár	-4579
▁beleb	-4580
▁belgy	-4581
▁bázis	-4582
▁bízik	-4583
▁bőven	-4584
▁cipők	-4585
▁civil	-4586
▁célzó	-4587
▁dinam	-4588
▁dirig	-4589
▁dokum	-4590
▁dátum	-4591
▁délny	-4592
▁délre	-4593
▁egyéb	-4594
▁ehhez	-4595
▁eleje	-4596
▁elnap	-4597
▁elsül	-4598
▁elvál	-4599
20	-4600
acs	-4601
cég	-4602
dik	-4603
erő	-4604
jén	-4605
osi	-4606
rét	-4607
éja	-4608
éjű	-4609
üld	-4610
▁8-	-4611
▁GD	-4612
apán	-4613
atos	-4614
ercs	-4615
énak	-4616
ések	-4617
▁Bak	-4618
▁GDP	-4619
▁bán	-4620
▁eld	-4621
▁ham	-4622
▁jót	-4623
▁vér	-4624
▁útt	-4625
anunk	-4626
anélk	-4627
etnek	-4628
haszn	-4629
ségen	-4630
utyák	-4631
ációs	-4632
ódott	-4633
▁elem	-4634
▁háló	-4635
▁prof	-4636
▁eltör	-4637
▁elzár	-4638
▁emleg	-4639
▁fogva	-4640
▁folyó	-4641
▁forma	-4642
▁foszt	-4643
▁fotók	-4644
▁félór	-4645
▁fórum	-4646
▁gyerm	-4647
▁gyárt	-4648
▁győri	-4649
▁hazai	-4650
▁hozta	-4651
▁hófúv	-4652
▁ipari	-4653
▁japán	-4654
▁jelző	-4655
▁kiejt	-4656
▁kimar	-4657
▁kivon	-4658
▁káosz	-4659
▁kérte	-4660
▁kötet	-4661
▁közep	-4662
▁közzé	-4663
▁külső	-4664
▁lakos	-4665
▁liber	-4666
▁látni	-4667
▁látsz	-4668
▁légit	-4669
▁lírai	-4670
▁magam	-4671
▁maguk	-4672
▁matem	-4673
▁meger	-4674
▁meggy	-4675
▁megpr	-4676
▁mened	-4677
▁motor	-4678
▁mozog	-4679
▁méltó	-4680
▁módos	-4681
▁művei	-4682
▁neves	-4683
▁nevet	-4684
▁nyers	-4685
▁nézők	-4686
▁opera	-4687
▁pessz	-4688
▁pesti	-4689
▁páros	-4690
▁reked	-4691
▁rádió	-4692
▁sokat	-4693
▁szank	-4694
▁szeml	-4695
▁szerv	-4696
▁szugg	-4697
▁szánt	-4698
▁színf	-4699
EH	-4700
Kő	-4701
ús	-4702
III	-4703
PEH	-4704
ann	-4705
hes	-4706
jed	-4707
olv	-4708
veg	-4709
űek	-4710
▁ás	-4711
VIII	-4712
ehér	-4713
eleg	-4714
ohin	-4715
ológ	-4716
omba	-4717
rész	-4718
ékre	-4719
énny	-4720
ülte	-4721
▁180	-4722
▁Bib	-4723
▁Bod	-4724
▁Don	-4725
▁fan	-4726
▁ves	-4727
▁ÁPT	-4728
XVIII	-4729
apács	-4730
itási	-4731
jének	-4732
kodni	-4733
leszt	-4734
olják	-4735
ozzák	-4736
valós	-4737
érést	-4738
▁APEH	-4739
▁Gánt	-4740
▁Szép	-4741
▁beav	-4742
▁hátt	-4743
▁prág	-4744
▁ÁPTF	-4745
▁édes	-4746
chardt	-4747
járása	-4748
kozása	-4749
tatürk	-4750
vivője	-4751
városi	-4752
ásznak	-4753
énnyel	-4754
▁Ebből	-4755
▁Mégis	-4756
▁XVIII	-4757
▁elnev	-4758
▁felúj	-4759
▁kamat	-4760
▁napok	-4761
▁szólt	-4762
▁súlya	-4763
▁terén	-4764
▁tizen	-4765
▁tudós	-4766
▁tárca	-4767
▁tétel	-4768
▁többi	-4769
▁tüzet	-4770
▁tőkét	-4771
▁uniós	-4772
▁vajon	-4773
▁velem	-4774
▁veszi	-4775
▁vezér	-4776
▁vizet	-4777
▁vonul	-4778
▁vélem	-4779
▁vélik	-4780
▁vétel	-4781
▁vörös	-4782
▁zárta	-4783
▁zárva	-4784
▁Állás	-4785
▁Éppen	-4786
▁Építő	-4787
▁ébred	-4788
▁építő	-4789
▁érzik	-4790
▁érzék	-4791
▁ígért	-4792
▁ízben	-4793
▁újdon	-4794
▁üldöz	-4795
▁ülése	-4796
▁őrült	-4797
adáshoz	-4798
ajánlat	-4799
9.	-4800
cel	-4801
erc	-4802
ery	-4803
fon	-4804
hol	-4805
ins	-4806
kon	-4807
nat	-4808
oke	-4809
ola	-4810
tíz	-4811
▁hé	-4812
▁ős	-4813
gyen	-4814
gész	-4815
mint	-4816
osak	-4817
perc	-4818
szek	-4819
ászl	-4820
éban	-4821
ükig	-4822
▁110	-4823
▁Bor	-4824
▁Rák	-4825
▁eml	-4826
▁fig	-4827
▁rag	-4828
▁sar	-4829
aszín	-4830
atban	-4831
entgy	-4832
ettek	-4833
ividu	-4834
iáért	-4835
záció	-4836
▁brit	-4837
▁mást	-4838
▁szel	-4839
▁üzen	-4840
allery	-4841
avásár	-4842
egyenl	-4843
ekszik	-4844
folyam	-4845
hetett	-4846
jeszti	-4847
▁Egész	-4848
▁James	-4849
▁Lajos	-4850
▁gyeng	-4851
▁hómar	-4852
▁kapac	-4853
▁kérni	-4854
▁napig	-4855
▁pénzt	-4856
alizált	-4857
anciája	-4858
anditák	-4859
anyagát	-4860
asztott	-4861
atkozik	-4862
avezény	-4863
burgban	-4864
ckenben	-4865
elmeket	-4866
enekült	-4867
ervgyár	-4868
ességük	-4869
eszítés	-4870
európai	-4871
exander	-4872
folytat	-4873
fordult	-4874
gyűlési	-4875
hattunk	-4876
helyett	-4877
hozatal	-4878
háztart	-4879
ideszes	-4880
iképpen	-4881
illiárd	-4882
iltotta	-4883
istinai	-4884
itkaság	-4885
izonyos	-4886
iáltási	-4887
keresés	-4888
kezőleg	-4889
koriban	-4890
kormány	-4891
köznapi	-4892
lakátot	-4893
lekedés	-4894
levelet	-4895
mozdony	-4896
mánnyal	-4897
nemesek	-4898
ogasson	-4899
,8	-4900
őf	-4901
agó	-4902
ezs	-4903
ogl	-4904
orn	-4905
ron	-4906
▁	-4907
e	-4908
a	-4909
t	-4910
l	-4911
s	-4912
n	-4913
k	-4914
z	-4915
i	-4916
r	-4917
o	-4918
á	-4919
é	-4920
m	-4921
g	-4922
y	-4923
b	-4924
d	-4925
v	-4926
h	-4927
,	-4928
ö	-4929
j	-4930
ó	-4931
u	-4932
p	-4933
ő	-4934
.	-4935
f	-4936
c	-4937
í	-4938
ü	-4939
A	-4940
ú	-4941
-	-4942
ű	-4943
—	-4944
M	-4945
1	-4946
E	-4947
K	-4948
0	-4949
S	-4950
9	-4951
"	-4952
B	-4953
T	-4954
P	-4955
:	-4956
H	-4957
V	-4958
I	-4959
2	-4960
G	-4961
D	-4962
F	-4963
N	-4964
5	-4965
R	-4966
3	-4967
Z	-4968
4	-4969
J	-4970
(	-4971
)	-4972
O	-4973
8	-4974
L	-4975
6	-4976
7	-4977
C	-4978
U	-4979
Á	-4980
W	-4981
É	-4982
x	-4983
?	-4984
Í	-4985
Ú	-4986
;	-4987
Ö	-4988
w	-4989
!	-4990
Q	-4991
Y	-4992
Ő	-4993
X	-4994
'	-4995
ä	-4996
