<unk>	0
<s>	0
</s>	0
is	-0
ta	-1
in	-2
▁k	-3
en	-4
▁.	-5
▁s	-6
an	-7
▁o	-8
▁m	-9
▁j	-10
al	-11
▁,	-12
el	-13
▁v	-14
as	-15
it	-16
▁t	-17
▁p	-18
es	-19
us	-20
le	-21
et	-22
at	-23
ks	-24
id	-25
ik	-26
▁ja	-27
il	-28
▁l	-29
▁n	-30
uo	-31
ut	-32
er	-33
ti	-34
ar	-35
sa	-36
▁h	-37
un	-38
▁on	-39
on	-40
tä	-41
im	-42
▁e	-43
ul	-44
ka	-45
la	-46
▁a	-47
än	-48
ma	-49
ud	-50
te	-51
ur	-52
ga	-53
▁r	-54
os	-55
▁T	-56
aa	-57
▁S	-58
ist	-59
▁ta	-60
ah	-61
ii	-62
da	-63
em	-64
ja	-65
or	-66
ol	-67
▁K	-68
▁ol	-69
▁M	-70
va	-71
▁se	-72
▁ku	-73
ki	-74
gi	-75
ää	-76
▁te	-77
▁et	-78
▁ei	-79
▁ka	-80
▁d	-81
oh	-82
ed	-83
ot	-84
iv	-85
ksi	-86
ku	-87
ke	-88
▁g	-89
tu	-90
▁:	-91
ista	-92
▁le	-93
▁y	-94
to	-95
yt	-96
▁mu	-97
är	-98
est	-99
▁b	-100
am	-101
ih	-102
▁1	-103
ko	-104
ia	-105
äl	-106
iin	-107
▁P	-108
▁E	-109
oo	-110
ir	-111
een	-112
uh	-113
sä	-114
▁ma	-115
▁va	-116
▁V	-117
äh	-118
ell	-119
asta	-120
yö	-121
▁A	-122
mis	-123
ita	-124
inen	-125
all	-126
▁ko	-127
pp	-128
▁sa	-129
se	-130
▁si	-131
▁L	-132
▁ole	-133
ea	-134
▁jo	-135
▁H	-136
00	-137
▁en	-138
▁to	-139
uks	-140
kin	-141
ys	-142
vat	-143
ne	-144
▁N	-145
▁2	-146
ään	-147
na	-148
▁vuo	-149
▁J	-150
um	-151
ast	-152
▁al	-153
ust	-154
▁oli	-155
▁?	-156
si	-157
ät	-158
eh	-159
äs	-160
oit	-161
ig	-162
uta	-163
uv	-164
ty	-165
ak	-166
ida	-167
ine	-168
▁I	-169
▁võ	-170
▁ü	-171
assa	-172
utta	-173
ll	-174
▁as	-175
ala	-176
de	-177
usta	-178
▁su	-179
▁saa	-180
▁val	-181
▁R	-182
ill	-183
▁min	-184
▁)	-185
ra	-186
isen	-187
ise	-188
▁"	-189
▁O	-190
op	-191
issa	-192
▁(	-193
▁kui	-194
mm	-195
ele	-196
▁vi	-197
itä	-198
▁siis	-199
val	-200
▁B	-201
ad	-202
▁ar	-203
▁tu	-204
essa	-205
▁D	-206
ien	-207
ina	-208
▁kä	-209
gu	-210
elle	-211
kk	-212
vad	-213
▁pr	-214
use	-215
▁-	-216
..	-217
▁että	-218
esti	-219
ille	-220
li	-221
iden	-222
▁nä	-223
inn	-224
▁po	-225
▁see	-226
isi	-227
▁me	-228
oa	-229
uom	-230
esta	-231
uk	-232
▁la	-233
▁kes	-234
ella	-235
ana	-236
taa	-237
unn	-238
tiin	-239
▁kas	-240
▁f	-241
▁er	-242
mä	-243
▁!	-244
ge	-245
▁ju	-246
vi	-247
áh	-248
me	-249
elt	-250
up	-251
▁in	-252
▁kan	-253
▁ne	-254
▁na	-255
kaan	-256
▁os	-257
▁myö	-258
▁yh	-259
ui	-260
jo	-261
ikka	-262
▁pal	-263
iir	-264
▁19	-265
ing	-266
▁el	-267
▁...	-268
ie	-269
tt	-270
man	-271
pa	-272
yn	-273
▁või	-274
▁tule	-275
▁u	-276
isu	-277
▁mi	-278
ee	-279
ika	-280
án	-281
uol	-282
▁kor	-283
▁kun	-284
▁pää	-285
ri	-286
▁G	-287
ale	-288
ide	-289
▁lea	-290
ál	-291
jen	-292
je	-293
▁vo	-294
ua	-295
illa	-296
alt	-297
▁läh	-298
alla	-299
▁aga	-300
ba	-301
▁es	-302
▁mõ	-303
ike	-304
▁tä	-305
ár	-306
▁kõ	-307
istä	-308
▁200	-309
▁teh	-310
kä	-311
tta	-312
ts	-313
▁il	-314
oll	-315
▁pa	-316
▁mis	-317
asi	-318
ittä	-319
▁ti	-320
▁an	-321
yv	-322
van	-323
mi	-324
▁tar	-325
ult	-326
▁Y	-327
taan	-328
öö	-329
▁myös	-330
▁toim	-331
tel	-332
ju	-333
ro	-334
▁per	-335
▁väl	-336
▁koh	-337
asti	-338
jan	-339
maan	-340
den	-341
▁li	-342
▁tul	-343
▁par	-344
ent	-345
▁õ	-346
▁kir	-347
▁nii	-348
▁oma	-349
dd	-350
io	-351
üü	-352
ivat	-353
vo	-354
yh	-355
ossa	-356
▁suur	-357
uksen	-358
▁ker	-359
lo	-360
▁sell	-361
ite	-362
vuo	-363
▁hän	-364
▁C	-365
▁kü	-366
emm	-367
nud	-368
its	-369
om	-370
▁pole	-371
jat	-372
yy	-373
ime	-374
itse	-375
enn	-376
osta	-377
▁mida	-378
▁U	-379
▁seda	-380
uden	-381
▁var	-382
▁no	-383
▁vä	-384
vät	-385
▁leat	-386
ikk	-387
di	-388
tö	-389
▁mit	-390
sin	-391
essä	-392
▁3	-393
oon	-394
äär	-395
▁ha	-396
▁ve	-397
ila	-398
ten	-399
nn	-400
ek	-401
▁č	-402
▁ih	-403
▁kans	-404
pä	-405
▁pä	-406
iset	-407
▁go	-408
▁ovat	-409
▁F	-410
yttä	-411
nna	-412
estä	-413
▁maa	-414
illä	-415
bi	-416
tan	-417
▁ed	-418
▁Ka	-419
▁lu	-420
mat	-421
isesti	-422
uor	-423
▁väh	-424
kan	-425
pan	-426
▁–	-427
▁Ma	-428
iku	-429
tia	-430
ön	-431
▁sen	-432
isten	-433
▁ra	-434
issä	-435
kse	-436
re	-437
ima	-438
▁hyv	-439
▁jäl	-440
▁mutta	-441
▁mukaan	-442
▁lo	-443
▁pe	-444
joit	-445
▁tai	-446
▁kuul	-447
män	-448
etta	-449
▁Tur	-450
▁kuin	-451
dus	-452
ussa	-453
▁Suom	-454
ha	-455
jal	-456
ori	-457
hd	-458
▁Tä	-459
▁joka	-460
yks	-461
▁rah	-462
▁tun	-463
od	-464
▁Ja	-465
uksi	-466
▁luo	-467
▁pea	-468
teen	-469
usi	-470
▁sõ	-471
▁yli	-472
ub	-473
ve	-474
iko	-475
lä	-476
kem	-477
▁jär	-478
▁vasta	-479
ter	-480
▁tut	-481
ettiin	-482
ema	-483
sim	-484
ann	-485
kki	-486
ellä	-487
▁oll	-488
jä	-489
▁he	-490
▁aut	-491
pi	-492
kka	-493
▁Sa	-494
ov	-495
isin	-496
▁ke	-497
oli	-498
▁eur	-499
▁inim	-500
▁lis	-501
olla	-502
▁ikka	-503
ái	-504
ian	-505
kon	-506
rit	-507
he	-508
▁sis	-509
▁ki	-510
▁är	-511
isia	-512
mise	-513
▁las	-514
▁is	-515
▁pan	-516
▁työ	-517
eli	-518
oks	-519
▁pit	-520
▁olla	-521
▁aasta	-522
▁selle	-523
ikki	-524
▁ise	-525
▁lih	-526
st	-527
▁5	-528
▁kah	-529
▁san	-530
▁ho	-531
eb	-532
ohta	-533
▁pu	-534
▁osa	-535
▁puh	-536
opist	-537
áv	-538
ettu	-539
alle	-540
▁vuonna	-541
pah	-542
tun	-543
▁oh	-544
▁sekä	-545
ps	-546
▁van	-547
kuv	-548
▁kol	-549
čč	-550
kim	-551
ässä	-552
▁jul	-553
▁keh	-554
gel	-555
täv	-556
usk	-557
▁tõ	-558
▁vah	-559
kuuta	-560
▁ain	-561
▁sam	-562
▁*	-563
go	-564
oin	-565
ue	-566
▁de	-567
▁ky	-568
ky	-569
iga	-570
mas	-571
tud	-572
ihin	-573
▁muut	-574
▁oleks	-575
isk	-576
iten	-577
ni	-578
ene	-579
▁sel	-580
▁miel	-581
mp	-582
▁lä	-583
keen	-584
▁jot	-585
▁mah	-586
ss	-587
iid	-588
▁ära	-589
bm	-590
▁4	-591
uov	-592
▁kat	-593
pe	-594
per	-595
▁W	-596
ass	-597
▁pro	-598
▁olen	-599
ev	-600
ess	-601
▁ül	-602
osent	-603
▁veel	-604
▁mitte	-605
elä	-606
ile	-607
▁kos	-608
▁yhte	-609
arr	-610
itta	-611
ällä	-612
▁gal	-613
▁käyt	-614
▁tiet	-615
▁kanssa	-616
▁ni	-617
▁voi	-618
▁yliopist	-619
ind	-620
▁Ta	-621
▁põ	-622
mista	-623
▁puol	-624
iti	-625
▁Se	-626
▁kõik	-627
oja	-628
▁Hän	-629
▁lei	-630
ran	-631
▁sá	-632
▁Kui	-633
▁juba	-634
▁”	-635
kit	-636
▁á	-637
aan	-638
lan	-639
▁To	-640
ästä	-641
▁ilm	-642
▁Turun	-643
uu	-644
▁prosent	-645
ati	-646
nyt	-647
tti	-648
▁ge	-649
▁ov	-650
itsi	-651
▁suh	-652
▁välja	-653
eri	-654
astu	-655
▁midagi	-656
upun	-657
▁mul	-658
▁suo	-659
tav	-660
đa	-661
mist	-662
▁hal	-663
▁pär	-664
▁ver	-665
hte	-666
isa	-667
▁arv	-668
▁enn	-669
▁tän	-670
▁maail	-671
mme	-672
ate	-673
usa	-674
▁asi	-675
ös	-676
▁esim	-677
▁päiv	-678
▁c	-679
ali	-680
lle	-681
▁lii	-682
▁tea	-683
▁nagu	-684
▁niin	-685
tin	-686
kaa	-687
uin	-688
▁pel	-689
▁saab	-690
ili	-691
uid	-692
una	-693
uroo	-694
utus	-695
▁tuo	-696
▁küll	-697
000	-698
kku	-699
lik	-700
iste	-701
inud	-702
arg	-703
ete	-704
jas	-705
jon	-706
tte	-707
▁juh	-708
▁kon	-709
▁vel	-710
ääk	-711
▁Te	-712
▁sin	-713
mine	-714
▁mer	-715
▁nim	-716
▁üle	-717
▁Tämä	-718
▁saan	-719
▁väga	-720
▁jälkeen	-721
át	-722
ull	-723
▁op	-724
▁hak	-725
iseen	-726
▁kuiten	-727
▁vuoden	-728
šš	-729
▁7	-730
enä	-731
kea	-732
llä	-733
uri	-734
▁sit	-735
▁ter	-736
iselt	-737
simmä	-738
▁hall	-739
ood	-740
▁us	-741
▁joh	-742
▁lah	-743
▁ollut	-744
enk	-745
ikä	-746
min	-747
▁bo	-748
▁da	-749
▁eh	-750
▁jon	-751
▁mil	-752
ás	-753
jän	-754
ost	-755
var	-756
▁6	-757
ber	-758
ige	-759
▁jää	-760
emmin	-761
kas	-762
men	-763
uda	-764
vaa	-765
üüd	-766
ulla	-767
▁hea	-768
▁kul	-769
▁til	-770
▁kuid	-771
▁seal	-772
▁vain	-773
▁@	-774
jaa	-775
maa	-776
▁kr	-777
▁het	-778
▁täh	-779
▁use	-780
uksia	-781
▁oike	-782
eg	-783
ark	-784
uste	-785
▁mat	-786
▁liit	-787
▁maid	-788
ib	-789
ari	-790
jär	-791
▁lõ	-792
alta	-793
▁sii	-794
oi	-795
ity	-796
▁hä	-797
▁mon	-798
▁sur	-799
▁enam	-800
▁sitä	-801
tää	-802
ula	-803
vel	-804
▁or	-805
▁üks	-806
minen	-807
▁ihmis	-808
mu	-809
uvv	-810
jest	-811
▁neid	-812
ip	-813
gem	-814
han	-815
▁aik	-816
▁kar	-817
▁saada	-818
ega	-819
gas	-820
ken	-821
▁20	-822
▁Ne	-823
▁ii	-824
▁töö	-825
▁aika	-826
ota	-827
▁10	-828
eegi	-829
selt	-830
▁need	-831
▁võib	-832
▁Euroo	-833
▁tuleb	-834
▁An	-835
▁st	-836
▁jos	-837
▁roh	-838
▁siin	-839
▁tied	-840
yd	-841
ym	-842
tle	-843
upp	-844
▁Ar	-845
ojen	-846
▁See	-847
▁kerto	-848
▁mingi	-849
▁ensimmä	-850
tl	-851
ela	-852
end	-853
▁re	-854
inta	-855
ised	-856
▁kur	-857
▁tag	-858
takse	-859
tsalt	-860
▁ahte	-861
▁teki	-862
▁inimes	-863
▁8	-864
idu	-865
kti	-866
uun	-867
kiksi	-868
ans	-869
▁kus	-870
änn	-871
äksi	-872
▁har	-873
▁suom	-874
laš	-875
yys	-876
itus	-877
▁sai	-878
▁liik	-879
▁talo	-880
erkiksi	-881
▁kaikki	-882
ji	-883
att	-884
eni	-885
kir	-886
ule	-887
etty	-888
vall	-889
▁pid	-890
▁määr	-891
▁peale	-892
▁prosenttia	-893
ck	-894
gus	-895
▁Aga	-896
▁iga	-897
▁kut	-898
▁tur	-899
isiin	-900
kö	-901
isti	-902
▁eks	-903
▁kuna	-904
▁9	-905
ytä	-906
ikult	-907
▁2009	-908
▁tutkim	-909
▁lihtsalt	-910
oov	-911
▁In	-912
▁No	-913
▁koko	-914
▁vaja	-915
▁jossa	-916
▁Suomen	-917
▁sitten	-918
▁kuitenkin	-919
itt	-920
uoh	-921
▁Ko	-922
▁ul	-923
mään	-924
▁dan	-925
▁led	-926
▁rak	-927
▁ning	-928
▁sama	-929
▁teha	-930
▁keegi	-931
▁palju	-932
av	-933
elm	-934
pahtu	-935
▁kiir	-936
▁sest	-937
▁viime	-938
tas	-939
▁..	-940
ksen	-941
umis	-942
▁kesk	-943
▁ainult	-944
▁kaupun	-945
no	-946
gan	-947
gga	-948
▁oa	-949
▁un	-950
ikut	-951
inna	-952
tain	-953
▁nad	-954
▁vir	-955
▁yle	-956
▁tunn	-957
ers	-958
ihe	-959
ord	-960
▁18	-961
▁gi	-962
▁ri	-963
ikko	-964
▁Kas	-965
▁nel	-966
▁maks	-967
▁seur	-968
emi	-969
enda	-970
ilta	-971
hr	-972
ru	-973
une	-974
▁Le	-975
▁mo	-976
▁vaa	-977
▁yks	-978
alais	-979
▁nüüd	-980
alainen	-981
be	-982
gin	-983
▁Va	-984
elda	-985
▁Vuo	-986
▁juur	-987
▁sillä	-988
ivät	-989
▁kys	-990
▁käs	-991
▁lev	-992
▁saat	-993
▁jonka	-994
▁jotka	-995
▁En	-996
▁lö	-997
▁sü	-998
juta	-999
▁sil	-1000
▁sija	-1001
▁vaid	-1002
gá	-1003
vä	-1004
asa	-1005
dal	-1006
kat	-1007
las	-1008
▁Mi	-1009
▁yl	-1010
ästi	-1011
▁kasv	-1012
▁koul	-1013
▁võim	-1014
▁yliopiston	-1015
ore	-1016
neet	-1017
ulle	-1018
enkil	-1019
▁auto	-1020
iseksi	-1021
▁olisi	-1022
▁olivat	-1023
ch	-1024
kt	-1025
pm	-1026
els	-1027
iiv	-1028
inä	-1029
mer	-1030
tio	-1031
▁Ol	-1032
into	-1033
▁Yhd	-1034
vuođa	-1035
▁vielä	-1036
▁;	-1037
des	-1038
▁so	-1039
anta	-1040
elta	-1041
tern	-1042
unut	-1043
äsen	-1044
▁Son	-1045
▁vuos	-1046
▁ledje	-1047
▁tarko	-1048
po	-1049
and	-1050
ani	-1051
kes	-1052
tal	-1053
uss	-1054
ččat	-1055
massa	-1056
uttaa	-1057
▁kiin	-1058
▁mill	-1059
▁eivät	-1060
▁hyvin	-1061
uksessa	-1062
▁tagasi	-1063
▁jõ	-1064
▁ál	-1065
▁elä	-1066
▁sáh	-1067
ollisu	-1068
▁käyttä	-1069
▁%	-1070
▁ö	-1071
▁jah	-1072
▁jat	-1073
▁näh	-1074
▁mahd	-1075
▁tuli	-1076
yr	-1077
git	-1078
kun	-1079
pal	-1080
umi	-1081
▁La	-1082
ansa	-1083
olle	-1084
▁199	-1085
▁Mit	-1086
▁men	-1087
▁ihan	-1088
iss	-1089
nut	-1090
tar	-1091
tyi	-1092
usti	-1093
▁muh	-1094
▁muo	-1095
▁uud	-1096
johta	-1097
sioon	-1098
▁kaik	-1099
ini	-1100
yky	-1101
▁Sá	-1102
isiä	-1103
▁mas	-1104
▁met	-1105
▁esimerkiksi	-1106
dan	-1107
kee	-1108
ras	-1109
uti	-1110
▁Ei	-1111
▁Si	-1112
istu	-1113
uttu	-1114
▁its	-1115
tanut	-1116
▁voit	-1117
▁peaks	-1118
▁vastu	-1119
ht	-1120
ara	-1121
jad	-1122
▁om	-1123
isto	-1124
▁oah	-1125
▁põh	-1126
▁eest	-1127
▁hyvä	-1128
▁minu	-1129
▁yrit	-1130
mus	-1131
oni	-1132
oog	-1133
▁15	-1134
▁hi	-1135
▁vá	-1136
▁000	-1137
▁noin	-1138
▁pääs	-1139
▁Yhdys	-1140
▁rohkem	-1141
▁š	-1142
olo	-1143
alik	-1144
etti	-1145
tään	-1146
▁198	-1147
▁eri	-1148
▁skuv	-1149
▁viir	-1150
dit	-1151
eva	-1152
gat	-1153
ona	-1154
änä	-1155
ende	-1156
esin	-1157
▁all	-1158
▁huv	-1159
▁sop	-1160
ittel	-1161
ittää	-1162
misen	-1163
unnan	-1164
▁aina	-1165
▁mitä	-1166
cc	-1167
ese	-1168
kus	-1169
luv	-1170
mad	-1171
▁He	-1172
▁On	-1173
alis	-1174
mmen	-1175
ystä	-1176
▁eli	-1177
▁laa	-1178
▁poh	-1179
▁yhd	-1180
▁jäsen	-1181
▁kasuta	-1182
ms	-1183
áš	-1184
ude	-1185
▁Su	-1186
▁ro	-1187
▁pys	-1188
▁pien	-1189
▁henkil	-1190
do	-1191
▁Á	-1192
egu	-1193
ero	-1194
mät	-1195
uot	-1196
väl	-1197
▁dá	-1198
atti	-1199
idän	-1200
ikan	-1201
uvvo	-1202
▁huo	-1203
▁mõn	-1204
▁pak	-1205
▁maan	-1206
▁kohta	-1207
▁muidu	-1208
▁musta	-1209
yl	-1210
žž	-1211
▁/	-1212
aht	-1213
lla	-1214
ppe	-1215
▁:)	-1216
atud	-1217
elin	-1218
jien	-1219
eseen	-1220
▁piir	-1221
▁taha	-1222
▁hänen	-1223
eme	-1224
kel	-1225
ker	-1226
kko	-1227
tiö	-1228
tyy	-1229
▁Al	-1230
▁Vi	-1231
▁Sam	-1232
▁amm	-1233
▁sul	-1234
▁tan	-1235
▁üld	-1236
uvvon	-1237
▁itse	-1238
▁just	-1239
▁muun	-1240
▁tead	-1241
arv	-1242
atu	-1243
uka	-1244
▁Pa	-1245
alan	-1246
että	-1247
jana	-1248
puol	-1249
ärke	-1250
▁Kes	-1251
▁pra	-1252
▁ruo	-1253
▁arva	-1254
▁koos	-1255
▁lopp	-1256
kuussa	-1257
▁hakka	-1258
▁kaksi	-1259
▁taval	-1260
gl	-1261
đđ	-1262
med	-1263
yyn	-1264
▁ot	-1265
itto	-1266
valt	-1267
▁Kun	-1268
▁epä	-1269
▁lop	-1270
▁nyt	-1271
yksen	-1272
▁ette	-1273
▁kind	-1274
▁mina	-1275
▁sámi	-1276
▁vast	-1277
▁miljo	-1278
▁parem	-1279
▁siitä	-1280
0-	-1281
ho	-1282
pää	-1283
tor	-1284
▁ie	-1285
itti	-1286
umal	-1287
▁dah	-1288
▁end	-1289
▁gea	-1290
▁mán	-1291
etään	-1292
▁alla	-1293
▁olema	-1294
▁Suomessa	-1295
▁maailman	-1296
▁Ü	-1297
▁ä	-1298
ena	-1299
por	-1300
utu	-1301
▁Me	-1302
▁be	-1303
▁uh	-1304
▁Mun	-1305
▁kõr	-1306
▁son	-1307
▁isegi	-1308
▁vähem	-1309
▁Euroopan	-1310
ug	-1311
jit	-1312
osi	-1313
ulu	-1314
fess	-1315
▁her	-1316
▁loo	-1317
▁uus	-1318
innan	-1319
ukset	-1320
▁kann	-1321
▁meie	-1322
▁palj	-1323
tab	-1324
ttá	-1325
vik	-1326
▁12	-1327
erin	-1328
▁aru	-1329
▁pil	-1330
▁tas	-1331
allis	-1332
usega	-1333
▁ajal	-1334
▁siir	-1335
▁julka	-1336
▁aikana	-1337
▁muassa	-1338
dä	-1339
idi	-1340
tet	-1341
▁Re	-1342
eltä	-1343
esse	-1344
unud	-1345
▁pah	-1346
▁tal	-1347
emmän	-1348
▁kats	-1349
▁olbm	-1350
▁ennen	-1351
▁kasva	-1352
▁muuta	-1353
▁olnud	-1354
▁voida	-1355
▁kirjoit	-1356
ai	-1357
gr	-1358
pr	-1359
eks	-1360
ppa	-1361
uus	-1362
via	-1363
▁av	-1364
kana	-1365
oike	-1366
▁eel	-1367
▁ehd	-1368
▁Hels	-1369
▁enne	-1370
▁tulee	-1371
▁pärast	-1372
▁tapahtu	-1373
ce	-1374
amm	-1375
eti	-1376
kia	-1377
lus	-1378
oim	-1379
ttu	-1380
yös	-1381
▁Nä	-1382
▁du	-1383
idat	-1384
iina	-1385
kään	-1386
tada	-1387
össä	-1388
▁Mar	-1389
▁boa	-1390
▁jne	-1391
▁kül	-1392
▁mii	-1393
▁mun	-1394
▁pol	-1395
iteks	-1396
▁alue	-1397
▁huom	-1398
▁selv	-1399
udessa	-1400
▁tärke	-1401
järjest	-1402
▁Helsing	-1403
▁miljoon	-1404
▁vastaan	-1405
ble	-1406
uko	-1407
viä	-1408
öön	-1409
▁Mu	-1410
▁do	-1411
▁sä	-1412
isim	-1413
▁aja	-1414
▁kil	-1415
▁ajan	-1416
▁osta	-1417
▁sellest	-1418
nä	-1419
gis	-1420
jel	-1421
kke	-1422
kte	-1423
oai	-1424
sta	-1425
tik	-1426
▁Jo	-1427
▁ig	-1428
▁jä	-1429
▁nõ	-1430
eadd	-1431
itab	-1432
usto	-1433
voit	-1434
▁inf	-1435
▁áig	-1436
uteen	-1437
▁jouk	-1438
▁meel	-1439
▁mieh	-1440
▁vaih	-1441
ternáh	-1442
▁Mithr	-1443
▁nende	-1444
▁vaikka	-1445
▁henkilö	-1446
19	-1447
du	-1448
ata	-1449
paa	-1450
ssa	-1451
tuu	-1452
ven	-1453
▁tü	-1454
edje	-1455
▁Val	-1456
▁müü	-1457
▁syö	-1458
ittaa	-1459
kseen	-1460
oissa	-1461
▁haig	-1462
▁poli	-1463
arkkin	-1464
▁koska	-1465
▁paljon	-1466
iä	-1467
ins	-1468
til	-1469
tui	-1470
vah	-1471
yyt	-1472
atta	-1473
tiön	-1474
ännö	-1475
▁Min	-1476
▁jät	-1477
▁mur	-1478
▁ots	-1479
▁syn	-1480
▁tod	-1481
▁Venä	-1482
▁ilma	-1483
▁laps	-1484
▁nuor	-1485
▁rääk	-1486
miseen	-1487
▁johta	-1488
yi	-1489
ard	-1490
era	-1491
ppi	-1492
rat	-1493
ton	-1494
▁Ro	-1495
▁üh	-1496
istö	-1497
osti	-1498
▁197	-1499
▁bir	-1500
▁elo	-1501
▁vih	-1502
▁vär	-1503
ustel	-1504
▁korr	-1505
▁pitä	-1506
▁vuod	-1507
▁tämän	-1508
dot	-1509
gia	-1510
gid	-1511
▁Võ	-1512
asto	-1513
daga	-1514
▁ega	-1515
▁hel	-1516
▁ras	-1517
malla	-1518
▁barg	-1519
▁julk	-1520
▁läbi	-1521
▁tark	-1522
▁vaan	-1523
elleen	-1524
▁valta	-1525
▁võiks	-1526
uksesta	-1527
▁kirjuta	-1528
▁Mithridat	-1529
ase	-1530
ope	-1531
▁Is	-1532
▁Ra	-1533
▁ok	-1534
este	-1535
tien	-1536
▁Dat	-1537
▁dat	-1538
isuus	-1539
▁kohe	-1540
▁miks	-1541
ukseen	-1542
▁euroa	-1543
▁üldse	-1544
▁kuidas	-1545
bo	-1546
ane	-1547
mia	-1548
umb	-1549
uos	-1550
vaš	-1551
▁Ti	-1552
▁aj	-1553
asse	-1554
itud	-1555
ivan	-1556
tall	-1557
tion	-1558
▁Jos	-1559
▁nak	-1560
▁ään	-1561
▁paik	-1562
▁pool	-1563
isesta	-1564
miseks	-1565
▁erity	-1566
▁muita	-1567
▁määrä	-1568
▁pitää	-1569
▁liitty	-1570
zz	-1571
ats	-1572
ere	-1573
ino	-1574
vis	-1575
yyd	-1576
▁Es	-1577
▁nu	-1578
kuun	-1579
maks	-1580
yksi	-1581
▁dál	-1582
▁jal	-1583
▁juo	-1584
masta	-1585
▁eikä	-1586
▁oled	-1587
▁soov	-1588
▁sella	-1589
▁usein	-1590
tr	-1591
ang	-1592
ála	-1593
áll	-1594
▁EU	-1595
itte	-1596
ksin	-1597
ulta	-1598
used	-1599
▁Pal	-1600
▁Ruo	-1601
▁Tar	-1602
▁and	-1603
▁lam	-1604
▁onn	-1605
▁nyky	-1606
▁teks	-1607
ittäin	-1608
▁opisk	-1609
alaiset	-1610
▁vuotta	-1611
▁lisäksi	-1612
▁voidaan	-1613
ör	-1614
ami	-1615
onn	-1616
ste	-1617
und	-1618
▁Br	-1619
▁De	-1620
▁ai	-1621
▁pi	-1622
▁rá	-1623
evad	-1624
ikas	-1625
onen	-1626
otil	-1627
päiv	-1628
älle	-1629
▁100	-1630
▁iež	-1631
▁ryh	-1632
ivers	-1633
oista	-1634
▁kapp	-1635
▁puud	-1636
▁saar	-1637
▁vaik	-1638
▁vanh	-1639
▁kehit	-1640
▁läheb	-1641
alaisen	-1642
▁proble	-1643
▁profess	-1644
ilt	-1645
tis	-1646
▁im	-1647
▁kl	-1648
tävä	-1649
yttö	-1650
▁ken	-1651
istel	-1652
▁aega	-1653
▁aihe	-1654
▁jota	-1655
▁maha	-1656
▁peab	-1657
▁tund	-1658
▁Tässä	-1659
▁muhto	-1660
▁ongel	-1661
▁toimi	-1662
▁muidugi	-1663
pu	-1664
dat	-1665
dda	-1666
hen	-1667
iel	-1668
ira	-1669
oor	-1670
rin	-1671
vän	-1672
▁16	-1673
asin	-1674
tava	-1675
ttas	-1676
tuur	-1677
ueen	-1678
▁nor	-1679
▁sov	-1680
▁teg	-1681
itsee	-1682
mistä	-1683
ustus	-1684
▁tarv	-1685
▁tele	-1686
▁ulko	-1687
▁yksi	-1688
▁korda	-1689
▁päris	-1690
▁teema	-1691
▁tegel	-1692
▁aastat	-1693
▁mielde	-1694
▁saanud	-1695
ká	-1696
ok	-1697
▁0	-1698
▁Z	-1699
ilu	-1700
oop	-1701
uto	-1702
▁13	-1703
▁tr	-1704
anne	-1705
aste	-1706
ensä	-1707
ukka	-1708
▁dár	-1709
▁joo	-1710
▁loh	-1711
▁pun	-1712
▁ütl	-1713
isena	-1714
valta	-1715
▁asja	-1716
▁kesä	-1717
▁lean	-1718
▁merk	-1719
▁ovdd	-1720
▁vall	-1721
ikuuta	-1722
▁krist	-1723
▁lisää	-1724
▁enemmän	-1725
sk	-1726
▁'	-1727
▁w	-1728
als	-1729
atn	-1730
esi	-1731
tyä	-1732
utt	-1733
▁Lo	-1734
atio	-1735
lane	-1736
oole	-1737
▁hil	-1738
▁ist	-1739
▁rää	-1740
▁vii	-1741
▁raha	-1742
▁suht	-1743
▁viim	-1744
isessa	-1745
▁Tämän	-1746
▁birra	-1747
▁jälle	-1748
▁kuten	-1749
▁suunn	-1750
▁olevan	-1751
▁ilmselt	-1752
▁internáh	-1753
of	-1754
aid	-1755
koh	-1756
met	-1757
ola	-1758
ttö	-1759
äll	-1760
▁17	-1761
anud	-1762
ikin	-1763
itel	-1764
onin	-1765
▁Kir	-1766
▁Mis	-1767
▁Poh	-1768
▁Sen	-1769
▁eai	-1770
▁ehk	-1771
▁guh	-1772
▁han	-1773
▁rea	-1774
▁ajat	-1775
▁ollu	-1776
▁tapa	-1777
▁tema	-1778
▁kõige	-1779
johtaja	-1780
▁praegu	-1781
▁järjest	-1782
▁kehittä	-1783
▁mahdoll	-1784
▁vähemalt	-1785
,5	-1786
itu	-1787
kkä	-1788
koi	-1789
kos	-1790
ole	-1791
vin	-1792
eksi	-1793
ikat	-1794
isem	-1795
talo	-1796
tama	-1797
tuna	-1798
▁hyö	-1799
▁sää	-1800
▁kell	-1801
▁koti	-1802
▁kuts	-1803
▁tuom	-1804
▁joten	-1805
▁kirja	-1806
▁kokku	-1807
tavasti	-1808
▁huvita	-1809
▁kertoo	-1810
▁selline	-1811
yä	-1812
▁−	-1813
dud	-1814
pel	-1815
uja	-1816
▁lá	-1817
elee	-1818
ento	-1819
kinn	-1820
tori	-1821
álaš	-1822
▁Muh	-1823
▁vál	-1824
inväl	-1825
usest	-1826
▁Finn	-1827
▁alle	-1828
▁buor	-1829
▁guov	-1830
▁hist	-1831
▁huol	-1832
▁jään	-1833
▁mine	-1834
▁olid	-1835
▁päät	-1836
▁täna	-1837
▁üles	-1838
esiden	-1839
joitta	-1840
▁lähes	-1841
▁mille	-1842
▁tunne	-1843
▁tutki	-1844
▁inimene	-1845
▁Yhdysval	-1846
▁&	-1847
▁Ä	-1848
hta	-1849
iks	-1850
kul	-1851
oom	-1852
▁Il	-1853
eman	-1854
igat	-1855
ikon	-1856
maal	-1857
otta	-1858
unta	-1859
älla	-1860
▁ent	-1861
▁fil	-1862
▁gáv	-1863
▁kaa	-1864
▁rii	-1865
▁arvi	-1866
▁aset	-1867
▁kinn	-1868
▁muod	-1869
▁suos	-1870
▁vist	-1871
▁voim	-1872
▁galgá	-1873
▁kindl	-1874
▁minna	-1875
▁hyväks	-1876
▁oahpah	-1877
▁vuoksi	-1878
ff	-1879
lj	-1880
ob	-1881
ars	-1882
dái	-1883
mit	-1884
osa	-1885
ron	-1886
uva	-1887
▁Un	-1888
▁ir	-1889
deks	-1890
isse	-1891
töön	-1892
▁194	-1893
▁Tal	-1894
▁aeg	-1895
▁dán	-1896
▁kuo	-1897
▁mär	-1898
▁tuh	-1899
imaan	-1900
ingas	-1901
ottel	-1902
▁Olen	-1903
▁järj	-1904
▁kogu	-1905
▁kult	-1906
▁myöh	-1907
▁näyt	-1908
▁ütle	-1909
astaan	-1910
▁eriti	-1911
▁sanoi	-1912
▁sanoo	-1913
▁kautta	-1914
▁kertoi	-1915
▁talous	-1916
▁valmist	-1917
20	-1918
ŋŋ	-1919
idn	-1920
már	-1921
nte	-1922
pol	-1923
pär	-1924
uma	-1925
üüs	-1926
▁3.	-1927
▁50	-1928
▁má	-1929
kiin	-1930
usel	-1931
utti	-1932
áhka	-1933
▁Ita	-1934
▁Tän	-1935
▁die	-1936
▁gas	-1937
▁kär	-1938
▁opp	-1939
▁tor	-1940
▁usk	-1941
kusta	-1942
▁2008	-1943
▁Kiin	-1944
▁asia	-1945
▁muud	-1946
▁máná	-1947
▁nime	-1948
▁vahv	-1949
juvvon	-1950
▁Sámed	-1951
▁kaupp	-1952
▁panna	-1953
▁rahul	-1954
▁teine	-1955
▁terve	-1956
▁isännö	-1957
▁koroon	-1958
▁kunagi	-1959
▁näiteks	-1960
gg	-1961
võ	-1962
ame	-1963
din	-1964
one	-1965
uht	-1966
šše	-1967
attu	-1968
etin	-1969
ikku	-1970
ksia	-1971
ment	-1972
mpär	-1973
oodi	-1974
opim	-1975
vaan	-1976
▁Sii	-1977
▁ees	-1978
▁lõp	-1979
▁por	-1980
istyö	-1981
itsem	-1982
misel	-1983
oilla	-1984
oitta	-1985
yhtiö	-1986
▁alku	-1987
▁kiel	-1988
▁lääk	-1989
▁okta	-1990
▁oska	-1991
minist	-1992
▁kysym	-1993
▁liiga	-1994
▁osall	-1995
▁saaks	-1996
▁Helsingin	-1997
etä	-1998
pur	-1999
uga	-2000
▁Ch	-2001
▁Pr	-2002
eaiv	-2003
giid	-2004
idit	-2005
ikud	-2006
kkas	-2007
kkár	-2008
määr	-2009
teet	-2010
ttis	-2011
unto	-2012
ustu	-2013
▁Lis	-2014
▁Nor	-2015
▁Por	-2016
▁Tul	-2017
▁hui	-2018
▁siv	-2019
▁too	-2020
atuke	-2021
isenä	-2022
kinto	-2023
usten	-2024
yttää	-2025
▁Myös	-2026
▁Tall	-2027
▁main	-2028
▁minä	-2029
udella	-2030
vuohta	-2031
▁Eesti	-2032
▁erine	-2033
▁kiinn	-2034
▁tekem	-2035
isuuden	-2036
▁juurde	-2037
▁seuraa	-2038
alaisten	-2039
▁presiden	-2040
já	-2041
eta	-2042
hes	-2043
hti	-2044
laa	-2045
▁Kõ	-2046
▁Li	-2047
akka	-2048
alaš	-2049
atka	-2050
ides	-2051
imen	-2052
kaup	-2053
kein	-2054
kkar	-2055
mien	-2056
▁Lea	-2057
▁Nii	-2058
▁Työ	-2059
▁guo	-2060
▁kal	-2061
▁kri	-2062
▁ost	-2063
▁pur	-2064
▁sav	-2065
▁umb	-2066
arras	-2067
idega	-2068
iline	-2069
itaan	-2070
oksen	-2071
tynyt	-2072
▁2006	-2073
▁Kuid	-2074
▁boaz	-2075
▁jout	-2076
▁kunn	-2077
▁odot	-2078
▁saav	-2079
▁suor	-2080
▁sáme	-2081
▁täps	-2082
▁väär	-2083
▁kansa	-2084
▁kunin	-2085
▁käytä	-2086
▁mõtle	-2087
▁päeva	-2088
▁öelda	-2089
ituksen	-2090
▁olemas	-2091
▁palvel	-2092
▁vastaa	-2093
▁yhteis	-2094
▁sellist	-2095
10	-2096
lu	-2097
▁i	-2098
ain	-2099
ish	-2100
lin	-2101
tit	-2102
tto	-2103
▁Ku	-2104
iken	-2105
ikes	-2106
ittu	-2107
jois	-2108
koul	-2109
teli	-2110
tsin	-2111
ukku	-2112
▁The	-2113
▁Vir	-2114
▁möö	-2115
▁pes	-2116
erida	-2117
▁2007	-2118
▁Saks	-2119
▁linn	-2120
▁löyt	-2121
▁mies	-2122
▁syys	-2123
▁tasa	-2124
▁tämä	-2125
udesta	-2126
valtio	-2127
▁esiin	-2128
▁jaoks	-2129
ellinen	-2130
uksista	-2131
▁toimin	-2132
ab	-2133
mb	-2134
vr	-2135
aks	-2136
eng	-2137
etu	-2138
get	-2139
gun	-2140
oah	-2141
par	-2142
puh	-2143
stä	-2144
ute	-2145
äis	-2146
▁1.	-2147
▁11	-2148
▁Mõ	-2149
ante	-2150
edia	-2151
guin	-2152
isid	-2153
mata	-2154
odan	-2155
otti	-2156
vaid	-2157
vita	-2158
ádus	-2159
▁Mul	-2160
▁San	-2161
▁Vas	-2162
▁fer	-2163
▁õig	-2164
▁ühe	-2165
oloog	-2166
utkim	-2167
▁Esim	-2168
▁buot	-2169
▁enda	-2170
▁kier	-2171
▁alati	-2172
▁boaht	-2173
▁josta	-2174
▁muist	-2175
▁mulle	-2176
▁raken	-2177
▁tehdä	-2178
▁velka	-2179
▁edusta	-2180
▁kertaa	-2181
▁korral	-2182
▁koulut	-2183
▁siihen	-2184
▁tõesti	-2185
▁võimal	-2186
▁yhteen	-2187
▁pitäisi	-2188
▁professori	-2189
▁Mithridates	-2190
pl	-2191
ant	-2192
imi	-2193
kal	-2194
mar	-2195
oma	-2196
pet	-2197
ttä	-2198
ura	-2199
ver	-2200
vää	-2201
đii	-2202
▁14	-2203
▁30	-2204
▁Na	-2205
▁St	-2206
data	-2207
etud	-2208
saar	-2209
▁Kai	-2210
▁Teh	-2211
▁Yli	-2212
▁kiv	-2213
▁lin	-2214
▁tee	-2215
▁toh	-2216
▁vai	-2217
idest	-2218
iseks	-2219
juvvo	-2220
▁Eest	-2221
▁Mikk	-2222
▁ehkä	-2223
▁läks	-2224
▁moot	-2225
▁olle	-2226
▁sain	-2227
▁tege	-2228
▁toiv	-2229
▁tote	-2230
iselle	-2231
isille	-2232
ittiin	-2233
olloin	-2234
▁dušše	-2235
▁edasi	-2236
▁järgi	-2237
▁mearr	-2238
▁nakat	-2239
▁niitä	-2240
▁sisäl	-2241
▁vähän	-2242
▁geavah	-2243
▁natuke	-2244
jö	-2245
ará	-2246
das	-2247
imm	-2248
pin	-2249
ryh	-2250
sid	-2251
ssi	-2252
tii	-2253
vet	-2254
áib	-2255
▁Ky	-2256
gian	-2257
itys	-2258
peta	-2259
päev	-2260
sion	-2261
udet	-2262
▁ann	-2263
▁boh	-2264
▁hir	-2265
▁rie	-2266
▁sih	-2267
▁vas	-2268
idagi	-2269
ikkaa	-2270
jaksi	-2271
oitti	-2272
useks	-2273
yyttä	-2274
▁aiko	-2275
▁halu	-2276
▁jagi	-2277
▁kaks	-2278
▁kall	-2279
▁kusk	-2280
▁liht	-2281
▁meil	-2282
▁pain	-2283
essaan	-2284
lainen	-2285
▁hoita	-2286
▁kolme	-2287
▁koske	-2288
▁suuda	-2289
▁teada	-2290
▁hieman	-2291
▁käyttö	-2292
▁rakenn	-2293
▁jolloin	-2294
▁käyttää	-2295
▁perusta	-2296
isuudessa	-2297
▁inimesed	-2298
▁opiskeli	-2299
▁valmista	-2300
▁mahdollisu	-2301
▁ensimmäinen	-2302
dn	-2303
are	-2304
jia	-2305
kut	-2306
lit	-2307
lut	-2308
out	-2309
▁Mä	-2310
▁Ni	-2311
aset	-2312
empi	-2313
osia	-2314
uora	-2315
vast	-2316
▁And	-2317
▁Pär	-2318
▁bor	-2319
▁doa	-2320
▁mik	-2321
▁ášš	-2322
iguin	-2323
jassa	-2324
otila	-2325
utada	-2326
▁Suur	-2327
▁enää	-2328
▁hetk	-2329
▁jopa	-2330
▁järg	-2331
▁kool	-2332
▁lait	-2333
▁lenn	-2334
▁mikä	-2335
▁neuv	-2336
▁näin	-2337
▁oman	-2338
▁tamm	-2339
▁tila	-2340
▁vaat	-2341
▁vapa	-2342
ettava	-2343
isista	-2344
joiden	-2345
uminen	-2346
▁antaa	-2347
▁dahje	-2348
▁edell	-2349
▁perin	-2350
▁pitkä	-2351
▁poole	-2352
▁saman	-2353
▁tulla	-2354
allinen	-2355
▁aikaan	-2356
▁kasvat	-2357
▁kolman	-2358
▁maahan	-2359
▁mingit	-2360
▁neljän	-2361
▁selles	-2362
▁siiski	-2363
▁sáhttá	-2364
▁vaikut	-2365
▁Finnmár	-2366
▁inimest	-2367
▁maiddái	-2368
▁markkin	-2369
▁päivänä	-2370
▁erittäin	-2371
▁merkittä	-2372
▁puolesta	-2373
▁kindlasti	-2374
▁tegelikult	-2375
▁Yhdysvaltain	-2376
iri	-2377
pit	-2378
ppu	-2379
ros	-2380
sel	-2381
ynn	-2382
▁Go	-2383
▁Yh	-2384
▁di	-2385
▁nt	-2386
▁ár	-2387
arja	-2388
emat	-2389
igem	-2390
kone	-2391
umin	-2392
vate	-2393
ynyt	-2394
▁naa	-2395
istan	-2396
istui	-2397
jalla	-2398
mässä	-2399
tunut	-2400
ysten	-2401
▁Saku	-2402
▁anna	-2403
▁geah	-2404
▁muka	-2405
▁mõtl	-2406
▁ongi	-2407
▁otta	-2408
▁peal	-2409
▁uusi	-2410
kaupun	-2411
▁Jumal	-2412
▁ilman	-2413
▁juuri	-2414
▁kelle	-2415
▁kyllä	-2416
▁perus	-2417
▁päätö	-2418
▁ütles	-2419
miseksi	-2420
▁ainakin	-2421
▁tutkimus	-2422
▁võimalik	-2423
▁kansainväl	-2424
ld	-2425
00-	-2426
gal	-2427
gil	-2428
ren	-2429
toa	-2430
älä	-2431
▁II	-2432
amma	-2433
kian	-2434
rita	-2435
ttel	-2436
voim	-2437
▁bar	-2438
▁elu	-2439
▁hää	-2440
▁kot	-2441
▁vab	-2442
▁vee	-2443
uutta	-2444
vasti	-2445
ykset	-2446
yksiä	-2447
▁Mina	-2448
▁kyse	-2449
▁lain	-2450
▁mann	-2451
▁taga	-2452
▁vaim	-2453
▁valg	-2454
▁vana	-2455
anskan	-2456
kinnon	-2457
▁heinä	-2458
▁kuulu	-2459
▁lahti	-2460
▁samas	-2461
▁ympär	-2462
uksissa	-2463
▁kannat	-2464
▁kuinka	-2465
▁marras	-2466
▁saanut	-2467
▁Lisäksi	-2468
▁Pohjois	-2469
▁saattaa	-2470
▁hallitsi	-2471
▁järjestä	-2472
▁probleem	-2473
uš	-2474
üh	-2475
bmo	-2476
ead	-2477
jin	-2478
kar	-2479
kii	-2480
kor	-2481
pro	-2482
rad	-2483
rah	-2484
toi	-2485
▁Co	-2486
▁Ha	-2487
▁Ii	-2488
▁Kr	-2489
▁ab	-2490
▁bi	-2491
▁há	-2492
▁nj	-2493
alli	-2494
ased	-2495
dään	-2496
emme	-2497
imma	-2498
mber	-2499
must	-2500
omet	-2501
osin	-2502
pail	-2503
piir	-2504
ähkö	-2505
▁Ber	-2506
▁Jär	-2507
▁Kre	-2508
▁Tai	-2509
▁ala	-2510
▁duo	-2511
▁ean	-2512
▁sat	-2513
▁soo	-2514
▁uut	-2515
▁võr	-2516
emini	-2517
ettua	-2518
jalle	-2519
luvun	-2520
tävän	-2521
▁Saar	-2522
▁füüs	-2523
▁kolm	-2524
▁kuva	-2525
▁loka	-2526
▁nope	-2527
▁põhj	-2528
▁taas	-2529
▁õige	-2530
illoin	-2531
isella	-2532
isessä	-2533
tetaan	-2534
tsioon	-2535
▁euroo	-2536
▁kokon	-2537
▁proov	-2538
▁sealt	-2539
▁siinä	-2540
▁tällä	-2541
▁uutta	-2542
uksella	-2543
▁ammatt	-2544
▁joiden	-2545
▁joissa	-2546
▁lamell	-2547
▁meidän	-2548
▁mukana	-2549
▁puheen	-2550
▁yksity	-2551
▁yhteisk	-2552
▁kuningas	-2553
DP	-2554
dá	-2555
hi	-2556
hu	-2557
kn	-2558
vv	-2559
▁+	-2560
aha	-2561
dab	-2562
eet	-2563
gen	-2564
her	-2565
jem	-2566
let	-2567
nni	-2568
ots	-2569
tye	-2570
▁22	-2571
▁Eh	-2572
▁py	-2573
▁tö	-2574
▁uu	-2575
alue	-2576
kunn	-2577
miin	-2578
neen	-2579
olli	-2580
onta	-2581
toja	-2582
vale	-2583
vien	-2584
vuođ	-2585
yden	-2586
▁Joh	-2587
▁Nyt	-2588
▁Par	-2589
▁Per	-2590
▁aam	-2591
▁kau	-2592
▁lan	-2593
▁ran	-2594
▁tah	-2595
etaan	-2596
iston	-2597
mällä	-2598
uline	-2599
utaan	-2600
▁Seda	-2601
▁Sell	-2602
▁ajas	-2603
▁asem	-2604
▁geat	-2605
▁head	-2606
▁johd	-2607
▁jõua	-2608
▁komp	-2609
▁kord	-2610
▁luku	-2611
▁maŋŋ	-2612
▁naut	-2613
▁nimi	-2614
▁paar	-2615
▁pala	-2616
antiin	-2617
eaddji	-2618
▁Espan	-2619
▁aivan	-2620
▁eriko	-2621
▁hästi	-2622
▁kanna	-2623
▁lasta	-2624
▁pelaa	-2625
▁räägi	-2626
▁touko	-2627
▁umbes	-2628
▁võtta	-2629
▁yhden	-2630
▁Vuonna	-2631
▁heidän	-2632
▁jotain	-2633
▁kommen	-2634
▁mitään	-2635
▁sámegi	-2636
▁voitti	-2637
▁histori	-2638
▁inimesi	-2639
▁kappale	-2640
▁kuidagi	-2641
▁tavalla	-2642
▁Yhdysvall	-2643
▁myöhemmin	-2644
▁erityisesti	-2645
õh	-2646
bba	-2647
ett	-2648
gad	-2649
mma	-2650
pid	-2651
udu	-2652
öin	-2653
▁28	-2654
▁Kü	-2655
▁Lu	-2656
▁mm	-2657
▁mü	-2658
▁ođ	-2659
▁ur	-2660
alit	-2661
anin	-2662
dega	-2663
idan	-2664
juks	-2665
kiel	-2666
kkis	-2667
tiet	-2668
uman	-2669
▁195	-2670
▁Car	-2671
▁Kah	-2672
▁Kor	-2673
▁Osa	-2674
▁don	-2675
▁gol	-2676
▁kät	-2677
▁mel	-2678
▁run	-2679
astit	-2680
astus	-2681
oihin	-2682
pmela	-2683
▁....	-2684
▁2005	-2685
▁Guov	-2686
▁ener	-2687
▁kuni	-2688
▁mass	-2689
▁mets	-2690
▁myyn	-2691
▁oluk	-2692
▁päev	-2693
▁tank	-2694
▁teed	-2695
▁tätä	-2696
▁usko	-2697
arvvaš	-2698
oittaa	-2699
uksien	-2700
▁Hänen	-2701
▁Selle	-2702
▁alkoi	-2703
▁asian	-2704
▁jolla	-2705
▁jooks	-2706
▁keski	-2707
▁mööda	-2708
▁neljä	-2709
▁saira	-2710
▁sopim	-2711
▁tunte	-2712
▁boazod	-2713
▁ikkagi	-2714
▁merkit	-2715
▁mielen	-2716
▁ovttas	-2717
▁päivän	-2718
▁rahoit	-2719
▁tiedot	-2720
▁useita	-2721
▁käytänn	-2722
▁lähtien	-2723
▁vuodesta	-2724
▁jäsenvaltio	-2725
1.	-2726
34	-2727
ow	-2728
bor	-2729
dde	-2730
hin	-2731
luo	-2732
uli	-2733
▁Mo	-2734
▁ba	-2735
▁ru	-2736
▁yr	-2737
erim	-2738
illi	-2739
ingi	-2740
itan	-2741
kata	-2742
keut	-2743
neks	-2744
áráš	-2745
▁Ise	-2746
▁Mii	-2747
▁Mon	-2748
▁SDP	-2749
▁Tuo	-2750
▁Ven	-2751
▁ele	-2752
▁leh	-2753
▁oda	-2754
▁raa	-2755
▁suv	-2756
▁šad	-2757
iesti	-2758
kirja	-2759
ostaa	-2760
▁Siis	-2761
▁akti	-2762
▁asju	-2763
▁eará	-2764
▁jaks	-2765
▁kons	-2766
▁lood	-2767
▁lähe	-2768
▁menn	-2769
▁mind	-2770
▁nous	-2771
▁seem	-2772
▁tall	-2773
▁teeb	-2774
▁täyt	-2775
▁vähe	-2776
▁yhtä	-2777
▁äkki	-2778
▁čáll	-2779
istaan	-2780
kunnan	-2781
▁Káráš	-2782
▁aikaa	-2783
▁asjad	-2784
▁euron	-2785
▁komis	-2786
▁kooli	-2787
▁nädal	-2788
▁oahpp	-2789
▁puhul	-2790
▁suhte	-2791
▁tavar	-2792
▁asunto	-2793
▁hakkas	-2794
▁hetkel	-2795
▁maalis	-2796
▁muiden	-2797
▁niiden	-2798
▁skuvla	-2799
▁toinen	-2800
▁tänään	-2801
▁yhteyd	-2802
▁Venäjän	-2803
▁aiemmin	-2804
▁selleks	-2805
▁sellise	-2806
▁tulevik	-2807
▁miljoonaa	-2808
dj	-2809
rj	-2810
áž	-2811
...	-2812
dag	-2813
ets	-2814
hit	-2815
joa	-2816
kis	-2817
lii	-2818
ond	-2819
ora	-2820
pia	-2821
rig	-2822
riä	-2823
tad	-2824
tus	-2825
ume	-2826
vas	-2827
▁Be	-2828
▁ga	-2829
▁mä	-2830
▁rä	-2831
alia	-2832
ikke	-2833
imed	-2834
isel	-2835
kien	-2836
toim	-2837
ttöm	-2838
ääke	-2839
äänn	-2840
▁Maa	-2841
▁Pro	-2842
▁Pää	-2843
▁aju	-2844
▁dáh	-2845
▁hin	-2846
▁hál	-2847
▁mar	-2848
▁reh	-2849
▁sal	-2850
▁unn	-2851
▁ven	-2852
▁vms	-2853
emina	-2854
estin	-2855
ister	-2856
istus	-2857
oiden	-2858
ustan	-2859
▁hoop	-2860
▁loll	-2861
▁milj	-2862
▁seks	-2863
▁terv	-2864
▁viis	-2865
otilas	-2866
pärast	-2867
uksiin	-2868
▁Tästä	-2869
▁erila	-2870
▁kinni	-2871
▁korke	-2872
▁kuuka	-2873
▁miten	-2874
▁sinna	-2875
▁talle	-2876
▁tegem	-2877
▁tässä	-2878
▁ümber	-2879
isuutta	-2880
▁Kaijas	-2881
▁elämän	-2882
▁keskit	-2883
▁päästä	-2884
▁sijaan	-2885
▁sijoit	-2886
▁tahaks	-2887
▁tundub	-2888
▁valits	-2889
isuuteen	-2890
▁euroopp	-2891
▁täpselt	-2892
▁vuosina	-2893
ministeri	-2894
▁lokakuuta	-2895
▁kuitenkaan	-2896
▁yhteydessä	-2897
IK	-2898
yk	-2899
adi	-2900
det	-2901
ire	-2902
jet	-2903
juh	-2904
jus	-2905
ket	-2906
mbi	-2907
mpp	-2908
nes	-2909
olu	-2910
ram	-2911
rot	-2912
sio	-2913
uni	-2914
šuv	-2915
▁;)	-2916
▁Ve	-2917
▁gá	-2918
▁hu	-2919
▁pü	-2920
aika	-2921
barg	-2922
bmot	-2923
ehto	-2924
elan	-2925
ensa	-2926
eval	-2927
iska	-2928
ivšš	-2929
jast	-2930
jelm	-2931
llas	-2932
mieh	-2933
mmär	-2934
onsa	-2935
osen	-2936
tomu	-2937
ures	-2938
uvan	-2939
yvät	-2940
áhta	-2941
▁Mer	-2942
▁Ter	-2943
▁Var	-2944
▁biv	-2945
▁bál	-2946
▁jur	-2947
▁meh	-2948
▁muu	-2949
▁myy	-2950
▁näk	-2951
▁sor	-2952
▁söö	-2953
▁tyy	-2954
enkin	-2955
kerta	-2956
masti	-2957
uohke	-2958
useid	-2959
vasta	-2960
▁edes	-2961
▁heti	-2962
▁jutt	-2963
▁lisä	-2964
▁mees	-2965
▁näha	-2966
▁näkö	-2967
▁sees	-2968
▁sinu	-2969
▁säil	-2970
▁sõit	-2971
▁sõna	-2972
iiguin	-2973
isestä	-2974
▁Muhto	-2975
▁alles	-2976
▁autot	-2977
▁halua	-2978
▁keske	-2979
▁korra	-2980
▁lasku	-2981
▁ratka	-2982
▁stuor	-2983
▁telef	-2984
iheessa	-2985
luvulla	-2986
▁paljud	-2987
▁suurem	-2988
▁toisen	-2989
▁voivat	-2990
▁normaal	-2991
▁poliitt	-2992
▁Yliopist	-2993
▁mielestä	-2994
arvvašvuođa	-2995
▁isännöitsi	-2996
▁tarkoittaa	-2997
▁ensimmäisen	-2998
3.	-2999
50	-3000
jõ	-3001
oš	-3002
pö	-3003
th	-3004
▁Å	-3005
200	-3006
alu	-3007
ato	-3008
bas	-3009
ksu	-3010
oot	-3011
pak	-3012
ris	-3013
son	-3014
urn	-3015
–19	-3016
▁2.	-3017
▁Ba	-3018
▁EK	-3019
▁El	-3020
▁Ki	-3021
▁Os	-3022
▁ik	-3023
ator	-3024
iltä	-3025
imet	-3026
imme	-3027
iton	-3028
itsa	-3029
koon	-3030
ohja	-3031
teja	-3032
uses	-3033
vaih	-3034
ähän	-3035
▁Dan	-3036
▁Hel	-3037
▁Juh	-3038
▁Kar	-3039
▁Kon	-3040
▁Lin	-3041
▁Til	-3042
▁ava	-3043
▁jäi	-3044
▁küs	-3045
▁ožž	-3046
▁pih	-3047
▁tap	-3048
▁usu	-3049
▁uur	-3050
▁äär	-3051
▁õpp	-3052
kohta	-3053
missa	-3054
neksi	-3055
orkea	-3056
▁Tule	-3057
▁aine	-3058
▁dieđ	-3059
▁hoit	-3060
▁jama	-3061
▁joul	-3062
▁lask	-3063
▁luon	-3064
▁ođđa	-3065
▁seis	-3066
▁siia	-3067
▁sisä	-3068
▁taht	-3069
▁vaka	-3070
isissa	-3071
isivat	-3072
ittain	-3073
itteli	-3074
likult	-3075
palvel	-3076
politi	-3077
▁Itali	-3078
▁artik	-3079
▁beaiv	-3080
▁bođii	-3081
▁ferte	-3082
▁johon	-3083
▁juhul	-3084
▁küsim	-3085
▁liian	-3086
▁neist	-3087
▁ovdal	-3088
▁parha	-3089
▁sisse	-3090
▁tarjo	-3091
▁tehty	-3092
▁tieto	-3093
▁tästä	-3094
▁uuden	-3095
▁vahel	-3096
▁voisi	-3097
▁ymmär	-3098
isemmin	-3099
misesta	-3100
vuođaid	-3101
▁avulla	-3102
▁hoopis	-3103
▁huomio	-3104
▁kerran	-3105
▁perust	-3106
▁puolue	-3107
▁teksti	-3108
▁sellele	-3109
▁tilante	-3110
▁vuoteen	-3111
▁välillä	-3112
▁hetkellä	-3113
▁toiminta	-3114
▁karantiin	-3115
▁Esimerkiksi	-3116
SA	-3117
TA	-3118
VA	-3119
bb	-3120
nd	-3121
del	-3122
eav	-3123
jes	-3124
llu	-3125
maš	-3126
mmi	-3127
raa	-3128
ssä	-3129
tat	-3130
ugi	-3131
yör	-3132
▁26	-3133
▁27	-3134
▁4.	-3135
▁Kä	-3136
▁Th	-3137
▁bá	-3138
▁fá	-3139
▁km	-3140
▁pl	-3141
▁sp	-3142
allo	-3143
arin	-3144
bumi	-3145
dada	-3146
dala	-3147
dist	-3148
emaa	-3149
emok	-3150
idda	-3151
iggi	-3152
iini	-3153
ilen	-3154
ilis	-3155
irek	-3156
jate	-3157
kkaa	-3158
kord	-3159
olan	-3160
oloo	-3161
tila	-3162
tune	-3163
voin	-3164
ältä	-3165
▁196	-3166
▁Har	-3167
▁Luo	-3168
▁New	-3169
▁Ole	-3170
▁Yor	-3171
▁eaa	-3172
▁man	-3173
▁num	-3174
▁pos	-3175
▁prü	-3176
▁sar	-3177
▁tel	-3178
▁tot	-3179
oksia	-3180
▁2003	-3181
▁Tätä	-3182
▁last	-3183
▁laul	-3184
▁luki	-3185
▁munn	-3186
▁myön	-3187
▁pitk	-3188
▁tehn	-3189
▁työn	-3190
▁vuol	-3191
endada	-3192
yhtiön	-3193
▁Ruots	-3194
▁arvan	-3195
▁jatku	-3196
▁joulu	-3197
▁jumal	-3198
▁lento	-3199
▁mõned	-3200
▁nousi	-3201
▁pigem	-3202
▁pääse	-3203
▁seega	-3204
▁sähkö	-3205
▁vaike	-3206
▁viisi	-3207
▁vähen	-3208
antaina	-3209
istunut	-3210
▁Eestis	-3211
▁ennast	-3212
▁hakkab	-3213
▁tiedek	-3214
▁tuleva	-3215
▁tulnud	-3216
▁vallan	-3217
▁samalla	-3218
järjestel	-3219
▁Mikkelin	-3220
▁matkusta	-3221
▁kaupungin	-3222
▁kesäkuuta	-3223
▁kiiremini	-3224
▁suomalais	-3225
▁toukokuuta	-3226
▁marraskuuta	-3227
,7	-3228
ap	-3229
ca	-3230
tá	-3231
vu	-3232
gub	-3233
gul	-3234
ive	-3235
jät	-3236
len	-3237
miä	-3238
mos	-3239
sed	-3240
tua	-3241
upa	-3242
vam	-3243
äiv	-3244
▁24	-3245
▁7.	-3246
▁90	-3247
▁As	-3248
▁MI	-3249
▁Vä	-3250
▁cm	-3251
▁ek	-3252
▁of	-3253
▁čá	-3254
ahti	-3255
anik	-3256
ddaš	-3257
enta	-3258
enud	-3259
esed	-3260
ggas	-3261
immä	-3262
jale	-3263
tele	-3264
tiiv	-3265
ttes	-3266
ujen	-3267
usid	-3268
vaat	-3269
▁Dát	-3270
▁Enn	-3271
▁Mán	-3272
▁Roo	-3273
▁Vim	-3274
▁Yle	-3275
▁hob	-3276
▁män	-3277
▁noh	-3278
▁syy	-3279
▁õnn	-3280
annut	-3281
ation	-3282
tavat	-3283
tänyt	-3284
umala	-3285
umist	-3286
uovtt	-3287
▁Brys	-3288
▁Etel	-3289
▁euro	-3290
▁hava	-3291
▁hien	-3292
▁hull	-3293
▁ingl	-3294
▁keda	-3295
▁kõig	-3296
▁pois	-3297
▁rann	-3298
▁rauh	-3299
▁saad	-3300
▁saks	-3301
▁sina	-3302
▁teab	-3303
▁teem	-3304
▁teen	-3305
▁teis	-3306
▁täis	-3307
▁vuor	-3308
misest	-3309
teiden	-3310
▁Tällä	-3311
▁algus	-3312
▁hinna	-3313
▁jotta	-3314
▁julge	-3315
▁juttu	-3316
▁kogem	-3317
▁kontr	-3318
▁masin	-3319
▁oaidn	-3320
▁paran	-3321
▁piisa	-3322
▁ringi	-3323
▁sõita	-3324
▁vuosi	-3325
allisen	-3326
ellisen	-3327
▁Kiinan	-3328
▁endale	-3329
▁hakata	-3330
▁ilmest	-3331
▁leamaš	-3332
▁luokit	-3333
▁läinud	-3334
▁maassa	-3335
▁ovddas	-3336
▁toimii	-3337
▁verrat	-3338
▁viikon	-3339
▁viirus	-3340
▁boazodo	-3341
▁rääkida	-3342
▁skuvlla	-3343
▁todella	-3344
▁yleensä	-3345
▁kasutada	-3346
▁sijaitse	-3347
▁toimitus	-3348
▁yhteensä	-3349
▁tammikuuta	-3350
,2	-3351
LE	-3352
by	-3353
kl	-3354
ná	-3355
vá	-3356
ül	-3357
▁Õ	-3358
bar	-3359
bma	-3360
dyn	-3361
edi	-3362
euv	-3363
mii	-3364
saš	-3365
sti	-3366
utn	-3367
äri	-3368
▁25	-3369
▁29	-3370
▁40	-3371
▁KT	-3372
▁Ke	-3373
▁oo	-3374
Muri	-3375
ehta	-3376
esid	-3377
innä	-3378
jaid	-3379
jään	-3380
liku	-3381
olta	-3382
rans	-3383
udel	-3384
yssä	-3385
östä	-3386
▁Coq	-3387
▁Gal	-3388
▁Itä	-3389
▁Kol	-3390
▁Kur	-3391
▁Mil	-3392
▁Sin	-3393
▁Või	-3394
▁gra	-3395
▁ide	-3396
▁inn	-3397
▁kpl	-3398
▁kyl	-3399
▁nie	-3400
▁put	-3401
▁rav	-3402
▁rek	-3403
▁ser	-3404
▁the	-3405
▁vil	-3406
▁vár	-3407
▁ása	-3408
▁öel	-3409
▁čuo	-3410
alist	-3411
eainn	-3412
ilija	-3413
jedje	-3414
kunta	-3415
okset	-3416
päivä	-3417
tavad	-3418
tävät	-3419
äällä	-3420
▁Miks	-3421
▁Tied	-3422
▁buoh	-3423
▁jõud	-3424
▁konk	-3425
▁kurs	-3426
▁mana	-3427
▁meah	-3428
▁nupp	-3429
▁olin	-3430
▁osaa	-3431
▁peen	-3432
▁puna	-3433
▁sota	-3434
▁suoh	-3435
▁taka	-3436
▁vara	-3437
▁čuov	-3438
illeen	-3439
itetty	-3440
joukku	-3441
misega	-3442
vuotia	-3443
▁ehdot	-3444
▁hyvää	-3445
▁joita	-3446
▁kaasa	-3447
▁kokem	-3448
▁liike	-3449
▁pysty	-3450
▁päivä	-3451
▁ruoka	-3452
▁sosia	-3453
▁teist	-3454
isaalta	-3455
▁joilla	-3456
▁kymmen	-3457
▁mánáid	-3458
▁olleet	-3459
▁suurim	-3460
▁tavoit	-3461
▁tegelt	-3462
▁tiista	-3463
▁toista	-3464
▁tuleks	-3465
iinaMuri	-3466
▁Kárášjo	-3467
▁jälleen	-3468
▁tulemus	-3469
▁valtion	-3470
allisesti	-3471
▁alueella	-3472
▁elokuuta	-3473
▁keskustel	-3474
▁vaiheessa	-3475
▁Kaijasilta	-3476
▁puolestaan	-3477
▁Mikkelinsaar	-3478
▁dearvvašvuođa	-3479
12	-3480
fi	-3481
õr	-3482
đe	-3483
▁z	-3484
-19	-3485
bat	-3486
imo	-3487
jah	-3488
kil	-3489
kiä	-3490
koa	-3491
ose	-3492
ppo	-3493
rik	-3494
sen	-3495
ure	-3496
yvä	-3497
äni	-3498
▁Da	-3499
▁Do	-3500
▁Pe	-3501
▁Po	-3502
▁SA	-3503
▁äl	-3504
emon	-3505
emus	-3506
kkin	-3507
maat	-3508
matu	-3509
miid	-3510
nnon	-3511
oita	-3512
olog	-3513
onto	-3514
osof	-3515
roid	-3516
tias	-3517
tikk	-3518
urin	-3519
utki	-3520
üste	-3521
▁Ale	-3522
▁Hen	-3523
▁Oli	-3524
▁Rom	-3525
▁bio	-3526
▁fas	-3527
▁pik	-3528
▁pla	-3529
▁pop	-3530
▁sõn	-3531
▁yll	-3532
atnam	-3533
aviir	-3534
janta	-3535
jasta	-3536
menta	-3537
tyeen	-3538
uissa	-3539
usaid	-3540
▁Kapp	-3541
▁Kõik	-3542
▁Tiet	-3543
▁aval	-3544
▁foor	-3545
▁help	-3546
▁huht	-3547
▁keel	-3548
▁löyd	-3549
▁musi	-3550
▁paha	-3551
▁rull	-3552
▁sala	-3553
▁sind	-3554
▁suun	-3555
▁toid	-3556
▁tuge	-3557
▁tänä	-3558
▁tööd	-3559
▁vahe	-3560
ellään	-3561
ettävä	-3562
ykseen	-3563
ällöin	-3564
▁aloit	-3565
▁eesti	-3566
▁kasvo	-3567
▁kuigi	-3568
▁käsit	-3569
▁missä	-3570
▁organ	-3571
▁ottaa	-3572
▁parla	-3573
▁poolt	-3574
▁suuri	-3575
▁yleis	-3576
markkin	-3577
▁Euroop	-3578
▁elokuv	-3579
▁haasta	-3580
▁joukku	-3581
▁kuuluu	-3582
▁laajen	-3583
▁munnje	-3584
▁olbmot	-3585
▁olevat	-3586
▁omista	-3587
▁tegema	-3588
▁tehnyt	-3589
▁teised	-3590
▁tullut	-3591
▁valtio	-3592
▁varsin	-3593
▁yhdeks	-3594
puolella	-3595
▁Ranskan	-3596
▁alkuper	-3597
▁huvitav	-3598
▁jooksul	-3599
▁seitsem	-3600
▁sellega	-3601
▁turvall	-3602
▁täiesti	-3603
▁vuoigat	-3604
▁kaupunki	-3605
▁olemassa	-3606
▁ViinaMuri	-3607
▁prosentin	-3608
▁sijaitsee	-3609
mo	-3610
vy	-3611
ww	-3612
▁X	-3613
eah	-3614
emp	-3615
for	-3616
hos	-3617
iha	-3618
iih	-3619
jeh	-3620
kad	-3621
keä	-3622
kyl	-3623
pil	-3624
set	-3625
str	-3626
tub	-3627
vil	-3628
yöh	-3629
▁Di	-3630
▁Pi	-3631
▁ah	-3632
▁id	-3633
▁ys	-3634
anaš	-3635
ande	-3636
asel	-3637
bbaš	-3638
eeni	-3639
essi	-3640
geda	-3641
hall	-3642
iksi	-3643
isev	-3644
koja	-3645
konn	-3646
lusc	-3647
osto	-3648
ottu	-3649
pidi	-3650
port	-3651
usat	-3652
usin	-3653
▁193	-3654
▁Bir	-3655
▁Ega	-3656
▁Jah	-3657
▁KTM	-3658
▁Man	-3659
▁Pet	-3660
▁Pir	-3661
▁dii	-3662
▁hoo	-3663
▁jms	-3664
▁kel	-3665
▁kla	-3666
▁kod	-3667
▁kre	-3668
▁kuu	-3669
▁kuv	-3670
▁lai	-3671
▁lau	-3672
▁pyr	-3673
▁sõb	-3674
▁süü	-3675
asian	-3676
idele	-3677
istaa	-3678
mättö	-3679
osten	-3680
uvvot	-3681
valla	-3682
▁Need	-3683
▁Soai	-3684
▁Talo	-3685
▁aino	-3686
▁alka	-3687
▁arvo	-3688
▁asio	-3689
▁koke	-3690
▁kävi	-3691
▁pinn	-3692
▁poik	-3693
▁riik	-3694
▁täys	-3695
▁veah	-3696
ellaan	-3697
eritud	-3698
intään	-3699
umisen	-3700
umista	-3701
▁Etelä	-3702
▁Keski	-3703
▁Neeme	-3704
▁Tälla	-3705
▁aitab	-3706
▁alkaa	-3707
▁hänet	-3708
▁iežas	-3709
▁klass	-3710
▁kohti	-3711
▁maksa	-3712
▁milla	-3713
▁minkä	-3714
▁mõist	-3715
▁mõtet	-3716
▁ohjel	-3717
▁säänn	-3718
▁tekee	-3719
▁tähän	-3720
▁vaale	-3721
▁valti	-3722
▁yhdys	-3723
▁õpeta	-3724
▁Vaikka	-3725
▁alusta	-3726
▁guokte	-3727
▁kappal	-3728
▁kolmen	-3729
▁loodus	-3730
▁menest	-3731
▁metall	-3732
▁mingid	-3733
▁punkti	-3734
▁rajoit	-3735
▁riittä	-3736
▁seksua	-3737
▁tehtud	-3738
▁toimia	-3739
▁tähele	-3740
▁vaihto	-3741
▁valgus	-3742
▁Berlusc	-3743
▁Bryssel	-3744
▁Tallinn	-3745
▁kaupung	-3746
▁lopulta	-3747
▁univers	-3748
▁vuostta	-3749
orkeakoul	-3750
▁edelleen	-3751
▁kaikkien	-3752
▁käyttöön	-3753
▁voimakka	-3754
▁võibolla	-3755
▁Finnmárkk	-3756
▁sámegiela	-3757
▁verrattuna	-3758
▁maaliskuuta	-3759
▁Mithridateen	-3760
öt	-3761
aam	-3762
bin	-3763
igi	-3764
jut	-3765
kts	-3766
kui	-3767
lem	-3768
oam	-3769
old	-3770
opa	-3771
ulk	-3772
▁35	-3773
▁Bo	-3774
▁Ho	-3775
▁Oy	-3776
▁So	-3777
▁õh	-3778
▁ča	-3779
alin	-3780
alne	-3781
arat	-3782
aria	-3783
atin	-3784
ekka	-3785
emia	-3786
enne	-3787
etun	-3788
idon	-3789
ivir	-3790
jiid	-3791
kkim	-3792
ksiä	-3793
kula	-3794
land	-3795
last	-3796
maas	-3797
okka	-3798
oria	-3799
peal	-3800
pool	-3801
taks	-3802
tega	-3803
ussu	-3804
vara	-3805
viin	-3806
äärä	-3807
▁Bur	-3808
▁Dál	-3809
▁Lib	-3810
▁Läh	-3811
▁Põh	-3812
▁Uus	-3813
▁abi	-3814
▁auk	-3815
▁bid	-3816
▁doh	-3817
▁dov	-3818
▁dáb	-3819
▁gri	-3820
▁jut	-3821
▁kog	-3822
▁ris	-3823
▁sol	-3824
▁ved	-3825
▁yhä	-3826
▁Üks	-3827
annin	-3828
emaks	-3829
emmat	-3830
ettäv	-3831
imata	-3832
isest	-3833
iteet	-3834
kkien	-3835
lased	-3836
matto	-3837
ohjel	-3838
oinen	-3839
usele	-3840
västi	-3841
▁Minu	-3842
▁Nyky	-3843
▁Siin	-3844
▁girj	-3845
▁gáib	-3846
▁harv	-3847
▁hoia	-3848
▁igal	-3849
▁kumm	-3850
▁ming	-3851
▁mõne	-3852
▁pikk	-3853
▁suku	-3854
▁tood	-3855
▁vide	-3856
▁vier	-3857
attori	-3858
illaan	-3859
tyivät	-3860
ustest	-3861
utuvat	-3862
vaikut	-3863
▁Vasur	-3864
▁Venäj	-3865
▁Viime	-3866
▁arvio	-3867
▁kolle	-3868
▁kuvaa	-3869
▁kätte	-3870
▁kõike	-3871
▁linna	-3872
▁lähen	-3873
▁parim	-3874
▁raske	-3875
▁suure	-3876
▁tietä	-3877
▁työsk	-3878
▁tälla	-3879
▁vanke	-3880
alaisia	-3881
atsioon	-3882
iliselt	-3883
vuotias	-3884
▁Nokian	-3885
▁aastal	-3886
▁hiljem	-3887
▁huolim	-3888
▁ilmoit	-3889
▁jonkin	-3890
▁juures	-3891
▁kaiken	-3892
▁kiinni	-3893
▁kiinte	-3894
▁minema	-3895
▁naisen	-3896
▁näinud	-3897
▁polnud	-3898
▁päälle	-3899
▁rullno	-3900
▁samuti	-3901
▁syystä	-3902
▁Tapahtu	-3903
▁dárbbaš	-3904
▁ihmiset	-3905
▁julkais	-3906
▁maailma	-3907
▁peruste	-3908
▁sairaal	-3909
▁tärkeää	-3910
▁nopeasti	-3911
▁Sámedikki	-3912
▁kansallis	-3913
▁tiistaina	-3914
▁huhtikuuta	-3915
▁koroonaviir	-3916
▁presidentin	-3917
!!	-3918
,4	-3919
,8	-3920
17	-3921
fe	-3922
xz	-3923
#34	-3924
akk	-3925
don	-3926
enp	-3927
ens	-3928
ged	-3929
har	-3930
jun	-3931
kap	-3932
kid	-3933
ltä	-3934
läh	-3935
pio	-3936
páh	-3937
tul	-3938
usv	-3939
vvo	-3940
yty	-3941
▁5.	-3942
▁70	-3943
▁80	-3944
▁Im	-3945
▁Ju	-3946
▁Oh	-3947
▁Ul	-3948
▁hö	-3949
▁ps	-3950
#34;	-3951
amme	-3952
duin	-3953
elat	-3954
erit	-3955
ihte	-3956
ikkö	-3957
ital	-3958
jaks	-3959
musi	-3960
paan	-3961
roks	-3962
ttet	-3963
umat	-3964
ussi	-3965
vana	-3966
visi	-3967
yhte	-3968
yrit	-3969
ytti	-3970
áhku	-3971
▁Ehk	-3972
▁Eur	-3973
▁Kan	-3974
▁Use	-3975
▁Ver	-3976
▁gár	-3977
▁itä	-3978
▁lyh	-3979
▁láv	-3980
▁med	-3981
▁čoh	-3982
aston	-3983
ikuid	-3984
ineen	-3985
istab	-3986
istin	-3987
istit	-3988
itiiv	-3989
mästä	-3990
mättä	-3991
ongel	-3992
oston	-3993
parte	-3994
tuuri	-3995
uneet	-3996
vaksi	-3997
▁Holl	-3998
▁Iran	-3999
▁Koko	-4000
▁Maan	-4001
▁Sámi	-4002
▁anal	-4003
▁eret	-4004
▁hinn	-4005
▁hoid	-4006
▁hool	-4007
▁igas	-4008
▁jälj	-4009
▁käib	-4010
▁liig	-4011
▁maal	-4012
▁näky	-4013
▁oaiv	-4014
▁oažž	-4015
▁rikk	-4016
▁rita	-4017
▁sano	-4018
▁tell	-4019
▁tuua	-4020
allaan	-4021
ettuja	-4022
itseva	-4023
kaupan	-4024
kuksen	-4025
vallan	-4026
▁&#34;	-4027
▁.....	-4028
▁Samas	-4029
▁ajast	-4030
▁direk	-4031
▁eanet	-4032
▁kevät	-4033
▁kodus	-4034
▁käest	-4035
▁laski	-4036
▁minge	-4037
▁minua	-4038
▁minut	-4039
▁muoto	-4040
▁neile	-4041
▁panin	-4042
▁plane	-4043
▁prins	-4044
▁surma	-4045
▁unnán	-4046
▁valke	-4047
▁vuost	-4048
▁yllät	-4049
misestä	-4050
ologian	-4051
vuoigat	-4052
álaččat	-4053
▁esittä	-4054
▁galget	-4055
▁galgga	-4056
▁huomat	-4057
▁joista	-4058
▁kansan	-4059
▁kieltä	-4060
▁kokona	-4061
▁miljon	-4062
▁muutub	-4063
▁olukor	-4064
▁osalta	-4065
▁tiedon	-4066
▁tärkeä	-4067
▁valmis	-4068
▁viikko	-4069
▁yhdist	-4070
▁yritys	-4071
dageainn	-4072
▁gravita	-4073
▁inglise	-4074
▁kuskilt	-4075
▁kuulnud	-4076
▁näkökul	-4077
▁silloin	-4078
▁tarkoit	-4079
▁tulevad	-4080
▁vaadata	-4081
▁yhdessä	-4082
▁Espanjan	-4083
▁koulutus	-4084
▁kulttuur	-4085
▁kuulutus	-4086
▁parlament	-4087
▁tarkoitus	-4088
▁ainoastaan	-4089
▁Helsingissä	-4090
▁koulutuksen	-4091
▁suomalainen	-4092
▁yliopistossa	-4093
,3	-4094
IN	-4095
ci	-4096
lá	-4097
qu	-4098
▁|	-4099
ado	-4100
ald	-4101
bbo	-4102
dad	-4103
ddi	-4104
hän	-4105
imä	-4106
jul	-4107
mär	-4108
nen	-4109
tap	-4110
tes	-4111
ugu	-4112
umm	-4113
ved	-4114
yne	-4115
yön	-4116
áig	-4117
▁21	-4118
▁Ah	-4119
▁Er	-4120
▁Hä	-4121
▁My	-4122
▁Tš	-4123
▁ex	-4124
▁je	-4125
▁sy	-4126
▁áh	-4127
akse	-4128
arvo	-4129
bama	-4130
bert	-4131
bian	-4132
ekon	-4133
eria	-4134
giko	-4135
ight	-4136
ivčč	-4137
kkös	-4138
lain	-4139
lema	-4140
mast	-4141
mmat	-4142
mmin	-4143
näkö	-4144
olin	-4145
oluo	-4146
oris	-4147
raan	-4148
teri	-4149
udes	-4150
ukan	-4151
usas	-4152
änsä	-4153
▁20.	-4154
▁27.	-4155
▁300	-4156
▁700	-4157
▁Arv	-4158
▁Bel	-4159
▁Boa	-4160
▁Don	-4161
▁Eks	-4162
▁Hob	-4163
▁Kys	-4164
▁Máh	-4165
▁Sar	-4166
▁Ste	-4167
▁Van	-4168
▁add	-4169
▁buk	-4170
▁ieš	-4171
▁kap	-4172
▁käy	-4173
▁lie	-4174
▁láh	-4175
▁när	-4176
▁rad	-4177
▁sid	-4178
▁sti	-4179
▁uni	-4180
Euroo	-4181
allan	-4182
ellut	-4183
endab	-4184
ettel	-4185
gaist	-4186
ikaan	-4187
immat	-4188
järvi	-4189
kojen	-4190
matta	-4191
ottaa	-4192
pääll	-4193
tunti	-4194
yhtye	-4195
yyden	-4196
▁1000	-4197
▁2000	-4198
▁Inim	-4199
▁Tunn	-4200
▁Võib	-4201
▁daid	-4202
▁elan	-4203
▁joku	-4204
▁jääb	-4205
▁kaup	-4206
▁keha	-4207
▁kuhu	-4208
▁leid	-4209
▁lusa	-4210
▁must	-4211
▁mõni	-4212
▁nend	-4213
▁omaa	-4214
▁osan	-4215
▁pide	-4216
▁pild	-4217
▁piti	-4218
▁rats	-4219
▁sõid	-4220
▁teda	-4221
▁tegu	-4222
▁ulos	-4223
▁ylim	-4224
▁ühte	-4225
alueen	-4226
emokra	-4227
isellä	-4228
ittele	-4229
teeksi	-4230
ustann	-4231
vuođas	-4232
▁Japan	-4233
▁Pekka	-4234
▁Tartu	-4235
▁Tähän	-4236
▁antud	-4237
▁arvut	-4238
▁eksam	-4239
▁human	-4240
▁infla	-4241
▁katse	-4242
▁kilpa	-4243
▁luenn	-4244
▁lähte	-4245
▁lääke	-4246
▁nomad	-4247
▁näita	-4248
▁oleme	-4249
▁ovtta	-4250
▁palun	-4251
▁ráhka	-4252
▁seura	-4253
▁takia	-4254
▁teise	-4255
▁vakts	-4256
▁varem	-4257
▁yksin	-4258
alaista	-4259
ityksen	-4260
oloogia	-4261
▁Ennist	-4262
▁Kaikki	-4263
▁Pärtel	-4264
▁aktiiv	-4265
▁dakkár	-4266
▁haluaa	-4267
▁jäänud	-4268
▁kahden	-4269
▁kaitse	-4270
▁koolis	-4271
▁kuskil	-4272
▁kõrval	-4273
▁lihtne	-4274
▁lihtsa	-4275
▁liigub	-4276
▁lõpuks	-4277
▁meeldi	-4278
▁myynti	-4279
▁näyttä	-4280
▁saavad	-4281
▁samaan	-4282
▁siellä	-4283
▁takana	-4284
▁tietoa	-4285
▁tuotte	-4286
▁uudist	-4287
▁uuesti	-4288
▁viiden	-4289
▁yrittä	-4290
▁Hobivir	-4291
▁Kahjuks	-4292
▁Kreikan	-4293
▁Univers	-4294
▁gaskkas	-4295
▁inimese	-4296
▁kauppak	-4297
▁parempi	-4298
▁tehdään	-4299
▁telefon	-4300
▁viestin	-4301
▁viiruse	-4302
johtajana	-4303
▁maahanmu	-4304
▁maailmas	-4305
▁sellised	-4306
▁talouden	-4307
▁toiminut	-4308
▁vaikutta	-4309
▁käytetään	-4310
▁pääkaupun	-4311
▁seitsemän	-4312
▁uudelleen	-4313
▁muistuttaa	-4314
▁yhteiskunn	-4315
▁Guovdageainn	-4316
▁Hobiviroloog	-4317
,1	-4318
11	-4319
DA	-4320
gn	-4321
su	-4322
ŋg	-4323
adr	-4324
beh	-4325
can	-4326
elu	-4327
iki	-4328
ism	-4329
joh	-4330
kot	-4331
mes	-4332
ogi	-4333
ong	-4334
oto	-4335
peä	-4336
pul	-4337
run	-4338
sem	-4339
siv	-4340
töä	-4341
uki	-4342
usu	-4343
vii	-4344
ága	-4345
äli	-4346
▁9.	-4347
▁Ad	-4348
▁Dá	-4349
▁It	-4350
▁Op	-4351
▁ap	-4352
▁up	-4353
ahan	-4354
anen	-4355
aris	-4356
assi	-4357
atsi	-4358
cros	-4359
eroš	-4360
etus	-4361
gelt	-4362
giin	-4363
ihan	-4364
ikul	-4365
ilin	-4366
ises	-4367
iteh	-4368
itin	-4369
itun	-4370
itäh	-4371
jekt	-4372
kset	-4373
llis	-4374
naga	-4375
osid	-4376
peen	-4377
poli	-4378
päin	-4379
seid	-4380
ttit	-4381
uhti	-4382
utin	-4383
utui	-4384
vaks	-4385
ypuh	-4386
änyt	-4387
▁500	-4388
▁Dán	-4389
▁Iga	-4390
▁Leh	-4391
▁Mus	-4392
▁Oma	-4393
▁Saa	-4394
▁Tek	-4395
▁Tor	-4396
▁alg	-4397
▁aus	-4398
▁dás	-4399
▁eat	-4400
▁fir	-4401
▁jáv	-4402
▁mos	-4403
▁nal	-4404
▁pen	-4405
▁pii	-4406
▁puo	-4407
▁rik	-4408
▁str	-4409
▁õlu	-4410
▁ölj	-4411
ahtti	-4412
amine	-4413
assan	-4414
deksi	-4415
ellyt	-4416
isega	-4417
kassa	-4418
kaupp	-4419
likud	-4420
moodi	-4421
tavaa	-4422
uskes	-4423
uttua	-4424
▁2004	-4425
▁Hiin	-4426
▁Kata	-4427
▁Maid	-4428
▁Muid	-4429
▁Neuv	-4430
▁Nüüd	-4431
▁Poli	-4432
▁Toiv	-4433
▁doll	-4434
▁elin	-4435
▁ensi	-4436
▁ilme	-4437
▁joko	-4438
▁juhl	-4439
▁kahd	-4440
▁keis	-4441
▁kohd	-4442
▁laus	-4443
▁luov	-4444
▁neil	-4445
▁neli	-4446
▁noor	-4447
▁nämä	-4448
▁perh	-4449
▁post	-4450
▁saap	-4451
▁sele	-4452
▁sena	-4453
▁sosi	-4454
▁suut	-4455
▁teke	-4456
▁vaar	-4457
▁veeb	-4458
▁vene	-4459
▁viik	-4460
▁Äkki	-4461
ilpail	-4462
isiksi	-4463
uksena	-4464
ustada	-4465
yyteen	-4466
▁Suomi	-4467
▁annab	-4468
▁elekt	-4469
▁ensin	-4470
▁käynn	-4471
▁maist	-4472
▁melko	-4473
▁naine	-4474
▁negat	-4475
▁ruots	-4476
▁rájes	-4477
▁sipel	-4478
▁sureb	-4479
▁toden	-4480
▁tussu	-4481
▁tutta	-4482
▁uusia	-4483
▁viera	-4484
▁vuoro	-4485
allista	-4486
ilainen	-4487
▁Arduin	-4488
▁Helsin	-4489
▁Kuidas	-4490
▁Tänään	-4491
▁dáhpáh	-4492
▁joutui	-4493
▁kesken	-4494
▁kirjan	-4495
▁lisään	-4496
▁löytyy	-4497
▁muhtun	-4498
▁nainen	-4499
▁pandud	-4500
▁poleks	-4501
▁päivää	-4502
▁reaals	-4503
▁saakka	-4504
▁stuora	-4505
▁teinud	-4506
▁tuotta	-4507
▁täitsa	-4508
oikeuden	-4509
ollisuus	-4510
▁Android	-4511
▁Ensimmä	-4512
▁arvamus	-4513
▁boahtán	-4514
▁harjoit	-4515
▁kellegi	-4516
▁lähevad	-4517
▁tarkast	-4518
pmelaččat	-4519
▁kotitalo	-4520
▁selvästi	-4521
▁varmasti	-4522
▁vuosttaš	-4523
▁Sámediggi	-4524
▁kuninkaan	-4525
▁valittiin	-4526
▁huolimatta	-4527
▁käytettiin	-4528
▁yhdysvalta	-4529
▁Brysselissä	-4530
▁internáhtta	-4531
▁käytännössä	-4532
▁prosenttiin	-4533
▁tutkimuksen	-4534
▁gravitatsioon	-4535
,6	-4536
,9	-4537
3-	-4538
66	-4539
ES	-4540
IM	-4541
TV	-4542
dy	-4543
ry	-4544
▁Č	-4545
ada	-4546
aga	-4547
anu	-4548
ath	-4549
eap	-4550
eda	-4551
ges	-4552
hol	-4553
ier	-4554
int	-4555
iso	-4556
ito	-4557
lad	-4558
les	-4559
mne	-4560
ned	-4561
nim	-4562
nin	-4563
pöl	-4564
rut	-4565
sna	-4566
sun	-4567
uke	-4568
uku	-4569
ydä	-4570
árt	-4571
čča	-4572
▁60	-4573
▁Et	-4574
▁Fr	-4575
▁Gr	-4576
▁Ri	-4577
▁ad	-4578
▁ná	-4579
▁yö	-4580
▁Ál	-4581
arrá	-4582
emad	-4583
esus	-4584
gium	-4585
ikaa	-4586
ikad	-4587
iluo	-4588
ivad	-4589
jaan	-4590
jõud	-4591
mmoš	-4592
mäki	-4593
orin	-4594
puta	-4595
toon	-4596
ylit	-4597
ysti	-4598
öitä	-4599
▁15.	-4600
▁19.	-4601
▁29.	-4602
▁Ara	-4603
▁EKP	-4604
▁Kul	-4605
▁Kuu	-4606
▁Pak	-4607
▁Pra	-4608
▁Tee	-4609
▁Tra	-4610
▁ase	-4611
▁dát	-4612
▁eah	-4613
▁gul	-4614
▁hoi	-4615
▁inv	-4616
▁ita	-4617
▁kad	-4618
▁län	-4619
▁nje	-4620
▁nõu	-4621
▁pör	-4622
▁ruh	-4623
▁vul	-4624
aaegu	-4625
allat	-4626
dagas	-4627
davad	-4628
eeksi	-4629
eensa	-4630
eline	-4631
emian	-4632
emium	-4633
ilist	-4634
inaal	-4635
inaan	-4636
innon	-4637
isper	-4638
istön	-4639
itada	-4640
jille	-4641
kenut	-4642
lehti	-4643
mansa	-4644
nnoll	-4645
oitus	-4646
ologi	-4647
omaan	-4648
sodan	-4649
teitä	-4650
tuvat	-4651
uhoon	-4652
uolle	-4653
uomio	-4654
utnje	-4655
vassa	-4656
álbmo	-4657
▁Carl	-4658
▁Imre	-4659
▁Kans	-4660
▁Liná	-4661
▁Mida	-4662
▁Mies	-4663
▁Moai	-4664
▁Tark	-4665
▁elus	-4666
▁emme	-4667
▁enna	-4668
▁hirm	-4669
▁huon	-4670
▁háli	-4671
▁kast	-4672
▁koju	-4673
▁kraa	-4674
▁kään	-4675
▁laat	-4676
▁levi	-4677
▁nael	-4678
▁oota	-4679
▁pida	-4680
▁puut	-4681
▁saku	-4682
▁sobi	-4683
▁sull	-4684
▁suva	-4685
▁syyt	-4686
▁tean	-4687
▁vale	-4688
▁viga	-4689
▁vázz	-4690
▁väit	-4691
▁ášši	-4692
▁õppe	-4693
▁üsna	-4694
aamaan	-4695
attiin	-4696
dagaid	-4697
estaru	-4698
gemine	-4699
isilla	-4700
itakse	-4701
itepöl	-4702
ivššoh	-4703
laisia	-4704
teessa	-4705
uolgga	-4706
▁Biret	-4707
▁auton	-4708
▁beroš	-4709
▁enese	-4710
▁ennät	-4711
▁gitta	-4712
▁herät	-4713
▁kerge	-4714
▁kevad	-4715
▁kodan	-4716
▁kovin	-4717
▁kuoli	-4718
▁kõigi	-4719
▁lausa	-4720
▁leaba	-4721
▁livčč	-4722
▁lähet	-4723
▁miski	-4724
▁myötä	-4725
▁nosta	-4726
▁nouse	-4727
▁oleva	-4728
▁ottel	-4729
▁	-4730
a	-4731
i	-4732
e	-4733
t	-4734
s	-4735
n	-4736
l	-4737
u	-4738
o	-4739
k	-4740
m	-4741
ä	-4742
r	-4743
d	-4744
v	-4745
j	-4746
h	-4747
p	-4748
.	-4749
g	-4750
y	-4751
,	-4752
b	-4753
á	-4754
ö	-4755
õ	-4756
T	-4757
S	-4758
0	-4759
-	-4760
K	-4761
M	-4762
ü	-4763
:	-4764
1	-4765
2	-4766
A	-4767
E	-4768
P	-4769
f	-4770
V	-4771
c	-4772
L	-4773
š	-4774
I	-4775
9	-4776
H	-4777
N	-4778
J	-4779
R	-4780
?	-4781
)	-4782
O	-4783
D	-4784
č	-4785
5	-4786
3	-4787
B	-4788
"	-4789
(	-4790
đ	-4791
8	-4792
4	-4793
!	-4794
7	-4795
6	-4796
G	-4797
U	-4798
C	-4799
Y	-4800
z	-4801
–	-4802
F	-4803
w	-4804
ž	-4805
x	-4806
*	-4807
W	-4808
/	-4809
ŋ	-4810
”	-4811
'	-4812
@	-4813
;	-4814
%	-4815
Ü	-4816
X	-4817
Á	-4818
q	-4819
+	-4820
_	-4821
Z	-4822
−	-4823
Ä	-4824
&	-4825
Õ	-4826
=	-4827
|	-4828
Q	-4829
Å	-4830
#	-4831
å	-4832
à	-4833
Č	-4834
ŧ	-4835
>	-4836
é	-4837
’	-4838
`	-4839
ò	-4840
“	-4841
Ö	-4842
<	-4843
[	-4844
]	-4845
»	-4846
í	-4847
ø	-4848
°	-4849
Š	-4850
е	-4851
—	-4852
€	-4853
~	-4854
ř	-4855
ι	-4856
ρ	-4857
«	-4858
ú	-4859
ā	-4860
ū	-4861
ż	-4862
́	-4863
ς	-4864
О	-4865
а	-4866
л	-4867
р	-4868
т	-4869
‘	-4870
ņ	-4871
ō	-4872
ά	-4873
ν	-4874
ο	-4875
А	-4876
в	-4877
о	-4878
с	-4879
„	-4880
⁄	-4881
島	-4882
釣	-4883
魚	-4884
^	-4885
±	-4886
è	-4887
ë	-4888
ù	-4889
Ž	-4890
Δ	-4891
α	-4892
δ	-4893
ε	-4894
θ	-4895
τ	-4896
ό	-4897
С	-4898
х	-4899
ь	-4900
ա	-4901
ր	-4902
ר	-4903
ا	-4904
ر	-4905
ი	-4906
ო	-4907
ḥ	-4908
•	-4909
台	-4910
😀	-4911
$	-4912
\	-4913
§	-4914
®	-4915
¶	-4916
À	-4917
É	-4918
Î	-4919
×	-4920
Ø	-4921
ã	-4922
æ	-4923
ç	-4924
ð	-4925
ó	-4926
ć	-4927
ğ	-4928
ī	-4929
ı	-4930
ł	-4931
ń	-4932
Ś	-4933
ş	-4934
ǎ	-4935
Ε	-4936
Λ	-4937
Μ	-4938
έ	-4939
η	-4940
κ	-4941
μ	-4942
π	-4943
σ	-4944
υ	-4945
ω	-4946
Б	-4947
Н	-4948
б	-4949
г	-4950
д	-4951
ж	-4952
з	-4953
и	-4954
й	-4955
к	-4956
м	-4957
н	-4958
п	-4959
у	-4960
ф	-4961
ц	-4962
ч	-4963
ш	-4964
щ	-4965
ъ	-4966
ы	-4967
э	-4968
ю	-4969
я	-4970
ё	-4971
Ա	-4972
տ	-4973
א	-4974
ט	-4975
آ	-4976
ت	-4977
ა	-4978
ვ	-4979
ნ	-4980
რ	-4981
ს	-4982
ხ	-4983
ὐ	-4984
尖	-4985
群	-4986
諸	-4987
閣	-4988
魏	-4989
🌴	-4990
🍹	-4991
💜	-4992
😁	-4993
😭	-4994
🙂	-4995
🤔	-4996
