<unk>	0
<s>	0
</s>	0
▁в	-0
▁к	-1
▁,	-2
▁.	-3
сь	-4
яс	-5
ӧм	-6
▁п	-7
▁с	-8
ны	-9
ӧд	-10
▁м	-11
ыд	-12
▁д	-13
ӧн	-14
▁т	-15
ъяс	-16
▁н	-17
ыс	-18
ас	-19
ор	-20
ын	-21
іс	-22
▁б	-23
ыл	-24
ысь	-25
▁л	-26
ин	-27
ӧр	-28
ал	-29
▁ко	-30
ер	-31
ис	-32
ӧс	-33
ан	-34
та	-35
▁во	-36
▁у	-37
ай	-38
дз	-39
▁и	-40
ӧй	-41
▁г	-42
▁ш	-43
оз	-44
ыр	-45
▁да	-46
ик	-47
▁К	-48
▁выл	-49
ит	-50
ед	-51
ка	-52
ль	-53
▁э	-54
ов	-55
сӧ	-56
ар	-57
▁М	-58
тш	-59
▁В	-60
ый	-61
▁ве	-62
он	-63
..	-64
ӧл	-65
ӧма	-66
▁...	-67
ун	-68
▁ч	-69
▁—	-70
тӧ	-71
ур	-72
▁С	-73
кӧ	-74
ол	-75
ыв	-76
ӧт	-77
ен	-78
йӧ	-79
ян	-80
▁ку	-81
дж	-82
▁з	-83
▁ви	-84
од	-85
ым	-86
▁ж	-87
▁Т	-88
ась	-89
▁нин	-90
ад	-91
са	-92
▁р	-93
ӧсь	-94
ав	-95
лӧн	-96
▁сі	-97
▁мый	-98
ат	-99
тӧм	-100
ӧв	-101
тав	-102
ет	-103
ом	-104
▁П	-105
▁ю	-106
▁вылӧ	-107
на	-108
ыш	-109
ӧны	-110
▁пу	-111
ок	-112
кӧд	-113
ыны	-114
ык	-115
▁вӧл	-116
тіс	-117
▁дз	-118
▁не	-119
▁эз	-120
ск	-121
нӧй	-122
▁оз	-123
тшӧм	-124
▁кол	-125
▁вӧлі	-126
▁Н	-127
айӧ	-128
ӧдл	-129
▁сэ	-130
ож	-131
▁?	-132
▁ло	-133
▁на	-134
ул	-135
ель	-136
ӧдз	-137
▁жӧ	-138
ьӧ	-139
ӧг	-140
▁код	-141
хоз	-142
ӧдч	-143
▁ми	-144
▁сійӧ	-145
ес	-146
зь	-147
ся	-148
тч	-149
чч	-150
ін	-151
▁А	-152
ӧмын	-153
▁став	-154
аш	-155
▁!	-156
кыд	-157
▁ас	-158
▁зэ	-159
▁ӧт	-160
иг	-161
лы	-162
уг	-163
▁И	-164
жыд	-165
▁бо	-166
▁пр	-167
▁видз	-168
им	-169
ир	-170
ъя	-171
▁а	-172
ліс	-173
▁му	-174
▁ол	-175
исны	-176
скӧй	-177
ӧдіс	-178
▁вер	-179
▁пыр	-180
аж	-181
ел	-182
аяс	-183
▁сь	-184
▁шу	-185
▁бӧр	-186
▁мед	-187
ам	-188
др	-189
ев	-190
ой	-191
▁ё	-192
орт	-193
▁кор	-194
▁колхоз	-195
ог	-196
ыт	-197
ань	-198
онд	-199
ыдз	-200
янь	-201
▁тэ	-202
драл	-203
лысь	-204
▁быд	-205
ыджыд	-206
▁верм	-207
ем	-208
ст	-209
▁Г	-210
▁Л	-211
▁й	-212
код	-213
тӧг	-214
аліс	-215
▁син	-216
▁пась	-217
▁идрал	-218
ла	-219
ра	-220
ув	-221
уй	-222
ӧш	-223
▁-	-224
ӧні	-225
▁кы	-226
▁кӧ	-227
▁по	-228
ӧгӧр	-229
▁бур	-230
▁зэв	-231
▁кер	-232
▁мӧд	-233
▁пет	-234
▁удж	-235
ъясӧн	-236
▁весь	-237
ич	-238
▁Д	-239
ныс	-240
рож	-241
тор	-242
▁ка	-243
▁лэ	-244
▁ор	-245
▁пи	-246
▁тш	-247
▁дін	-248
▁сыл	-249
рожай	-250
▁миян	-251
▁тайӧ	-252
▁вылын	-253
▁сӧмын	-254
кн	-255
ти	-256
уд	-257
ӧч	-258
▁Б	-259
рас	-260
тас	-261
▁Но	-262
▁чу	-263
▁ӧд	-264
джык	-265
▁вӧр	-266
▁лыд	-267
▁мун	-268
▁тӧд	-269
▁гӧгӧр	-270
▁ыджыд	-271
лӧ	-272
ті	-273
▁О	-274
▁Ч	-275
▁я	-276
тал	-277
▁ки	-278
авны	-279
итіс	-280
ӧмӧн	-281
▁гор	-282
▁пук	-283
▁тор	-284
▁уна	-285
▁дзик	-286
▁олӧм	-287
ӧмаӧсь	-288
▁керка	-289
ак	-290
ег	-291
нас	-292
ныд	-293
тны	-294
ьыд	-295
ьяс	-296
▁ме	-297
▁ны	-298
▁сы	-299
▁сё	-300
онді	-301
сьыс	-302
▁вӧв	-303
▁дор	-304
▁пож	-305
ъяссӧ	-306
ӧмъяс	-307
▁водз	-308
▁урожай	-309
ва	-310
ия	-311
об	-312
▁Ӧ	-313
идз	-314
итч	-315
ным	-316
оро	-317
▁ва	-318
▁пы	-319
▁юг	-320
ашин	-321
ерыс	-322
ыдзи	-323
ӧдны	-324
▁Мый	-325
▁вой	-326
▁кым	-327
▁пӧр	-328
▁сик	-329
▁сул	-330
▁тур	-331
▁ӧти	-332
тісны	-333
▁Тайӧ	-334
▁вермы	-335
▁машин	-336
во	-337
дь	-338
еж	-339
ни	-340
тр	-341
▁Е	-342
▁У	-343
▁Ш	-344
алӧ	-345
ент	-346
ери	-347
йӧн	-348
лас	-349
мӧм	-350
рон	-351
руг	-352
сся	-353
чӧт	-354
▁Сі	-355
▁ад	-356
▁гр	-357
▁но	-358
▁ну	-359
▁та	-360
▁ус	-361
▁юр	-362
лань	-363
▁бер	-364
▁моз	-365
▁тыд	-366
атель	-367
ъясӧс	-368
▁бось	-369
▁дінӧ	-370
▁ичӧт	-371
▁лоны	-372
▁шонді	-373
▁сэтшӧм	-374
вт	-375
дӧ	-376
еп	-377
зя	-378
ил	-379
рм	-380
іг	-381
▁Э	-382
анд	-383
едс	-384
лун	-385
раг	-386
▁Ме	-387
▁Ми	-388
▁ар	-389
▁ту	-390
▁ув	-391
▁ыл	-392
▁ӧш	-393
кодь	-394
сянь	-395
ыліс	-396
ӧдӧм	-397
ӧсна	-398
▁Мед	-399
▁важ	-400
▁вел	-401
▁дыр	-402
▁йыл	-403
▁кык	-404
▁лун	-405
▁пер	-406
▁пом	-407
▁ӧні	-408
едсед	-409
ъясын	-410
ьыдик	-411
▁аддз	-412
▁вись	-413
▁кодь	-414
▁коді	-415
▁сикт	-416
▁вӧсна	-417
▁мукӧд	-418
▁председ	-419
▁председатель	-420
еб	-421
из	-422
пу	-423
ӧж	-424
▁A	-425
ана	-426
ара	-427
аыс	-428
жен	-429
кӧр	-430
лӧм	-431
ник	-432
оль	-433
пыр	-434
тар	-435
тыр	-436
тьӧ	-437
ыль	-438
яяс	-439
▁Сэ	-440
▁яг	-441
алит	-442
аньӧ	-443
евик	-444
тӧны	-445
ясӧс	-446
ӧдыс	-447
ӧкыд	-448
▁быт	-449
▁выв	-450
▁кок	-451
▁ком	-452
▁кыс	-453
▁мат	-454
▁нек	-455
▁пар	-456
▁пӧв	-457
▁том	-458
▁тыр	-459
ъясса	-460
▁бура	-461
▁вось	-462
▁друг	-463
▁морт	-464
▁чери	-465
▁турун	-466
▁быттьӧ	-467
▁видзӧдл	-468
▁идралӧм	-469
аз	-470
бу	-471
ез	-472
ей	-473
еш	-474
иб	-475
йи	-476
ки	-477
лі	-478
но	-479
рт	-480
ру	-481
эр	-482
юр	-483
ёк	-484
▁a	-485
▁З	-486
▁Р	-487
ист	-488
итӧ	-489
йӧс	-490
кас	-491
мас	-492
моз	-493
удж	-494
шил	-495
▁Во	-496
▁ог	-497
▁со	-498
▁шо	-499
▁эг	-500
айын	-501
еста	-502
каяс	-503
кӧдч	-504
ськӧ	-505
ӧшта	-506
▁Вӧр	-507
▁Кол	-508
▁абу	-509
▁вет	-510
▁вын	-511
▁гаж	-512
▁гым	-513
▁зэр	-514
▁кар	-515
▁лои	-516
▁лок	-517
▁мен	-518
▁мор	-519
▁ним	-520
▁пес	-521
▁пов	-522
▁поз	-523
▁пос	-524
▁сер	-525
▁стр	-526
▁тӧв	-527
▁ёна	-528
▁ёрт	-529
алӧны	-530
инъяс	-531
ччысь	-532
шилов	-533
ыштіс	-534
ӧдчис	-535
ӧдӧма	-536
▁Воро	-537
▁Сійӧ	-538
▁бара	-539
▁брон	-540
▁вевт	-541
▁враг	-542
▁горт	-543
▁коль	-544
▁колӧ	-545
▁кыдз	-546
▁кӧні	-547
▁пипу	-548
▁сылы	-549
▁сідз	-550
▁ӧшин	-551
раснӧй	-552
▁Ваньӧ	-553
▁Кыдзи	-554
▁бӧрын	-555
▁жалит	-556
▁кымӧр	-557
▁лыддь	-558
▁нӧшта	-559
▁пожӧм	-560
▁сылӧн	-561
▁сійӧс	-562
▁чукӧр	-563
▁эськӧ	-564
▁вылысь	-565
▁ичӧтик	-566
▁йылысь	-567
▁гӧгӧрво	-568
▁Ворошилов	-569
▁председательяс	-570
ие	-571
иц	-572
ма	-573
пе	-574
рд	-575
уж	-576
шй	-577
ӧк	-578
▁:	-579
▁«	-580
▁»	-581
▁о	-582
▁ӧ	-583
ані	-584
аст	-585
вер	-586
джы	-587
ест	-588
иче	-589
йӧз	-590
ков	-591
кӧм	-592
лан	-593
мӧд	-594
сьӧ	-595
сян	-596
тчӧ	-597
ӧрд	-598
ӧть	-599
▁дж	-600
▁ед	-601
▁ин	-602
▁ни	-603
▁нӧ	-604
▁об	-605
▁па	-606
▁ул	-607
алӧм	-608
асис	-609
лась	-610
мыны	-611
орыд	-612
тъяс	-613
тысь	-614
тӧма	-615
ылын	-616
існы	-617
▁Код	-618
▁Кык	-619
▁бок	-620
▁веж	-621
▁вом	-622
▁зон	-623
▁кат	-624
▁кеж	-625
▁ков	-626
▁кут	-627
▁кый	-628
▁лов	-629
▁лым	-630
▁мел	-631
▁мич	-632
▁ныв	-633
▁пон	-634
▁пыв	-635
▁рай	-636
▁рыт	-637
▁сув	-638
▁сын	-639
▁туй	-640
▁тыш	-641
▁Ӧти	-642
алысь	-643
андир	-644
еннӧй	-645
сьыны	-646
тшӧма	-647
утшӧм	-648
ферыс	-649
ӧдзыс	-650
▁Став	-651
▁вешй	-652
▁воис	-653
▁выль	-654
▁дзеб	-655
▁дзир	-656
▁дорӧ	-657
▁кокн	-658
▁куль	-659
▁менӧ	-660
▁ордӧ	-661
▁понд	-662
▁пытш	-663
▁сьӧл	-664
▁югыд	-665
▁ӧдйӧ	-666
▁берег	-667
▁вылас	-668
▁медся	-669
▁места	-670
▁мыйкӧ	-671
▁сайын	-672
▁сэсся	-673
ическӧй	-674
▁кодъяс	-675
▁кутшӧм	-676
▁ставыс	-677
▁сьӧкыд	-678
▁татшӧм	-679
▁виччысь	-680
▁идралӧмын	-681
▁колхозник	-682
▁колхозъясса	-683
аӧ	-684
иж	-685
ня	-686
ні	-687
ть	-688
ум	-689
ци	-690
чӧ	-691
шк	-692
ыб	-693
эж	-694
эм	-695
яй	-696
▁1	-697
▁–	-698
аво	-699
аль	-700
асӧ	-701
ван	-702
вод	-703
вой	-704
выв	-705
дза	-706
дор	-707
еда	-708
ерт	-709
еул	-710
ибӧ	-711
ига	-712
каӧ	-713
мӧн	-714
нит	-715
нов	-716
рем	-717
сиг	-718
сюр	-719
тша	-720
шӧр	-721
ьӧм	-722
ӧдж	-723
ӧтш	-724
▁Гр	-725
▁Ен	-726
▁Оз	-727
▁Та	-728
▁ач	-729
▁кн	-730
▁ню	-731
▁он	-732
▁са	-733
▁сю	-734
▁ся	-735
▁то	-736
▁ті	-737
▁уд	-738
▁ун	-739
▁эм	-740
▁ён	-741
▁Ӧд	-742
авел	-743
айӧс	-744
видз	-745
егыд	-746
елӧй	-747
икит	-748
инас	-749
каыс	-750
лӧдл	-751
ович	-752
овтч	-753
сюрӧ	-754
ъяса	-755
ыдӧс	-756
ымын	-757
ястӧ	-758
ӧрыс	-759
▁Быд	-760
▁Вой	-761
▁Зэр	-762
▁Ком	-763
▁Лок	-764
▁быр	-765
▁виз	-766
▁вот	-767
▁вош	-768
▁вуг	-769
▁вӧч	-770
▁гиж	-771
▁доз	-772
▁дол	-773
▁жуг	-774
▁йӧз	-775
▁кад	-776
▁кой	-777
▁кос	-778
▁кыв	-779
▁кып	-780
▁лол	-781
▁лэб	-782
▁лёк	-783
▁ныр	-784
▁нэм	-785
▁пул	-786
▁пӧл	-787
▁сир	-788
▁сёр	-789
▁узь	-790
▁чуж	-791
▁чӧж	-792
▁шеп	-793
▁шог	-794
▁шуд	-795
джыка	-796
итель	-797
лісны	-798
талин	-799
ъясыс	-800
ыштас	-801
ьясӧн	-802
ӧдзыд	-803
ӧстӧм	-804
▁гажа	-805
▁гӧрд	-806
▁дзор	-807
▁звер	-808
▁кузя	-809
▁либӧ	-810
▁лэчч	-811
▁мунӧ	-812
▁найӧ	-813
▁нянь	-814
▁пель	-815
▁посн	-816
▁сьӧд	-817
▁тэрм	-818
книтіс	-819
ськӧдч	-820
ъяснас	-821
ӧдчыны	-822
▁Микит	-823
▁Павел	-824
▁Сэсся	-825
▁весиг	-826
▁весьт	-827
▁водзӧ	-828
▁дырйи	-829
▁дінас	-830
▁еджыд	-831
▁книга	-832
▁кутіс	-833
▁кыдзи	-834
▁кытчӧ	-835
▁мӧдіс	-836
▁некод	-837
▁паныд	-838
▁регыд	-839
▁тшӧтш	-840
▁чорыд	-841
▁Колхоз	-842
▁Локтас	-843
▁видзӧд	-844
▁лыдтӧм	-845
▁мӧдӧдч	-846
▁олӧмыс	-847
▁петкӧд	-848
▁пывсян	-849
▁сиктса	-850
▁керкаяс	-851
▁неыджыд	-852
▁паськыд	-853
▁тыдовтч	-854
▁броневик	-855
▁командир	-856
▁машинаяс	-857
▁некутшӧм	-858
▁пожӧмъяс	-859
ац	-860
ек	-861
иш	-862
кл	-863
мы	-864
мӧ	-865
нӧ	-866
ос	-867
ох	-868
ою	-869
си	-870
уз	-871
ук	-872
уч	-873
ъю	-874
яд	-875
ял	-876
▁Х	-877
▁ф	-878
▁х	-879
▁ы	-880
адь	-881
азв	-882
ард	-883
ать	-884
бор	-885
быд	-886
веж	-887
вет	-888
вны	-889
дан	-890
діс	-891
езд	-892
еля	-893
ень	-894
еня	-895
етр	-896
етш	-897
жва	-898
зан	-899
зса	-900
зьт	-901
ика	-902
ияс	-903
кис	-904
кол	-905
лав	-906
лим	-907
льш	-908
ниц	-909
нын	-910
ода	-911
око	-912
ора	-913
пас	-914
пӧл	-915
тад	-916
тан	-917
тис	-918
тса	-919
тур	-920
час	-921
ӧвт	-922
ӧра	-923
ӧса	-924
▁Ас	-925
▁Еф	-926
▁Ку	-927
▁Не	-928
▁Пр	-929
▁Шо	-930
▁би	-931
▁из	-932
▁ов	-933
▁от	-934
▁пе	-935
▁ры	-936
адор	-937
айта	-938
аниз	-939
арни	-940
арук	-941
атор	-942
ашкӧ	-943
дзув	-944
евӧй	-945
енам	-946
икӧй	-947
иник	-948
йысь	-949
каӧн	-950
лаын	-951
лыны	-952
нысӧ	-953
сьӧм	-954
тыны	-955
удта	-956
уныс	-957
циал	-958
ччӧн	-959
шӧрӧ	-960
ъясӧ	-961
ысис	-962
ыстч	-963
ытӧг	-964
яслы	-965
ӧдла	-966
ӧдлӧ	-967
ӧлыс	-968
ӧнкӧ	-969
ӧтка	-970
▁Арм	-971
▁Аск	-972
▁Мит	-973
▁Том	-974
▁Туй	-975
▁Тӧд	-976
▁вай	-977
▁вож	-978
▁вок	-979
▁воӧ	-980
▁дум	-981
▁йыв	-982
▁каж	-983
▁каз	-984
▁кай	-985
▁коз	-986
▁кыз	-987
▁кыр	-988
▁кӧм	-989
▁лӧн	-990
▁мур	-991
▁орд	-992
▁пем	-993
▁пур	-994
▁рад	-995
▁рок	-996
▁руд	-997
▁сам	-998
▁сет	-999
▁сёй	-1000
▁тра	-1001
▁туп	-1002
▁тӧр	-1003
▁улӧ	-1004
▁шӧр	-1005
▁эрд	-1006
азвед	-1007
акъяс	-1008
алань	-1009
асьны	-1010
вежов	-1011
видзӧ	-1012
еулок	-1013
зьысь	-1014
кавны	-1015
лавны	-1016
оюзса	-1017
сьӧны	-1018
сьӧсь	-1019
тчысь	-1020
тӧмӧн	-1021
уджыд	-1022
уйтны	-1023
ъясыд	-1024
ывліс	-1025
ыштны	-1026
яслӧн	-1027
ігмоз	-1028
ӧджык	-1029
ӧчент	-1030
▁Гриш	-1031
▁Иван	-1032
▁Клим	-1033
▁Пась	-1034
▁Сідз	-1035
▁Эжва	-1036
▁асыв	-1037
▁берг	-1038
▁бӧрӧ	-1039
▁векн	-1040
▁вудж	-1041
▁горз	-1042
▁дерт	-1043
▁казя	-1044
▁кост	-1045
▁кузь	-1046
▁кӧть	-1047
▁лоис	-1048
▁лэдз	-1049
▁лӧсь	-1050
▁мелі	-1051
▁мича	-1052
▁нуны	-1053
▁озыр	-1054
▁план	-1055
▁потш	-1056
▁сель	-1057
▁стар	-1058
▁сувт	-1059
▁сьӧм	-1060
▁сэки	-1061
▁сэні	-1062
▁улын	-1063
▁школ	-1064
▁этша	-1065
▁юрсӧ	-1066
алісны	-1067
воддза	-1068
етскӧй	-1069
пырысь	-1070
талӧны	-1071
тураяс	-1072
ӧдлыны	-1073
▁Варук	-1074
▁Вӧръю	-1075
▁Ефрем	-1076
▁Менам	-1077
▁аслас	-1078
▁больш	-1079
▁гашкӧ	-1080
▁дорын	-1081
▁зарни	-1082
▁зонка	-1083
▁казьт	-1084
▁котыр	-1085
▁кымын	-1086
▁кӧнкӧ	-1087
▁медым	-1088
▁морӧс	-1089
▁мунны	-1090
▁найӧс	-1091
▁нинӧм	-1092
▁петны	-1093
▁повзь	-1094
▁пырис	-1095
▁пӧвст	-1096
▁район	-1097
▁судта	-1098
▁тӧдса	-1099
▁шерыс	-1100
▁шоныд	-1101
▁ӧшинь	-1102
асьӧмӧн	-1103
ысьясӧс	-1104
▁Кодъяс	-1105
▁Свежов	-1106
▁Сталин	-1107
▁Татшӧм	-1108
▁Урожай	-1109
▁боевӧй	-1110
▁буракӧ	-1111
▁вешйис	-1112
▁должен	-1113
▁кажитч	-1114
▁олӧмӧс	-1115
▁орччӧн	-1116
▁пондіс	-1117
▁развед	-1118
▁синъяс	-1119
▁ставсӧ	-1120
▁сьӧлӧм	-1121
▁сӧстӧм	-1122
▁чукӧрӧ	-1123
ӧдзыдъяс	-1124
▁Аскинас	-1125
▁Климент	-1126
▁Краснӧй	-1127
▁Шоферыс	-1128
▁великӧй	-1129
▁воськов	-1130
▁дзикӧдз	-1131
▁дзоридз	-1132
▁краснӧй	-1133
▁кытчӧкӧ	-1134
▁пасьтал	-1135
▁прӧчент	-1136
▁пытшкас	-1137
▁сэтшӧма	-1138
▁весьшӧрӧ	-1139
▁вошӧмъяс	-1140
▁идралӧма	-1141
▁кутшӧмкӧ	-1142
▁миянлысь	-1143
▁Ефремович	-1144
▁векньыдик	-1145
▁видзӧдліс	-1146
▁колхозниц	-1147
▁культураяс	-1148
аа	-1149
аг	-1150
ач	-1151
га	-1152
гр	-1153
ех	-1154
ец	-1155
еч	-1156
му	-1157
нь	-1158
сп	-1159
ту	-1160
ыг	-1161
эб	-1162
ёл	-1163
іл	-1164
ім	-1165
ӧб	-1166
ӧз	-1167
▁(	-1168
▁)	-1169
▁Й	-1170
▁Ы	-1171
▁Ю	-1172
▁ц	-1173
авт	-1174
айт	-1175
алі	-1176
арӧ	-1177
аса	-1178
атӧ	-1179
ацк	-1180
бок	-1181
бӧр	-1182
вен	-1183
гор	-1184
гру	-1185
ддз	-1186
дон	-1187
дыв	-1188
дяс	-1189
емё	-1190
енз	-1191
ерм	-1192
ечч	-1193
ешк	-1194
еыс	-1195
игр	-1196
ина	-1197
инт	-1198
инӧ	-1199
исп	-1200
ита	-1201
ица	-1202
ият	-1203
йис	-1204
йыс	-1205
кай	-1206
как	-1207
кар	-1208
кин	-1209
кля	-1210
кӧн	-1211
мия	-1212
мыд	-1213
нал	-1214
ныч	-1215
нӧя	-1216
оен	-1217
окӧ	-1218
она	-1219
пех	-1220
пур	-1221
пъя	-1222
ров	-1223
руд	-1224
ско	-1225
ств	-1226
сть	-1227
там	-1228
тӧр	-1229
удз	-1230
ула	-1231
уна	-1232
чыд	-1233
ыда	-1234
ынь	-1235
ычч	-1236
ышл	-1237
ьӧд	-1238
ьӧж	-1239
яти	-1240
ёль	-1241
ӧль	-1242
ӧст	-1243
ӧти	-1244
▁Ве	-1245
▁Ко	-1246
▁Кы	-1247
▁Он	-1248
▁Сю	-1249
▁Эг	-1250
▁Эз	-1251
▁бр	-1252
▁бу	-1253
▁ен	-1254
▁кл	-1255
▁ня	-1256
▁св	-1257
▁сл	-1258
▁ср	-1259
▁ст	-1260
▁ты	-1261
▁ть	-1262
▁шп	-1263
▁шы	-1264
▁шӧ	-1265
▁ыр	-1266
▁эн	-1267
▁ӧз	-1268
▁ӧн	-1269
аднь	-1270
алан	-1271
алас	-1272
алун	-1273
анін	-1274
асан	-1275
асей	-1276
астр	-1277
атчӧ	-1278
груз	-1279
джыд	-1280
дзӧн	-1281
дыны	-1282
евич	-1283
едыр	-1284
едьӧ	-1285
емит	-1286
ерӧн	-1287
есиг	-1288
икӧн	-1289
инӧн	-1290
итны	-1291
ияяс	-1292
кадӧ	-1293
кодя	-1294
кыдз	-1295
ласт	-1296
льчӧ	-1297
лӧны	-1298
мӧма	-1299
нысь	-1300
ойӧн	-1301
онын	-1302
охол	-1303
пась	-1304
ритч	-1305
ство	-1306
сьны	-1307
улас	-1308
чард	-1309
шкын	-1310
щест	-1311
ывны	-1312
ыдын	-1313
ылӧн	-1314
эбӧс	-1315
эжын	-1316
яліс	-1317
ясын	-1318
ігӧн	-1319
ӧдчӧ	-1320
ӧлуй	-1321
ӧмкӧ	-1322
ӧмсӧ	-1323
ӧнса	-1324
ӧсӧн	-1325
▁Вод	-1326
▁Гым	-1327
▁Гыр	-1328
▁Ива	-1329
▁Каз	-1330
▁Ков	-1331
▁Кор	-1332
▁Кӧч	-1333
▁Лун	-1334
▁Мих	-1335
▁Мур	-1336
▁Пар	-1337
▁Пер	-1338
▁Саш	-1339
▁Чуж	-1340
▁Шог	-1341
▁ваа	-1342
▁вар	-1343
▁век	-1344
▁виж	-1345
▁вир	-1346
▁вуз	-1347
▁вун	-1348
▁вур	-1349
▁выс	-1350
▁вӧй	-1351
▁гек	-1352
▁гоз	-1353
▁дай	-1354
▁зер	-1355
▁йӧй	-1356
▁кит	-1357
▁кыд	-1358
▁кыт	-1359
▁кӧр	-1360
▁кӧс	-1361
▁лог	-1362
▁лый	-1363
▁лыс	-1364
▁лэп	-1365
▁лӧг	-1366
▁мам	-1367
▁мыр	-1368
▁нов	-1369
▁нур	-1370
▁нюж	-1371
▁око	-1372
▁олӧ	-1373
▁пал	-1374
▁пол	-1375
▁поп	-1376
▁про	-1377
▁пув	-1378
▁пӧж	-1379
▁пӧт	-1380
▁пӧч	-1381
▁рас	-1382
▁реш	-1383
▁сар	-1384
▁сов	-1385
▁сод	-1386
▁спе	-1387
▁сэк	-1388
▁сяр	-1389
▁сӧв	-1390
▁тай	-1391
▁тар	-1392
▁тун	-1393
▁тэч	-1394
▁уси	-1395
▁ход	-1396
▁чаш	-1397
▁чер	-1398
▁чыш	-1399
▁чӧв	-1400
▁шед	-1401
▁шем	-1402
▁шой	-1403
▁шум	-1404
▁шур	-1405
▁шыб	-1406
▁ылі	-1407
▁ылӧ	-1408
▁ӧвт	-1409
▁ӧдй	-1410
айтін	-1411
альки	-1412
алӧма	-1413
анаса	-1414
астер	-1415
асьӧм	-1416
ацкӧй	-1417
бӧрын	-1418
венно	-1419
евист	-1420
ездса	-1421
елядь	-1422
имъяс	-1423
итчис	-1424
итъяс	-1425
йӧник	-1426
кӧдны	-1427
кӧдіс	-1428
ланыс	-1429
лунӧн	-1430
мисны	-1431
нитіс	-1432
новӧй	-1433
овтӧм	-1434
одень	-1435
оение	-1436
ометр	-1437
орота	-1438
пыриг	-1439
сьӧма	-1440
сӧвет	-1441
тавка	-1442
тавны	-1443
угдыв	-1444
улика	-1445
хозяй	-1446
часӧн	-1447
ъясас	-1448
ыслӧн	-1449
ысьяс	-1450
яясыс	-1451
ӧдчӧм	-1452
ӧдысь	-1453
ӧдӧны	-1454
ӧктам	-1455
ӧкыда	-1456
ӧръяс	-1457
ӧстіс	-1458
ӧсъяс	-1459
ӧсьӧн	-1460
▁Аддз	-1461
▁Брон	-1462
▁Вань	-1463
▁Водз	-1464
▁Враг	-1465
▁Друг	-1466
▁Колӧ	-1467
▁Коми	-1468
▁Кӧть	-1469
▁Льӧм	-1470
▁Миян	-1471
▁Морт	-1472
▁Ньӧж	-1473
▁Пешк	-1474
▁Чери	-1475
▁ачым	-1476
▁ачыс	-1477
▁бадь	-1478
▁бокӧ	-1479
▁быри	-1480
▁вояс	-1481
▁вугр	-1482
▁гран	-1483
▁джен	-1484
▁джын	-1485
▁дозм	-1486
▁енэж	-1487
▁карӧ	-1488
▁кись	-1489
▁куим	-1490
▁кытш	-1491
▁лоас	-1492
▁льӧм	-1493
▁матӧ	-1494
▁оліс	-1495
▁позь	-1496
▁пуяс	-1497
▁пӧсь	-1498
▁радӧ	-1499
▁рытӧ	-1500
▁сора	-1501
▁сёян	-1502
▁сісь	-1503
▁таво	-1504
▁тані	-1505
▁труд	-1506
▁туис	-1507
▁тшак	-1508
▁тышӧ	-1509
▁тӧдл	-1510
▁тӧдм	-1511
▁тӧдч	-1512
▁удит	-1513
▁улич	-1514
▁усис	-1515
▁чест	-1516
▁чечч	-1517
▁шенз	-1518
▁шуис	-1519
▁шуны	-1520
▁ыпъя	-1521
▁югъя	-1522
▁югӧр	-1523
▁ягыс	-1524
▁ӧтар	-1525
▁ӧтка	-1526
адньӧй	-1527
войвыв	-1528
елӧйяс	-1529
лавнӧй	-1530
ласьны	-1531
мӧдъяс	-1532
мӧдысь	-1533
ондіыс	-1534
союзса	-1535
сьыныс	-1536
сяньыс	-1537
тавліс	-1538
татшӧм	-1539
торъяс	-1540
тыштіс	-1541
тіястӧ	-1542
ъястӧм	-1543
ыдлань	-1544
ылісны	-1545
ынджык	-1546
ысьӧны	-1547
ьыдика	-1548
яссьыс	-1549
яяслӧн	-1550
ӧдлаын	-1551
ӧдісны	-1552
▁Армия	-1553
▁Весиг	-1554
▁Демит	-1555
▁Ласей	-1556
▁Медым	-1557
▁Мыйла	-1558
▁Педьӧ	-1559
▁Сылӧн	-1560
▁Туйыс	-1561
▁Хохол	-1562
▁Ыджыд	-1563
▁армия	-1564
▁быдӧн	-1565
▁бӧрся	-1566
▁бӧръя	-1567
▁вежон	-1568
▁веськ	-1569
▁визув	-1570
▁война	-1571
▁вотӧс	-1572
▁вӧвны	-1573
▁вӧрса	-1574
▁вӧрын	-1575
▁гижӧд	-1576
▁гораа	-1577
▁дзирд	-1578
▁дзоль	-1579
▁кайны	-1580
▁катть	-1581
▁кодкӧ	-1582
▁коркӧ	-1583
▁котӧр	-1584
▁кулӧм	-1585
▁кыліс	-1586
▁кыпыд	-1587
▁кӧлуй	-1588
▁ловъя	-1589
▁луныс	-1590
▁лӧнис	-1591
▁меным	-1592
▁муніс	-1593
▁мыйла	-1594
▁мыйта	-1595
▁настр	-1596
▁небыд	-1597
▁некор	-1598
▁неуна	-1599
▁ниӧти	-1600
▁нэмыс	-1601
▁окота	-1602
▁парти	-1603
▁пемыд	-1604
▁петас	-1605
▁петіс	-1606
▁пласт	-1607
▁позьӧ	-1608
▁помас	-1609
▁понда	-1610
▁посёл	-1611
▁пукси	-1612
▁пыдын	-1613
▁пыдӧс	-1614
▁пызан	-1615
▁пырыс	-1616
▁рытъя	-1617
▁серти	-1618
▁сикас	-1619
▁сынӧд	-1620
▁туйыс	-1621
▁тыдав	-1622
▁тырмы	-1623
▁тышка	-1624
▁тэкӧд	-1625
▁тӧвру	-1626
▁тӧвся	-1627
▁тӧдны	-1628
▁тӧлыс	-1629
▁успех	-1630
▁чужӧм	-1631
▁шыдӧс	-1632
▁эшкын	-1633
▁юаліс	-1634
▁Ӧтияс	-1635
▁ӧнӧдз	-1636
горулас	-1637
инъяслы	-1638
ласьӧны	-1639
лӧдлӧны	-1640
лӧмаӧсь	-1641
ольскӧй	-1642
пӧлӧнса	-1643
циалист	-1644
ымынъяс	-1645
ыштісны	-1646
ӧдлытӧг	-1647
ӧдлісны	-1648
▁Енэжын	-1649
▁Иваныч	-1650
▁Ковмас	-1651
▁аскадӧ	-1652
▁асылын	-1653
▁буретш	-1654
▁вермас	-1655
▁водзын	-1656
▁ворота	-1657
▁восьса	-1658
▁вуджны	-1659
▁гальки	-1660
▁гектар	-1661
▁индыны	-1662
▁кежысь	-1663
▁кильчӧ	-1664
▁кодзув	-1665
▁колана	-1666
▁кольчч	-1667
▁кольӧм	-1668
▁коръяс	-1669
▁кыскис	-1670
▁локтіс	-1671
▁лымйӧн	-1672
▁миритч	-1673
▁мореыс	-1674
▁мыръяс	-1675
▁мӧдъяс	-1676
▁нагруз	-1677
▁надзӧн	-1678
▁некыдз	-1679
▁нуӧдны	-1680
▁общест	-1681
▁пасьта	-1682
▁пельӧс	-1683
▁понъяс	-1684
▁пукалӧ	-1685
▁пулемё	-1686
▁пырысь	-1687
▁пӧлынь	-1688
▁сераяс	-1689
▁синмыд	-1690
▁синмӧн	-1691
▁старик	-1692
▁страна	-1693
▁сулалӧ	-1694
▁сэтысь	-1695
▁тормоз	-1696
▁торъяс	-1697
▁тыдалӧ	-1698
▁тӧдчис	-1699
▁унджык	-1700
▁челядь	-1701
▁черитӧ	-1702
▁чериыс	-1703
▁школаӧ	-1704
▁шогъяс	-1705
анизатор	-1706
играйтін	-1707
скохозяй	-1708
ственнӧй	-1709
угдывтӧг	-1710
▁Шондіыс	-1711
▁быдлаын	-1712
▁вевттис	-1713
▁велӧдны	-1714
▁весьтын	-1715
▁ветлӧдл	-1716
▁видзӧдӧ	-1717
▁вочасӧн	-1718
▁врагъяс	-1719
▁выльысь	-1720
▁вӧлӧмкӧ	-1721
▁гортӧдз	-1722
▁горӧдіс	-1723
▁грездса	-1724
▁гымаліс	-1725
▁джуджыд	-1726
▁думайта	-1727
▁керкаыс	-1728
▁кутісны	-1729
▁лыддьыс	-1730
▁матыстч	-1731
▁местаын	-1732
▁мортлӧн	-1733
▁мӧдӧдчи	-1734
▁паськӧм	-1735
▁посньыд	-1736
▁районын	-1737
▁ставныс	-1738
▁сынӧдыс	-1739
▁сьӧктам	-1740
▁турунсӧ	-1741
▁тшӧкыда	-1742
▁уськӧдч	-1743
▁честнӧй	-1744
▁шоферыс	-1745
▁шуыштіс	-1746
▁ӧшиньяс	-1747
евистскӧй	-1748
▁Броневик	-1749
▁Казакъяс	-1750
▁Медбӧрын	-1751
▁Микитлӧн	-1752
▁босьтӧма	-1753
▁вермытӧм	-1754
▁виччысьӧ	-1755
▁воӧдчыны	-1756
▁выставка	-1757
▁гортлань	-1758
▁гӧгӧрбок	-1759
▁жалиттӧг	-1760
▁зерновӧй	-1761
▁казацкӧй	-1762
▁корӧсьӧн	-1763
▁котыртны	-1764
▁кульмыны	-1765
▁кыпӧдчис	-1766
▁кыссьӧны	-1767
▁машинасӧ	-1768
▁нуӧмаӧсь	-1769
▁переулок	-1770
▁писькӧдч	-1771
▁серӧдӧма	-1772
▁странаса	-1773
▁сувтӧдны	-1774
▁сулалысь	-1775
▁сёрнитіс	-1776
▁торпыриг	-1777
▁торъясӧн	-1778
▁ягыслысь	-1779
▁ӧдйӧджык	-1780
сӧветъясса	-1781
▁Колхозник	-1782
▁Митяяслӧн	-1783
▁Ньӧжйӧник	-1784
▁Пешкинъяс	-1785
▁бокынджык	-1786
▁видзӧдлас	-1787
▁восьлавны	-1788
▁вуграсьны	-1789
▁дзебсьыны	-1790
▁другъясӧн	-1791
▁кӧдзыдъяс	-1792
▁медводдза	-1793
▁посньыдик	-1794
▁разведкаӧ	-1795
▁сулалісны	-1796
▁трудодень	-1797
▁тыдовтчис	-1798
▁ветымынъяс	-1799
▁висьталӧны	-1800
▁водзтіястӧ	-1801
▁вомгорулас	-1802
▁гӧгӧрвотӧм	-1803
▁керкаясысь	-1804
▁кокньыдика	-1805
▁командирӧн	-1806
▁нагрузкаӧн	-1807
▁настроение	-1808
▁новлӧдлӧны	-1809
▁пасьталаыс	-1810
▁видзӧдігмоз	-1811
▁вошӧмъястӧг	-1812
▁общественно	-1813
▁тыдовтчисны	-1814
▁тэрмасьӧмӧн	-1815
▁колхозницаяс	-1816
▁сельскохозяй	-1817
▁большевистскӧй	-1818
вн	-1819
жд	-1820
км	-1821
ош	-1822
рь	-1823
ус	-1824
▁4	-1825
асс	-1826
брь	-1827
вну	-1828
гӧм	-1829
ись	-1830
йно	-1831
лки	-1832
лім	-1833
мей	-1834
мут	-1835
рей	-1836
рыб	-1837
так	-1838
теп	-1839
тка	-1840
туп	-1841
хня	-1842
шас	-1843
шыд	-1844
шын	-1845
ывз	-1846
іля	-1847
▁19	-1848
▁За	-1849
▁Йи	-1850
▁Юг	-1851
▁гы	-1852
абор	-1853
агсӧ	-1854
агун	-1855
ардб	-1856
ариц	-1857
атка	-1858
атіл	-1859
борд	-1860
боро	-1861
вест	-1862
водз	-1863
гита	-1864
град	-1865
драӧ	-1866
дӧма	-1867
едаг	-1868
ельч	-1869
етрӧ	-1870
етяд	-1871
зьма	-1872
иван	-1873
идан	-1874
иказ	-1875
инец	-1876
ипур	-1877
исьм	-1878
итай	-1879
итас	-1880
иция	-1881
клад	-1882
ктак	-1883
льӧк	-1884
ліны	-1885
мышл	-1886
ноар	-1887
окоп	-1888
олім	-1889
онзь	-1890
орма	-1891
орох	-1892
оруж	-1893
осни	-1894
особ	-1895
осуд	-1896
отка	-1897
рася	-1898
рдым	-1899
бар	-1900
илиз	-1901
мбар	-1902
рият	-1903
ркай	-1904
рово	-1905
ронт	-1906
рыба	-1907
сеня	-1908
скак	-1909
тмас	-1910
тнит	-1911
торг	-1912
удие	-1913
ужие	-1914
уляй	-1915
учай	-1916
цион	-1917
част	-1918
ыння	-1919
ырны	-1920
ысмӧ	-1921
ьяяс	-1922
эрыб	-1923
юрны	-1924
ябрь	-1925
язан	-1926
яндз	-1927
ікӧн	-1928
ӧжсӧ	-1929
▁194	-1930
▁Ага	-1931
▁Вош	-1932
▁Дум	-1933
▁Дяд	-1934
▁Кер	-1935
▁Кру	-1936
▁Нар	-1937
▁Печ	-1938
▁Рок	-1939
▁Руч	-1940
▁Сэк	-1941
▁Сэн	-1942
▁Сюн	-1943
▁арл	-1944
▁вув	-1945
▁вуж	-1946
▁джа	-1947
▁исп	-1948
▁мыг	-1949
▁нем	-1950
▁нэр	-1951
▁ота	-1952
▁отп	-1953
▁отс	-1954
▁свя	-1955
▁сез	-1956
▁сус	-1957
▁сюм	-1958
▁топ	-1959
▁фак	-1960
▁шоч	-1961
▁ягӧ	-1962
▁ёкм	-1963
▁ӧка	-1964
Цариц	-1965
аддор	-1966
аддяс	-1967
адорӧ	-1968
аждан	-1969
айшас	-1970
акӧст	-1971
ардби	-1972
атасӧ	-1973
аткин	-1974
атрас	-1975
атька	-1976
бороч	-1977
ватӧг	-1978
веста	-1979
войтӧ	-1980
волім	-1981
вттис	-1982
вылын	-1983
грезд	-1984
дӧсӧн	-1985
ебрас	-1986
ельчи	-1987
еннӧя	-1988
ибдіс	-1989
извод	-1990
икень	-1991
иктса	-1992
икыль	-1993
иршын	-1994
иссьӧ	-1995
ицаяс	-1996
иясыс	-1997
иясӧн	-1998
йӧдлӧ	-1999
епл	-2000
зят	-2001
ойд	-2002
аліг	-2003
втыс	-2004
зятя	-2005
иров	-2006
ойдк	-2007
тчӧм	-2008
ӧвӧй	-2009
▁Неп	-2010
▁пыш	-2011
андуй	-2012
анлун	-2013
еплох	-2014
карсӧ	-2015
касис	-2016
кымын	-2017
кӧмӧй	-2018
ланым	-2019
ланьӧ	-2020
лкиӧн	-2021
луныс	-2022
лькин	-2023
нерӧн	-2024
нивер	-2025
нитны	-2026
ныров	-2027
нялӧн	-2028
оддяс	-2029
одитӧ	-2030
ойдіс	-2031
ольск	-2032
омӧль	-2033
онысь	-2034
посни	-2035
прово	-2036
пӧрыс	-2037
пӧтка	-2038
ремль	-2039
рмӧдч	-2040
скаяс	-2041
тепан	-2042
тшкак	-2043
тырйи	-2044
удзӧм	-2045
уйтан	-2046
улӧсь	-2047
унысь	-2048
урина	-2049
урнал	-2050
хняас	-2051
цияяс	-2052
часны	-2053
частв	-2054
шӧрса	-2055
ъевич	-2056
ъясян	-2057
ыввыв	-2058
ывлав	-2059
ывлан	-2060
ыльтч	-2061
ымгӧм	-2062
ырлун	-2063
ыччис	-2064
ыштан	-2065
ётъяс	-2066
ісянь	-2067
ӧбъяс	-2068
ӧварӧ	-2069
ӧзитӧ	-2070
ӧстӧй	-2071
▁1940	-2072
▁Бара	-2073
▁Векн	-2074
▁Верт	-2075
▁Весь	-2076
▁Гадь	-2077
▁Джен	-2078
▁Йӧра	-2079
▁Кост	-2080
▁Кывз	-2081
▁Кӧра	-2082
▁Митя	-2083
▁Миха	-2084
▁Неыл	-2085
▁Нёль	-2086
▁Обор	-2087
▁Озын	-2088
▁Прир	-2089
▁Прис	-2090
▁Пяти	-2091
▁Сеня	-2092
▁Спас	-2093
▁Сьӧд	-2094
▁Сэні	-2095
▁Тома	-2096
▁Усть	-2097
▁Югыд	-2098
▁банд	-2099
▁Я	-2100
пир	-2101
ъяа	-2102
ашня	-2103
ейӧн	-2104
игӧн	-2105
итет	-2106
мӧмв	-2107
пири	-2108
рутӧ	-2109
▁Уна	-2110
▁Шур	-2111
▁Якӧ	-2112
▁адр	-2113
▁кез	-2114
▁леб	-2115
▁усп	-2116
▁шуй	-2117
▁ытш	-2118
▁юрб	-2119
алент	-2120
еткӧд	-2121
идзӧн	-2122
нӧйӧн	-2123
ольӧм	-2124
рутӧя	-2125
ситет	-2126
▁Видз	-2127
▁Сент	-2128
▁беда	-2129
▁берд	-2130
▁бриг	-2131
▁брӧд	-2132
▁бушк	-2133
▁винт	-2134
▁вожа	-2135
▁вокӧ	-2136
▁воши	-2137
▁горш	-2138
▁град	-2139
▁грам	-2140
▁еджд	-2141
▁жмут	-2142
▁йылӧ	-2143
▁кага	-2144
▁кайи	-2145
▁касс	-2146
▁кежӧ	-2147
▁клев	-2148
▁койм	-2149
▁коми	-2150
▁котр	-2151
▁кута	-2152
▁кывб	-2153
▁кывт	-2154
▁кыкн	-2155
▁лист	-2156
▁лолі	-2157
▁лунӧ	-2158
▁лэпт	-2159
▁ляти	-2160
▁нурб	-2161
▁нывб	-2162
▁нюжм	-2163
▁нёль	-2164
▁обес	-2165
▁овлӧ	-2166
▁овны	-2167
▁опас	-2168
▁паль	-2169
▁парм	-2170
▁пемд	-2171
▁повз	-2172
▁пӧль	-2173
▁сатш	-2174
▁свящ	-2175
▁скӧр	-2176
▁слӧй	-2177
▁содт	-2178
▁срок	-2179
▁стра	-2180
▁судз	-2181
▁сюсь	-2182
▁трач	-2183
▁тупк	-2184
▁тшыг	-2185
▁тшӧк	-2186
▁тіян	-2187
▁увсӧ	-2188
▁уска	-2189
▁ферм	-2190
▁цент	-2191
▁чашй	-2192
▁чышк	-2193
▁шпал	-2194
▁шуйг	-2195
▁шыль	-2196
▁шӧтӧ	-2197
▁ытшк	-2198
▁юалі	-2199
мун	-2200
оби	-2201
олю	-2202
алӧс	-2203
тика	-2204
унег	-2205
▁Чак	-2206
▁Чег	-2207
▁гыл	-2208
▁мез	-2209
▁моб	-2210
▁пия	-2211
▁пуӧ	-2212
▁соб	-2213
▁ӧшй	-2214
дорӧн	-2215
еволю	-2216
ерист	-2217
жение	-2218
инныд	-2219
ксьыс	-2220
лӧмӧн	-2221
обиль	-2222
сьныд	-2223
шалӧс	-2224
ьяслы	-2225
ӧйтны	-2226
▁Енсӧ	-2227
▁Чегл	-2228
▁зіля	-2229
▁мезд	-2230
▁пӧжӧ	-2231
▁ылыс	-2232
▁юкӧн	-2233
▁ягсӧ	-2234
▁яндз	-2235
▁ӧдва	-2236
▁ӧказ	-2237
▁ӧтыр	-2238
айтӧны	-2239
айяслы	-2240
актика	-2241
аладор	-2242
аласны	-2243
алӧмыс	-2244
аметяд	-2245
анборд	-2246
анизац	-2247
аніныс	-2248
арство	-2249
асанов	-2250
асинӧн	-2251
атілок	-2252
бометр	-2253
галань	-2254
дыштас	-2255
евикӧн	-2256
евичок	-2257
едагог	-2258
едиция	-2259
ейтӧны	-2260
емьяяс	-2261
еулокӧ	-2262
ешитіс	-2263
зуйтны	-2264
зьӧмӧн	-2265
иджыка	-2266
идзула	-2267
ижение	-2268
иказын	-2269
инкаыс	-2270
ирован	-2271
ирӧвӧй	-2272
иятнӧй	-2273
йысьӧм	-2274
касянь	-2275
каыслы	-2276
ковмун	-2277
кодясь	-2278
кӧдчис	-2279
кӧдчӧм	-2280
ласьӧм	-2281
лерист	-2282
лометр	-2283
луннас	-2284
мӧмаыс	-2285
мӧмвыл	-2286
мӧмысь	-2287
ойдкыв	-2288
олскак	-2289
онкаяс	-2290
онтысь	-2291
орохин	-2292
пимъяс	-2293
пӧрыся	-2294
рдымыс	-2295
револю	-2296
рейкаӧ	-2297
спитай	-2298
тасьыс	-2299
лӧа	-2300
тіг	-2301
▁Од	-2302
▁Ок	-2303
▁Чу	-2304
▁ай	-2305
▁яя	-2306
тасӧ	-2307
▁Бед	-2308
▁Вӧч	-2309
▁Чиг	-2310
▁Чӧс	-2311
▁кип	-2312
▁ныл	-2313
▁рӧч	-2314
▁чук	-2315
▁яла	-2316
едлӧа	-2317
талам	-2318
▁Беди	-2319
▁Одсӧ	-2320
▁воті	-2321
▁кияс	-2322
▁крас	-2323
▁лыдд	-2324
▁мода	-2325
▁мунт	-2326
▁стал	-2327
▁узьс	-2328
▁юрас	-2329
▁ялаа	-2330
▁ӧдӧл	-2331
джыкыс	-2332
джыкӧс	-2333
естасӧ	-2334
тасьӧм	-2335
тлісны	-2336
тлӧмӧн	-2337
тупель	-2338
тъясыс	-2339
тъясӧс	-2340
тігмоз	-2341
удікӧн	-2342
унегов	-2343
учитіс	-2344
циализ	-2345
ционно	-2346
чимъяс	-2347
ччалӧм	-2348
ччӧмӧн	-2349
шкӧмӧн	-2350
ывлыны	-2351
ывъясӧ	-2352
ымавны	-2353
ымынкӧ	-2354
ымӧрыс	-2355
ьяслӧн	-2356
ьӧръяс	-2357
ьӧясын	-2358
эбӧстӧ	-2359
эбӧсӧй	-2360
ялӧмӧн	-2361
ясӧдыс	-2362
ӧбльӧк	-2363
ӧгалӧм	-2364
ӧружие	-2365
ӧрыслы	-2366
▁Аслас	-2367
▁Быдла	-2368
▁Водін	-2369
▁Война	-2370
▁Вошим	-2371
▁Вӧчны	-2372
▁Гырка	-2373
▁Гӧгӧр	-2374
▁Закар	-2375
▁Коркӧ	-2376
▁Костр	-2377
▁Ксеня	-2378
▁Кывзы	-2379
▁Кытчӧ	-2380
▁Мекӧд	-2381
▁Михай	-2382
▁Мӧдла	-2383
▁Народ	-2384
▁Некод	-2385
▁Петрӧ	-2386
▁Письм	-2387
▁Ройӧн	-2388
▁Роктӧ	-2389
▁Талун	-2390
▁Татчӧ	-2391
▁Тэрыб	-2392
▁Тӧлыс	-2393
▁Хасан	-2394
▁Цариц	-2395
▁Чорыд	-2396
▁Чужӧм	-2397
▁Шерыс	-2398
▁адрес	-2399
дам	-2400
лич	-2401
тил	-2402
ӧйд	-2403
▁Дж	-2404
▁юӧ	-2405
авка	-2406
аныс	-2407
баыс	-2408
льӧш	-2409
оныс	-2410
отор	-2411
удыд	-2412
ысти	-2413
ьдам	-2414
▁Дыш	-2415
▁кӧк	-2416
▁мыш	-2417
▁няр	-2418
▁пот	-2419
▁поэ	-2420
▁унм	-2421
▁шоб	-2422
абаыс	-2423
алъяс	-2424
игтыр	-2425
овтіс	-2426
шудыд	-2427
ӧйдӧм	-2428
▁Выль	-2429
▁Улич	-2430
▁катш	-2431
▁катӧ	-2432
▁кыян	-2433
▁мӧда	-2434
▁ныла	-2435
▁пила	-2436
▁пись	-2437
▁поэт	-2438
▁тадз	-2439
▁улас	-2440
▁част	-2441
▁шобд	-2442
▁энов	-2443
▁яслы	-2444
авкаын	-2445
омтыны	-2446
тӧмтор	-2447
▁амбар	-2448
▁арлӧн	-2449
▁артил	-2450
▁бадьк	-2451
▁башня	-2452
▁бипур	-2453
▁бокис	-2454
▁бонзь	-2455
▁быдмӧ	-2456
▁бӧрдӧ	-2457
▁вадор	-2458
▁вайӧм	-2459
▁ваӧдз	-2460
▁вежсь	-2461
▁велав	-2462
▁вождь	-2463
▁вомтӧ	-2464
▁вотны	-2465
▁вузал	-2466
▁вурун	-2467
▁вурӧм	-2468
▁вывса	-2469
▁вывті	-2470
▁вылна	-2471
▁вынсӧ	-2472
▁вӧвлы	-2473
▁вӧйтч	-2474
▁вӧйӧм	-2475
▁вӧчан	-2476
▁вӧчӧм	-2477
▁гажыс	-2478
▁гозъя	-2479
▁госуд	-2480
▁гымыс	-2481
▁джынв	-2482
▁дзорг	-2483
▁доныс	-2484
▁жугӧд	-2485
▁забор	-2486
▁зырны	-2487
▁зэрас	-2488
▁зэрны	-2489
▁зэрӧн	-2490
▁йывсь	-2491
▁йӧзсӧ	-2492
▁кадын	-2493
▁казяв	-2494
▁калит	-2495
▁катша	-2496
▁кежлӧ	-2497
▁керӧс	-2498
▁кипод	-2499
бог	-2500
стя	-2501
ісӧ	-2502
ӧлі	-2503
▁Лы	-2504
▁Ов	-2505
▁ем	-2506
исыд	-2507
стет	-2508
ышті	-2509
яйтч	-2510
▁Гоз	-2511
▁Гӧг	-2512
▁Док	-2513
▁Лол	-2514
▁Лыс	-2515
▁Овл	-2516
▁Пог	-2517
▁кле	-2518
▁мог	-2519
▁орт	-2520
▁тув	-2521
▁шӧп	-2522
аньяс	-2523
ностя	-2524
ытӧдз	-2525
ястӧг	-2526
▁Вӧлі	-2527
▁Гӧгр	-2528
▁Кыдз	-2529
▁Мычч	-2530
▁вылі	-2531
▁клеё	-2532
▁куст	-2533
▁порт	-2534
▁рӧма	-2535
▁удал	-2536
▁шань	-2537
▁шонд	-2538
инлысь	-2539
каньяс	-2540
нитӧма	-2541
укавны	-2542
ъяслӧн	-2543
яйтчис	-2544
ӧслысь	-2545
▁Бипур	-2546
▁Зэриг	-2547
▁Идрал	-2548
▁Лолӧй	-2549
▁Лысва	-2550
▁Лыӧсь	-2551
▁Овлыв	-2552
▁Погон	-2553
▁быдса	-2554
▁бырны	-2555
▁верми	-2556
▁выліӧ	-2557
▁емдон	-2558
▁клеён	-2559
▁ковта	-2560
▁кокув	-2561
▁корси	-2562
▁костӧ	-2563
▁кутас	-2564
▁кыддз	-2565
▁кыдзь	-2566
▁кырым	-2567
▁кӧкъя	-2568
▁кӧсйӧ	-2569
▁лагун	-2570
▁лобог	-2571
▁лыдын	-2572
▁лэбач	-2573
▁мамтӧ	-2574
▁меліа	-2575
▁могӧн	-2576
▁мороз	-2577
▁мотор	-2578
▁мыгӧр	-2579
▁мысти	-2580
▁недыр	-2581
▁норма	-2582
▁нывка	-2583
▁нырыс	-2584
▁нюкля	-2585
▁някля	-2586
▁няръя	-2587
▁ойдіс	-2588
▁орден	-2589
▁отпор	-2590
▁парад	-2591
▁перйӧ	-2592
▁песӧм	-2593
▁присп	-2594
▁пырӧм	-2595
▁пытшк	-2596
▁пӧдӧм	-2597
▁пӧжис	-2598
▁пӧрчч	-2599
амм	-2600
вев	-2601
елӧ	-2602
ехн	-2603
адир	-2604
вевт	-2605
гаяс	-2606
йиыс	-2607
ойыс	-2608
увса	-2609
ыдлы	-2610
ӧдас	-2611
▁Воа	-2612
▁кев	-2613
▁шуш	-2614
▁ёсь	-2615
аммис	-2616
аяссӧ	-2617
водзӧ	-2618
елъяс	-2619
елӧӧн	-2620
йыдлы	-2621
йӧдіс	-2622
кисны	-2623
ӧраяс	-2624
▁Пӧсь	-2625
▁Техн	-2626
▁верк	-2627
▁лоам	-2628
▁саяс	-2629
▁шуам	-2630
айӧдіс	-2631
вевтын	-2632
втысыс	-2633
делъяс	-2634
йӧзлӧн	-2635
магаяс	-2636
ожӧмын	-2637
онскӧй	-2638
чкисны	-2639
ырйиыс	-2640
ырӧдӧм	-2641
ӧсӧдыс	-2642
ӧтӧдас	-2643
▁Комис	-2644
▁Чойыс	-2645
▁бӧрад	-2646
▁вугыр	-2647
▁вӧчны	-2648
▁гажаа	-2649
▁олысь	-2650
▁рокӧс	-2651
▁рудыс	-2652
▁самур	-2653
▁сарай	-2654
▁сетас	-2655
▁сетны	-2656
▁сиртӧ	-2657
▁склад	-2658
▁среда	-2659
▁страш	-2660
▁стрӧг	-2661
▁сыліс	-2662
▁сьӧмӧ	-2663
▁сюрас	-2664
▁сюрны	-2665
▁сёйны	-2666
▁сёрни	-2667
▁талун	-2668
▁татчӧ	-2669
▁таысь	-2670
▁туйӧд	-2671
▁тӧдлы	-2672
▁тӧдлӧ	-2673
▁тӧдіс	-2674
▁уджав	-2675
▁уджлы	-2676
▁удиті	-2677
▁узьлі	-2678
▁улысь	-2679
▁умышл	-2680
▁уркай	-2681
▁устав	-2682
▁фронт	-2683
▁ходыс	-2684
▁чужтӧ	-2685
▁чукыл	-2686
▁чӧжӧн	-2687
▁шедіс	-2688
▁шемӧс	-2689
▁шензи	-2690
▁шогыс	-2691
▁шойтч	-2692
▁шудсӧ	-2693
▁шусьӧ	-2694
▁шуӧны	-2695
▁ывлав	-2696
▁ылӧдз	-2697
▁ыркыд	-2698
▁эстет	-2699
ант	-2700
кеж	-2701
оск	-2702
сим	-2703
▁12	-2704
▁вз	-2705
▁ӧг	-2706
аваӧ	-2707
ашӧв	-2708
кыда	-2709
лӧма	-2710
ойяс	-2711
уган	-2712
ӧлаш	-2713
▁!..	-2714
▁12-	-2715
▁Кал	-2716
▁Кой	-2717
▁Сюр	-2718
▁ант	-2719
▁бой	-2720
▁взр	-2721
▁дет	-2722
▁кан	-2723
▁муж	-2724
▁муӧ	-2725
▁ӧтг	-2726
аксим	-2727
кежъя	-2728
лунас	-2729
мӧмын	-2730
ортад	-2731
осков	-2732
сялӧм	-2733
тасны	-2734
ывкыд	-2735
ьӧкыд	-2736
▁12-2	-2737
▁Вось	-2738
▁бойӧ	-2739
▁гыма	-2740
▁дзуг	-2741
▁мусӧ	-2742
▁олан	-2743
▁шуӧй	-2744
▁ӧгыр	-2745
▁ӧтна	-2746
ашӧвар	-2747
ойясыд	-2748
шсялӧм	-2749
▁12-20	-2750
▁Калин	-2751
▁Кӧчӧг	-2752
▁Пӧлаш	-2753
▁антим	-2754
▁бойяс	-2755
▁взрыв	-2756
▁видзч	-2757
▁видзӧ	-2758
▁лэччи	-2759
▁мужик	-2760
▁пуксь	-2761
▁туган	-2762
▁югыда	-2763
▁Ӧльӧш	-2764
▁ӧдъяс	-2765
▁ӧзъяс	-2766
▁ӧтарӧ	-2767
▁ӧтгыр	-2768
▁ӧтияс	-2769
▁ӧтнам	-2770
авсьыны	-2771
аддорса	-2772
адиръяс	-2773
айӧдӧма	-2774
аксимлы	-2775
аланныд	-2776
алъясис	-2777
астерыс	-2778
вайтӧны	-2779
ватӧгыс	-2780
ветитіс	-2781
вижение	-2782
ганизац	-2783
грездын	-2784
гымавны	-2785
дырйиыс	-2786
ебрасӧн	-2787
ейтісны	-2788
еръясын	-2789
еткӧдлі	-2790
етулика	-2791
еулокыс	-2792
ецъясӧс	-2793
ечатель	-2794
интытӧг	-2795
инъяссӧ	-2796
иньясӧн	-2797
итчӧмӧн	-2798
йӧдлыны	-2799
дьӧ	-2800
лӧз	-2801
сям	-2802
тім	-2803
▁Ай	-2804
▁Ох	-2805
▁ид	-2806
айтч	-2807
зьӧд	-2808
ччӧр	-2809
щель	-2810
ӧтыр	-2811
▁Рад	-2812
▁буз	-2813
▁кес	-2814
▁кӧз	-2815
▁лет	-2816
▁нӧг	-2817
▁ӧдз	-2818
атӧні	-2819
внука	-2820
икӧдз	-2821
лӧняс	-2822
мӧдӧм	-2823
оддьӧ	-2824
орӧдз	-2825
ткаяс	-2826
▁кӧдж	-2827
▁кӧдз	-2828
▁кӧза	-2829
▁сӧдз	-2830
▁тьӧт	-2831
▁щель	-2832
зикӧдз	-2833
ысьтас	-2834
ӧдчӧны	-2835
▁бурӧн	-2836
▁гӧтыр	-2837
▁йылын	-2838
▁юсянь	-2839
▁ӧтчыд	-2840
айтчӧны	-2841
видзысь	-2842
кыдкодь	-2843
мейскӧй	-2844
мӧслысь	-2845
ныслысь	-2846
ожъясян	-2847
ольскын	-2848
олётъяс	-2849
оминъяс	-2850
омйыдлы	-2851
омобиль	-2852
ораӧдыс	-2853
оръевич	-2854
паськыд	-2855
пиридон	-2856
понскӧй	-2857
ремльса	-2858
риятель	-2859
рмӧдчин	-2860
сьӧмъяс	-2861
сямӧмӧн	-2862
торгъяс	-2863
удиеысь	-2864
уляясыс	-2865
унігмоз	-2866
уялӧмӧн	-2867
циализм	-2868
ынняліс	-2869
ырвидзӧ	-2870
ысьӧмӧн	-2871
ышасьӧм	-2872
ьдаммӧм	-2873
ьӧыслӧн	-2874
ігтырйи	-2875
ӧдчыныс	-2876
ӧдысьлы	-2877
ӧмъясӧн	-2878
ӧридзӧн	-2879
ӧружиеа	-2880
ӧсӧдзыс	-2881
▁Аддзан	-2882
▁Анялӧн	-2883
▁Армияс	-2884
▁Вадорӧ	-2885
▁Валент	-2886
▁Ваньӧл	-2887
▁Викень	-2888
▁Виршын	-2889
▁Войнас	-2890
▁Гортад	-2891
▁Доктор	-2892
▁Зэръяс	-2893
▁Иванов	-2894
▁Керкаӧ	-2895
▁Кодлӧн	-2896
▁Кольӧм	-2897
▁Колӧкӧ	-2898
▁Комисс	-2899
орд	-2900
ски	-2901
скы	-2902
ыйӧ	-2903
ӧна	-2904
▁Ну	-2905
▁Юр	-2906
арзь	-2907
еклӧ	-2908
ліын	-2909
мӧдӧ	-2910
ский	-2911
▁Кул	-2912
▁Юрч	-2913
▁лоа	-2914
▁мех	-2915
▁неб	-2916
▁тул	-2917
гысис	-2918
еклӧӧ	-2919
етнӧй	-2920
итчӧм	-2921
оннӧй	-2922
ӧдліс	-2923
▁Иӧра	-2924
▁бать	-2925
▁борд	-2926
▁гӧна	-2927
▁дзав	-2928
▁дзӧр	-2929
▁лель	-2930
▁муса	-2931
▁небе	-2932
▁сэсь	-2933
▁эскы	-2934
биясыс	-2935
четнӧй	-2936
ялісны	-2937
▁Уліын	-2938
▁Юрчик	-2939
▁индіс	-2940
▁колль	-2941
▁колян	-2942
▁лельк	-2943
▁пӧтка	-2944
▁тулыс	-2945
▁шарзь	-2946
▁эзысь	-2947
ургысис	-2948
▁Кулӧма	-2949
▁Кутшӧм	-2950
▁Кызьӧд	-2951
▁Медысь	-2952
▁Михаил	-2953
▁Михайл	-2954
▁Мортлы	-2955
▁Мортыс	-2956
▁Москов	-2957
▁Мудзӧм	-2958
▁Муртса	-2959
▁Мыйысь	-2960
▁Неылыс	-2961
▁Ноддяс	-2962
▁Парась	-2963
▁Первой	-2964
▁Присад	-2965
▁Прокоп	-2966
▁Сиктса	-2967
▁Синъяс	-2968
▁Союзса	-2969
▁Ставсӧ	-2970
▁Сьӧкыд	-2971
▁Тайӧяс	-2972
▁Томъяс	-2973
▁Туйтӧг	-2974
▁Тулика	-2975
▁Тӧдтӧм	-2976
▁Чериыд	-2977
▁Чериӧн	-2978
▁Шогтӧг	-2979
▁Шогъяс	-2980
▁аддзис	-2981
▁аддзыс	-2982
▁арӧсӧн	-2983
▁ассьыс	-2984
▁бердас	-2985
▁бойысь	-2986
▁бокиса	-2987
▁бокъяс	-2988
▁бушкол	-2989
▁важнӧй	-2990
▁вайӧма	-2991
▁вартӧм	-2992
▁ваяліс	-2993
▁ваяссӧ	-2994
▁вевтсӧ	-2995
▁вевтть	-2996
▁веравт	-2997
▁вералӧ	-2998
▁весьтӧ	-2999
▁5	-3000
арт	-3001
жӧр	-3002
орс	-3003
ышт	-3004
▁ок	-3005
гӧны	-3006
итін	-3007
йыны	-3008
ласа	-3009
окас	-3010
ышӧд	-3011
▁Пит	-3012
▁Пыв	-3013
▁Пыш	-3014
▁Сӧв	-3015
▁Тӧв	-3016
▁дед	-3017
▁дом	-3018
▁шом	-3019
артин	-3020
джъяс	-3021
ерман	-3022
жӧрӧн	-3023
итӧны	-3024
ияысь	-3025
мелӧй	-3026
орсіс	-3027
чагсӧ	-3028
ыськӧ	-3029
ышлов	-3030
ӧттӧм	-3031
▁Унал	-3032
▁васӧ	-3033
▁дона	-3034
▁пуис	-3035
▁пызь	-3036
▁чышъ	-3037
▁ышӧд	-3038
вестнӧ	-3039
тӧмӧсь	-3040
ышловз	-3041
ыштлас	-3042
▁грамо	-3043
▁домав	-3044
▁кежас	-3045
▁муысь	-3046
▁октӧм	-3047
▁право	-3048
▁туйсӧ	-3049
▁ӧтнас	-3050
анитӧны	-3051
▁Герман	-3052
▁Латкин	-3053
▁Мартин	-3054
▁Пывсян	-3055
▁Уналӧн	-3056
▁ачымӧс	-3057
▁видзны	-3058
▁визула	-3059
▁винтов	-3060
▁виртӧм	-3061
▁висьтӧ	-3062
▁висьӧм	-3063
▁витъяс	-3064
▁воинӧн	-3065
▁воисны	-3066
▁войбыд	-3067
▁войков	-3068
▁войнас	-3069
▁войтыр	-3070
▁вокъяс	-3071
▁вомнас	-3072
▁вооруж	-3073
▁ворсіс	-3074
▁врагӧс	-3075
▁вуджим	-3076
▁вылнаӧ	-3077
▁вӧлӧма	-3078
▁вӧръяс	-3079
▁горным	-3080
▁гортас	-3081
▁гурина	-3082
▁гыасис	-3083
▁делӧӧн	-3084
▁дзебны	-3085
▁дзоргӧ	-3086
▁дзӧрны	-3087
▁доддьӧ	-3088
▁дозмӧр	-3089
▁дорысь	-3090
▁енэжыс	-3091
▁жугӧдӧ	-3092
▁журнал	-3093
▁зверӧс	-3094
▁исполь	-3095
▁йӧраяс	-3096
▁кадъяс	-3097
▁казялі	-3098
▁кельчи	-3099
▁8	-3100
дат	-3101
ера	-3102
мыс	-3103
яна	-3104
▁85	-3105
▁Тэ	-3106
▁жб	-3107
амӧй	-3108
джын	-3109
ясас	-3110
ӧдьӧ	-3111
▁859	-3112
▁Лёк	-3113
▁Пыр	-3114
▁Тар	-3115
▁Тун	-3116
▁Чер	-3117
▁авт	-3118
▁вен	-3119
▁зор	-3120
▁меӧ	-3121
▁мык	-3122
▁пан	-3123
▁сям	-3124
▁тош	-3125
▁шат	-3126
алдат	-3127
анлӧн	-3128
исера	-3129
калӧм	-3130
массӧ	-3131
ясысь	-3132
іясас	-3133
ӧмлӧн	-3134
ӧмтӧм	-3135
▁Вась	-3136
▁Пыри	-3137
▁Тані	-3138
▁вась	-3139
▁жбыр	-3140
▁изны	-3141
▁кутк	-3142
▁кыйи	-3143
▁тшӧг	-3144
▁усьӧ	-3145
массӧв	-3146
ывлӧны	-3147
ігӧгӧр	-3148
▁Мамӧй	-3149
▁Рӧдьӧ	-3150
▁Тарыт	-3151
▁Черны	-3152
▁веніс	-3153
▁коръя	-3154
▁кызта	-3155
▁мунан	-3156
▁некӧн	-3157
▁пушыд	-3158
▁сямтӧ	-3159
▁тошка	-3160
▁ӧшиню	-3161
джынйӧн	-3162
ӧканлӧн	-3163
▁Воддза	-3164
▁Воисны	-3165
▁Кӧмтӧм	-3166
▁Черныб	-3167
▁бисера	-3168
▁васьыд	-3169
▁ветліс	-3170
▁гаддяс	-3171
▁кианыс	-3172
▁киссьӧ	-3173
▁ковтаа	-3174
▁кокнас	-3175
▁колода	-3176
▁корйыс	-3177
▁костас	-3178
▁костын	-3179
▁крутӧя	-3180
▁кузяла	-3181
▁кыйліс	-3182
▁кыкнан	-3183
▁кыссьӧ	-3184
▁кыськӧ	-3185
▁кытшын	-3186
▁кытысь	-3187
▁кӧйдӧм	-3188
▁кӧртав	-3189
▁кӧсйис	-3190
▁лебмӧм	-3191
▁летысь	-3192
▁ловтӧм	-3193
▁лоисны	-3194
▁локтім	-3195
▁лыдпас	-3196
▁лыйлӧм	-3197
▁лымйыс	-3198
▁лэбысь	-3199
оо	-3200
▁Ф	-3201
изб	-3202
йӧг	-3203
оду	-3204
ооц	-3205
унд	-3206
▁Со	-3207
▁йи	-3208
▁эс	-3209
▁яд	-3210
акыс	-3211
арӧс	-3212
кӧсь	-3213
одуш	-3214
стӧм	-3215
ыйтӧ	-3216
▁Дыр	-3217
▁Тыд	-3218
▁Фед	-3219
▁вас	-3220
▁вем	-3221
▁зам	-3222
▁йӧг	-3223
▁кая	-3224
▁кын	-3225
▁лоӧ	-3226
▁луд	-3227
▁чӧр	-3228
▁чӧс	-3229
▁эсі	-3230
▁яда	-3231
бакыс	-3232
едооц	-3233
елысь	-3234
уръяс	-3235
ӧсьсӧ	-3236
▁Вунд	-3237
▁Нянь	-3238
▁Таво	-3239
▁Федь	-3240
▁воан	-3241
▁пудж	-3242
▁пӧчӧ	-3243
▁тіль	-3244
алігад	-3245
одушед	-3246
пӧлысь	-3247
ъясысь	-3248
▁Векни	-3249
▁васӧд	-3250
▁выйтӧ	-3251
▁кынӧм	-3252
▁лолӧй	-3253
▁ордым	-3254
▁сталь	-3255
▁эсійӧ	-3256
аршалӧс	-3257
джыкӧсь	-3258
едооцен	-3259
тусьӧсь	-3260
▁Сӧстӧм	-3261
▁Тыдалӧ	-3262
▁Федька	-3263
▁босьтӧ	-3264
▁другыс	-3265
▁йӧзлӧн	-3266
▁кулысь	-3267
▁ловъяс	-3268
▁лэдзис	-3269
▁лэччис	-3270
▁лёктор	-3271
▁мастер	-3272
▁машина	-3273
▁меддор	-3274
▁медысь	-3275
▁мелань	-3276
▁миянлы	-3277
▁мортсӧ	-3278
▁мортӧс	-3279
▁муртса	-3280
▁мустӧм	-3281
▁мывкыд	-3282
▁мыччис	-3283
▁мӧдтор	-3284
▁мӧдысь	-3285
▁небеса	-3286
▁неылын	-3287
▁нинкӧм	-3288
▁нуртор	-3289
▁нуӧдіс	-3290
▁нӧйтны	-3291
▁обеспе	-3292
▁обязан	-3293
▁олӧмас	-3294
▁олӧмтӧ	-3295
▁олӧмыд	-3296
▁партия	-3297
▁пасьӧн	-3298
▁паччӧр	-3299
▁2	-3300
▁3	-3301
Жар	-3302
вит	-3303
каа	-3304
пол	-3305
юль	-3306
інӧ	-3307
▁29	-3308
▁Сы	-3309
▁ля	-3310
ибль	-3311
овка	-3312
ыдӧй	-3313
▁Жар	-3314
▁Мӧд	-3315
▁Сов	-3316
▁ляп	-3317
▁ник	-3318
▁нит	-3319
▁пыж	-3320
▁сан	-3321
▁чин	-3322
полит	-3323
читіс	-3324
ысьсӧ	-3325
▁асъя	-3326
▁войӧ	-3327
▁июль	-3328
▁медъ	-3329
▁пыжа	-3330
▁Ӧдва	-3331
▁Ӧддз	-3332
тчысис	-3333
▁Кутіс	-3334
▁Меным	-3335
▁Парма	-3336
▁вывсӧ	-3337
▁гижис	-3338
▁кинас	-3339
▁кодӧс	-3340
▁локтӧ	-3341
▁медъё	-3342
▁мыйӧн	-3343
▁тшетш	-3344
▁чибль	-3345
▁чинӧм	-3346
▁эмӧсь	-3347
ортовка	-3348
▁Асьныд	-3349
▁Гӧгрӧс	-3350
▁Елькин	-3351
▁дзебся	-3352
▁ляпкыд	-3353
▁пакӧст	-3354
▁пелысь	-3355
▁перйис	-3356
▁пестіс	-3357
▁песӧма	-3358
▁пияныс	-3359
▁повзин	-3360
▁повтӧг	-3361
▁пожӧма	-3362
▁помась	-3363
▁поплӧн	-3364
▁потшны	-3365
▁придан	-3366
▁пуджӧм	-3367
▁пуксьы	-3368
▁пуктас	-3369
▁пуляяс	-3370
▁пуритӧ	-3371
▁пурным	-3372
▁пызьӧн	-3373
▁пырӧны	-3374
▁пытшса	-3375
▁пышкай	-3376
▁пӧлӧса	-3377
▁пӧрччи	-3378
▁пӧрысь	-3379
▁пӧрӧдл	-3380
▁раскас	-3381
▁растер	-3382
▁рокным	-3383
▁салдат	-3384
▁сатшис	-3385
▁сетӧма	-3386
▁сибдіс	-3387
▁синмас	-3388
▁случай	-3389
▁смелӧй	-3390
▁совъяс	-3391
▁содтӧд	-3392
▁сталин	-3393
▁судтаа	-3394
▁сылысь	-3395
▁сёрнит	-3396
▁сёянсӧ	-3397
▁тадзсӧ	-3398
▁татӧні	-3399
зым	-3400
мык	-3401
омс	-3402
шар	-3403
▁Кӧ	-3404
▁Ни	-3405
▁эк	-3406
зыма	-3407
комс	-3408
тадз	-3409
таӧй	-3410
улӧн	-3411
ылан	-3412
ыльм	-3413
▁Вит	-3414
▁Вол	-3415
▁Нал	-3416
▁бал	-3417
▁гыр	-3418
▁дер	-3419
▁кур	-3420
▁ниг	-3421
▁нёк	-3422
▁шер	-3423
▁шор	-3424
▁шыд	-3425
аясӧн	-3426
ормык	-3427
ӧмтор	-3428
▁Ваыс	-3429
▁Кеня	-3430
▁Тадз	-3431
▁воны	-3432
▁воын	-3433
▁дась	-3434
▁держ	-3435
▁киыс	-3436
▁кодз	-3437
▁обык	-3438
▁тшан	-3439
▁шуда	-3440
▁эксп	-3441
комсом	-3442
▁Налӧн	-3443
▁Тадзи	-3444
▁азыма	-3445
▁диван	-3446
▁йӧйӧн	-3447
▁кадыд	-3448
▁кылан	-3449
▁кыысь	-3450
▁олӧмӧ	-3451
▁паськ	-3452
аводитӧ	-3453
каяслӧн	-3454
ялыштас	-3455
▁Кодзув	-3456
▁Мыччыв	-3457
▁баляяс	-3458
▁гырысь	-3459
▁держав	-3460
▁джынсӧ	-3461
▁дзирыд	-3462
▁дозйӧн	-3463
▁кисьмы	-3464
▁киясын	-3465
▁мӧдарӧ	-3466
▁нигаыс	-3467
▁няньыс	-3468
▁теплох	-3469
▁топыда	-3470
▁торйӧн	-3471
▁торкис	-3472
▁тунъяс	-3473
▁туяліс	-3474
▁туӧмсӧ	-3475
▁тыртӧм	-3476
▁тырӧма	-3477
▁тыястӧ	-3478
▁тэрыба	-3479
▁тіянӧс	-3480
▁убороч	-3481
▁уджныс	-3482
▁уджтӧг	-3483
▁удитіс	-3484
▁узьсяс	-3485
▁узьӧны	-3486
▁уланыс	-3487
▁унатор	-3488
▁универ	-3489
▁унмысь	-3490
▁уткаяс	-3491
▁чатрас	-3492
▁чериӧн	-3493
▁чеччис	-3494
▁чужӧмӧ	-3495
▁чукыля	-3496
▁чукӧра	-3497
▁чутнит	-3498
▁шензис	-3499
ея	-3500
Сыс	-3501
али	-3502
алы	-3503
иня	-3504
пӧг	-3505
чер	-3506
чея	-3507
шин	-3508
▁16	-3509
▁Да	-3510
▁ді	-3511
▁ли	-3512
асны	-3513
сьым	-3514
▁али	-3515
▁ваӧ	-3516
▁куй	-3517
▁мис	-3518
▁ног	-3519
▁яра	-3520
ашалы	-3521
▁Сюра	-3522
▁воӧм	-3523
▁вӧчӧ	-3524
▁комн	-3525
▁мися	-3526
▁пидз	-3527
▁пиня	-3528
▁пиӧд	-3529
▁прав	-3530
▁пӧри	-3531
▁сӧвт	-3532
сюрӧяс	-3533
ӧзӧдіс	-3534
▁Кыліс	-3535
▁Мыйсӧ	-3536
▁Недыр	-3537
▁аршин	-3538
▁вылад	-3539
▁горув	-3540
▁инась	-3541
▁лыддя	-3542
▁пучея	-3543
▁пӧлӧс	-3544
▁сапӧг	-3545
▁сувті	-3546
▁тайӧс	-3547
▁ылысь	-3548
кыдаліс	-3549
ъяссянь	-3550
ыныястӧ	-3551
▁Войвыв	-3552
▁Катька	-3553
▁Кузьма	-3554
▁Машалы	-3555
▁Сідзкӧ	-3556
▁нимтіс	-3557
▁раммис	-3558
▁увсьым	-3559
▁уджъяс	-3560
▁шомъяс	-3561
▁шоныда	-3562
▁шудаӧн	-3563
▁шуштӧм	-3564
▁шыасис	-3565
▁щельяс	-3566
▁ылыстч	-3567
▁ытшкан	-3568
▁ышловз	-3569
▁эжӧрӧн	-3570
▁югъялӧ	-3571
▁юрбитӧ	-3572
▁юыслӧн	-3573
▁юыштас	-3574
▁юӧръяс	-3575
▁яндзим	-3576
▁ёкмыль	-3577
▁ёнкодь	-3578
▁Ӧддзӧд	-3579
▁ӧзйысь	-3580
▁ӧтиным	-3581
▁ӧткаӧн	-3582
▁ӧтырыш	-3583
▁ӧшӧдӧм	-3584
айковмун	-3585
аладорас	-3586
андорӧдз	-3587
едицияын	-3588
едооцени	-3589
елӧйяслы	-3590
епонкаяс	-3591
ешитісны	-3592
избеннӧй	-3593
икыльӧсь	-3594
ительнӧй	-3595
каяссьыс	-3596
кодьясӧн	-3597
кыдвылын	-3598
ланымъяс	-3599
жӧ	-3600
ӧла	-3601
▁лы	-3602
улов	-3603
ялӧм	-3604
▁Кыт	-3605
▁Тор	-3606
▁дас	-3607
▁чой	-3608
аясын	-3609
аясӧс	-3610
дорыс	-3611
кӧмӧс	-3612
ялӧма	-3613
▁Бать	-3614
▁Григ	-3615
▁вира	-3616
▁кось	-3617
▁неӧт	-3618
▁перв	-3619
▁стан	-3620
▁чӧла	-3621
анінын	-3622
ланьыс	-3623
уловыд	-3624
▁Торъя	-3625
▁Шурик	-3626
▁ветлы	-3627
▁копыр	-3628
▁лыысь	-3629
▁пельп	-3630
▁тэчӧм	-3631
▁успеш	-3632
езъясӧн	-3633
цияясӧн	-3634
▁Кытысь	-3635
▁Степан	-3636
▁Тӧдӧны	-3637
▁волыны	-3638
▁кителя	-3639
▁ныркӧд	-3640
▁олісны	-3641
▁первом	-3642
▁письмӧ	-3643
▁позтыр	-3644
▁пыдӧсӧ	-3645
▁свинец	-3646
▁сідзжӧ	-3647
▁тыртіс	-3648
▁тӧдтӧм	-3649
▁ӧтласа	-3650
массӧвӧй	-3651
новеннӧй	-3652
одъяснас	-3653
оминъясӧ	-3654
омӧльтор	-3655
особитны	-3656
тмасисны	-3657
чардавны	-3658
чардаліс	-3659
ъясыслӧн	-3660
ыльмӧдлӧ	-3661
ыльтчӧма	-3662
ӧдчыштны	-3663
ӧмпырысь	-3664
▁Армияса	-3665
▁Бединыс	-3666
▁Белӧйяс	-3667
▁Бырӧдӧм	-3668
▁Ваньӧлы	-3669
▁Ваньӧӧс	-3670
▁Вӧралан	-3671
▁Главнӧй	-3672
▁Джуджыд	-3673
▁Дзикӧдз	-3674
▁Думайта	-3675
▁Дышӧдіс	-3676
▁Епимъяс	-3677
▁Задньӧй	-3678
▁Зэригас	-3679
▁Зэрсьыс	-3680
▁Идралін	-3681
▁Корсюрӧ	-3682
▁Кутчысь	-3683
▁Кымынкӧ	-3684
▁Кымӧрыс	-3685
▁Лудікӧн	-3686
▁Лысваыс	-3687
▁Мирӧвӧй	-3688
▁Морохин	-3689
▁Оборона	-3690
▁Овлывлӧ	-3691
▁Озырлун	-3692
▁Ордымыс	-3693
▁Пасьтӧм	-3694
▁Природа	-3695
▁Присада	-3696
▁Пукавны	-3697
▁Пунегов	-3698
▁Татілок	-3699
▁;	-3700
▁y	-3701
▁Ва	-3702
▁вы	-3703
▁ыс	-3704
ажын	-3705
ылӧм	-3706
▁Бур	-3707
▁дяд	-3708
▁мем	-3709
▁мын	-3710
▁тэд	-3711
▁Гӧрд	-3712
▁жаль	-3713
▁руда	-3714
▁тӧдӧ	-3715
▁юрын	-3716
тчисны	-3717
▁Пажын	-3718
▁аддза	-3719
▁аддзы	-3720
▁бӧжсӧ	-3721
▁горшӧ	-3722
▁долыд	-3723
▁дорас	-3724
▁йӧрыс	-3725
▁менам	-3726
▁нылыс	-3727
▁пӧтӧс	-3728
▁сувтӧ	-3729
▁шумӧн	-3730
ӧмъясыс	-3731
▁Гырысь	-3732
▁Ставыс	-3733
▁абуӧсь	-3734
▁быдмӧм	-3735
▁видзму	-3736
▁думъяс	-3737
▁китель	-3738
▁мӧдным	-3739
▁пипуыс	-3740
▁тӧдӧны	-3741
▁шемӧса	-3742
▁ыстыны	-3743
▁ёртлӧн	-3744
каньясыс	-3745
▁Калинин	-3746
▁Царицын	-3747
▁Чакотка	-3748
▁Чужӧмын	-3749
▁Чужӧмыс	-3750
▁Чупрово	-3751
▁Чӧскыда	-3752
▁абуджык	-3753
▁аддзыны	-3754
▁антимех	-3755
▁арлыдӧй	-3756
▁армияӧн	-3757
▁аскежъя	-3758
▁асланыс	-3759
▁белӧйяс	-3760
▁бергӧдч	-3761
▁берегыс	-3762
▁болскак	-3763
▁босьтад	-3764
▁босьтіс	-3765
▁босьтӧм	-3766
▁быдмыны	-3767
▁быдӧнлы	-3768
▁бырлӧны	-3769
▁бӧрйыны	-3770
▁вадорын	-3771
▁важиник	-3772
▁ваймӧма	-3773
▁вартӧма	-3774
▁вевттӧм	-3775
▁вермыны	-3776
▁весьтті	-3777
▁вешйыны	-3778
▁видзьяс	-3779
▁вижӧдіс	-3780
▁визувтӧ	-3781
▁вилкиӧн	-3782
▁воалӧны	-3783
▁войковт	-3784
▁войнаӧн	-3785
▁войтъяс	-3786
▁волісны	-3787
▁вотӧсыс	-3788
▁вуграся	-3789
▁вугырӧн	-3790
▁вузалін	-3791
▁вузасис	-3792
▁вылӧдыс	-3793
▁вынсьыс	-3794
▁вӧвліны	-3795
▁вӧснаыс	-3796
▁главнӧй	-3797
▁гожӧмын	-3798
▁граждан	-3799
ям	-3800
над	-3801
▁пӧ	-3802
▁Тош	-3803
▁Удж	-3804
▁Эрд	-3805
▁гач	-3806
▁куш	-3807
ыльті	-3808
▁Кась	-3809
▁Сель	-3810
▁вель	-3811
▁гӧсь	-3812
▁деда	-3813
▁доза	-3814
▁кыйӧ	-3815
▁сыын	-3816
▁чуть	-3817
айскӧй	-3818
градӧн	-3819
лыськӧ	-3820
▁Вылын	-3821
▁Зэрыс	-3822
▁вижов	-3823
▁висьӧ	-3824
▁горӧн	-3825
▁дойӧн	-3826
▁дінад	-3827
▁зверь	-3828
▁кымӧс	-3829
▁логсӧ	-3830
▁нюліс	-3831
▁парма	-3832
▁пиысь	-3833
▁шобді	-3834
▁шудыд	-3835
льӧдчис	-3836
ӧдыштны	-3837
▁вундан	-3838
▁ковмас	-3839
▁луннас	-3840
▁майшас	-3841
▁пӧвйӧн	-3842
▁седлӧа	-3843
▁чардби	-3844
▁ӧткодь	-3845
ігӧгӧрын	-3846
▁Асныров	-3847
▁боксянь	-3848
▁гажаӧсь	-3849
▁граница	-3850
▁грымгӧм	-3851
▁грӧзитӧ	-3852
▁гылалӧм	-3853
▁гымавны	-3854
▁гымалас	-3855
▁гӧбльӧк	-3856
▁держава	-3857
▁дженьыд	-3858
▁дзавъяс	-3859
▁дзиръяа	-3860
▁дзирыда	-3861
▁дойясыд	-3862
▁дорсянь	-3863
▁дырджык	-3864
▁жайӧдіс	-3865
▁задньӧй	-3866
▁идралан	-3867
▁йывлань	-3868
▁йывсьыд	-3869
▁йывсьыс	-3870
▁кажитчы	-3871
▁кажитчӧ	-3872
▁казявлы	-3873
▁казяліс	-3874
▁канаваӧ	-3875
▁карлань	-3876
▁кашӧвар	-3877
▁керавны	-3878
▁керкаын	-3879
▁книгаас	-3880
▁кодьӧсь	-3881
▁койтъяс	-3882
▁кокавны	-3883
▁кокньӧд	-3884
▁кольӧма	-3885
▁косджык	-3886
▁косьтад	-3887
▁куйлысь	-3888
▁кулӧмыд	-3889
▁кустъяс	-3890
▁кутчысь	-3891
▁кутшӧма	-3892
▁кутӧмӧн	-3893
▁кухняас	-3894
▁кыддзыс	-3895
▁кыдзлӧн	-3896
▁кыдзьяс	-3897
▁кыйисны	-3898
▁кымынкӧ	-3899
▁18	-3900
▁Дядя	-3901
▁кысӧ	-3902
▁кыті	-3903
▁Мыйта	-3904
▁агита	-3905
▁гуляй	-3906
▁лымсӧ	-3907
▁пӧрӧд	-3908
▁самӧй	-3909
▁вермыв	-3910
▁тьӧтка	-3911
▁участв	-3912
▁ыпъялӧ	-3913
▁Гришлӧн	-3914
▁кымӧрыд	-3915
▁кырымсӧ	-3916
▁кӧлуйӧс	-3917
▁кӧсйӧны	-3918
▁кӧтӧдас	-3919
▁лавкаын	-3920
▁локтысь	-3921
▁локтӧны	-3922
▁ломтыны	-3923
▁лысьтас	-3924
▁лэдзӧны	-3925
▁лэччысь	-3926
▁лёкджык	-3927
▁лӧзӧдіс	-3928
▁матысмӧ	-3929
▁матӧдіс	-3930
▁медъёна	-3931
▁мездмӧм	-3932
▁местасӧ	-3933
▁мобилиз	-3934
▁мойдкыв	-3935
▁мунтӧдз	-3936
▁мунісны	-3937
▁мыйлакӧ	-3938
▁мыйсюрӧ	-3939
▁мыйтакӧ	-3940
▁мӧдлаын	-3941
▁мӧдісны	-3942
▁невеста	-3943
▁некодӧн	-3944
▁некодӧс	-3945
▁нешудыд	-3946
▁неӧтчыд	-3947
▁нидзула	-3948
▁нимкодь	-3949
▁нуӧдӧны	-3950
▁нывкаяс	-3951
▁нырисыд	-3952
▁ньӧръяс	-3953
▁нэриник	-3954
▁нюжаліс	-3955
▁озырлун	-3956
▁опаснӧй	-3957
▁отсаліс	-3958
▁палатка	-3959
▁палялӧм	-3960
▁паметяд	-3961
▁паныдав	-3962
▁паськӧд	-3963
▁педагог	-3964
▁пельпом	-3965
▁пестӧны	-3966
▁петавны	-3967
▁петанін	-3968
▁петныяс	-3969
▁петігӧн	-3970
▁петӧмӧн	-3971
▁пипулӧн	-3972
▁пожӧмыс	-3973
▁полӧмсӧ	-3974
▁помасис	-3975
▁помасяс	-3976
▁помкаыс	-3977
▁помъяса	-3978
▁поэтлӧн	-3979
▁прӧстӧй	-3980
▁пукаліс	-3981
▁пуксьӧм	-3982
▁пуктӧма	-3983
▁пуктӧны	-3984
▁пулемёт	-3985
▁пурлысь	-3986
▁пусьӧма	-3987
▁пуяслӧн	-3988
▁пызьысь	-3989
▁пыраліс	-3990
▁пырейӧн	-3991
▁пырисны	-3992
▁пытшкын	-3993
▁пӧвстті	-3994
▁пӧвстӧн	-3995
▁пӧртӧма	-3996
▁рокӧссӧ	-3997
▁рудӧдны	-3998
▁рычагсӧ	-3999
▁сакарсӧ	-4000
▁сарайын	-4001
▁саялӧма	-4002
▁семьяяс	-4003
▁сертиыс	-4004
▁сиктысь	-4005
▁собавны	-4006
▁содтыны	-4007
▁спектак	-4008
▁станица	-4009
▁стеклӧӧ	-4010
▁судзмӧн	-4011
▁сулавны	-4012
▁сулаліс	-4013
▁сывъясӧ	-4014
▁сынӧдсӧ	-4015
▁сюсьӧсь	-4016
▁сяргӧны	-4017
▁сісьмӧм	-4018
▁табакыс	-4019
▁татшӧма	-4020
▁томджык	-4021
▁туиснас	-4022
▁тундраӧ	-4023
▁тупикӧн	-4024
▁тупкӧма	-4025
▁тусьӧсь	-4026
▁тшӧктіс	-4027
▁тшӧттӧм	-4028
▁тэчасны	-4029
▁тэчигӧн	-4030
▁тӧдмалі	-4031
▁тӧдчана	-4032
▁тӧлысся	-4033
▁увтчысь	-4034
▁увъясас	-4035
▁уджавны	-4036
▁уджӧдны	-4037
▁уличаыс	-4038
▁унакодь	-4039
▁уставыс	-4040
▁хасанов	-4041
▁ходлысь	-4042
▁частьяс	-4043
▁чукӧрті	-4044
▁чышъяна	-4045
▁чӧртъяс	-4046
▁шаньӧсь	-4047
▁шедӧдӧм	-4048
▁шондісӧ	-4049
▁шондіыс	-4050
▁шонтысь	-4051
▁шочиник	-4052
▁шумитны	-4053
▁шыбитіс	-4054
▁шӧркодя	-4055
▁шӧрлань	-4056
▁ывлавыв	-4057
▁ылысянь	-4058
▁ыпъяліс	-4059
▁ыркалӧм	-4060
▁ыркыдыс	-4061
▁ышӧдана	-4062
▁эновтны	-4063
▁эрдӧдны	-4064
▁эшкынӧн	-4065
▁югъяліс	-4066
▁югыдысь	-4067
▁югыдінӧ	-4068
▁Ӧддзӧді	-4069
▁Ӧтилаын	-4070
▁ӧдъясӧн	-4071
▁ӧружиеа	-4072
▁ӧтгырся	-4073
▁ӧткымын	-4074
▁ӧшинюлӧ	-4075
андуйтысь	-4076
анінӧдзыс	-4077
ированнӧй	-4078
ительство	-4079
итчӧмаӧсь	-4080
мӧмвылысь	-4081
овичьяслы	-4082
олётъясыд	-4083
паськӧмӧс	-4084
татшӧмъяс	-4085
тшкакывны	-4086
тъясыскӧд	-4087
унігмозыс	-4088
ыввывлань	-4089
ӧсъяссьыс	-4090
▁Быдлаысь	-4091
▁Ваддорса	-4092
▁Водінныд	-4093
▁Войшӧрса	-4094
▁Вундігӧн	-4095
▁Енвевтын	-4096
▁Ивановна	-4097
▁Кодъяскӧ	-4098
▁Командир	-4099
▁Кремльса	-4100
▁Крукасис	-4101
▁Кулӧмаӧс	-4102
▁Максимлы	-4103
▁Микитъяс	-4104
▁Мурӧстіс	-4105
▁Народнӧй	-4106
▁Нетулика	-4107
▁Неылысса	-4108
▁Павеллӧн	-4109
▁Первойсӧ	-4110
▁Петкӧдлі	-4111
▁Письмӧса	-4112
▁Пожъясян	-4113
▁Пуляясыс	-4114
▁Пӧлашысь	-4115
▁Свежовӧс	-4116
▁Сентябрь	-4117
▁Синъясас	-4118
▁Синъяслы	-4119
▁Спасскӧй	-4120
▁Спиридон	-4121
▁Сюринныд	-4122
▁Тӧдлытӧг	-4123
▁Юрчиклӧн	-4124
▁аддзисны	-4125
▁аддзывны	-4126
▁аддзыліс	-4127
▁аддзысим	-4128
▁ассьыныс	-4129
▁босьтӧны	-4130
▁бузнитны	-4131
▁бумагаяс	-4132
▁бурджыка	-4133
▁быдмисны	-4134
▁быттьӧкӧ	-4135
▁валъясис	-4136
▁васӧдмӧм	-4137
▁вежонысь	-4138
▁велавтӧм	-4139
▁вермисны	-4140
▁веськалӧ	-4141
▁веськодь	-4142
▁весьтӧдз	-4143
▁ветлытӧм	-4144
▁ветлӧдлі	-4145
▁видзӧдіс	-4146
▁визулӧсь	-4147
▁водзджык	-4148
▁водзсьыс	-4149
▁воинлысь	-4150
▁войскаяс	-4151
▁воодушед	-4152
▁воспитай	-4153
▁воӧмаӧсь	-4154
▁вувзьысь	-4155
▁вужъяссӧ	-4156
▁вунӧдӧма	-4157
▁вылісянь	-4158
▁вӧвъясӧс	-4159
▁вӧръясыд	-4160
▁гезъясӧн	-4161
▁горзісны	-4162
▁гӧрдӧдіс	-4163
▁гӧрдӧдӧм	-4164
▁дареволю	-4165
▁движение	-4166
▁джаджъяс	-4167
▁джынвыйӧ	-4168
▁дзебсясь	-4169
▁едждӧдіс	-4170
▁жуялӧмӧн	-4171
▁заборъяс	-4172
▁заводитӧ	-4173
▁зверлысь	-4174
▁зонпосни	-4175
▁зорӧдысь	-4176
▁зургысис	-4177
▁зэрӧдзыс	-4178
▁зӧридзӧн	-4179
▁известнӧ	-4180
▁инмӧмысь	-4181
▁казакъяс	-4182
▁каръясын	-4183
▁катовтӧм	-4184
▁кевмисны	-4185
▁кезйӧдлӧ	-4186
▁километр	-4187
▁киньясӧн	-4188
▁кияснысӧ	-4189
▁клеверӧн	-4190
▁клеёнкаа	-4191
▁ковтысыс	-4192
▁ковтӧмӧн	-4193
▁кодзулӧн	-4194
▁койыштіс	-4195
▁коланаӧн	-4196
▁красноар	-4197
▁кубометр	-4198
▁кутчысис	-4199
▁кучкисны	-4200
▁кывтісны	-4201
▁кывъясыс	-4202
▁кыйдӧсӧн	-4203
▁кыкнанӧн	-4204
▁кымӧртор	-4205
▁кымӧръяс	-4206
▁кыпыдӧсь	-4207
▁кыскавны	-4208
▁кышасьӧм	-4209
▁кӧдздӧма	-4210
▁кӧкъямыс	-4211
▁кӧлуйысь	-4212
▁кӧтасьӧм	-4213
▁ловъяӧсь	-4214
▁лолывліс	-4215
▁лунъясын	-4216
▁лыддьыны	-4217
▁лыддьӧны	-4218
▁лэбалӧны	-4219
▁лэбыштас	-4220
▁лэптісны	-4221
▁ляпкыдик	-4222
▁лӧглунӧн	-4223
▁лӧсьӧдчӧ	-4224
▁маршалӧс	-4225
▁мастерыс	-4226
▁матіясас	-4227
▁матӧджык	-4228
▁машинаыс	-4229
▁машиннӧй	-4230
▁миритчӧм	-4231
▁мичлуныс	-4232
▁моздорӧн	-4233
▁морозъяс	-4234
▁мукӧдтор	-4235
▁мукӧдъяс	-4236
▁мурӧстіс	-4237
▁мӧдӧдчим	-4238
▁мӧдӧдчис	-4239
▁найӧясӧс	-4240
▁нинӧмысь	-4241
▁номйыдлы	-4242
▁няклялӧм	-4243
▁оланіныс	-4244
▁омӧльтор	-4245
▁ордымъяс	-4246
▁ортӧдзыс	-4247
▁отделъяс	-4248
▁партийно	-4249
▁паръяссӧ	-4250
▁паськыда	-4251
▁пасьтала	-4252
▁пельӧсад	-4253
▁пемыдлӧз	-4254
▁первойтӧ	-4255
▁песовтіс	-4256
▁петавліс	-4257
▁петалӧма	-4258
▁петкӧдлы	-4259
▁петкӧдіс	-4260
▁посёлокӧ	-4261
▁потшисны	-4262
▁почетнӧй	-4263
▁практика	-4264
▁приказын	-4265
▁приятнӧй	-4266
▁производ	-4267
▁пуктісны	-4268
▁пулемёта	-4269
▁пуляясыс	-4270
▁пывсьӧны	-4271
▁пӧвстысь	-4272
▁пӧрысьяс	-4273
▁пӧрӧдӧма	-4274
▁ранитӧны	-4275
▁решитчис	-4276
▁рытъясын	-4277
▁рӧмъясӧн	-4278
▁сайӧдӧма	-4279
▁самӧварӧ	-4280
▁сезоннӧй	-4281
▁синъяслы	-4282
▁синъяссӧ	-4283
▁синъясӧн	-4284
▁слӧймыны	-4285
▁совъяссӧ	-4286
▁содтӧдъя	-4287
▁сортовка	-4288
▁соталӧны	-4289
▁стариклы	-4290
▁странаын	-4291
▁странаӧс	-4292
▁страшнӧй	-4293
▁сувтӧдіс	-4294
▁сулалӧны	-4295
▁сулӧдӧны	-4296
▁сьӧдӧдӧм	-4297
▁сьӧлӧмын	-4298
▁сьӧлӧмыс	-4299
▁сёрниным	-4300
▁сӧвмӧмын	-4301
▁татшӧмсӧ	-4302
▁томлунас	-4303
▁торйӧдіс	-4304
▁тупӧсьсӧ	-4305
▁туриясӧн	-4306
▁турунъяс	-4307
▁турунысь	-4308
▁турӧбъяс	-4309
▁тыдалӧны	-4310
▁тэрмасис	-4311
▁тӧдмавны	-4312
▁тӧдсаинӧ	-4313
▁увтчисны	-4314
▁увъяснас	-4315
▁уджавліс	-4316
▁уджалысь	-4317
▁урожайсӧ	-4318
▁успешнӧя	-4319
▁цветитіс	-4320
▁чашйисны	-4321
▁чеччавны	-4322
▁чинтытӧг	-4323
▁чӧвлӧняс	-4324
▁шебрасӧн	-4325
▁шерыслӧн	-4326
▁шӧпкӧдіс	-4327
▁щельясӧд	-4328
▁ышловзис	-4329
▁югдыштас	-4330
▁японскӧй	-4331
▁ӧвтыштіс	-4332
▁ӧдӧлитас	-4333
▁ӧтырышъя	-4334
▁ӧшиньяса	-4335
Сысольскын	-4336
войвывсянь	-4337
епонкаясыс	-4338
ечательнӧй	-4339
ительностя	-4340
ситетъясын	-4341
чимъясӧдыс	-4342
▁Аддзывлан	-4343
▁Валентина	-4344
▁Витьӧясын	-4345
▁Волгалань	-4346
▁Восьлавны	-4347
▁Гымалігад	-4348
▁Дженьыдик	-4349
▁Дугдывтӧг	-4350
▁Елькинлӧн	-4351
▁Иванычьяс	-4352
▁Кодсюрӧяс	-4353
▁Коймӧдъяс	-4354
▁Кӧдзыдъяс	-4355
▁Кӧинъяслы	-4356
▁Медводдза	-4357
▁Ноддясянь	-4358
▁Паськӧмӧй	-4359
▁Решитісны	-4360
▁Советскӧй	-4361
▁Сӧветскӧй	-4362
▁Чеглалӧма	-4363
▁амбаръясӧ	-4364
▁армияясӧс	-4365
▁асывводзӧ	-4366
▁бандитъяс	-4367
▁белӧйяслы	-4368
▁боецъясӧс	-4369
▁бонзьӧдӧм	-4370
▁босьтісны	-4371
▁броневикӧ	-4372
▁быдмӧмаыс	-4373
▁вевттьӧма	-4374
▁вевтӧдзыс	-4375
▁велӧдчӧны	-4376
▁вермывліс	-4377
▁веськӧдны	-4378
▁веськӧдіс	-4379
▁ветлӧдлім	-4380
▁видзысьяс	-4381
▁висьтавны	-4382
▁висьталам	-4383
▁волӧмаӧсь	-4384
▁воротаысь	-4385
▁восьсаинӧ	-4386
▁воысьясӧс	-4387
▁врагъясӧс	-4388
▁вӧйтчӧмӧн	-4389
▁вӧрӧдісны	-4390
▁гижанборд	-4391
▁горзӧмъяс	-4392
▁грамотаӧй	-4393
▁границаяс	-4394
▁гӧгӧрвоис	-4395
▁гӧгӧрвоны	-4396
▁детинкаыс	-4397
▁дзебӧмтор	-4398
▁дзоридзӧн	-4399
▁долженӧсь	-4400
▁дугдывтӧг	-4401
▁жмутвидзӧ	-4402
▁жугласьӧм	-4403
▁жугӧдлыны	-4404
▁зверьясӧн	-4405
▁йӧраяслӧн	-4406
▁кадланьыс	-4407
▁казьтылӧм	-4408
▁казьтышті	-4409
▁картасьыс	-4410
▁картупель	-4411
▁кассалань	-4412
▁катласьны	-4413
▁каттьысис	-4414
▁катыдлань	-4415
▁керкасянь	-4416
▁керкаясас	-4417
▁китшкӧмӧн	-4418
▁кодзувъяс	-4419
▁кодлыськӧ	-4420
▁коймӧдъяс	-4421
▁кокаласны	-4422
▁колльӧдны	-4423
▁колхознӧй	-4424
▁колхозъяс	-4425
▁кольччӧны	-4426
▁комнатасӧ	-4427
▁котӧртӧны	-4428
▁курччӧмӧн	-4429
▁кывбуръяс	-4430
▁кытшовтӧм	-4431
▁кӧртавлім	-4432
▁лайковмун	-4433
▁лыддьысям	-4434
▁лэптывліс	-4435
▁лэччыштан	-4436
▁лӧсьӧдӧма	-4437
▁матыстчис	-4438
▁миритчыны	-4439
▁мичлуннас	-4440
▁миянланьӧ	-4441
▁морӧсъяса	-4442
▁муркӧдчӧм	-4443
▁мыгӧръяса	-4444
▁недооцени	-4445
▁нимкодясь	-4446
▁нитшсялӧм	-4447
▁нурбыльті	-4448
▁нывбабаыс	-4449
▁нюжмасьӧм	-4450
▁нюклясьны	-4451
▁няръялӧма	-4452
▁обязанӧсь	-4453
▁овмӧслысь	-4454
▁организац	-4455
▁ордйысьӧм	-4456
▁орудиеысь	-4457
▁орӧдлісны	-4458
▁паныдаліс	-4459
▁панялісны	-4460
▁пармалысь	-4461
▁паськаліс	-4462
▁паськӧдны	-4463
▁пемдытӧдз	-4464
▁переулокӧ	-4465
▁петкӧдлан	-4466
▁петӧмаӧсь	-4467
▁писькӧдчы	-4468
▁повзьӧдчӧ	-4469
▁получитіс	-4470
▁помтӧмӧсь	-4471
▁портитчис	-4472
▁посёлокас	-4473
▁потласьны	-4474
▁потшӧсъяс	-4475
▁пукалісны	-4476
▁пӧрысьлун	-4477
▁пӧрӧдісны	-4478
▁радейтӧны	-4479
▁районувса	-4480
▁салдатысь	-4481
▁священнӧй	-4482
▁синъяснад	-4483
▁складъясӧ	-4484
▁социализм	-4485
▁социалист	-4486
▁срокъясӧн	-4487
▁страксьыс	-4488
▁сьӧлаясӧс	-4489
▁сюмалӧмыс	-4490
▁сяльӧдчис	-4491
▁сёрмӧдчин	-4492
▁сӧветскӧй	-4493
▁тайӧяслӧн	-4494
▁томйӧзлӧн	-4495
▁тракнитіс	-4496
▁трачӧдчӧм	-4497
▁тышкасьны	-4498
▁тышкасьӧм	-4499
▁тэрмасьны	-4500
▁тӧдсаясӧс	-4501
▁тӧдчанлун	-4502
▁уборочнӧй	-4503
▁фермаясӧн	-4504
▁центнерӧн	-4505
▁чашнитӧма	-4506
▁чикыльӧсь	-4507
▁чужӧмнысӧ	-4508
▁чукӧрмыны	-4509
▁чутнитлӧм	-4510
▁школаясын	-4511
▁шойччалӧм	-4512
▁шпынняліс	-4513
▁шуркнитіс	-4514
▁ыджыдкодь	-4515
▁югӧръясӧн	-4516
▁ӧказияысь	-4517
▁ӧшиньяссӧ	-4518
▁ӧшйӧмаӧсь	-4519
анизаторъяс	-4520
арствоясысь	-4521
тӧмторъяссӧ	-4522
▁Епимъяслӧн	-4523
▁Комиссарӧс	-4524
▁Московскӧй	-4525
▁Мунігмозыс	-4526
▁Неприятель	-4527
▁Переулокыс	-4528
▁Печораӧдыс	-4529
▁Питеръясын	-4530
▁Радейтісны	-4531
▁Ставсоюзса	-4532
▁Татілокысь	-4533
▁Тэрыбджыка	-4534
▁автомобиль	-4535
▁асланымъяс	-4536
▁бадькормык	-4537
▁босьтлісны	-4538
▁босьтӧмаыс	-4539
▁босьтӧмаяс	-4540
▁броневикса	-4541
▁броневикыс	-4542
▁броневичок	-4543
▁бурӧдыштны	-4544
▁бушколъяса	-4545
▁велӧдысьлы	-4546
▁веркӧсӧдыс	-4547
▁веськалӧны	-4548
▁веськӧдчис	-4549
▁вешйылісны	-4550
▁видзторъяс	-4551
▁висьтавліс	-4552
▁виччысьтӧг	-4553
▁водзсьыныс	-4554
▁войковтліс	-4555
▁выиграйтін	-4556
▁гижӧдъяссӧ	-4557
▁главнӧйтор	-4558
▁гӧгӧрвоана	-4559
▁гӧгӧрволім	-4560
▁гӧсьтъясӧс	-4561
▁дзирдалысь	-4562
▁дзирдалӧны	-4563
▁дзользьысь	-4564
▁дзоридзысь	-4565
▁дозмӧрыслы	-4566
▁дядьӧыслӧн	-4567
▁жбыркнитіс	-4568
▁жугласьӧны	-4569
▁йӧйсямӧмӧн	-4570
▁кажитчасны	-4571
▁катшасинӧн	-4572
▁кесйӧдлыны	-4573
▁кисьтыштіс	-4574
▁коймӧдлаын	-4575
▁кокниджыка	-4576
▁колхозница	-4577
▁котӧртісны	-4578
▁куканьясыс	-4579
▁кулысьясӧс	-4580
▁кутшӧмсюрӧ	-4581
▁кывтыдлань	-4582
▁кыпыдлунӧн	-4583
▁лелькуйтны	-4584
▁лолавсьыны	-4585
▁лыддьыссьӧ	-4586
▁лыддьӧдліс	-4587
▁лыйсьӧмъяс	-4588
▁лэдзанінын	-4589
▁лӧсьӧдчыны	-4590
▁машиналань	-4591
▁машинаяссӧ	-4592
▁мӧдӧдчисны	-4593
▁надзӧнджык	-4594
▁надзӧникӧн	-4595
▁никольскӧй	-4596
▁ньӧръясысь	-4597
▁олӧмыслысь	-4598
▁орденъяссӧ	-4599
▁отаджыкӧсь	-4600
▁парторгъяс	-4601
▁пельяссьыс	-4602
▁петкӧдлыны	-4603
▁повзьӧдчӧм	-4604
▁пожӧмъясӧс	-4605
▁позялыштас	-4606
▁помасьӧмӧн	-4607
▁пӧлыньтчӧм	-4608
▁пӧльыштлас	-4609
▁пӧчныслысь	-4610
▁разведкаыс	-4611
▁рытъядорыс	-4612
▁специалист	-4613
▁ставсоюзса	-4614
▁сталинскӧй	-4615
▁сьӧктаммӧм	-4616
▁сярвидзысь	-4617
▁сёрнитісны	-4618
▁сӧвтӧмаӧсь	-4619
▁тормозитін	-4620
▁тшетшвидзӧ	-4621
▁тьӧткаыслы	-4622
▁тӧдлӧмаӧсь	-4623
▁тӧрӧканлӧн	-4624
▁умышленнӧя	-4625
▁успехъясӧн	-4626
▁уськӧдчыны	-4627
▁чорыдджыка	-4628
▁чужысьясӧс	-4629
▁чышкысьӧны	-4630
▁шатинъяссӧ	-4631
▁шондіястӧг	-4632
▁шыбласьӧны	-4633
▁шыдӧсъяссӧ	-4634
▁шыдӧсъясӧн	-4635
▁шылькнитіс	-4636
▁ылыстчыліс	-4637
▁ӧвтыштісны	-4638
▁ӧткодьясӧн	-4639
анизаторскӧй	-4640
войвывсяньыс	-4641
политическӧй	-4642
▁Ворошиловӧс	-4643
▁Григоръевич	-4644
▁Колхозъясын	-4645
▁Льӧмватӧгыс	-4646
▁Мӧдлапӧлысь	-4647
▁Паськыдкодь	-4648
▁Погонъястӧм	-4649
▁Татшӧмъясыд	-4650
▁Техническӧй	-4651
▁Уличпӧлӧнса	-4652
▁агитационно	-4653
▁артиллерист	-4654
▁бергӧдлытӧг	-4655
▁бергӧдчыныс	-4656
▁берегъястӧм	-4657
▁болскакыліс	-4658
▁большевикӧн	-4659
▁бригадиръяс	-4660
▁вежонъяснас	-4661
▁вежсьӧмаӧсь	-4662
▁веравтӧдзыд	-4663
▁веськыдаліс	-4664
▁взрывъяслӧн	-4665
▁виртӧммӧдӧм	-4666
▁вооружитчӧм	-4667
▁вошӧмъяскӧд	-4668
▁вуграсьнытӧ	-4669
▁горзігтырйи	-4670
▁гражданскӧй	-4671
▁гуляйтігмоз	-4672
▁гӧгӧрвоисны	-4673
▁дженьдаммӧм	-4674
▁дзользьӧмӧн	-4675
▁зонкауловыд	-4676
▁ичӧтдырйиыс	-4677
▁казьтывлыны	-4678
▁каттьысьӧны	-4679
▁кокувсяньыс	-4680
▁колхозъясын	-4681
▁колхозъясӧн	-4682
▁кольччӧмлӧн	-4683
▁копыртыштіс	-4684
▁котраланныд	-4685
▁куткырвидзӧ	-4686
▁кымӧрторъяс	-4687
▁лобогрейкаӧ	-4688
▁лыддьӧдлыны	-4689
▁лыдпасъясыс	-4690
▁лэбачьяслӧн	-4691
▁майшассьӧма	-4692
▁мастерыскӧд	-4693
▁матігӧгӧрын	-4694
▁местаясӧдыс	-4695
▁нӧгыльтчӧма	-4696
▁обеспечитіс	-4697
▁паськыдкодь	-4698
▁паськӧмнысӧ	-4699
▁пидзӧсӧдзыс	-4700
▁приданнӧйӧн	-4701
▁проиграйтін	-4702
▁пывсянъясыд	-4703
▁пывсянъясын	-4704
▁пӧртмасисны	-4705
▁решительнӧй	-4706
▁самурайяслы	-4707
▁старайтчӧны	-4708
▁сьӧктаммӧдӧ	-4709
▁торпыригъяс	-4710
▁трудоденьсӧ	-4711
▁туганъяснас	-4712
▁тӧдтӧмъясӧс	-4713
▁уськӧдчисны	-4714
▁участвуйтан	-4715
▁хасановский	-4716
▁чатрасигтыр	-4717
▁чибльӧгалӧм	-4718
▁чорыдджыкӧс	-4719
комсомольскӧй	-4720
▁Веськыдвылын	-4721
▁Ворошиловлӧн	-4722
▁Ефремовичкӧд	-4723
▁Колхозникъяс	-4724
▁Морохинъясӧс	-4725
▁Пешкинъяслӧн	-4726
▁Пятиизбеннӧй	-4727
▁Сталинградӧн	-4728
▁берегпӧлӧнса	-4729
▁видзчысьӧмӧн	-4730
▁видзӧдласъяс	-4731
▁воротаяссьыс	-4732
▁воськовъясӧс	-4733
▁гӧгӧрбоксянь	-4734
▁гӧгӧрвотӧмыс	-4735
▁дзоридзьясӧн	-4736
▁дзугыльмӧдлӧ	-4737
▁домавлӧмаӧсь	-4738
▁используйтны	-4739
▁колхозникъяс	-4740
▁командуйтысь	-4741
▁косджыкъяссӧ	-4742
▁краснӧйяслӧн	-4743
▁лайковмунӧма	-4744
▁лэччандорӧдз	-4745
▁мастерджыкыс	-4746
▁мобилизуйтны	-4747
▁мойдкывъяссӧ	-4748
▁настроениеяс	-4749
▁обыкновеннӧй	-4750
▁пальӧдчыштны	-4751
▁первомайскӧй	-4752
▁писькӧдчисны	-4753
▁повзьӧдлісны	-4754
▁посньыдикӧсь	-4755
▁пӧлыньтлӧмӧн	-4756
▁пӧрӧдлӧмаӧсь	-4757
▁растеряйтчис	-4758
▁рытыввывлань	-4759
▁сьӧкыдпырысь	-4760
▁томджыкъясӧс	-4761
▁тратшкакывны	-4762
▁фактъясыскӧд	-4763
▁шарзьыштісны	-4764
▁шойтчыныястӧ	-4765
▁шонтысьыштны	-4766
▁шуйгаладорас	-4767
▁экспедицияын	-4768
▁эстетическӧй	-4769
▁ӧдзӧсъяссьыс	-4770
▁Вертолётъясыд	-4771
▁Колхозъяссянь	-4772
▁Костроминъясӧ	-4773
▁бронированнӧй	-4774
▁видзӧдлывлӧны	-4775
▁винтовкаяслӧн	-4776
▁воспитайтасны	-4777
▁вувзьысьӧмъяс	-4778
▁гӧбльӧкъясысь	-4779
▁жалитӧмпырысь	-4780
▁замечательнӧй	-4781
▁калиткаяссьыс	-4782
▁колхозниклысь	-4783
▁матыстчылісны	-4784
▁нимкодьпырысь	-4785
▁нёкчимъясӧдыс	-4786
▁организацияяс	-4787
▁перепонкаясыс	-4788
▁переулокъясас	-4789
▁правительство	-4790
▁приспособитны	-4791
▁скӧрмӧмвылысь	-4792
▁сёрнитысьясӧс	-4793
▁торпыригъясыс	-4794
▁Медводдзаысьсӧ	-4795
▁Сельсӧветъясса	-4796
▁видзӧдлӧмъясыс	-4797
▁колхозникъясӧс	-4798
▁механизаторъяс	-4799
▁нимкодясьлісны	-4800
▁общественность	-4801
▁педагогическӧй	-4802
▁председательыс	-4803
▁сельсӧветъясса	-4804
▁сэтшӧмъясыслӧн	-4805
▁теплоходъяснас	-4806
▁шойччалӧмъясӧн	-4807
▁Михайловичьяслы	-4808
▁воодушедитчӧмӧн	-4809
▁дареволюцияясӧн	-4810
▁красноармейскӧй	-4811
▁пакӧститчӧмаӧсь	-4812
▁специалистъясӧн	-4813
Вӧ	-4814
Де	-4815
Дж	-4816
Не	-4817
Об	-4818
Рӧ	-4819
бн	-4820
вб	-4821
вй	-4822
вя	-4823
дв	-4824
дч	-4825
еӧ	-4826
жй	-4827
жт	-4828
зн	-4829
ии	-4830
их	-4831
ке	-4832
лэ	-4833
лё	-4834
ню	-4835
рл	-4836
рп	-4837
рӧ	-4838
сй	-4839
тд	-4840
це	-4841
шн	-4842
шо	-4843
шу	-4844
эс	-4845
юӧ	-4846
ӧя	-4847
Зэр	-4848
Кӧд	-4849
Сов	-4850
Сыл	-4851
Хох	-4852
аве	-4853
акӧ	-4854
арн	-4855
ашй	-4856
гсӧ	-4857
дзс	-4858
дым	-4859
еви	-4860
едж	-4861
ена	-4862
енэ	-4863
епр	-4864
ерл	-4865
еск	-4866
етс	-4867
жие	-4868
жсӧ	-4869
зит	-4870
зяв	-4871
зял	-4872
ибд	-4873
игт	-4874
иза	-4875
инс	-4876
ирд	-4877
ирш	-4878
иыд	-4879
клӧ	-4880
мит	-4881
мӧв	-4882
нэж	-4883
оал	-4884
оиз	-4885
оне	-4886
орг	-4887
оын	-4888
пек	-4889
пец	-4890
рсӧ	-4891
руз	-4892
рук	-4893
ськ	-4894
тӧй	-4895
тӧн	-4896
узь	-4897
ума	-4898
уны	-4899
Бр	-4900
Ву	-4901
Еф	-4902
Сю	-4903
▁	-4904
с	-4905
ӧ	-4906
ы	-4907
а	-4908
н	-4909
д	-4910
о	-4911
т	-4912
к	-4913
л	-4914
р	-4915
и	-4916
в	-4917
м	-4918
ь	-4919
е	-4920
у	-4921
.	-4922
я	-4923
з	-4924
й	-4925
,	-4926
п	-4927
і	-4928
ш	-4929
г	-4930
ч	-4931
ж	-4932
ъ	-4933
б	-4934
э	-4935
К	-4936
М	-4937
ю	-4938
В	-4939
-	-4940
—	-4941
С	-4942
ё	-4943
Т	-4944
х	-4945
П	-4946
Н	-4947
?	-4948
А	-4949
!	-4950
И	-4951
ц	-4952
Г	-4953
Л	-4954
Д	-4955
Б	-4956
О	-4957
Ч	-4958
ф	-4959
Ӧ	-4960
Е	-4961
У	-4962
Ш	-4963
Э	-4964
A	-4965
a	-4966
З	-4967
Р	-4968
:	-4969
«	-4970
»	-4971
1	-4972
щ	-4973
–	-4974
2	-4975
9	-4976
Х	-4977
(	-4978
)	-4979
0	-4980
4	-4981
5	-4982
8	-4983
Й	-4984
Ы	-4985
Ю	-4986
3	-4987
6	-4988
;	-4989
e	-4990
o	-4991
y	-4992
Ж	-4993
Ф	-4994
Ц	-4995
Я	-4996
