<unk>	0
<s>	0
</s>	0
▁п	-0
▁,	-1
▁в	-2
▁с	-3
▁н	-4
▁.	-5
то	-6
ен	-7
ко	-8
ра	-9
ст	-10
▁и	-11
ро	-12
но	-13
▁о	-14
ли	-15
ка	-16
ре	-17
▁д	-18
▁по	-19
го	-20
ет	-21
▁м	-22
ни	-23
▁на	-24
ла	-25
ва	-26
ри	-27
▁б	-28
те	-29
ло	-30
ль	-31
ть	-32
за	-33
та	-34
ны	-35
во	-36
▁не	-37
▁ч	-38
на	-39
ки	-40
да	-41
▁у	-42
ер	-43
▁"	-44
ся	-45
▁за	-46
ти	-47
ле	-48
▁ко	-49
xx	-50
ру	-51
ени	-52
ми	-53
ди	-54
▁про	-55
▁В	-56
▁П	-57
▁к	-58
ви	-59
▁э	-60
▁что	-61
ей	-62
▁а	-63
▁-	-64
ем	-65
▁ка	-66
▁ра	-67
же	-68
▁С	-69
ма	-70
ес	-71
▁Н	-72
▁со	-73
▁К	-74
ля	-75
хо	-76
до	-77
▁т	-78
де	-79
ци	-80
мо	-81
▁то	-82
▁г	-83
▁от	-84
▁до	-85
не	-86
▁во	-87
▁!	-88
▁е	-89
ве	-90
чи	-91
бо	-92
▁вы	-93
▁М	-94
▁при	-95
▁го	-96
по	-97
жи	-98
ши	-99
ско	-100
си	-101
▁—	-102
ста	-103
▁И	-104
▁мо	-105
▁это	-106
сь	-107
▁бы	-108
се	-109
▁А	-110
ча	-111
сто	-112
ры	-113
▁об	-114
ду	-115
▁та	-116
сти	-117
га	-118
лю	-119
▁:	-120
▁Д	-121
▁О	-122
▁те	-123
ну	-124
▁я	-125
▁из	-126
сть	-127
ку	-128
па	-129
▁ре	-130
лу	-131
ги	-132
xxxx	-133
ски	-134
ме	-135
пи	-136
ют	-137
ной	-138
▁1	-139
▁Т	-140
▁бо	-141
▁пре	-142
▁)	-143
▁По	-144
со	-145
ше	-146
му	-147
ту	-148
ере	-149
ение	-150
би	-151
▁..	-152
ный	-153
▁ма	-154
▁но	-155
ные	-156
вы	-157
ще	-158
▁раз	-159
▁ф	-160
ных	-161
▁как	-162
ты	-163
▁де	-164
ения	-165
▁...	-166
нов	-167
са	-168
▁Б	-169
▁все	-170
▁2	-171
▁Р	-172
▁ни	-173
жа	-174
▁з	-175
▁У	-176
ря	-177
▁(	-178
▁ли	-179
ба	-180
▁Л	-181
▁бу	-182
ется	-183
ного	-184
тель	-185
щи	-186
гда	-187
▁Г	-188
ар	-189
ень	-190
▁хо	-191
ды	-192
ня	-193
ств	-194
▁са	-195
мы	-196
пе	-197
ков	-198
мен	-199
▁се	-200
▁кото	-201
▁Я	-202
ная	-203
▁лю	-204
дет	-205
▁да	-206
▁сво	-207
▁?	-208
▁На	-209
бе	-210
че	-211
▁@	-212
▁ми	-213
зо	-214
ша	-215
вер	-216
▁жи	-217
лы	-218
▁си	-219
▁для	-220
ния	-221
тра	-222
ться	-223
▁З	-224
лет	-225
▁под	-226
лен	-227
лько	-228
кой	-229
ции	-230
▁же	-231
бы	-232
▁Е	-233
▁ста	-234
ке	-235
ха	-236
ска	-237
ство	-238
xxxxxx	-239
▁ва	-240
▁ве	-241
▁че	-242
▁так	-243
вет	-244
чес	-245
ров	-246
▁ме	-247
сси	-248
ное	-249
вать	-250
шь	-251
ят	-252
жно	-253
▁Ка	-254
▁ин	-255
▁пред	-256
це	-257
пу	-258
▁дру	-259
сле	-260
зи	-261
▁Ж	-262
▁бе	-263
зы	-264
гра	-265
ным	-266
об	-267
▁ж	-268
▁Во	-269
ской	-270
▁кон	-271
бу	-272
гу	-273
▁боль	-274
вши	-275
▁ты	-276
ский	-277
ву	-278
дь	-279
▁#	-280
▁3	-281
▁пере	-282
бя	-283
▁Э	-284
еня	-285
ние	-286
тся	-287
▁ро	-288
▁ру	-289
каза	-290
лове	-291
ского	-292
▁которы	-293
00	-294
су	-295
▁Но	-296
ор	-297
ща	-298
про	-299
рова	-300
▁пра	-301
фи	-302
чно	-303
▁ви	-304
▁су	-305
▁ча	-306
▁ком	-307
▁рас	-308
ствен	-309
вой	-310
тов	-311
▁па	-312
нима	-313
▁будет	-314
▁челове	-315
ром	-316
▁Ро	-317
▁ку	-318
▁он	-319
ходи	-320
сту	-321
▁Ко	-322
▁Не	-323
▁его	-324
▁Ч	-325
лся	-326
ном	-327
▁За	-328
▁ис	-329
▁од	-330
лись	-331
мя	-332
▁Х	-333
цен	-334
▁ба	-335
▁мы	-336
▁сто	-337
▁меня	-338
▁вс	-339
▁уже	-340
▁стра	-341
▁или	-342
вля	-343
ден	-344
дин	-345
ком	-346
тив	-347
ства	-348
▁пар	-349
ца	-350
жет	-351
кра	-352
▁еще	-353
▁зна	-354
▁она	-355
▁пер	-356
сы	-357
бей	-358
ему	-359
ция	-360
▁Да	-361
▁жиз	-362
он	-363
рия	-364
ность	-365
чу	-366
▁5	-367
▁х	-368
зна	-369
лож	-370
сте	-371
▁ну	-372
▁голо	-373
▁только	-374
``	-375
пер	-376
ран	-377
▁``	-378
▁ду	-379
▁гру	-380
ности	-381
▁полу	-382
▁когда	-383
▁ш	-384
жда	-385
нии	-386
пра	-387
том	-388
ход	-389
чен	-390
дела	-391
▁вре	-392
▁они	-393
вания	-394
▁Росси	-395
ск	-396
вод	-397
дни	-398
лей	-399
▁Са	-400
бейд	-401
▁дол	-402
▁мне	-403
стави	-404
чески	-405
▁гово	-406
ак	-407
аль	-408
ири	-409
ющи	-410
▁19	-411
▁ор	-412
▁пи	-413
▁воз	-414
▁гла	-415
▁было	-416
▁есть	-417
!!	-418
зу	-419
нь	-420
▁ст	-421
лось	-422
▁При	-423
▁сло	-424
▁чтобы	-425
▁Ф	-426
мер	-427
она	-428
▁Се	-429
▁му	-430
▁ос	-431
▁пу	-432
▁ту	-433
вают	-434
ских	-435
стви	-436
▁буду	-437
▁были	-438
▁день	-439
▁после	-440
от	-441
жен	-442
▁оч	-443
▁фи	-444
▁был	-445
▁кра	-446
▁эти	-447
▁дела	-448
▁свои	-449
хи	-450
▁4	-451
дер	-452
дом	-453
ете	-454
▁Вы	-455
▁ес	-456
стре	-457
▁том	-458
▁Жири	-459
▁если	-460
▁также	-461
чь	-462
кан	-463
▁Мо	-464
лась	-465
стоя	-466
▁кто	-467
▁лет	-468
▁смо	-469
▁орга	-470
▁рабо	-471
вя	-472
жу	-473
▁;	-474
гла	-475
пре	-476
▁Ва	-477
вали	-478
ству	-479
▁слу	-480
▁чем	-481
▁горо	-482
ге	-483
▁=	-484
▁Ш	-485
вед	-486
кая	-487
кры	-488
ник	-489
пор	-490
рен	-491
▁их	-492
▁ки	-493
▁чи	-494
вает	-495
▁Это	-496
▁дет	-497
▁пла	-498
▁тебя	-499
▁человек	-500
кт	-501
ья	-502
мет	-503
ней	-504
ную	-505
при	-506
▁==	-507
▁Ма	-508
▁ак	-509
▁ди	-510
▁ее	-511
ении	-512
ению	-513
ными	-514
чита	-515
▁где	-516
▁нас	-517
▁пол	-518
▁там	-519
▁помо	-520
▁того	-521
▁сказа	-522
ПР	-523
пы	-524
вая	-525
вто	-526
кла	-527
кон	-528
лее	-529
тер	-530
цию	-531
▁Бо	-532
▁га	-533
▁чу	-534
води	-535
ские	-536
стро	-537
▁Про	-538
▁каж	-539
ление	-540
▁поли	-541
▁само	-542
▁время	-543
▁Жиринов	-544
▁которые	-545
ез	-546
жд	-547
из	-548
нд	-549
цы	-550
ван	-551
дей	-552
кто	-553
нут	-554
спе	-555
тре	-556
шей	-557
▁Ми	-558
▁То	-559
▁вз	-560
стра	-561
тами	-562
ются	-563
▁Как	-564
▁без	-565
▁вер	-566
▁тре	-567
▁даже	-568
▁можно	-569
▁парти	-570
▁–	-571
ена	-572
йте	-573
нди	-574
рес	-575
сов	-576
шен	-577
▁Од	-578
ками	-579
тому	-580
туры	-581
▁сле	-582
ников	-583
▁груп	-584
▁люби	-585
▁обра	-586
▁пока	-587
▁хоро	-588
▁этого	-589
▁больше	-590
▁Ц	-591
бло	-592
сли	-593
▁20	-594
▁ле	-595
мери	-596
нако	-597
▁!!!	-598
▁бес	-599
▁тво	-600
ления	-601
▁куль	-602
▁себя	-603
▁этом	-604
▁может	-605
▁сдела	-606
▁говори	-607
шо	-608
▁*	-609
дой	-610
ких	-611
лли	-612
лов	-613
фор	-614
час	-615
▁Го	-616
рани	-617
▁200	-618
▁зая	-619
▁нет	-620
ейчас	-621
▁года	-622
▁этот	-623
▁жизни	-624
▁очень	-625
▁России	-626
▁которо	-627
ев	-628
▁Ю	-629
бой	-630
вно	-631
вые	-632
вый	-633
луч	-634
пол	-635
рак	-636
рии	-637
шки	-638
▁--	-639
▁Де	-640
▁Те	-641
▁эк	-642
вого	-643
льно	-644
мени	-645
ском	-646
▁два	-647
▁дей	-648
▁сер	-649
▁соз	-650
шение	-651
▁авто	-652
▁виде	-653
▁оста	-654
▁други	-655
▁слова	-656
▁получи	-657
RT	-658
шу	-659
ене	-660
нее	-661
нес	-662
сты	-663
три	-664
▁10	-665
логи	-666
ника	-667
перь	-668
▁вла	-669
▁жен	-670
▁объ	-671
▁тер	-672
▁уча	-673
▁всех	-674
▁лишь	-675
▁Убейд	-676
▁неско	-677
▁созда	-678
▁счита	-679
мерикан	-680
//	-681
ht	-682
tp	-683
уч	-684
фе	-685
цу	-686
ью	-687
ям	-688
▁/	-689
▁«	-690
://	-691
вых	-692
кие	-693
ний	-694
тин	-695
цев	-696
ших	-697
юсь	-698
▁ht	-699
▁Ки	-700
▁Он	-701
▁Со	-702
▁ла	-703
вших	-704
ерез	-705
есто	-706
нова	-707
пута	-708
роме	-709
ская	-710
сточ	-711
▁вто	-712
▁офи	-713
▁http	-714
▁будут	-715
▁друго	-716
▁американ	-717
))	-718
рь	-719
ур	-720
▁7	-721
▁»	-722
бле	-723
вом	-724
есь	-725
ета	-726
лав	-727
лой	-728
лом	-729
пла	-730
рей	-731
род	-732
ску	-733
щен	-734
▁RT	-735
▁Ни	-736
▁Па	-737
▁Си	-738
▁ти	-739
писа	-740
став	-741
тели	-742
чего	-743
▁Все	-744
▁Что	-745
▁вас	-746
▁всё	-747
▁кру	-748
▁поз	-749
▁свя	-750
▁цен	-751
▁выбо	-752
▁надо	-753
▁более	-754
▁просто	-755
▁несколько	-756
ТО	-757
рю	-758
тя	-759
бра	-760
дня	-761
ешь	-762
лек	-763
лия	-764
рос	-765
тно	-766
▁Ме	-767
▁От	-768
▁ло	-769
ений	-770
лага	-771
нали	-772
рами	-773
▁над	-774
▁тру	-775
телей	-776
▁ведь	-777
▁один	-778
▁самы	-779
▁сооб	-780
▁компа	-781
▁прото	-782
▁росси	-783
▁сейчас	-784
▁сказал	-785
▁теперь	-786
ЕТ	-787
НА	-788
ин	-789
цо	-790
ДПР	-791
бли	-792
дит	-793
дый	-794
мой	-795
рав	-796
роп	-797
тия	-798
▁Из	-799
▁Пу	-800
▁Ра	-801
▁Ты	-802
▁Хо	-803
▁им	-804
бира	-805
вить	-806
вшие	-807
грам	-808
тери	-809
▁вме	-810
▁них	-811
▁пло	-812
▁спи	-813
▁тем	-814
вести	-815
форма	-816
▁Если	-817
▁ЛДПР	-818
▁быть	-819
▁дума	-820
▁прои	-821
▁Восто	-822
▁встре	-823
▁людей	-824
▁совет	-825
▁Однако	-826
▁против	-827
▁Жириновский	-828
▁ю	-829
бен	-830
бря	-831
дов	-832
есо	-833
ках	-834
клю	-835
кое	-836
кру	-837
ман	-838
нен	-839
сло	-840
сно	-841
▁До	-842
▁ар	-843
▁би	-844
▁пе	-845
▁ря	-846
▁фа	-847
ники	-848
ступ	-849
тера	-850
▁Под	-851
▁Так	-852
▁вой	-853
▁вос	-854
▁вот	-855
▁кар	-856
▁луч	-857
жение	-858
зиден	-859
мента	-860
ступи	-861
▁была	-862
▁люди	-863
▁нача	-864
▁обла	-865
▁тебе	-866
ческой	-867
▁всего	-868
▁жизнь	-869
▁основ	-870
▁органи	-871
▁пробле	-872
▁работа	-873
▁действи	-874
▁информа	-875
▁который	-876
ya	-877
АР	-878
ит	-879
щё	-880
▁0	-881
бро	-882
вра	-883
дол	-884
жду	-885
лин	-886
мни	-887
нер	-888
нет	-889
рая	-890
рев	-891
слу	-892
смо	-893
тур	-894
▁Ба	-895
▁Лю	-896
▁Та	-897
▁гу	-898
▁сы	-899
дель	-900
рори	-901
теля	-902
цион	-903
чина	-904
ющих	-905
▁Они	-906
▁Пер	-907
▁дви	-908
▁осо	-909
▁ска	-910
▁ско	-911
▁тот	-912
▁три	-913
▁фор	-914
когда	-915
льные	-916
ражда	-917
▁Ябло	-918
▁глав	-919
▁меся	-920
▁моло	-921
▁обще	-922
▁руко	-923
▁свою	-924
▁теле	-925
▁явля	-926
вается	-927
ждения	-928
тельно	-929
▁вопро	-930
▁заяви	-931
▁какой	-932
▁перед	-933
▁право	-934
▁такой	-935
▁через	-936
тически	-937
▁вместе	-938
▁находи	-939
▁ничего	-940
▁словам	-941
▁состоя	-942
▁протоко	-943
НИ	-944
сс	-945
бов	-946
вым	-947
гро	-948
дар	-949
дно	-950
жны	-951
пет	-952
пло	-953
сса	-954
чем	-955
чет	-956
чки	-957
шее	-958
▁Бу	-959
▁Мы	-960
▁Ха	-961
▁ан	-962
▁ут	-963
гово	-964
лаго	-965
лены	-966
льта	-967
прав	-968
рави	-969
рить	-970
шего	-971
▁муж	-972
▁сем	-973
▁спа	-974
▁сча	-975
▁тех	-976
▁тра	-977
годня	-978
есопо	-979
зации	-980
полни	-981
чение	-982
▁воен	-983
▁забо	-984
▁мест	-985
▁одна	-986
▁проц	-987
▁сезо	-988
▁тоже	-989
▁хочу	-990
▁чего	-991
▁откры	-992
▁своих	-993
▁Месопо	-994
▁власти	-995
▁других	-996
▁потому	-997
▁россий	-998
▁страны	-999
▁Востока	-1000
▁человека	-1001
▁Месопотами	-1002
in	-1003
lo	-1004
РА	-1005
ой	-1006
яс	-1007
▁6	-1008
али	-1009
бер	-1010
ган	-1011
дак	-1012
дам	-1013
док	-1014
еви	-1015
еде	-1016
ерт	-1017
кре	-1018
ото	-1019
рой	-1020
той	-1021
хва	-1022
шая	-1023
щее	-1024
щих	-1025
яза	-1026
▁12	-1027
▁Бе	-1028
▁Ве	-1029
▁ад	-1030
▁ил	-1031
▁мн	-1032
▁ха	-1033
вала	-1034
дите	-1035
жать	-1036
кого	-1037
меча	-1038
раль	-1039
стан	-1040
стов	-1041
тить	-1042
чная	-1043
▁Мне	-1044
▁ему	-1045
▁кор	-1046
▁мно	-1047
▁наз	-1048
▁нем	-1049
▁сот	-1050
▁спе	-1051
▁спо	-1052
▁чув	-1053
ением	-1054
нской	-1055
рудни	-1056
▁Укра	-1057
▁исче	-1058
▁необ	-1059
▁побе	-1060
▁подо	-1061
▁прое	-1062
▁себе	-1063
▁уста	-1064
▁этой	-1065
зульта	-1066
чество	-1067
▁Когда	-1068
▁Кроме	-1069
▁Серия	-1070
▁видео	-1071
▁женщи	-1072
▁место	-1073
▁милли	-1074
▁много	-1075
▁нужно	-1076
▁помощ	-1077
▁прави	-1078
▁случа	-1079
▁убейд	-1080
▁депута	-1081
▁литера	-1082
▁процес	-1083
▁счасть	-1084
▁террори	-1085
▁президен	-1086
ko	-1087
АТ	-1088
НО	-1089
ан	-1090
ум	-1091
щу	-1092
▁8	-1093
blo	-1094
арь	-1095
бор	-1096
вал	-1097
вле	-1098
вое	-1099
гре	-1100
еди	-1101
зма	-1102
йти	-1103
нец	-1104
нию	-1105
пад	-1106
хов	-1107
чит	-1108
ями	-1109
ять	-1110
▁30	-1111
▁Ин	-1112
▁Ли	-1113
▁Ре	-1114
▁ей	-1115
▁жа	-1116
▁зд	-1117
▁це	-1118
▁ша	-1119
дать	-1120
жить	-1121
лено	-1122
лета	-1123
него	-1124
пита	-1125
реду	-1126
ружи	-1127
ским	-1128
стер	-1129
стой	-1130
тиво	-1131
▁Бог	-1132
▁Ира	-1133
▁Кто	-1134
▁вам	-1135
▁ещё	-1136
▁поч	-1137
▁сол	-1138
▁уби	-1139
▁уго	-1140
bloko	-1141
льной	-1142
ндида	-1143
нечно	-1144
тории	-1145
▁Алек	-1146
▁Глав	-1147
▁году	-1148
▁дело	-1149
▁могу	-1150
▁него	-1151
▁поги	-1152
▁реши	-1153
▁свет	-1154
▁успе	-1155
ностью	-1156
ровать	-1157
▁Украи	-1158
▁боеви	-1159
▁детей	-1160
▁исчез	-1161
▁конку	-1162
▁многи	-1163
▁потом	-1164
▁редак	-1165
▁своей	-1166
▁совер	-1167
yabloko	-1168
принима	-1169
▁города	-1170
▁делать	-1171
▁деньги	-1172
▁полити	-1173
▁продол	-1174
▁процен	-1175
▁которых	-1176
▁проводи	-1177
▁програм	-1178
▁решение	-1179
▁культуры	-1180
▁необходи	-1181
▁результа	-1182
ro	-1183
sk	-1184
АК	-1185
ЕМ	-1186
ОВ	-1187
зе	-1188
йд	-1189
ню	-1190
рт	-1191
тр	-1192
ье	-1193
яв	-1194
▁9	-1195
▁ц	-1196
вен	-1197
вую	-1198
гля	-1199
дру	-1200
жна	-1201
лка	-1202
пит	-1203
ред	-1204
рон	-1205
ряд	-1206
сом	-1207
тай	-1208
тие	-1209
точ	-1210
тье	-1211
ука	-1212
ций	-1213
чат	-1214
чер	-1215
чка	-1216
шие	-1217
щей	-1218
ясь	-1219
▁0,	-1220
▁Ар	-1221
▁Ку	-1222
▁ев	-1223
будь	-1224
лить	-1225
личи	-1226
мини	-1227
нови	-1228
обще	-1229
пера	-1230
порт	-1231
тего	-1232
тере	-1233
тили	-1234
торы	-1235
▁Где	-1236
▁Пар	-1237
▁гос	-1238
▁дня	-1239
▁име	-1240
▁кла	-1241
▁мир	-1242
▁обо	-1243
▁сов	-1244
▁сте	-1245
▁тур	-1246
▁уда	-1247
▁чер	-1248
▁эле	-1249
▁язы	-1250
помни	-1251
преде	-1252
рован	-1253
следо	-1254
ступа	-1255
треть	-1256
циаль	-1257
циона	-1258
▁Моск	-1259
▁всем	-1260
▁зако	-1261
▁имен	-1262
▁кого	-1263
▁пожа	-1264
▁посе	-1265
▁тыся	-1266
▁фото	-1267
гласно	-1268
ставля	-1269
урнали	-1270
▁Наука	-1271
▁выход	-1272
▁захва	-1273
▁комна	-1274
▁обяза	-1275
▁одной	-1276
▁ответ	-1277
▁приня	-1278
▁разви	-1279
▁рядом	-1280
▁устро	-1281
сточной	-1282
тегория	-1283
тельные	-1284
▁Россия	-1285
▁Яблоко	-1286
▁всегда	-1287
▁заявил	-1288
▁матери	-1289
▁образо	-1290
▁партии	-1291
▁послед	-1292
▁кандида	-1293
▁компании	-1294
▁редакция	-1295
▁Категория	-1296
ём	-1297
▁+	-1298
ПРФ	-1299
гов	-1300
дах	-1301
ено	-1302
зад	-1303
зья	-1304
кий	-1305
лам	-1306
лич	-1307
лый	-1308
лым	-1309
мый	-1310
мыш	-1311
нал	-1312
неш	-1313
нци	-1314
рад	-1315
рах	-1316
рем	-1317
рук	-1318
сну	-1319
тем	-1320
ток	-1321
тор	-1322
тро	-1323
тый	-1324
шка	-1325
шла	-1326
шли	-1327
шло	-1328
▁15	-1329
▁Ду	-1330
▁Ле	-1331
▁Ти	-1332
▁аб	-1333
▁мл	-1334
▁тя	-1335
▁ху	-1336
▁ше	-1337
бовь	-1338
веро	-1339
жида	-1340
коло	-1341
лови	-1342
льзо	-1343
льчи	-1344
нуть	-1345
ское	-1346
стей	-1347
тура	-1348
чены	-1349
▁)))	-1350
▁Вла	-1351
▁вра	-1352
▁вся	-1353
▁газ	-1354
▁зем	-1355
▁кол	-1356
▁кри	-1357
▁моз	-1358
▁ней	-1359
▁оши	-1360
▁пои	-1361
▁сам	-1362
▁сви	-1363
▁сла	-1364
▁уви	-1365
▁уди	-1366
▁улы	-1367
▁чет	-1368
▁экс	-1369
вание	-1370
грала	-1371
ерами	-1372
ружен	-1373
сказы	-1374
стран	-1375
судар	-1376
храни	-1377
▁Есть	-1378
▁КПРФ	-1379
▁баба	-1380
▁деву	-1381
▁дома	-1382
▁доро	-1383
▁жела	-1384
▁запи	-1385
▁исто	-1386
▁кому	-1387
▁маши	-1388
▁обви	-1389
▁поня	-1390
▁реги	-1391
▁сама	-1392
▁серь	-1393
▁силы	-1394
▁стро	-1395
▁чита	-1396
ваться	-1397
нибудь	-1398
нувших	-1399
шестви	-1400
▁внима	-1401
▁грани	-1402
▁давно	-1403
▁краси	-1404
▁назад	-1405
▁около	-1406
▁очере	-1407
▁прода	-1408
▁произ	-1409
▁разме	-1410
▁стран	-1411
▁тогда	-1412
▁часто	-1413
▁часть	-1414
ставить	-1415
тельных	-1416
▁вообще	-1417
▁говоря	-1418
▁другой	-1419
▁каждый	-1420
▁конкур	-1421
▁мальчи	-1422
▁настоя	-1423
▁показа	-1424
▁получа	-1425
▁призна	-1426
▁следам	-1427
▁хорошо	-1428
динствен	-1429
министра	-1430
▁Главная	-1431
▁государ	-1432
▁которая	-1433
▁культур	-1434
▁органов	-1435
▁помощью	-1436
▁противо	-1437
▁которого	-1438
▁сотрудни	-1439
▁восточной	-1440
▁литературы	-1441
▁исчезнувших	-1442
0-	-1443
ot	-1444
ОС	-1445
сф	-1446
ут	-1447
фо	-1448
чо	-1449
ёт	-1450
▁л	-1451
НАС	-1452
бки	-1453
вай	-1454
дут	-1455
емо	-1456
ким	-1457
кси	-1458
кую	-1459
лез	-1460
мов	-1461
нил	-1462
пря	-1463
пыт	-1464
роб	-1465
сем	-1466
ссы	-1467
тии	-1468
фес	-1469
чку	-1470
ший	-1471
▁Ла	-1472
▁Ну	-1473
▁Ру	-1474
▁Ша	-1475
▁ию	-1476
▁тр	-1477
вший	-1478
гром	-1479
деть	-1480
еспе	-1481
жден	-1482
здни	-1483
казы	-1484
кова	-1485
лете	-1486
лети	-1487
лиги	-1488
мент	-1489
мети	-1490
мина	-1491
пель	-1492
рово	-1493
роза	-1494
санд	-1495
сков	-1496
ссии	-1497
стин	-1498
стрю	-1499
тики	-1500
хара	-1501
ющие	-1502
ятся	-1503
▁100	-1504
▁199	-1505
▁201	-1506
▁Вам	-1507
▁Вот	-1508
▁Для	-1509
▁Каж	-1510
▁ПАР	-1511
▁выи	-1512
▁глу	-1513
▁дву	-1514
▁имя	-1515
▁ино	-1516
▁кип	-1517
▁клу	-1518
▁кни	-1519
▁кре	-1520
▁мат	-1521
▁ого	-1522
▁опу	-1523
▁пор	-1524
▁рус	-1525
▁сли	-1526
дания	-1527
едини	-1528
изнес	-1529
льная	-1530
можно	-1531
полож	-1532
торые	-1533
ходят	-1534
чения	-1535
▁Ведь	-1536
▁Киот	-1537
▁бере	-1538
▁борь	-1539
▁вами	-1540
▁внут	-1541
▁высо	-1542
▁доба	-1543
▁доку	-1544
▁игра	-1545
▁испо	-1546
▁круп	-1547
▁мень	-1548
▁назы	-1549
▁наши	-1550
▁ника	-1551
▁обна	-1552
▁отно	-1553
▁пода	-1554
▁поте	-1555
▁прав	-1556
▁ради	-1557
▁расс	-1558
▁соот	-1559
▁стал	-1560
▁суще	-1561
▁твои	-1562
▁тяже	-1563
▁холо	-1564
▁хоте	-1565
ленных	-1566
нуться	-1567
пример	-1568
против	-1569
▁Влади	-1570
▁благо	-1571
▁выбро	-1572
▁закон	-1573
▁залож	-1574
▁здесь	-1575
▁измен	-1576
▁интер	-1577
▁коман	-1578
▁минут	-1579
▁народ	-1580
▁опера	-1581
▁сокра	-1582
▁солда	-1583
▁стать	-1584
▁такое	-1585
▁турни	-1586
▁участ	-1587
▁числе	-1588
ведения	-1589
которые	-1590
▁ПАРНАС	-1591
▁автобу	-1592
▁голову	-1593
▁гражда	-1594
▁кастрю	-1595
▁керами	-1596
▁мнению	-1597
▁многие	-1598
▁особен	-1599
▁первый	-1600
▁поиска	-1601
▁принци	-1602
▁произо	-1603
▁пропит	-1604
▁распро	-1605
▁сезоне	-1606
▁серьез	-1607
▁стране	-1608
▁выборах	-1609
▁дополни	-1610
▁журнали	-1611
▁конечно	-1612
▁никогда	-1613
▁праздни	-1614
▁принима	-1615
▁сегодня	-1616
▁столько	-1617
▁счастье	-1618
▁считает	-1619
▁Александ	-1620
▁организо	-1621
▁руководи	-1622
▁смотреть	-1623
▁правитель	-1624
▁представи	-1625
▁администра	-1626
▁результате	-1627
▁Месопотамия	-1628
▁Жириновского	-1629
50	-1630
ir	-1631
ou	-1632
ov	-1633
АЛ	-1634
СТ	-1635
жо	-1636
зм	-1637
зя	-1638
эй	-1639
ski	-1640
вар	-1641
вез	-1642
вка	-1643
гли	-1644
джи	-1645
дро	-1646
дям	-1647
его	-1648
езд	-1649
ент	-1650
еру	-1651
ети	-1652
еты	-1653
еха	-1654
жай	-1655
иль	-1656
кам	-1657
лем	-1658
лль	-1659
лых	-1660
мед	-1661
мое	-1662
нем	-1663
пас	-1664
рую	-1665
рым	-1666
ссо	-1667
стя	-1668
тах	-1669
тен	-1670
фте	-1671
▁13	-1672
▁16	-1673
▁Ан	-1674
▁Бы	-1675
▁Ви	-1676
▁Ев	-1677
▁Му	-1678
▁ПО	-1679
▁Фи	-1680
▁её	-1681
▁ры	-1682
▁съ	-1683
▁ци	-1684
▁шо	-1685
бить	-1686
вари	-1687
вест	-1688
виси	-1689
гать	-1690
дний	-1691
един	-1692
емен	-1693
енее	-1694
йдет	-1695
круг	-1696
лков	-1697
льзу	-1698
нием	-1699
нные	-1700
нуты	-1701
обре	-1702
реза	-1703
рода	-1704
солю	-1705
стве	-1706
того	-1707
цией	-1708
чать	-1709
чена	-1710
чным	-1711
шать	-1712
ющий	-1713
▁198	-1714
▁Аму	-1715
▁Вас	-1716
▁Или	-1717
▁Кла	-1718
▁Она	-1719
▁Пет	-1720
▁Сер	-1721
▁аре	-1722
▁бли	-1723
▁год	-1724
▁две	-1725
▁дох	-1726
▁еди	-1727
▁иде	-1728
▁люб	-1729
▁мед	-1730
▁обы	-1731
▁пов	-1732
▁рот	-1733
▁руб	-1734
▁сма	-1735
▁сме	-1736
▁соб	-1737
▁суд	-1738
▁тут	-1739
▁убе	-1740
▁эту	-1741
графи	-1742
держа	-1743
йства	-1744
кабря	-1745
конча	-1746
ларов	-1747
лений	-1748
льный	-1749
льных	-1750
ологи	-1751
пиона	-1752
сказа	-1753
терес	-1754
ходит	-1755
шения	-1756
щение	-1757
▁Женя	-1758
▁Пере	-1759
▁веще	-1760
▁влия	-1761
▁двух	-1762
▁друг	-1763
▁знаю	-1764
▁кафе	-1765
▁коли	-1766
▁лицо	-1767
▁лоша	-1768
▁мало	-1769
▁недо	-1770
▁ночи	-1771
▁ночь	-1772
▁обсу	-1773
▁осво	-1774
▁пале	-1775
▁позд	-1776
▁попа	-1777
▁похи	-1778
▁путе	-1779
▁режи	-1780
▁сами	-1781
▁след	-1782
▁стен	-1783
▁утра	-1784
▁энер	-1785
▁этих	-1786
ставит	-1787
ческая	-1788
▁https	-1789
▁Между	-1790
▁Телль	-1791
▁глаза	-1792
▁город	-1793
▁запла	-1794
▁клуба	-1795
▁кроме	-1796
▁лично	-1797
▁лучше	-1798
▁менее	-1799
▁наших	-1800
▁никто	-1801
▁нужны	-1802
▁огонь	-1803
▁оружи	-1804
▁погиб	-1805
▁призы	-1806
▁самый	-1807
▁такие	-1808
▁трени	-1809
водство	-1810
ственно	-1811
шествия	-1812
▁Депута	-1813
▁Каждый	-1814
▁Только	-1815
▁абсолю	-1816
▁большо	-1817
▁вокруг	-1818
▁другие	-1819
▁думать	-1820
▁одного	-1821
▁отмеча	-1822
▁потеря	-1823
▁превра	-1824
▁привле	-1825
▁пригла	-1826
▁проект	-1827
▁профес	-1828
▁разных	-1829
▁религи	-1830
▁сахара	-1831
▁уголов	-1832
▁четвер	-1833
▁времени	-1834
▁декабря	-1835
▁женщина	-1836
▁исследо	-1837
▁национа	-1838
▁области	-1839
▁получил	-1840
▁поступи	-1841
▁проблем	-1842
▁соответ	-1843
▁боевиков	-1844
▁долларов	-1845
▁особенно	-1846
▁чемпиона	-1847
▁последние	-1848
▁количество	-1849
▁президента	-1850
▁предпринима	-1851
Zh	-1852
ar	-1853
qu	-1854
ra	-1855
ГО	-1856
ИК	-1857
ИТ	-1858
РО	-1859
нк	-1860
хе	-1861
▁&	-1862
▁I	-1863
КОС	-1864
ваю	-1865
вия	-1866
вор	-1867
гар	-1868
доб	-1869
дую	-1870
жды	-1871
жем	-1872
жки	-1873
зер	-1874
зин	-1875
зов	-1876
йка	-1877
ква	-1878
кну	-1879
лая	-1880
лки	-1881
лок	-1882
лон	-1883
лые	-1884
мир	-1885
мож	-1886
мым	-1887
мят	-1888
над	-1889
нан	-1890
нки	-1891
нок	-1892
пле	-1893
рат	-1894
рио	-1895
рит	-1896
рию	-1897
рма	-1898
сии	-1899
ске	-1900
сла	-1901
ссе	-1902
сут	-1903
тмо	-1904
тят	-1905
хам	-1906
хно	-1907
чик	-1908
что	-1909
шек	-1910
шел	-1911
шин	-1912
шку	-1913
шую	-1914
щем	-1915
щий	-1916
ыта	-1917
юга	-1918
яви	-1919
▁22	-1920
▁50	-1921
▁Ак	-1922
▁ВС	-1923
▁Вс	-1924
▁ЕР	-1925
▁Им	-1926
▁Ло	-1927
▁МО	-1928
▁НА	-1929
▁НЕ	-1930
▁Пи	-1931
▁СП	-1932
▁ля	-1933
▁ох	-1934
▁пя	-1935
▁уж	-1936
▁ум	-1937
▁ши	-1938
▁ян	-1939
Zhir	-1940
inov	-1941
quot	-1942
skiy	-1943
КОСа	-1944
боро	-1945
втра	-1946
вшей	-1947
вшим	-1948
дить	-1949
дная	-1950
дной	-1951
друг	-1952
дума	-1953
ктор	-1954
лами	-1955
лицы	-1956
льше	-1957
ляет	-1958
муни	-1959
нете	-1960
ница	-1961
ницу	-1962
ницы	-1963
номи	-1964
пода	-1965
роны	-1966
сибо	-1967
скую	-1968
смен	-1969
стам	-1970
сток	-1971
тоге	-1972
цени	-1973
чера	-1974
чить	-1975
чный	-1976
шком	-1977
щает	-1978
щать	-1979
▁0,5	-1980
▁Гос	-1981
▁Дру	-1982
▁Кон	-1983
▁Луч	-1984
▁Мак	-1985
▁Нет	-1986
▁Ста	-1987
▁блю	-1988
▁взя	-1989
▁впе	-1990
▁гре	-1991
▁жид	-1992
▁иди	-1993
▁мои	-1994
▁мой	-1995
▁нам	-1996
▁неу	-1997
▁ним	-1998
▁пес	-1999
▁пря	-2000
▁смы	-2001
▁сти	-2002
▁фак	-2003
▁шта	-2004
▁эта	-2005
ведли	-2006
готов	-2007
держи	-2008
клады	-2009
ключа	-2010
корей	-2011
порта	-2012
пуска	-2013
пусти	-2014
ропей	-2015
ствую	-2016
струк	-2017
щения	-2018
этому	-2019
▁Древ	-2020
▁Зюга	-2021
▁Ирак	-2022
▁Миха	-2023
▁Побе	-2024
▁Пути	-2025
▁атмо	-2026
▁весь	-2027
▁выра	-2028
▁глаз	-2029
▁годы	-2030
▁движ	-2031
▁дево	-2032
▁засе	-2033
▁заяв	-2034
▁ирак	-2035
▁либо	-2036
▁лимо	-2037
▁любы	-2038
▁малы	-2039
▁мере	-2040
▁моей	-2041
▁напо	-2042
▁нару	-2043
▁неде	-2044
▁непо	-2045
▁офис	-2046
▁похо	-2047
▁пыта	-2048
▁свой	-2049
▁сист	-2050
▁собы	-2051
▁спра	-2052
▁сред	-2053
▁типа	-2054
▁узна	-2055
▁уров	-2056
▁филь	-2057
▁этим	-2058
биться	-2059
вались	-2060
мышлен	-2061
охрани	-2062
помним	-2063
руется	-2064
ствует	-2065
▁Демен	-2066
▁Затем	-2067
▁Ираке	-2068
▁После	-2069
▁Тогда	-2070
▁Чтобы	-2071
▁Эреду	-2072
▁ЮКОСа	-2073
▁глуби	-2074
▁губер	-2075
▁друга	-2076
▁думаю	-2077
▁знако	-2078
▁источ	-2079
▁итоге	-2080
▁каждо	-2081
▁людям	-2082
▁между	-2083
▁назна	-2084
▁напря	-2085
▁нашей	-2086
▁прове	-2087
▁пропа	-2088
▁рекла	-2089
▁самое	-2090
▁собой	-2091
▁такая	-2092
▁таких	-2093
▁терри	-2094
▁точно	-2095
▁тради	-2096
▁требо	-2097
▁утвер	-2098
▁утром	-2099
▁форми	-2100
▁хочет	-2101
▁элект	-2102
▁этому	-2103
розавод	-2104
тельный	-2105
▁Гражда	-2106
▁Москвы	-2107
▁Привет	-2108
▁беспла	-2109
▁бизнес	-2110
▁вопрос	-2111
▁впечат	-2112
▁голосо	-2113
▁городе	-2114
▁группи	-2115
▁группы	-2116
▁должен	-2117
▁должны	-2118
▁заболе	-2119
▁записа	-2120
▁запись	-2121
▁извест	-2122
▁контра	-2123
▁любить	-2124
▁любовь	-2125
▁обеспе	-2126
▁опреде	-2127
▁отказа	-2128
▁переда	-2129
▁подчер	-2130
▁предпо	-2131
▁примен	-2132
▁пример	-2133
▁сделал	-2134
▁северо	-2135
▁сможет	-2136
▁совета	-2137
▁совсем	-2138
▁солдат	-2139
Zhirinov	-2140
ственные	-2141
ствовать	-2142
▁Никогда	-2143
▁внутрен	-2144
▁высказы	-2145
▁говорит	-2146
▁докумен	-2147
▁интерес	-2148
▁которой	-2149
▁мужчина	-2150
▁первого	-2151
▁преступ	-2152
▁приобре	-2153
▁сделать	-2154
▁сколько	-2155
▁течение	-2156
▁Дементье	-2157
▁Напомним	-2158
▁кастрюлю	-2159
▁конкурса	-2160
▁например	-2161
▁основном	-2162
▁палестин	-2163
▁проблема	-2164
▁процента	-2165
▁рассказа	-2166
▁является	-2167
▁Александр	-2168
▁абсолютно	-2169
▁говорится	-2170
▁депутатов	-2171
▁некоторые	-2172
▁протокола	-2173
Zhirinovskiy	-2174
▁правоохрани	-2175
▁государствен	-2176
▁администрации	-2177
30	-2178
40	-2179
ce	-2180
er	-2181
АМ	-2182
КА	-2183
КИ	-2184
ЛА	-2185
Му	-2186
ОМ	-2187
ал	-2188
гл	-2189
дж	-2190
сш	-2191
фы	-2192
ян	-2193
▁[	-2194
▁]	-2195
АТЬ	-2196
РАВ	-2197
бре	-2198
вел	-2199
вес	-2200
воз	-2201
все	-2202
дес	-2203
дец	-2204
дне	-2205
дон	-2206
дце	-2207
ева	-2208
ить	-2209
кор	-2210
лик	-2211
лим	-2212
лоу	-2213
мат	-2214
мая	-2215
мит	-2216
мпа	-2217
нас	-2218
нах	-2219
оне	-2220
пен	-2221
раб	-2222
раз	-2223
рий	-2224
рко	-2225
рое	-2226
рок	-2227
сах	-2228
сей	-2229
сил	-2230
сок	-2231
тая	-2232
тон	-2233
тря	-2234
тте	-2235
туа	-2236
фей	-2237
хар	-2238
цеп	-2239
цов	-2240
чин	-2241
шет	-2242
щие	-2243
▁))	-2244
▁11	-2245
▁:)	-2246
▁ВЫ	-2247
▁Вз	-2248
▁Гу	-2249
▁Дэ	-2250
▁ЗА	-2251
▁Ис	-2252
▁Их	-2253
▁СС	-2254
▁Юж	-2255
▁ги	-2256
▁жо	-2257
▁зе	-2258
▁иг	-2259
▁ид	-2260
▁мя	-2261
▁ны	-2262
▁ок	-2263
▁ск	-2264
▁см	-2265
вата	-2266
волю	-2267
вяза	-2268
гает	-2269
галя	-2270
гани	-2271
диен	-2272
евой	-2273
жают	-2274
забо	-2275
кана	-2276
каты	-2277
крет	-2278
куда	-2279
лето	-2280
либо	-2281
мира	-2282
нача	-2283
ному	-2284
нять	-2285
ропа	-2286
руют	-2287
сили	-2288
сить	-2289
скви	-2290
сыпа	-2291
тивы	-2292
тора	-2293
ходя	-2294
цами	-2295
чему	-2296
чины	-2297
чной	-2298
шает	-2299
щены	-2300
ющим	-2301
ября	-2302
ясни	-2303
▁196	-2304
▁Анд	-2305
▁Воз	-2306
▁Всё	-2307
▁Еди	-2308
▁Еще	-2309
▁КАК	-2310
▁Пол	-2311
▁Пре	-2312
▁Сам	-2313
▁Спа	-2314
▁Сто	-2315
▁Тра	-2316
▁ЭТО	-2317
▁бор	-2318
▁бри	-2319
▁воо	-2320
▁дни	-2321
▁кот	-2322
▁мар	-2323
▁мет	-2324
▁мик	-2325
▁мыс	-2326
▁нее	-2327
▁нео	-2328
▁нес	-2329
▁неф	-2330
▁ниж	-2331
▁обе	-2332
▁оби	-2333
▁пле	-2334
▁пон	-2335
▁рай	-2336
▁рам	-2337
▁рей	-2338
▁сва	-2339
▁сих	-2340
▁сок	-2341
▁сту	-2342
▁уни	-2343
▁учи	-2344
▁шан	-2345
▁эко	-2346
Мухам	-2347
блика	-2348
везды	-2349
восто	-2350
деюсь	-2351
едера	-2352
ключи	-2353
ковых	-2354
льное	-2355
матри	-2356
надле	-2357
нется	-2358
никам	-2359
ровки	-2360
скрес	-2361
слуги	-2362
ссажи	-2363
стами	-2364
стати	-2365
ством	-2366
стить	-2367
телем	-2368
тиков	-2369
хонов	-2370
циали	-2371
чками	-2372
▁))))	-2373
▁....	-2374
▁2000	-2375
▁Даже	-2376
▁Исто	-2377
▁Один	-2378
▁Одно	-2379
▁Пока	-2380
▁Раду	-2381
▁Фрад	-2382
▁Хоро	-2383
▁безо	-2384
▁боро	-2385
▁вани	-2386
▁воды	-2387
▁гото	-2388
▁дали	-2389
▁дене	-2390
▁дети	-2391
▁древ	-2392
▁жало	-2393
▁жерт	-2394
▁зада	-2395
▁зали	-2396
▁защи	-2397
▁изда	-2398
▁иска	-2399
▁кана	-2400
▁кило	-2401
▁куда	-2402
▁мира	-2403
▁мужи	-2404
▁нажа	-2405
▁науч	-2406
▁нему	-2407
▁нена	-2408
▁отде	-2409
▁плен	-2410
▁поку	-2411
▁пора	-2412
▁путь	-2413
▁раза	-2414
▁разу	-2415
▁роди	-2416
▁семь	-2417
▁силу	-2418
▁судь	-2419
▁твой	-2420
▁трех	-2421
▁туда	-2422
▁укра	-2423
▁ходе	-2424
▁часа	-2425
▁част	-2426
▁чтоб	-2427
▁широ	-2428
▁экра	-2429
▁ябло	-2430
▁янва	-2431
арьков	-2432
ватель	-2433
ваются	-2434
диенты	-2435
зирова	-2436
ленточ	-2437
ложить	-2438
словия	-2439
телями	-2440
ттехно	-2441
ческие	-2442
ческий	-2443
ческих	-2444
чества	-2445
чность	-2446
▁Жирик	-2447
▁Север	-2448
▁Хаджи	-2449
▁Через	-2450
▁банди	-2451
▁беспо	-2452
▁вдруг	-2453
▁взгля	-2454
▁видел	-2455
▁войны	-2456
▁выбра	-2457
▁гаран	-2458
▁духов	-2459
▁едино	-2460
▁земле	-2461
▁знает	-2462
▁имена	-2463
▁ислам	-2464
▁китай	-2465
▁масса	-2466
▁месте	-2467
▁напад	-2468
▁новой	-2469
▁ночью	-2470
▁нужен	-2471
▁огром	-2472
▁озабо	-2473
▁оцени	-2474
▁перио	-2475
▁плани	-2476
▁плохо	-2477
▁подоб	-2478
▁поезд	-2479
▁пожар	-2480
▁позво	-2481
▁полно	-2482
▁потре	-2483
▁почти	-2484
▁раско	-2485
▁ребен	-2486
▁решил	-2487
▁самые	-2488
▁связа	-2489
▁ситуа	-2490
▁смарт	-2491
▁собра	-2492
▁стали	-2493
▁стоит	-2494
▁финан	-2495
▁части	-2496
▁языка	-2497
бородок	-2498
енераль	-2499
ложение	-2500
ставили	-2501
ставлен	-2502
тельным	-2503
хеологи	-2504
▁Белков	-2505
▁Звезды	-2506
▁Путина	-2507
▁Сейчас	-2508
▁аресто	-2509
▁атмосф	-2510
▁возмож	-2511
▁второй	-2512
▁выборы	-2513
▁группа	-2514
▁делают	-2515
▁должна	-2516
▁должно	-2517
▁друзья	-2518
▁зависи	-2519
▁занима	-2520
▁измени	-2521
▁именно	-2522
▁ингаля	-2523
▁капель	-2524
▁лимона	-2525
▁меньше	-2526
▁москов	-2527
▁направ	-2528
▁настро	-2529
▁начина	-2530
▁нашего	-2531
▁однако	-2532
▁отказы	-2533
▁партий	-2534
▁партию	-2535
▁первые	-2536
▁полови	-2537
▁понима	-2538
▁почему	-2539
▁прекра	-2540
▁работы	-2541
▁развед	-2542
▁рублей	-2543
▁сердце	-2544
▁сообщи	-2545
▁участи	-2546
▁энерги	-2547
пасности	-2548
▁Извести	-2549
▁Сегодня	-2550
▁Спасибо	-2551
▁Тихонов	-2552
▁автобус	-2553
▁большой	-2554
▁госпита	-2555
▁губерна	-2556
▁коммуни	-2557
▁материа	-2558
▁момента	-2559
▁обсужда	-2560
▁очередь	-2561
▁пассажи	-2562
▁поднима	-2563
▁проходи	-2564
▁сказать	-2565
▁станови	-2566
▁удалось	-2567
▁экономи	-2568
гредиенты	-2569
▁вооружен	-2570
▁добавить	-2571
▁использо	-2572
▁объедини	-2573
▁операции	-2574
▁принадле	-2575
▁пропитки	-2576
▁професси	-2577
▁согласно	-2578
▁сопротив	-2579
▁единствен	-2580
▁находится	-2581
▁подчеркну	-2582
▁полностью	-2583
▁поставить	-2584
▁состоянии	-2585
▁убейдской	-2586
▁частности	-2587
▁политтехно	-2588
▁получается	-2589
▁представля	-2590
▁территории	-2591
▁устройства	-2592
▁участников	-2593
▁Месопотамии	-2594
▁организации	-2595
▁сотрудников	-2596
▁национальной	-2597
▁дополнительные	-2598
19	-2599
20	-2600
do	-2601
es	-2602
il	-2603
li	-2604
ub	-2605
ww	-2606
АЗ	-2607
АН	-2608
ДЕ	-2609
ЕР	-2610
ИЛ	-2611
НЫ	-2612
ОН	-2613
РИ	-2614
СИ	-2615
УТ	-2616
ек	-2617
жн	-2618
ил	-2619
лк	-2620
лл	-2621
нт	-2622
оз	-2623
ок	-2624
ом	-2625
сл	-2626
фа	-2627
ху	-2628
шё	-2629
ых	-2630
ях	-2631
▁A	-2632
▁B	-2633
▁L	-2634
▁P	-2635
▁S	-2636
▁V	-2637
▁р	-2638
▁►	-2639
000	-2640
rce	-2641
АЛИ	-2642
бил	-2643
блю	-2644
бур	-2645
виа	-2646
вид	-2647
вин	-2648
вла	-2649
вов	-2650
дал	-2651
дви	-2652
дем	-2653
дка	-2654
дку	-2655
дца	-2656
дят	-2657
ема	-2658
ены	-2659
еть	-2660
жек	-2661
зия	-2662
зки	-2663
зон	-2664
зор	-2665
йки	-2666
йне	-2667
кин	-2668
кса	-2669
кус	-2670
ляр	-2671
нка	-2672
нно	-2673
ноп	-2674
нюю	-2675
нят	-2676
оке	-2677
пов	-2678
пон	-2679
рба	-2680
реи	-2681
рик	-2682
рил	-2683
рим	-2684
рки	-2685
рож	-2686
рот	-2687
рут	-2688
сит	-2689
соб	-2690
тал	-2691
тек	-2692
тий	-2693
тик	-2694
тим	-2695
тые	-2696
тых	-2697
фак	-2698
фон	-2699
чей	-2700
шаю	-2701
шим	-2702
щая	-2703
ыха	-2704
ьер	-2705
ьми	-2706
эль	-2707
▁17	-2708
▁18	-2709
▁25	-2710
▁36	-2711
▁;)	-2712
▁Ав	-2713
▁Ди	-2714
▁Ль	-2715
▁Об	-2716
▁Ой	-2717
▁Су	-2718
▁ЦЕ	-2719
▁Чу	-2720
▁ге	-2721
▁зу	-2722
▁мг	-2723
▁оп	-2724
▁ри	-2725
▁шу	-2726
бера	-2727
бора	-2728
боры	-2729
вало	-2730
ваны	-2731
вати	-2732
вили	-2733
вказ	-2734
вной	-2735
воль	-2736
выми	-2737
гель	-2738
гите	-2739
горе	-2740
дете	-2741
дешь	-2742
джет	-2743
дили	-2744
дные	-2745
дром	-2746
думы	-2747
енни	-2748
ентя	-2749
енье	-2750
етер	-2751
жает	-2752
жали	-2753
жела	-2754
жели	-2755
жной	-2756
кать	-2757
клад	-2758
лова	-2759
лору	-2760
льку	-2761
мана	-2762
моби	-2763
нным	-2764
онов	-2765
пара	-2766
питы	-2767
поте	-2768
пуля	-2769
пыта	-2770
ранс	-2771
рене	-2772
рики	-2773
роду	-2774
рует	-2775
сихо	-2776
скур	-2777
слав	-2778
стры	-2779
таки	-2780
тесь	-2781
тира	-2782
тное	-2783
тный	-2784
туре	-2785
туру	-2786
фика	-2787
хими	-2788
чета	-2789
шили	-2790
шите	-2791
щего	-2792
ясня	-2793
▁Бес	-2794
▁ВСЕ	-2795
▁Вер	-2796
▁Гла	-2797
▁Иго	-2798
▁КОМ	-2799
▁Ким	-2800
▁Кли	-2801
▁Кра	-2802
▁Лос	-2803
▁Мар	-2804
▁Оте	-2805
▁Пла	-2806
▁Сот	-2807
▁Сре	-2808
▁Там	-2809
▁Тур	-2810
▁бар	-2811
▁бра	-2812
▁бро	-2813
▁ваш	-2814
▁вне	-2815
▁вну	-2816
▁вол	-2817
▁выз	-2818
▁выс	-2819
▁гар	-2820
▁дав	-2821
▁дер	-2822
▁диа	-2823
▁дом	-2824
▁зву	-2825
▁иск	-2826
▁кли	-2827
▁кры	-2828
▁лег	-2829
▁лож	-2830
▁мел	-2831
▁мое	-2832
▁мол	-2833
▁нач	-2834
▁ожи	-2835
▁оте	-2836
▁ощу	-2837
▁плю	-2838
▁пля	-2839
▁поо	-2840
▁рак	-2841
▁ран	-2842
▁реб	-2843
▁ред	-2844
▁сил	-2845
▁син	-2846
▁слы	-2847
▁суб	-2848
▁сын	-2849
▁уве	-2850
ардов	-2851
верну	-2852
вляет	-2853
влять	-2854
говор	-2855
город	-2856
грани	-2857
енные	-2858
комен	-2859
ктора	-2860
лении	-2861
лению	-2862
летие	-2863
лимпи	-2864
логов	-2865
место	-2866
ненно	-2867
нская	-2868
олето	-2869
прави	-2870
раиль	-2871
раоке	-2872
рения	-2873
ренко	-2874
ровой	-2875
скому	-2876
ститу	-2877
стной	-2878
чении	-2879
чером	-2880
шению	-2881
▁!!!!	-2882
▁2004	-2883
▁Дума	-2884
▁Крем	-2885
▁Надо	-2886
▁Хочу	-2887
▁авиа	-2888
▁англ	-2889
▁арми	-2890
▁беда	-2891
▁бесе	-2892
▁боли	-2893
▁вели	-2894
▁верх	-2895
▁вете	-2896
▁види	-2897
▁внес	-2898
▁внеш	-2899
▁всей	-2900
▁втор	-2901
▁выде	-2902
▁выну	-2903
▁гуля	-2904
▁деле	-2905
▁деся	-2906
▁дней	-2907
▁души	-2908
▁заня	-2909
▁зару	-2910
▁идет	-2911
▁идти	-2912
▁имею	-2913
▁июля	-2914
▁каса	-2915
▁кожи	-2916
▁купи	-2917
▁ладо	-2918
▁лягу	-2919
▁мили	-2920
▁мини	-2921
▁моду	-2922
▁музы	-2923
▁нако	-2924
▁наме	-2925
▁наше	-2926
▁неза	-2927
▁ново	-2928
▁носи	-2929
▁обуч	-2930
▁одно	-2931
▁опро	-2932
▁осно	-2933
▁отве	-2934
▁паль	-2935
▁пара	-2936
▁пило	-2937
▁писа	-2938
▁пози	-2939
▁поса	-2940
▁пост	-2941
▁пути	-2942
▁радо	-2943
▁речь	-2944
▁сбор	-2945
▁силь	-2946
▁служ	-2947
▁срав	-2948
▁стар	-2949
▁тари	-2950
▁тела	-2951
▁туре	-2952
▁увер	-2953
▁улыб	-2954
▁фазы	-2955
▁феде	-2956
▁худо	-2957
▁цель	-2958
вшихся	-2959
емокра	-2960
ждение	-2961
лагают	-2962
метров	-2963
минает	-2964
новить	-2965
понден	-2966
резать	-2967
ректор	-2968
ровала	-2969
снулся	-2970
ческое	-2971
чников	-2972
щается	-2973
щности	-2974
▁Дэвен	-2975
▁Макси	-2976
▁Ответ	-2977
▁Путин	-2978
▁Самое	-2979
▁актив	-2980
▁акций	-2981
▁анали	-2982
▁взять	-2983
▁вовсе	-2984
▁возду	-2985
▁вышли	-2986
▁газов	-2987
▁гости	-2988
▁денег	-2989
▁диски	-2990
▁добро	-2991
▁долго	-2992
▁завер	-2993
▁закры	-2994
▁каких	-2995
▁карты	-2996
▁колле	-2997
▁кофей	-2998
▁лидер	-2999
▁любой	-3000
▁любых	-3001
▁месяц	-3002
▁могут	-3003
▁мысли	-3004
▁нарко	-3005
▁нефть	-3006
▁норма	-3007
▁нужна	-3008
▁нынеш	-3009
▁обвин	-3010
▁одном	-3011
▁ожида	-3012
▁оказа	-3013
▁памят	-3014
▁писто	-3015
▁пишет	-3016
▁площа	-3017
▁подой	-3018
▁понял	-3019
▁поряд	-3020
▁посмо	-3021
▁появи	-3022
▁права	-3023
▁проек	-3024
▁проис	-3025
▁промо	-3026
▁прось	-3027
▁разда	-3028
▁расто	-3029
▁сахар	-3030
▁свобо	-3031
▁своем	-3032
▁связи	-3033
▁сентя	-3034
▁скажу	-3035
▁слабо	-3036
▁случи	-3037
▁среду	-3038
▁стала	-3039
▁стало	-3040
▁стату	-3041
▁супер	-3042
▁твоей	-3043
▁труда	-3044
▁тысяч	-3045
▁улицы	-3046
▁умира	-3047
▁учены	-3048
▁фильм	-3049
▁хвата	-3050
▁храни	-3051
▁часов	-3052
▁члены	-3053
▁экспе	-3054
ведение	-3055
ложения	-3056
рования	-3057
стаграм	-3058
ционных	-3059
ческого	-3060
▁Друзья	-3061
▁Почему	-3062
▁Просто	-3063
▁Федера	-3064
▁Яблока	-3065
▁бискви	-3066
▁ближай	-3067
▁больно	-3068
▁борьбу	-3069
▁будешь	-3070
▁возвра	-3071
▁газете	-3072
▁голове	-3073
▁голоса	-3074
▁завтра	-3075
▁замети	-3076
▁заседа	-3077
▁избира	-3078
▁интере	-3079
▁контро	-3080
▁лабора	-3081
▁лошади	-3082
▁месяца	-3083
▁момент	-3084
▁наличи	-3085
▁настой	-3086
▁ненави	-3087
▁образу	-3088
▁обычно	-3089
▁оружие	-3090
▁освобо	-3091
▁отмети	-3092
▁поддер	-3093
▁пользу	-3094
▁присут	-3095
▁прошло	-3096
▁различ	-3097
▁решила	-3098
▁своего	-3099
▁своему	-3100
▁своими	-3101
▁сильно	-3102
▁случае	-3103
▁стакан	-3104
▁сторон	-3105
▁страну	-3106
▁товари	-3107
▁трудом	-3108
▁тысяче	-3109
▁цивили	-3110
▁экспер	-3111
▁января	-3112
Мухаммед	-3113
бирается	-3114
лагается	-3115
роваться	-3116
сихологи	-3117
ствовали	-3118
ствующих	-3119
циальный	-3120
▁Госдумы	-3121
▁Зюганов	-3122
▁История	-3123
▁Украина	-3124
▁большая	-3125
▁вечером	-3126
▁встрети	-3127
▁встреча	-3128
▁выбросы	-3129
▁говорил	-3130
▁голосов	-3131
▁граждан	-3132
▁границе	-3133
▁девушки	-3134
▁другого	-3135
▁жителей	-3136
▁заключи	-3137
▁истории	-3138
▁караоке	-3139
▁кипения	-3140
▁крупные	-3141
▁любимым	-3142
▁месяцев	-3143
▁молодец	-3144
▁образом	-3145
▁переста	-3146
▁повстан	-3147
▁погибли	-3148
▁препода	-3149
▁публика	-3150
▁самолет	-3151
▁слишком	-3152
▁считают	-3153
▁турнире	-3154
▁условия	-3155
▁хорошие	-3156
▁четверг	-3157
▁чувства	-3158
респонден	-3159
розаводск	-3160
скресенье	-3161
стической	-3162
тельности	-3163
▁Владимир	-3164
▁Возможно	-3165
▁Согласно	-3166
▁внимания	-3167
▁выбросов	-3168
▁выиграла	-3169
▁движение	-3170
▁движения	-3171
▁действий	-3172
▁действия	-3173
▁добиться	-3174
▁интернет	-3175
▁керамики	-3176
▁командой	-3177
▁которому	-3178
▁названия	-3179
▁отмечает	-3180
▁подготов	-3181
▁предлага	-3182
▁примерно	-3183
▁проводит	-3184
▁программ	-3185
▁производ	-3186
▁протокол	-3187
▁развитие	-3188
▁совершен	-3189
▁трениров	-3190
▁федераль	-3191
▁Дэвенпорт	-3192
▁Единствен	-3193
▁Киотского	-3194
▁вернуться	-3195
▁миллионов	-3196
▁обнаружен	-3197
▁обществен	-3198
▁получится	-3199
▁поселения	-3200
▁программы	-3201
▁продавать	-3202
▁промышлен	-3203
▁процентов	-3204
▁рассказал	-3205
▁рассматри	-3206
▁сократить	-3207
▁уголовное	-3208
▁воспринима	-3209
▁информации	-3210
▁километров	-3211
▁миллиардов	-3212
▁напоминает	-3213
▁необходимо	-3214
▁подчеркнул	-3215
▁распростра	-3216
▁становится	-3217
▁заболевания	-3218
▁избирателей	-3219
▁лаборатории	-3220
▁организован	-3221
▁предложение	-3222
▁представлен	-3223
▁профессиона	-3224
▁путешествия	-3225
▁распростран	-3226
▁российского	-3227
▁руководство	-3228
▁северокорей	-3229
▁американских	-3230
▁безопасности	-3231
-3	-3232
26	-3233
42	-3234
BN	-3235
fa	-3236
le	-3237
pt	-3238
ta	-3239
Ай	-3240
БИ	-3241
БУ	-3242
ЕК	-3243
ЛЯ	-3244
ОЖ	-3245
ТЕ	-3246
УР	-3247
аф	-3248
ах	-3249
жь	-3250
▁F	-3251
▁M	-3252
▁T	-3253
▁😍	-3254
▁😸	-3255
SBN	-3256
Tub	-3257
You	-3258
ero	-3259
fat	-3260
wer	-3261
АТЫ	-3262
ГОД	-3263
ДЕТ	-3264
НИЯ	-3265
СТВ	-3266
аги	-3267
атр	-3268
беж	-3269
бий	-3270
бин	-3271
бка	-3272
бке	-3273
бом	-3274
бот	-3275
бри	-3276
вгу	-3277
вим	-3278
вич	-3279
вку	-3280
вли	-3281
вре	-3282
гно	-3283
год	-3284
гом	-3285
гут	-3286
дел	-3287
дии	-3288
дил	-3289
дор	-3290
дры	-3291
дым	-3292
дём	-3293
еме	-3294
емы	-3295
емь	-3296
ера	-3297
еры	-3298
жан	-3299
..	-3300
16	-3301
7-	-3302
78	-3303
an	-3304
pe	-3305
ЕЗ	-3306
ТА	-3307
ША	-3308
ШИ	-3309
аа	-3310
дя	-3311
ис	-3312
лд	-3313
ов	-3314
рд	-3315
тю	-3316
цю	-3317
чё	-3318
▁N	-3319
ами	-3320
бок	-3321
дри	-3322
ену	-3323
ждя	-3324
зем	-3325
зра	-3326
йно	-3327
каж	-3328
кер	-3329
леш	-3330
лиц	-3331
лке	-3332
лог	-3333
лое	-3334
лос	-3335
лот	-3336
луй	-3337
льп	-3338
мей	-3339
мом	-3340
мон	-3341
мые	-3342
мых	-3343
мян	-3344
нам	-3345
ним	-3346
них	-3347
ниц	-3348
нчо	-3349
охо	-3350
пки	-3351
плю	-3352
рам	-3353
рее	-3354
рея	-3355
рич	-3356
роз	-3357
рыв	-3358
сид	-3359
сию	-3360
спи	-3361
стр	-3362
сфе	-3363
сья	-3364
там	-3365
тан	-3366
хан	-3367
хая	-3368
хоз	-3369
цей	-3370
чал	-3371
чим	-3372
чис	-3373
чув	-3374
шан	-3375
шеб	-3376
шед	-3377
шем	-3378
шил	-3379
шит	-3380
щим	-3381
ыга	-3382
эро	-3383
юда	-3384
яне	-3385
▁14	-3386
▁23	-3387
▁24	-3388
▁27	-3389
▁71	-3390
▁ГД	-3391
▁Га	-3392
▁Дж	-3393
▁ЖИ	-3394
▁ИЗ	-3395
▁Це	-3396
▁Чи	-3397
▁Яв	-3398
▁аг	-3399
рпи	-3400
▁ал	-3401
▁ап	-3402
▁гг	-3403
▁кг	-3404
▁тё	-3405
▁цу	-3406
▁ща	-3407
▁ям	-3408
Tube	-3409
_000	-3410
zero	-3411
ЕТИЛ	-3412
бами	-3413
бель	-3414
били	-3415
боту	-3416
ваем	-3417
ведь	-3418
веже	-3419
вера	-3420
верх	-3421
веря	-3422
вете	-3423
вила	-3424
вите	-3425
вори	-3426
воря	-3427
гами	-3428
глин	-3429
гран	-3430
грес	-3431
дарь	-3432
диль	-3433
дины	-3434
дных	-3435
жней	-3436
зван	-3437
йдут	-3438
ймет	-3439
кими	-3440
ксом	-3441
ланд	-3442
лина	-3443
лита	-3444
ллер	-3445
лоба	-3446
льщи	-3447
люби	-3448
лями	-3449
мали	-3450
мене	-3451
мень	-3452
мили	-3453
мися	-3454
мосе	-3455
мять	-3456
нами	-3457
ними	-3458
нить	-3459
нной	-3460
нную	-3461
новь	-3462
ньше	-3463
нями	-3464
обра	-3465
онба	-3466
пере	-3467
пост	-3468
пуск	-3469
раду	-3470
рапо	-3471
риан	-3472
рили	-3473
рыве	-3474
сами	-3475
силь	-3476
сной	-3477
сона	-3478
спек	-3479
спет	-3480
ссив	-3481
стах	-3482
стно	-3483
стом	-3484
стри	-3485
стью	-3486
суще	-3487
сшта	-3488
таль	-3489
теро	-3490
тием	-3491
тику	-3492
тите	-3493
тной	-3494
тных	-3495
фире	-3496
хажи	-3497
хода	-3498
хожу	-3499
циях	-3500
цкие	-3501
чено	-3502
чили	-3503
чист	-3504
читы	-3505
чкой	-3506
чные	-3507
шали	-3508
шено	-3509
шены	-3510
шими	-3511
шить	-3512
шкин	-3513
шний	-3514
шный	-3515
ьерс	-3516
эйли	-3517
ющее	-3518
ёнок	-3519
▁194	-3520
▁197	-3521
▁250	-3522
▁Аль	-3523
▁Ана	-3524
▁Бар	-3525
▁Бли	-3526
▁Гор	-3527
▁Гре	-3528
▁Гру	-3529
▁Дед	-3530
▁Дет	-3531
▁Его	-3532
▁Жиз	-3533
▁Зем	-3534
▁Ива	-3535
▁Кру	-3536
▁Люб	-3537
▁Май	-3538
▁Неу	-3539
▁Офи	-3540
▁ПРИ	-3541
▁РАН	-3542
▁Рас	-3543
▁Рэй	-3544
▁СПб	-3545
▁США	-3546
▁Ско	-3547
▁Ура	-3548
▁Цен	-3549
▁Шни	-3550
▁баб	-3551
▁баш	-3552
▁бле	-3553
▁бук	-3554
▁вай	-3555
▁вли	-3556
▁вое	-3557
▁всю	-3558
▁гор	-3559
▁гри	-3560
▁дед	-3561
▁дел	-3562
▁дор	-3563
▁здо	-3564
▁зло	-3565
▁зон	-3566
▁изо	-3567
▁ищу	-3568
▁клю	-3569
▁кур	-3570
▁кух	-3571
▁мал	-3572
▁мая	-3573
▁меч	-3574
▁миг	-3575
▁мог	-3576
▁мор	-3577
▁мыш	-3578
▁наи	-3579
▁нау	-3580
▁наш	-3581
▁неё	-3582
▁окт	-3583
▁опа	-3584
▁пак	-3585
▁поп	-3586
▁пос	-3587
▁род	-3588
▁сбе	-3589
▁сда	-3590
▁сты	-3591
▁той	-3592
▁тор	-3593
▁ума	-3594
▁уме	-3595
▁уси	-3596
▁фир	-3597
▁фот	-3598
▁хро	-3599
▁цве	-3600
▁чай	-3601
▁шеи	-3602
▁шко	-3603
▁юмо	-3604
баров	-3605
баюсь	-3606
бейда	-3607
вайте	-3608
вался	-3609
варти	-3610
водят	-3611
вость	-3612
ганск	-3613
грали	-3614
грать	-3615
дется	-3616
дущих	-3617
ждают	-3618
ждено	-3619
жидан	-3620
зация	-3621
зован	-3622
йнера	-3623
класс	-3624
леном	-3625
летия	-3626
летки	-3627
лился	-3628
льную	-3629
манди	-3630
менти	-3631
менты	-3632
меров	-3633
митет	-3634
мости	-3635
мость	-3636
нными	-3637
новым	-3638
охонд	-3639
позна	-3640
полне	-3641
равда	-3642
рания	-3643
ранов	-3644
ранцу	-3645
реаль	-3646
риста	-3647
ричне	-3648
россы	-3649
собны	-3650
спект	-3651
сской	-3652
стите	-3653
стоит	-3654
стоко	-3655
стров	-3656
стями	-3657
сылок	-3658
толет	-3659
убейд	-3660
чиной	-3661
читал	-3662
щания	-3663
щении	-3664
щихся	-3665
юджет	-3666
ятная	-3667
▁1000	-3668
▁1990	-3669
▁2006	-3670
▁2012	-3671
▁ISBN	-3672
▁Азия	-3673
▁Амур	-3674
▁Бара	-3675
▁Бога	-3676
▁Была	-3677
▁Дацю	-3678
▁Дело	-3679
▁Кому	-3680
▁Крым	-3681
▁Лимо	-3682
▁Ллой	-3683
▁Мини	-3684
▁Миро	-3685
▁Моло	-3686
▁Наси	-3687
▁Оста	-3688
▁ПРАВ	-3689
▁Побу	-3690
▁Пред	-3691
▁Руко	-3692
▁Саша	-3693
▁Серё	-3694
▁Сидо	-3695
▁Спра	-3696
▁Фили	-3697
▁ЦЕНА	-3698
▁Цыга	-3699
▁Этот	-3700
▁арен	-3701
▁аэро	-3702
▁баре	-3703
▁ваша	-3704
▁веру	-3705
▁выше	-3706
▁гром	-3707
▁двое	-3708
▁дере	-3709
▁дура	-3710
▁душа	-3711
▁дыха	-3712
▁евро	-3713
▁жить	-3714
▁зага	-3715
▁заме	-3716
▁запа	-3717
▁захо	-3718
▁здра	-3719
▁знал	-3720
▁идио	-3721
▁избе	-3722
▁изуч	-3723
▁исти	-3724
▁июле	-3725
▁ката	-3726
▁каче	-3727
▁клоу	-3728
▁комп	-3729
▁коро	-3730
▁кота	-3731
▁край	-3732
▁крас	-3733
▁края	-3734
▁лиде	-3735
▁мани	-3736
▁мать	-3737
▁мимо	-3738
▁мной	-3739
▁моги	-3740
▁мото	-3741
▁нами	-3742
▁насе	-3743
▁нашу	-3744
▁ними	-3745
▁окру	-3746
▁опыт	-3747
▁осла	-3748
▁осте	-3749
▁отмы	-3750
▁папа	-3751
▁плюс	-3752
▁повы	-3753
▁пого	-3754
▁поме	-3755
▁поне	-3756
▁попо	-3757
▁поро	-3758
▁пося	-3759
▁появ	-3760
▁прем	-3761
▁пять	-3762
▁руки	-3763
▁свое	-3764
▁своё	-3765
▁связ	-3766
▁секу	-3767
▁сеть	-3768
▁сила	-3769
▁скры	-3770
▁слож	-3771
▁смет	-3772
▁соба	-3773
▁спец	-3774
▁спор	-3775
▁стан	-3776
▁стес	-3777
▁судя	-3778
▁сцен	-3779
▁сюда	-3780
▁твоя	-3781
▁типо	-3782
▁тому	-3783
▁трав	-3784
▁трое	-3785
▁упра	-3786
▁уточ	-3787
▁физи	-3788
▁хозя	-3789
▁хоть	-3790
▁хотя	-3791
▁цвет	-3792
▁шоко	-3793
ЕТИЛОВ	-3794
альной	-3795
альных	-3796
вгуста	-3797
водить	-3798
вшиеся	-3799
вшийся	-3800
глядит	-3801
графии	-3802
дентов	-3803
детель	-3804
дитель	-3805
дитесь	-3806
довлет	-3807
енниси	-3808
енький	-3809
жением	-3810
зывают	-3811
казать	-3812
лагода	-3813
лезное	-3814
летели	-3815
лимпиа	-3816
ловать	-3817
льного	-3818
начала	-3819
нологи	-3820
нулись	-3821
пельси	-3822
рбайте	-3823
сирова	-3824
скурсо	-3825
смотра	-3826
ставку	-3827
ствием	-3828
ствова	-3829
стреми	-3830
терфак	-3831
тивный	-3832
тирова	-3833
тифика	-3834
ходить	-3835
центра	-3836
ческую	-3837
щаться	-3838
щенных	-3839
ющиеся	-3840
ятного	-3841
▁!!!!!	-3842
▁Амура	-3843
▁Арави	-3844
▁Архан	-3845
▁Более	-3846
▁Донба	-3847
▁Донец	-3848
▁Ирака	-3849
▁Касья	-3850
▁Класс	-3851
▁Михаи	-3852
▁Можно	-3853
▁Нефте	-3854
▁Новая	-3855
▁Огром	-3856
▁Павел	-3857
▁Потом	-3858
▁Пусть	-3859
▁Пьерс	-3860
▁Сироп	-3861
▁Среди	-3862
▁Стере	-3863
▁Также	-3864
▁Таким	-3865
▁Филли	-3866
▁Явлин	-3867
▁акцен	-3868
▁билет	-3869
▁борту	-3870
▁боюсь	-3871
▁буква	-3872
▁ведет	-3873
▁вечно	-3874
▁взяли	-3875
▁вновь	-3876
▁водой	-3877
▁возбу	-3878
▁возра	-3879
▁всему	-3880
▁выбор	-3881
▁вышел	-3882
▁гарде	-3883
▁гаста	-3884
▁глава	-3885
▁госду	-3886
▁движу	-3887
▁детям	-3888
▁дипло	-3889
▁домов	-3890
▁другу	-3891
▁забер	-3892
▁завое	-3893
▁затем	-3894
▁какая	-3895
▁какие	-3896
▁кален	-3897
▁кирпи	-3898
▁книги	-3899
▁коали	-3900
▁конце	-3901
▁конья	-3902
▁кораб	-3903
▁красо	-3904
▁любят	-3905
▁макси	-3906
▁массо	-3907
▁милой	-3908
▁митин	-3909
▁могла	-3910
▁можем	-3911
▁мотив	-3912
▁мошен	-3913
▁мысль	-3914
▁найти	-3915
▁наряд	-3916
▁начал	-3917
▁несом	-3918
▁новая	-3919
▁новом	-3920
▁номер	-3921
▁нрави	-3922
▁обеща	-3923
▁обмен	-3924
▁образ	-3925
▁объек	-3926
▁оправ	-3927
▁особо	-3928
▁остро	-3929
▁офиса	-3930
▁офисе	-3931
▁парла	-3932
▁парни	-3933
▁песни	-3934
▁плана	-3935
▁подчи	-3936
▁попыт	-3937
▁поско	-3938
▁потер	-3939
▁потра	-3940
▁предо	-3941
▁присо	-3942
▁промы	-3943
▁проце	-3944
▁прямо	-3945
▁пусть	-3946
▁разде	-3947
▁разре	-3948
▁разум	-3949
▁сайте	-3950
▁самых	-3951
▁свете	-3952
▁своим	-3953
▁север	-3954
▁сезон	-3955
▁сидит	-3956
▁силой	-3957
▁симпа	-3958
▁склад	-3959
▁скром	-3960
▁слово	-3961
▁сложи	-3962
▁смени	-3963
▁смысл	-3964
▁снего	-3965
▁снова	-3966
▁согла	-3967
▁созна	-3968
▁спать	-3969
▁спорт	-3970
▁стара	-3971
▁стену	-3972
▁сторо	-3973
▁таким	-3974
▁твоих	-3975
▁тепло	-3976
▁тобой	-3977
▁транс	-3978
▁трево	-3979
▁трене	-3980
▁треть	-3981
▁убиты	-3982
▁успел	-3983
▁устра	-3984
▁финал	-3985
▁харак	-3986
▁хотел	-3987
▁число	-3988
▁чисты	-3989
▁чудес	-3990
▁экран	-3991
▁эфире	-3992
YouTube	-3993
zerofat	-3994
вшимися	-3995
говоров	-3996
горелся	-3997
дельник	-3998
енность	-3999
кажется	-4000
кальные	-4001
льщиков	-4002
ступают	-4003
тельная	-4004
тельное	-4005
тирован	-4006
чистить	-4007
шенного	-4008
явления	-4009
▁Австра	-4010
▁Андрей	-4011
▁Восток	-4012
▁Выборы	-4013
▁Кавказ	-4014
▁Лучшая	-4015
▁Любить	-4016
▁Любовь	-4017
▁Парнас	-4018
▁Партии	-4019
▁Партия	-4020
▁Победы	-4021
▁Потому	-4022
▁Правда	-4023
▁Теперь	-4024
▁Шарапо	-4025
▁Шнидер	-4026
▁автома	-4027
▁будете	-4028
▁быстро	-4029
▁вариан	-4030
▁видела	-4031
▁витами	-4032
▁возгла	-4033
▁возник	-4034
▁войска	-4035
▁восемь	-4036
▁вполне	-4037
▁вторая	-4038
▁выйдет	-4039
▁выступ	-4040
▁газеты	-4041
▁глазах	-4042
▁говорю	-4043
▁голосу	-4044
▁грузин	-4045
▁группе	-4046
▁данным	-4047
▁дважды	-4048
▁диспет	-4049
▁дороге	-4050
▁достой	-4051
▁дохлой	-4052
▁другая	-4053
▁заботы	-4054
▁законо	-4055
▁замеча	-4056
▁здания	-4057
▁знаете	-4058
▁значит	-4059
▁изменя	-4060
▁иногда	-4061
▁каждой	-4062
▁картин	-4063
▁кварти	-4064
▁коммер	-4065
▁кончик	-4066
▁кстати	-4067
▁ладонь	-4068
▁ленточ	-4069
▁либера	-4070
▁лучших	-4071
▁метров	-4072
▁миссии	-4073
▁мнение	-4074
▁многих	-4075
▁написа	-4076
▁народа	-4077
▁настав	-4078
▁начала	-4079
▁неделю	-4080
▁обвиня	-4081
▁обрати	-4082
▁оконча	-4083
▁опубли	-4084
▁основа	-4085
▁ошибки	-4086
▁парень	-4087
▁партия	-4088
▁первую	-4089
▁первым	-4090
▁первых	-4091
▁период	-4092
▁печать	-4093
▁пилота	-4094
▁победы	-4095
▁покупа	-4096
▁полета	-4097
▁пользо	-4098
▁попала	-4099
▁попыта	-4100
▁потреб	-4101
▁правда	-4102
▁прийти	-4103
▁причем	-4104
▁пришла	-4105
▁работе	-4106
▁работу	-4107
▁рамках	-4108
▁раньше	-4109
▁раство	-4110
▁секрет	-4111
▁сексом	-4112
▁сиропа	-4113
▁сконча	-4114
▁смотри	-4115
▁сообща	-4116
▁сочета	-4117
▁списки	-4118
▁список	-4119
▁спорта	-4120
▁станет	-4121
▁станут	-4122
▁такого	-4123
▁тарифы	-4124
▁украин	-4125
▁уничто	-4126
▁услуги	-4127
▁успели	-4128
▁ученый	-4129
▁ходить	-4130
▁центра	-4131
▁центре	-4132
▁читать	-4133
▁шансов	-4134
▁широко	-4135
▁элеган	-4136
бираться	-4137
ведениям	-4138
ведливая	-4139
говорить	-4140
лизирова	-4141
питывать	-4142
равления	-4143
реждения	-4144
робности	-4145
ственное	-4146
ственных	-4147
струкции	-4148
тельства	-4149
тические	-4150
тический	-4151
хождения	-4152
▁Алексей	-4153
▁Европей	-4154
▁ЗЕТИЛОВ	-4155
▁Израиль	-4156
▁Констан	-4157
▁Максима	-4158
▁Неужели	-4159
▁Поэтому	-4160
▁Сильная	-4161
▁Украины	-4162
▁Фрадков	-4163
▁Харьков	-4164
▁беспоко	-4165
▁бизнеса	-4166
▁большую	-4167
▁ванилин	-4168
▁веществ	-4169
▁военных	-4170
▁воспита	-4171
▁вторник	-4172
▁главное	-4173
▁главным	-4174
▁глазами	-4175
▁глубине	-4176
▁говорят	-4177
▁девочка	-4178
▁довести	-4179
▁допуска	-4180
▁европей	-4181
▁задержа	-4182
▁зарубеж	-4183
▁издание	-4184
▁инвести	-4185
▁каждого	-4186
▁комнате	-4187
▁конгрес	-4188
▁которое	-4189
▁котором	-4190
▁которую	-4191
▁любимой	-4192
▁микрово	-4193
▁миллион	-4194
▁надеюсь	-4195
▁наличии	-4196
▁налогов	-4197
▁научных	-4198
▁немного	-4199
▁нереаль	-4200
▁никакой	-4201
▁октября	-4202
▁открыли	-4203
▁подписа	-4204
▁пожалуй	-4205
▁поздний	-4206
▁получен	-4207
▁понимаю	-4208
▁понрави	-4209
▁порядка	-4210
▁посылок	-4211
▁поэтому	-4212
▁предела	-4213
▁прекрас	-4214
▁принято	-4215
▁приходи	-4216
▁процесс	-4217
▁пытаясь	-4218
▁ребенок	-4219
▁ребёнок	-4220
▁региона	-4221
▁регионе	-4222
▁русских	-4223
▁сделаны	-4224
▁систему	-4225
▁события	-4226
▁сообщил	-4227
▁стороны	-4228
▁субботу	-4229
▁тяжелым	-4230
▁увидеть	-4231
▁уровень	-4232
▁уточнил	-4233
▁хватает	-4234
▁хорошее	-4235
▁электри	-4236
единенные	-4237
кладывать	-4238
положение	-4239
сирование	-4240
тельность	-4241
численных	-4242
▁Генераль	-4243
▁Депутаты	-4244
▁Известия	-4245
▁Интерфак	-4246
▁Киотский	-4247
▁автомоби	-4248
▁больницы	-4249
▁возможно	-4250
▁выглядит	-4251
▁действую	-4252
▁знакомый	-4253
▁изучения	-4254
▁иностран	-4255
▁использу	-4256
▁касается	-4257
▁коммента	-4258
▁компания	-4259
▁контракт	-4260
▁которыми	-4261
▁кофейный	-4262
▁манипуля	-4263
▁начинает	-4264
▁ненавижу	-4265
▁нравится	-4266
▁обучение	-4267
▁огромные	-4268
▁отставку	-4269
▁ощущение	-4270
▁пассажир	-4271
▁подойдет	-4272
▁поискать	-4273
▁получить	-4274
▁помогает	-4275
▁преврати	-4276
▁принципа	-4277
▁принципе	-4278
▁процессе	-4279
▁работает	-4280
▁работают	-4281
▁рассказы	-4282
▁религиоз	-4283
▁свидания	-4284
▁смартфон	-4285
▁создания	-4286
▁специали	-4287
▁телекана	-4288
▁товарища	-4289
▁тренером	-4290
▁утвержда	-4291
▁холодиль	-4292
▁экстреми	-4293
▁являются	-4294
ственность	-4295
▁Архангель	-4296
▁Нефтехими	-4297
▁Отечество	-4298
▁Сидоренко	-4299
▁Федерации	-4300
▁археологи	-4301
▁атмосферу	-4302
▁бесплатно	-4303
▁ветеранов	-4304
▁журналист	-4305
▁заплатили	-4306
▁заседании	-4307
▁ингаляцию	-4308
▁календарь	-4309
▁мальчиков	-4310
▁наркотики	-4311
▁настоящее	-4312
▁основания	-4313
▁остеохонд	-4314
▁очередной	-4315
▁позволяет	-4316
▁поскольку	-4317
▁правильно	-4318
▁православ	-4319
▁праздники	-4320
▁президент	-4321
▁пригласил	-4322
▁проблемах	-4323
▁проводить	-4324
▁программа	-4325
▁произошло	-4326
▁протоколе	-4327
▁проходила	-4328
▁психологи	-4329
▁сведениям	-4330
▁серьезные	-4331
▁скончался	-4332
▁случилось	-4333
▁спортсмен	-4334
▁убедитесь	-4335
ментировать	-4336
▁Владивосто	-4337
▁Стереолето	-4338
▁внутренней	-4339
▁информация	-4340
▁кандидатом	-4341
▁московских	-4342
▁находились	-4343
▁несомненно	-4344
▁обнаружены	-4345
▁парниковых	-4346
▁подбородок	-4347
▁применение	-4348
▁проведения	-4349
▁продолжает	-4350
▁собирается	-4351
▁собственно	-4352
▁совершенно	-4353
▁терроризма	-4354
▁тренировку	-4355
▁чемпионата	-4356
▁Белковского	-4357
▁Гражданской	-4358
▁Дементьевой	-4359
▁американцев	-4360
▁вооруженных	-4361
▁воскресенье	-4362
▁гастарбайте	-4363
▁голосования	-4364
▁группировки	-4365
▁ингредиенты	-4366
▁информацион	-4367
▁обеспечение	-4368
▁понедельник	-4369
▁тысячелетие	-4370
▁цивилизации	-4371
▁Генерального	-4372
▁Единственный	-4373
▁исследования	-4374
▁корреспонден	-4375
▁производства	-4376
▁противополож	-4377
▁человечества	-4378
▁действительно	-4379
▁политтехнолог	-4380
▁правительства	-4381
▁правительство	-4382
▁преподаватель	-4383
▁соответствует	-4384
▁состоявшимися	-4385
▁представителей	-4386
▁финансирование	-4387
▁госпитализирова	-4388
)))	-4389
78-	-4390
942	-4391
are	-4392
art	-4393
bra	-4394
ins	-4395
lia	-4396
oto	-4397
ran	-4398
ros	-4399
sky	-4400
АЗа	-4401
Анд	-4402
ВИТ	-4403
ЛЕК	-4404
МНО	-4405
НЫХ	-4406
ОРО	-4407
ПЕР	-4408
ПЕТ	-4409
РОВ	-4410
СТЬ	-4411
йфе	-4412
нцу	-4413
хие	-4414
шёл	-4415
щую	-4416
ъяв	-4417
▁45	-4418
▁70	-4419
▁80	-4420
▁Fo	-4421
▁шт	-4422
otoG	-4423
ower	-4424
АСТВ	-4425
ВАЛИ	-4426
ОЖДЕ	-4427
ПЛЕК	-4428
УДЕТ	-4429
ажда	-4430
аллу	-4431
анке	-4432
брос	-4433
ведя	-4434
воню	-4435
гиев	-4436
еван	-4437
евра	-4438
енов	-4439
жусь	-4440
зохи	-4441
имой	-4442
инля	-4443
креа	-4444
ллин	-4445
лтай	-4446
льзя	-4447
льфо	-4448
морь	-4449
ндию	-4450
ндия	-4451
ндон	-4452
нены	-4453
неры	-4454
несу	-4455
несы	-4456
нету	-4457
плош	-4458
плый	-4459
разу	-4460
риев	-4461
рошо	-4462
стям	-4463
улка	-4464
улли	-4465
умно	-4466
фона	-4467
чьей	-4468
ябре	-4469
▁0,2	-4470
▁10-	-4471
▁12,	-4472
▁128	-4473
▁13.	-4474
▁30-	-4475
▁368	-4476
▁90-	-4477
▁Sou	-4478
▁Tou	-4479
▁Буш	-4480
▁ВЫЛ	-4481
▁Ещё	-4482
▁Жан	-4483
▁КАМ	-4484
▁Муж	-4485
▁ОНИ	-4486
▁ПОЗ	-4487
▁Рай	-4488
▁Рам	-4489
▁СПИ	-4490
▁Сав	-4491
▁Шей	-4492
▁Шот	-4493
▁Шри	-4494
▁асф	-4495
▁гим	-4496
▁зов	-4497
▁опы	-4498
▁пин	-4499
вах	-4500
вью	-4501
йдя	-4502
лфи	-4503
рсы	-4504
унк	-4505
цам	-4506
цах	-4507
▁5-	-4508
▁51	-4509
▁Че	-4510
онер	-4511
скоя	-4512
щему	-4513
▁Лон	-4514
▁Тер	-4515
▁Чем	-4516
▁Чен	-4517
▁пас	-4518
▁пья	-4519
▁съе	-4520
▁сыр	-4521
▁тим	-4522
▁фон	-4523
▁хам	-4524
▁час	-4525
▁шеф	-4526
▁шоу	-4527
▁щас	-4528
insta	-4529
Ланке	-4530
акция	-4531
бавля	-4532
байка	-4533
бками	-4534
борка	-4535
ванию	-4536
ваясь	-4537
вента	-4538
веряю	-4539
визор	-4540
вшего	-4541
выбор	-4542
гнуть	-4543
говые	-4544
гроса	-4545
давно	-4546
данию	-4547
деном	-4548
дними	-4549
дован	-4550
друго	-4551
думал	-4552
дупре	-4553
единя	-4554
емого	-4555
ехали	-4556
жащих	-4557
ждать	-4558
жении	-4559
жнему	-4560
жными	-4561
знача	-4562
йджан	-4563
йфеле	-4564
каких	-4565
кован	-4566
ковым	-4567
корды	-4568
летов	-4569
лешмо	-4570
линто	-4571
лкнов	-4572
ложен	-4573
мните	-4574
моему	-4575
мотри	-4576
наеха	-4577
народ	-4578
некам	-4579
нефте	-4580
нович	-4581
новья	-4582
нослу	-4583
нутые	-4584
нутых	-4585
нятия	-4586
оберт	-4587
парат	-4588
пенко	-4589
перед	-4590
подоб	-4591
полня	-4592
порож	-4593
работ	-4594
ргани	-4595
ревно	-4596
релия	-4597
ресмо	-4598
решки	-4599
pet	-4600
гие	-4601
еву	-4602
зии	-4603
кей	-4604
обя	-4605
пия	-4606
пча	-4607
спу	-4608
ссу	-4609
сха	-4610
тфи	-4611
фин	-4612
▁34	-4613
▁37	-4614
▁жж	-4615
▁жё	-4616
бубу	-4617
енди	-4618
жным	-4619
зили	-4620
ккей	-4621
лигу	-4622
меры	-4623
нице	-4624
ровь	-4625
суди	-4626
сует	-4627
схат	-4628
тобу	-4629
фици	-4630
шему	-4631
яние	-4632
▁Вол	-4633
▁Кор	-4634
▁ПОД	-4635
▁Эта	-4636
▁бег	-4637
▁спу	-4638
лится	-4639
льтфи	-4640
нином	-4641
нутся	-4642
обяни	-4643
паган	-4644
рится	-4645
ровом	-4646
рожен	-4647
росли	-4648
росль	-4649
рутди	-4650
рядок	-4651
сезон	-4652
слоты	-4653
ствие	-4654
стерс	-4655
стоин	-4656
стрее	-4657
сштаб	-4658
тацию	-4659
терол	-4660
тники	-4661
товых	-4662
троль	-4663
тряса	-4664
фикси	-4665
цепсы	-4666
цкого	-4667
ченко	-4668
шении	-4669
щаяся	-4670
▁0,25	-4671
▁1984	-4672
▁1989	-4673
▁2005	-4674
▁2007	-4675
▁2013	-4676
▁978-	-4677
▁Авто	-4678
▁Анна	-4679
▁Вова	-4680
▁Вода	-4681
▁Всем	-4682
▁Голо	-4683
▁Гоно	-4684
▁Дина	-4685
▁Доба	-4686
▁Думу	-4687
▁Клий	-4688
▁Льво	-4689
▁Мари	-4690
▁Могу	-4691
▁НАШИ	-4692
▁Ново	-4693
▁Одна	-4694
▁ПОЗД	-4695
▁Пала	-4696
▁Пари	-4697
▁План	-4698
▁Путе	-4699
-00	-4700
бее	-4701
вои	-4702
кеп	-4703
пят	-4704
слы	-4705
▁ЖК	-4706
▁СМ	-4707
вели	-4708
верь	-4709
воих	-4710
дыха	-4711
елый	-4712
жешь	-4713
жиха	-4714
жкой	-4715
жном	-4716
лена	-4717
нике	-4718
раны	-4719
рена	-4720
рову	-4721
тали	-4722
твер	-4723
тике	-4724
чишь	-4725
чное	-4726
шкой	-4727
▁Ему	-4728
▁ЖКХ	-4729
▁Зна	-4730
▁Изд	-4731
▁Коэ	-4732
▁вещ	-4733
▁жел	-4734
▁пят	-4735
▁хра	-4736
insky	-4737
верня	-4738
енции	-4739
йлови	-4740
йство	-4741
онард	-4742
рется	-4743
скажи	-4744
стике	-4745
стное	-4746
▁2002	-4747
▁Един	-4748
▁Каза	-4749
▁Коэн	-4750
▁Меня	-4751
▁Райс	-4752
▁Рост	-4753
▁Саву	-4754
▁Само	-4755
▁Саши	-4756
▁Сири	-4757
▁Сооб	-4758
▁Сочи	-4759
▁Теле	-4760
▁Типи	-4761
▁Урай	-4762
▁Цвет	-4763
▁абор	-4764
▁адво	-4765
▁апре	-4766
▁асси	-4767
▁бабу	-4768
▁бази	-4769
▁бана	-4770
▁банк	-4771
▁бело	-4772
▁брак	-4773
▁будь	-4774
▁веро	-4775
▁вещь	-4776
▁взят	-4777
▁вижу	-4778
▁впра	-4779
▁вспо	-4780
▁вытя	-4781
▁двор	-4782
▁девя	-4783
▁дозу	-4784
▁долю	-4785
▁думы	-4786
▁жена	-4787
▁живе	-4788
▁живо	-4789
▁жиль	-4790
▁жопу	-4791
▁забы	-4792
▁заре	-4793
▁зонд	-4794
▁игру	-4795
▁идеа	-4796
▁иллю	-4797
▁инди	-4798
▁инци	-4799
йн	-4800
бе́	-4801
гуш	-4802
▁	-4803
о	-4804
е	-4805
а	-4806
и	-4807
т	-4808
н	-4809
с	-4810
р	-4811
в	-4812
л	-4813
к	-4814
д	-4815
м	-4816
п	-4817
у	-4818
я	-4819
ы	-4820
ь	-4821
.	-4822
,	-4823
б	-4824
г	-4825
з	-4826
ч	-4827
й	-4828
ж	-4829
х	-4830
ш	-4831
ю	-4832
ц	-4833
-	-4834
x	-4835
"	-4836
П	-4837
В	-4838
щ	-4839
э	-4840
А	-4841
Н	-4842
С	-4843
К	-4844
ф	-4845
!	-4846
О	-4847
И	-4848
М	-4849
0	-4850
Т	-4851
Д	-4852
Р	-4853
—	-4854
:	-4855
)	-4856
1	-4857
Е	-4858
2	-4859
У	-4860
Л	-4861
Б	-4862
Г	-4863
Я	-4864
ё	-4865
(	-4866
З	-4867
@	-4868
3	-4869
o	-4870
?	-4871
5	-4872
`	-4873
Ж	-4874
9	-4875
4	-4876
t	-4877
/	-4878
Ч	-4879
Х	-4880
#	-4881
=	-4882
Э	-4883
6	-4884
a	-4885
r	-4886
7	-4887
8	-4888
Ф	-4889
i	-4890
e	-4891
s	-4892
;	-4893
p	-4894
Ш	-4895
l	-4896
y	-4897
ъ	-4898
h	-4899
Ю	-4900
T	-4901
k	-4902
Ц	-4903
Ы	-4904
n	-4905
u	-4906
–	-4907
*	-4908
R	-4909
b	-4910
«	-4911
»	-4912
Ь	-4913
c	-4914
w	-4915
P	-4916
S	-4917
v	-4918
d	-4919
_	-4920
Й	-4921
+	-4922
g	-4923
B	-4924
I	-4925
N	-4926
m	-4927
%	-4928
&	-4929
L	-4930
M	-4931
Z	-4932
q	-4933
z	-4934
A	-4935
V	-4936
[	-4937
]	-4938
f	-4939
́	-4940
Щ	-4941
►	-4942
F	-4943
G	-4944
Y	-4945
❤	-4946
👍	-4947
😍	-4948
😸	-4949
$	-4950
E	-4951
H	-4952
O	-4953
👑	-4954
👪	-4955
📚	-4956
😁	-4957
😂	-4958
'	-4959
<	-4960
J	-4961
K	-4962
U	-4963
W	-4964
X	-4965
\	-4966
j	-4967
©	-4968
☝	-4969
♥	-4970
✔	-4971
❄	-4972
🌼	-4973
🍫	-4974
🍰	-4975
🍷	-4976
🎂	-4977
🎄	-4978
🎵	-4979
🐩	-4980
👶	-4981
👼	-4982
💜	-4983
💪	-4984
📌	-4985
🔥	-4986
😃	-4987
😉	-4988
😊	-4989
😌	-4990
😹	-4991
😺	-4992
😻	-4993
🙀	-4994
🙈	-4995
🤩	-4996
