<unk>	0
<s>	0
</s>	0
ea	-0
▁.	-1
▁l	-2
ii	-3
▁d	-4
▁g	-5
uo	-6
▁m	-7
as	-8
ht	-9
▁s	-10
▁b	-11
ai	-12
▁j	-13
at	-14
▁o	-15
an	-16
▁lea	-17
al	-18
it	-19
ie	-20
▁ja	-21
▁v	-22
hk	-23
dd	-24
ál	-25
▁,	-26
in	-27
us	-28
is	-29
ái	-30
ll	-31
uv	-32
án	-33
aš	-34
rr	-35
ah	-36
aid	-37
gg	-38
tt	-39
et	-40
on	-41
ár	-42
▁S	-43
▁D	-44
kk	-45
je	-46
▁M	-47
▁go	-48
iid	-49
oa	-50
id	-51
▁n	-52
▁r	-53
htt	-54
▁leat	-55
▁ea	-56
▁č	-57
ám	-58
ag	-59
ar	-60
▁le	-61
er	-62
un	-63
ad	-64
bm	-65
ás	-66
iv	-67
uvv	-68
▁h	-69
kt	-70
áv	-71
am	-72
▁f	-73
vuo	-74
il	-75
pp	-76
čč	-77
uov	-78
mm	-79
▁gea	-80
hte	-81
en	-82
▁G	-83
dje	-84
▁vuo	-85
go	-86
iel	-87
ut	-88
uht	-89
▁gal	-90
ui	-91
ain	-92
all	-93
iin	-94
hkk	-95
▁bo	-96
os	-97
og	-98
pm	-99
▁?	-100
▁lei	-101
▁ov	-102
áhtt	-103
ot	-104
▁a	-105
ss	-106
▁B	-107
▁L	-108
▁do	-109
de	-110
át	-111
šš	-112
ear	-113
▁sám	-114
áh	-115
▁boa	-116
ge	-117
uin	-118
kuv	-119
lbm	-120
▁buo	-121
▁J	-122
vuođ	-123
▁ii	-124
ast	-125
▁ahte	-126
od	-127
ir	-128
es	-129
rra	-130
el	-131
vv	-132
ur	-133
ol	-134
ačč	-135
ddj	-136
ab	-137
▁de	-138
or	-139
uid	-140
▁dan	-141
đđ	-142
▁st	-143
▁ledje	-144
▁O	-145
▁I	-146
bb	-147
em	-148
áht	-149
▁maid	-150
dn	-151
áhk	-152
juvv	-153
hc	-154
▁ál	-155
ul	-156
uor	-157
ág	-158
▁N	-159
▁bar	-160
ád	-161
ahp	-162
oai	-163
▁Son	-164
im	-165
▁bea	-166
ed	-167
▁muht	-168
áš	-169
llu	-170
▁nu	-171
oh	-172
▁skuv	-173
eg	-174
inn	-175
▁š	-176
▁ái	-177
▁mea	-178
▁du	-179
oš	-180
tn	-181
žž	-182
▁Á	-183
▁da	-184
aččat	-185
ig	-186
▁gu	-187
▁Sám	-188
▁E	-189
áll	-190
▁man	-191
▁!	-192
usa	-193
▁miel	-194
gá	-195
▁V	-196
▁ie	-197
▁mán	-198
▁Mun	-199
ter	-200
▁bi	-201
▁mu	-202
▁su	-203
guin	-204
▁son	-205
eaddj	-206
▁olbm	-207
um	-208
▁mii	-209
gi	-210
tern	-211
▁okt	-212
ohk	-213
uohk	-214
eh	-215
ev	-216
▁R	-217
▁k	-218
ass	-219
▁dat	-220
▁mun	-221
▁sámi	-222
▁sáhtt	-223
▁in	-224
▁guo	-225
▁Dat	-226
nn	-227
▁1	-228
▁p	-229
ivv	-230
ahpah	-231
▁á	-232
eal	-233
▁ma	-234
▁die	-235
ks	-236
ašvuođ	-237
ta	-238
uh	-239
áid	-240
▁jo	-241
▁vá	-242
▁dál	-243
ojuvv	-244
▁ovdd	-245
hta	-246
jit	-247
áld	-248
ga	-249
▁F	-250
gga	-251
▁iež	-252
te	-253
dag	-254
lla	-255
▁nj	-256
▁eai	-257
▁muhto	-258
▁mielde	-259
edi	-260
▁Ja	-261
▁dár	-262
▁lean	-263
ih	-264
eam	-265
hcc	-266
uovtt	-267
▁A	-268
lgg	-269
▁birra	-270
▁intern	-271
▁K	-272
aidd	-273
▁ean	-274
kte	-275
ápm	-276
▁dá	-277
kkár	-278
▁ollu	-279
▁ovtt	-280
▁boaht	-281
la	-282
▁H	-283
ean	-284
alaš	-285
▁gáv	-286
▁luo	-287
▁Muht	-288
▁galgá	-289
▁oahpah	-290
ov	-291
ihk	-292
ást	-293
igat	-294
uvvo	-295
▁dán	-296
ba	-297
jj	-298
ŋŋ	-299
már	-300
šše	-301
▁Lea	-302
▁vuos	-303
▁Sámedi	-304
ne	-305
dde	-306
ist	-307
▁rá	-308
ahpp	-309
edje	-310
▁gas	-311
▁hál	-312
▁ovd	-313
▁geav	-314
om	-315
ggi	-316
▁juo	-317
aiddái	-318
vuohta	-319
eas	-320
▁boaz	-321
sa	-322
aga	-323
asa	-324
hčč	-325
ill	-326
▁duo	-327
▁mearr	-328
uš	-329
vd	-330
kan	-331
đii	-332
▁al	-333
ital	-334
álaš	-335
▁barg	-336
▁buot	-337
▁doai	-338
innmár	-339
nje	-340
vtt	-341
▁má	-342
▁un	-343
aide	-344
▁dah	-345
▁fer	-346
▁sea	-347
▁dušše	-348
▁geavah	-349
▁e	-350
lmm	-351
nán	-352
ppe	-353
▁oa	-354
alle	-355
llas	-356
▁rie	-357
▁vai	-358
▁dear	-359
▁guov	-360
▁jagi	-361
innmárkk	-362
na	-363
▁T	-364
add	-365
dda	-366
ier	-367
▁Ii	-368
ahtt	-369
▁ear	-370
▁ášš	-371
▁váld	-372
eaddji	-373
▁dahje	-374
▁sáhttá	-375
▁maiddái	-376
ob	-377
áib	-378
idit	-379
ihkk	-380
kkas	-381
olaš	-382
▁orr	-383
▁ođđ	-384
▁sii	-385
▁iežas	-386
▁sámeg	-387
ja	-388
zz	-389
itt	-390
kka	-391
usaid	-392
▁mann	-393
▁oahpp	-394
▁Finnmárkk	-395
ud	-396
odo	-397
rre	-398
▁St	-399
▁ge	-400
▁Sii	-401
▁sis	-402
▁vea	-403
uvvon	-404
▁internáhtt	-405
att	-406
get	-407
▁Go	-408
▁or	-409
iela	-410
uvnn	-411
▁hea	-412
▁nam	-413
▁vie	-414
eahtt	-415
▁maŋŋ	-416
ahk	-417
arg	-418
áhp	-419
▁19	-420
▁er	-421
astit	-422
ápmel	-423
▁buor	-424
▁guhk	-425
▁čáll	-426
▁bargg	-427
▁ovttas	-428
vvašvuođ	-429
▁boazodo	-430
hp	-431
jog	-432
tta	-433
▁bu	-434
▁ár	-435
iide	-436
rras	-437
áráš	-438
▁Mii	-439
▁dea	-440
▁don	-441
▁láv	-442
▁Káráš	-443
▁stuor	-444
áž	-445
ppi	-446
ust	-447
▁De	-448
eapm	-449
tnam	-450
▁Dan	-451
▁gie	-452
▁gir	-453
allat	-454
▁dahk	-455
▁leam	-456
▁šadd	-457
iiguin	-458
ojuvvo	-459
eht	-460
idj	-461
mma	-462
ošt	-463
ivšš	-464
odag	-465
usat	-466
▁min	-467
▁Guov	-468
▁áigg	-469
▁Muhto	-470
00	-471
▁P	-472
igg	-473
iss	-474
iál	-475
ssa	-476
▁lu	-477
adit	-478
bmog	-479
ohkk	-480
áhta	-481
áikk	-482
ásah	-483
▁biv	-484
▁bál	-485
▁ožž	-486
▁čuo	-487
allam	-488
▁dieđ	-489
▁eará	-490
▁ođđa	-491
▁bođii	-492
▁ferte	-493
▁ovdal	-494
▁dearvvašvuođ	-495
ađ	-496
ik	-497
oar	-498
áss	-499
ddaš	-500
eall	-501
eami	-502
▁nie	-503
▁vel	-504
oahkk	-505
uohke	-506
▁geat	-507
▁okta	-508
▁mánáid	-509
sk	-510
anj	-511
iht	-512
nit	-513
oav	-514
val	-515
▁čá	-516
earr	-517
▁Dát	-518
▁Mán	-519
▁lág	-520
▁sin	-521
eainn	-522
▁lohk	-523
▁oaid	-524
▁čuov	-525
▁dárbb	-526
▁leamaš	-527
▁muital	-528
▁ovddas	-529
igatvuođ	-530
▁Sámedikk	-531
ji	-532
ieht	-533
▁Vuo	-534
▁hui	-535
▁mat	-536
▁suo	-537
jedje	-538
juvvon	-539
▁Kárášjog	-540
av	-541
já	-542
ma	-543
đe	-544
▁u	-545
idn	-546
ihtt	-547
oaht	-548
ttis	-549
▁Man	-550
▁dii	-551
▁eam	-552
allan	-553
uorra	-554
▁Soai	-555
▁beaivv	-556
▁doaimm	-557
▁eatnam	-558
▁munnje	-559
▁olbmot	-560
▁ruovtt	-561
▁c	-562
ald	-563
idd	-564
ult	-565
▁gá	-566
htte	-567
llii	-568
▁Nor	-569
▁dáb	-570
▁ráhk	-571
▁álgg	-572
▁ásah	-573
▁skuvl	-574
ojuvvon	-575
▁geahčč	-576
▁guokte	-577
▁vuostt	-578
34	-579
ib	-580
bar	-581
ege	-582
tem	-583
tii	-584
ŋgg	-585
▁In	-586
▁lo	-587
▁pr	-588
áldd	-589
▁Dál	-590
▁dut	-591
▁fuo	-592
▁dáhp	-593
▁gáib	-594
▁kult	-595
▁nuor	-596
▁vuol	-597
aiguin	-598
álaččat	-599
▁skuvla	-600
▁Guovdag	-601
▁dárbbaš	-602
igatvuohta	-603
▁sámegiela	-604
&#	-605
cc	-606
ej	-607
hč	-608
ná	-609
▁:	-610
34;	-611
adn	-612
ima	-613
jeh	-614
jes	-615
oam	-616
▁&#	-617
▁Mu	-618
▁mo	-619
asat	-620
uide	-621
▁fas	-622
▁oai	-623
▁čađ	-624
▁Sámi	-625
▁borr	-626
▁eret	-627
▁gull	-628
▁oažž	-629
▁&#34;	-630
▁eanet	-631
▁galgg	-632
▁manai	-633
▁unnán	-634
▁vuost	-635
▁dakkár	-636
▁galget	-637
gu	-638
iik	-639
ppa	-640
ávv	-641
▁sá	-642
iret	-643
ivčč	-644
▁Buo	-645
▁gár	-646
▁ieš	-647
▁sie	-648
asiid	-649
▁daid	-650
▁lusa	-651
▁máks	-652
▁njuo	-653
▁gaskkas	-654
▁internáht	-655
▁Guovdageainn	-656
aj	-657
ei	-658
st	-659
▁t	-660
adj	-661
ask	-662
ddi	-663
iná	-664
ndd	-665
par	-666
ága	-667
ála	-668
▁fá	-669
▁ol	-670
▁vu	-671
evaš	-672
ihke	-673
odat	-674
ures	-675
áhka	-676
▁Dán	-677
▁Gal	-678
▁add	-679
▁dás	-680
▁jie	-681
▁jáv	-682
ttiin	-683
▁dohk	-684
▁giel	-685
partem	-686
▁dárog	-687
▁girjj	-688
▁gávdn	-689
▁rájes	-690
▁čohkk	-691
▁dáhpáh	-692
▁muhtun	-693
▁boahtán	-694
▁skuvlla	-695
▁vuosttaš	-696
ápmelaččat	-697
▁Sámediggi	-698
eb	-699
ra	-700
▁Č	-701
ala	-702
git	-703
kko	-704
lán	-705
oađ	-706
pog	-707
áin	-708
▁be	-709
▁ga	-710
▁ná	-711
amuš	-712
earv	-713
itta	-714
uvdn	-715
ágan	-716
▁Mus	-717
▁Rom	-718
▁ber	-719
▁bii	-720
▁dil	-721
▁dát	-722
▁gii	-723
▁jur	-724
▁oll	-725
▁vái	-726
anvuo	-727
lmmoš	-728
vuođa	-729
▁Liná	-730
▁Moai	-731
▁almm	-732
▁bivd	-733
▁gear	-734
▁vázz	-735
▁šatt	-736
ivššoh	-737
uohkan	-738
▁Biret	-739
▁bohte	-740
▁gitta	-741
▁leaba	-742
▁livčč	-743
▁sihke	-744
▁buorre	-745
▁stuora	-746
▁suohkan	-747
da	-748
dj	-749
▁2	-750
age	-751
bma	-752
ggu	-753
tti	-754
uks	-755
áhc	-756
đih	-757
▁Nu	-758
▁re	-759
▁sk	-760
▁áv	-761
adan	-762
ahit	-763
almm	-764
ggas	-765
iikk	-766
oahp	-767
pmil	-768
umin	-769
ádus	-770
áhus	-771
ártn	-772
▁das	-773
▁gul	-774
▁sáv	-775
▁šat	-776
askuv	-777
eapmi	-778
easet	-779
iella	-780
lbmot	-781
obeal	-782
▁bukt	-783
▁oaiv	-784
▁oass	-785
▁álgo	-786
▁ášši	-787
▁čiel	-788
▁Ipmil	-789
▁dohko	-790
▁doppe	-791
▁geass	-792
▁vuođđ	-793
▁juohke	-794
▁makkár	-795
▁mannat	-796
▁meahcc	-797
▁seamma	-798
▁skuvllas	-799
▁Sámedikki	-800
eš	-801
ŋg	-802
alu	-803
arr	-804
atn	-805
bbi	-806
eav	-807
erv	-808
log	-809
▁Tr	-810
▁há	-811
▁sp	-812
▁áh	-813
adje	-814
astt	-815
bmot	-816
emus	-817
hkki	-818
imii	-819
isám	-820
kkis	-821
olit	-822
uopm	-823
ásaš	-824
ávde	-825
▁bor	-826
▁eal	-827
▁ohc	-828
enoam	-829
lggad	-830
osiál	-831
uvvan	-832
vvošt	-833
áhtte	-834
▁bear	-835
▁bidj	-836
▁eanaš	-837
▁maŋŋá	-838
▁mánát	-839
▁oktii	-840
▁olbmo	-841
▁ožžon	-842
ejuvvon	-843
▁buohcc	-844
▁háliid	-845
▁beaivvi	-846
▁iežaset	-847
▁olbmuid	-848
igatvuođaid	-849
▁Kárášjogas	-850
▁Finnmárkkuopm	-851
af	-852
me	-853
▁i	-854
dne	-855
ers	-856
gat	-857
hpp	-858
ida	-859
kam	-860
kti	-861
laš	-862
met	-863
mmi	-864
rru	-865
uođ	-866
urn	-867
▁Dá	-868
▁Má	-869
▁bá	-870
▁sm	-871
ddáš	-872
eddj	-873
idan	-874
istt	-875
ivve	-876
ojit	-877
uvtt	-878
állu	-879
▁Don	-880
▁dov	-881
▁gil	-882
▁gos	-883
▁vej	-884
▁álo	-885
abarg	-886
assii	-887
ehtet	-888
ielat	-889
▁Ollu	-890
▁dasa	-891
▁dego	-892
▁doar	-893
▁duođ	-894
▁gust	-895
▁gáhk	-896
▁jahk	-897
▁mear	-898
▁nupp	-899
▁oain	-900
▁olgg	-901
ihkkar	-902
▁bearr	-903
▁bokte	-904
▁ovtta	-905
▁veahk	-906
alaččat	-907
eaddjit	-908
▁Norgga	-909
▁boahtá	-910
▁bálval	-911
▁guovll	-912
▁luondd	-913
▁olmmoš	-914
▁sierra	-915
▁sosiál	-916
▁vuostá	-917
▁váttis	-918
▁čoahkk	-919
álašvuođ	-920
▁árvvošt	-921
▁mearridit	-922
▁Finnmárkku	-923
▁Guovdageainnus	-924
di	-925
▁(	-926
▁)	-927
▁U	-928
ašt	-929
bbo	-930
ieđ	-931
ovt	-932
upm	-933
▁Do	-934
▁at	-935
▁di	-936
▁vi	-937
asaš	-938
ddis	-939
ddus	-940
emat	-941
imis	-942
orjj	-943
uhit	-944
ulgg	-945
▁Ean	-946
▁Már	-947
▁Ruo	-948
▁din	-949
▁div	-950
▁dus	-951
▁fil	-952
▁lie	-953
▁nan	-954
ahkii	-955
ainna	-956
iidda	-957
oavkk	-958
uvvot	-959
ádusa	-960
▁eall	-961
▁jien	-962
▁oidn	-963
▁orro	-964
▁stál	-965
▁sáht	-966
▁vácc	-967
eapmái	-968
iduvvo	-969
llisám	-970
čoahkk	-971
▁bargo	-972
▁bures	-973
▁báikk	-974
▁dalle	-975
▁dieht	-976
▁áigge	-977
▁čájeh	-978
idjiide	-979
istorjj	-980
▁gávpog	-981
▁mielas	-982
▁sullii	-983
ivššohas	-984
▁hálddaš	-985
▁oaidnán	-986
▁vejolaš	-987
▁geahččat	-988
▁boazodoall	-989
▁internáhtas	-990
do	-991
jo	-992
pr	-993
sl	-994
yl	-995
ara	-996
ema	-997
est	-998
gan	-999
ies	-1000
itn	-1001
jum	-1002
lli	-1003
ssu	-1004
tet	-1005
uss	-1006
áik	-1007
áđđ	-1008
▁gi	-1009
▁he	-1010
▁Ál	-1011
agas	-1012
agat	-1013
alan	-1014
guov	-1015
ihan	-1016
isev	-1017
ommi	-1018
ošea	-1019
tneg	-1020
ttas	-1021
vást	-1022
áigg	-1023
ávjá	-1024
▁Boa	-1025
▁Dii	-1026
▁Nie	-1027
▁ain	-1028
▁fyl	-1029
▁log	-1030
▁mas	-1031
▁maŋ	-1032
▁máŋ	-1033
▁ruo	-1034
▁vár	-1035
▁áig	-1036
▁čil	-1037
eantt	-1038
uvvui	-1039
▁Buot	-1040
▁Maid	-1041
▁bass	-1042
▁boar	-1043
▁boht	-1044
▁gask	-1045
▁lahk	-1046
▁lass	-1047
▁lokt	-1048
▁ruht	-1049
▁stiv	-1050
▁vuođ	-1051
eahtti	-1052
ivššár	-1053
ávdego	-1054
▁badje	-1055
▁beass	-1056
▁deatt	-1057
▁geahč	-1058
▁golmm	-1059
▁jođih	-1060
▁nuppi	-1061
▁ožžot	-1062
▁sáhte	-1063
▁áiggi	-1064
▁šaddá	-1065
ašvuođa	-1066
eaddjin	-1067
olaččat	-1068
ttobeal	-1069
▁Juohke	-1070
▁Romssa	-1071
▁berošt	-1072
▁dahkat	-1073
▁guovtt	-1074
▁kultuv	-1075
▁ledjen	-1076
▁luhtte	-1077
▁maŋŋel	-1078
▁oastit	-1079
▁oktage	-1080
▁ráhkad	-1081
▁stáhta	-1082
▁sámiid	-1083
▁vaikko	-1084
▁váldit	-1085
▁álbmog	-1086
▁šattai	-1087
ápmelačč	-1088
▁dábálaš	-1089
▁erenoam	-1090
▁oahppit	-1091
▁historjj	-1092
▁lullisám	-1093
▁ovddidit	-1094
▁ruovttus	-1095
va	-1096
vá	-1097
áj	-1098
aba	-1099
ddu	-1100
dit	-1101
dni	-1102
gas	-1103
ike	-1104
jad	-1105
kta	-1106
mmá	-1107
ohp	-1108
sen	-1109
uha	-1110
uos	-1111
ven	-1112
▁18	-1113
▁Al	-1114
▁Ar	-1115
▁am	-1116
asis	-1117
ddáž	-1118
eahp	-1119
evtt	-1120
iiga	-1121
lbma	-1122
lohk	-1123
ssas	-1124
uorr	-1125
áide	-1126
▁Guo	-1127
▁Osl	-1128
▁adn	-1129
▁att	-1130
▁deh	-1131
▁dol	-1132
▁hár	-1133
▁jos	-1134
▁jus	-1135
▁kon	-1136
▁čie	-1137
aldag	-1138
aldat	-1139
easta	-1140
emiin	-1141
lbmil	-1142
llain	-1143
uvdna	-1144
▁doal	-1145
▁dáid	-1146
▁fárr	-1147
▁guor	-1148
▁heaj	-1149
▁joat	-1150
▁lanj	-1151
▁láve	-1152
▁moai	-1153
▁máná	-1154
▁oađđ	-1155
▁serv	-1156
▁vuor	-1157
▁vuov	-1158
ettiin	-1159
iehtad	-1160
urnála	-1161
vuođas	-1162
▁bohcc	-1163
▁buohk	-1164
▁bártn	-1165
▁deike	-1166
▁guhte	-1167
▁mieht	-1168
▁nubbi	-1169
▁oalle	-1170
▁ruvnn	-1171
▁stáht	-1172
▁váikk	-1173
▁čuovv	-1174
odahkii	-1175
ošeavtt	-1176
▁Intern	-1177
▁Máhtte	-1178
▁bargat	-1179
▁barggu	-1180
▁bidjat	-1181
▁eambbo	-1182
▁kultur	-1183
▁oaivil	-1184
▁oažžut	-1185
▁áššiid	-1186
iseváldd	-1187
ttobeale	-1188
▁boahtit	-1189
▁boahtte	-1190
▁galggai	-1191
▁maidege	-1192
▁oaidnit	-1193
▁ovddast	-1194
▁stuorra	-1195
▁vuolgit	-1196
▁geavahit	-1197
▁Kárášjoga	-1198
▁ovttasbar	-1199
▁boazodoalu	-1200
▁oahpaheaddji	-1201
▁internáhttaskuv	-1202
bo	-1203
bu	-1204
ff	-1205
ku	-1206
kč	-1207
ža	-1208
▁-	-1209
ago	-1210
ell	-1211
gel	-1212
gán	-1213
jag	-1214
nde	-1215
uhk	-1216
áhn	-1217
ánn	-1218
▁Da	-1219
▁Ma	-1220
▁Sm	-1221
▁is	-1222
▁kl	-1223
▁la	-1224
abas	-1225
adni	-1226
ahan	-1227
barg	-1228
ddat	-1229
ddet	-1230
eanu	-1231
ggan	-1232
hpet	-1233
hppi	-1234
htas	-1235
idii	-1236
iell	-1237
ilit	-1238
imus	-1239
ktui	-1240
llái	-1241
logu	-1242
uovl	-1243
▁Das	-1244
▁Gea	-1245
▁Sus	-1246
▁dag	-1247
▁dul	-1248
▁eat	-1249
▁fág	-1250
▁jag	-1251
▁sut	-1252
▁áhč	-1253
adoai	-1254
agaid	-1255
eamis	-1256
ihtta	-1257
illii	-1258
isson	-1259
oahtá	-1260
odaga	-1261
ohkii	-1262
uvvet	-1263
áhkai	-1264
▁Doai	-1265
▁boai	-1266
▁boađ	-1267
▁buht	-1268
▁dadj	-1269
▁dáss	-1270
▁eahk	-1271
▁fuol	-1272
▁geas	-1273
▁gill	-1274
▁gosa	-1275
▁hear	-1276
▁huks	-1277
▁lihk	-1278
▁liik	-1279
▁movt	-1280
▁orru	-1281
▁soai	-1282
ašuvnn	-1283
eallje	-1284
evttoh	-1285
guovtt	-1286
keahtt	-1287
odagas	-1288
uiguin	-1289
álbmog	-1290
▁Dalle	-1291
▁ektui	-1292
▁gusto	-1293
▁kláss	-1294
▁láhtt	-1295
▁meahc	-1296
▁namma	-1297
▁njeal	-1298
▁oažžu	-1299
▁olles	-1300
▁rabas	-1301
▁riikk	-1302
▁sávzz	-1303
▁váldd	-1304
iggodag	-1305
kuvllas	-1306
lávdego	-1307
▁eamiál	-1308
▁girjji	-1309
▁reivve	-1310
▁sutnje	-1311
▁vuolgg	-1312
▁áiggun	-1313
▁álbmot	-1314
▁álggah	-1315
edivššár	-1316
▁mearrád	-1317
▁nuoraid	-1318
▁oahppan	-1319
▁skuvlii	-1320
▁beroštum	-1321
▁buoremus	-1322
▁eiseváldd	-1323
▁njuolggad	-1324
▁ovddasvást	-1325
▁dearvvašvuođa	-1326
▁vuoigatvuođaid	-1327
of	-1328
uđ	-1329
▁–	-1330
Nor	-1331
ehk	-1332
ena	-1333
ges	-1334
gád	-1335
ivd	-1336
jan	-1337
kat	-1338
kki	-1339
kon	-1340
lle	-1341
rie	-1342
vvi	-1343
áig	-1344
▁Du	-1345
▁Na	-1346
▁Pi	-1347
▁Sp	-1348
ahkk	-1349
anas	-1350
hčči	-1351
ihka	-1352
illi	-1353
kkaš	-1354
ktot	-1355
mmas	-1356
nnud	-1357
plán	-1358
usas	-1359
uvvá	-1360
venš	-1361
áhkk	-1362
áigo	-1363
ávss	-1364
▁197	-1365
▁Eat	-1366
▁Min	-1367
▁Ovd	-1368
▁baj	-1369
▁doa	-1370
▁dor	-1371
▁gaž	-1372
▁kur	-1373
▁mis	-1374
▁moa	-1375
▁ust	-1376
▁vis	-1377
▁vás	-1378
▁čoa	-1379
ahtti	-1380
ddiid	-1381
ersit	-1382
estii	-1383
ganis	-1384
issui	-1385
ittán	-1386
juvvo	-1387
kuvla	-1388
lliid	-1389
lágan	-1390
oavku	-1391
ttaid	-1392
▁Barg	-1393
▁Ráđđ	-1394
▁alde	-1395
▁beal	-1396
▁diev	-1397
▁dovd	-1398
▁eakt	-1399
▁earr	-1400
▁geađ	-1401
▁gieđ	-1402
▁guol	-1403
▁hábm	-1404
▁háll	-1405
▁jear	-1406
▁láib	-1407
▁namm	-1408
▁oačč	-1409
▁ráđđ	-1410
▁vies	-1411
▁viid	-1412
▁váhn	-1413
▁váil	-1414
▁váll	-1415
▁áigu	-1416
ahttit	-1417
ddejum	-1418
kuvlla	-1419
tnegas	-1420
uoraid	-1421
▁Eadni	-1422
▁Eanaš	-1423
▁Mánát	-1424
▁Tommi	-1425
▁beare	-1426
▁boađe	-1427
▁danin	-1428
▁danne	-1429
▁dáppe	-1430
▁dávjá	-1431
▁fylkk	-1432
▁guhká	-1433
▁máŋga	-1434
▁polit	-1435
▁stálu	-1436
▁sámit	-1437
▁unnit	-1438
▁vulgg	-1439
▁čađah	-1440
ahallam	-1441
ahallat	-1442
iversit	-1443
keahttá	-1444
uvvojit	-1445
▁Ipmila	-1446
▁Oahpah	-1447
▁bohtet	-1448
▁dahkan	-1449
▁dainna	-1450
▁doaibm	-1451
▁dutnje	-1452
▁evttoh	-1453
▁fertii	-1454
▁gieldd	-1455
▁golbma	-1456
▁mannan	-1457
▁miehtá	-1458
▁moadde	-1459
▁máksit	-1460
▁nuorat	-1461
▁oassál	-1462
▁rievtt	-1463
▁bearraš	-1464
▁guovllu	-1465
▁jienast	-1466
▁jurddaš	-1467
▁livččii	-1468
▁sihkkar	-1469
▁sáhttet	-1470
▁vuođđud	-1471
▁šiehtad	-1472
partemean	-1473
▁guovllus	-1474
▁ráhkadit	-1475
▁kultuvrra	-1476
álašvuođaid	-1477
▁dábálaččat	-1478
▁sápmelaččat	-1479
▁boaittobeale	-1480
▁árvvoštallat	-1481
▁vuoigatvuohta	-1482
▁buohccedivššár	-1483
ia	-1484
iš	-1485
kc	-1486
no	-1487
ri	-1488
rá	-1489
sá	-1490
ug	-1491
vi	-1492
đi	-1493
abi	-1494
ada	-1495
adi	-1496
ama	-1497
anm	-1498
asm	-1499
gen	-1500
iba	-1501
ilb	-1502
jii	-1503
ján	-1504
jár	-1505
mas	-1506
nas	-1507
oht	-1508
ost	-1509
ovd	-1510
pet	-1511
skk	-1512
ább	-1513
ádj	-1514
ámm	-1515
ánu	-1516
árd	-1517
ášt	-1518
ášš	-1519
đui	-1520
▁12	-1521
▁An	-1522
▁Mo	-1523
▁ro	-1524
▁sa	-1525
▁čo	-1526
alis	-1527
alit	-1528
allá	-1529
alus	-1530
amat	-1531
amis	-1532
asii	-1533
asto	-1534
bbol	-1535
daga	-1536
ddje	-1537
ddjá	-1538
eass	-1539
etne	-1540
ggit	-1541
hčod	-1542
idda	-1543
iija	-1544
imin	-1545
irge	-1546
ivra	-1547
jiid	-1548
llui	-1549
oroh	-1550
rrái	-1551
skka	-1552
uvss	-1553
vvir	-1554
ámuš	-1555
ánat	-1556
ásár	-1557
ŋgel	-1558
žžan	-1559
▁Ale	-1560
▁Eai	-1561
▁Fer	-1562
▁Gáv	-1563
▁Jes	-1564
▁Lei	-1565
▁Por	-1566
▁Suo	-1567
▁Vai	-1568
▁bah	-1569
▁bis	-1570
▁dái	-1571
▁gol	-1572
▁gur	-1573
▁gán	-1574
▁háv	-1575
▁ipm	-1576
▁jor	-1577
▁mái	-1578
▁rii	-1579
▁sur	-1580
▁sus	-1581
▁ság	-1582
▁sán	-1583
▁sár	-1584
▁vur	-1585
amear	-1586
amiid	-1587
asiin	-1588
earrá	-1589
iddat	-1590
iehtt	-1591
ihkka	-1592
kkiid	-1593
osiid	-1594
tetge	-1595
ttiid	-1596
uhtii	-1597
uođas	-1598
usain	-1599
zihan	-1600
árkan	-1601
▁Juos	-1602
▁Leat	-1603
▁Olbm	-1604
▁Ruoŧ	-1605
▁amas	-1606
▁bier	-1607
▁biss	-1608
▁bálk	-1609
▁diht	-1610
▁eahp	-1611
▁eatn	-1612
▁gean	-1613
▁hupm	-1614
▁ieža	-1615
▁joht	-1616
▁nann	-1617
▁ohpp	-1618
▁orui	-1619
▁plán	-1620
▁sisa	-1621
▁sáme	-1622
▁váid	-1623
▁vást	-1624
▁áigo	-1625
▁čađa	-1626
▁čear	-1627
eatnam	-1628
idedje	-1629
jadaga	-1630
johkii	-1631
juvvot	-1632
olbmot	-1633
áiggis	-1634
▁Doppe	-1635
▁Leago	-1636
▁Manne	-1637
▁Mánná	-1638
▁Pippi	-1639
▁atnit	-1640
▁dearv	-1641
▁dihte	-1642
▁diibm	-1643
▁duddj	-1644
▁galge	-1645
▁geain	-1646
▁giela	-1647
▁goass	-1648
▁johtt	-1649
▁lohká	-1650
▁luohk	-1651
▁manná	-1652
▁njuol	-1653
▁oainn	-1654
▁oktan	-1655
▁smávv	-1656
▁várra	-1657
▁Áddjá	-1658
▁čalmm	-1659
inlágan	-1660
▁Ráđđeh	-1661
▁boaris	-1662
▁buktit	-1663
▁deaivv	-1664
▁dutkam	-1665
▁dákkár	-1666
▁gohčod	-1667
▁golmma	-1668
▁guhkit	-1669
▁gávtti	-1670
▁joavkk	-1671
▁lehpet	-1672
▁lohkan	-1673
▁muhtin	-1674
▁nisson	-1675
▁olggos	-1676
▁riegád	-1677
▁ruvnno	-1678
▁skuvll	-1679
▁sáhtii	-1680
▁sáhtte	-1681
▁vihtta	-1682
▁vuođul	-1683
▁čielga	-1684
▁čállit	-1685
▁šaddan	-1686
guovttos	-1687
partemen	-1688
usaiguin	-1689
▁Maiddái	-1690
▁dehálaš	-1691
▁dieđuid	-1692
▁eatnama	-1693
▁galggaš	-1694
▁gáhkuid	-1695
▁meannud	-1696
▁nuppást	-1697
▁organis	-1698
▁ovdalgo	-1699
▁sáhttán	-1700
▁vulggii	-1701
▁Muhtumin	-1702
▁borramuš	-1703
▁fertejit	-1704
▁guovddáš	-1705
▁mearkkaš	-1706
▁njeallje	-1707
iversiteht	-1708
▁divššohas	-1709
▁erenoamáš	-1710
▁geatnegas	-1711
▁oahpahusa	-1712
▁Internáhtt	-1713
▁dárogielat	-1714
▁oktavuođas	-1715
▁álgoálbmog	-1716
▁Finnmárkkus	-1717
▁Kárášjohkii	-1718
▁Muhtinlágan	-1719
▁Sápmelaččat	-1720
▁internáhttii	-1721
80	-1722
bá	-1723
fe	-1724
iŋ	-1725
ke	-1726
ká	-1727
ly	-1728
ub	-1729
ve	-1730
▁3	-1731
.00	-1732
ana	-1733
anb	-1734
app	-1735
bme	-1736
dil	-1737
ens	-1738
fus	-1739
gab	-1740
gil	-1741
gir	-1742
hká	-1743
idá	-1744
iet	-1745
iij	-1746
ird	-1747
iŋŋ	-1748
ját	-1749
kke	-1750
ksa	-1751
nat	-1752
osa	-1753
reg	-1754
rri	-1755
ssá	-1756
stt	-1757
tuv	-1758
učč	-1759
vet	-1760
vái	-1761
▁20	-1762
▁id	-1763
▁it	-1764
▁lá	-1765
▁ri	-1766
abeh	-1767
adjá	-1768
agog	-1769
aiga	-1770
alde	-1771
amin	-1772
amán	-1773
astá	-1774
bbas	-1775
bell	-1776
ddit	-1777
doai	-1778
eali	-1779
eana	-1780
eapp	-1781
ehit	-1782
evie	-1783
hcit	-1784
iera	-1785
imat	-1786
išgo	-1787
kkit	-1788
ktii	-1789
mmet	-1790
oađi	-1791
ohpi	-1792
olog	-1793
osaš	-1794
ovaš	-1795
ovuo	-1796
rrut	-1797
sset	-1798
uhan	-1799
umat	-1800
umis	-1801
uvai	-1802
uvrr	-1803
viđe	-1804
vvas	-1805
vvis	-1806
ádag	-1807
áhku	-1808
áppa	-1809
árat	-1810
ážit	-1811
▁194	-1812
▁199	-1813
▁200	-1814
▁Div	-1815
▁Dár	-1816
▁Fil	-1817
▁Gii	-1818
▁Gir	-1819
▁Gái	-1820
▁Jos	-1821
▁Nii	-1822
▁all	-1823
▁bur	-1824
▁bár	-1825
▁eks	-1826
▁far	-1827
▁fál	-1828
▁fám	-1829
▁gel	-1830
▁hám	-1831
▁láh	-1832
▁mus	-1833
▁mát	-1834
▁oar	-1835
▁opm	-1836
▁oro	-1837
▁par	-1838
▁ped	-1839
▁ráf	-1840
▁var	-1841
▁vug	-1842
▁árr	-1843
alášt	-1844
astut	-1845
dagas	-1846
dihte	-1847
earvi	-1848
ehpet	-1849
ielas	-1850
innii	-1851
lmmái	-1852
mearr	-1853
áhkis	-1854
áhttu	-1855
áiggi	-1856
álval	-1857
ŋggas	-1858
šuvnn	-1859
▁Boađ	-1860
▁Dear	-1861
▁Diet	-1862
▁Giel	-1863
▁Lávv	-1864
▁Maŋŋ	-1865
▁addá	-1866
▁bikt	-1867
▁báhc	-1868
▁deaŧ	-1869
▁duht	-1870
▁dálá	-1871
▁fatn	-1872
▁fier	-1873
▁fitn	-1874
▁goik	-1875
▁gorr	-1876
▁gáfe	-1877
▁gápm	-1878
▁ihtt	-1879
▁juog	-1880
▁jápm	-1881
▁mánn	-1882
▁odne	-1883
▁oppa	-1884
▁poar	-1885
▁rohk	-1886
▁suov	-1887
▁uhcc	-1888
▁Áltt	-1889
▁Ánde	-1890
▁áhčč	-1891
▁ávii	-1892
aheami	-1893
alágan	-1894
barggu	-1895
eahpit	-1896
joavku	-1897
oahpah	-1898
uovlab	-1899
áiguin	-1900
▁Boađe	-1901
▁Ferte	-1902
▁Galgá	-1903
▁Jesus	-1904
▁Máret	-1905
▁addit	-1906
▁attii	-1907
▁bargu	-1908
▁beroš	-1909
▁berre	-1910
▁biddj	-1911
▁dadjá	-1912
▁dahkk	-1913
▁dakka	-1914
▁dáfus	-1915
▁dárbu	-1916
▁eadni	-1917
▁eavtt	-1918
▁giell	-1919
▁guhku	-1920
▁guosk	-1921
▁gáržž	-1922
▁iežan	-1923
▁juohk	-1924
▁lahka	-1925
▁listt	-1926
▁lohpi	-1927
▁luoss	-1928
▁láhka	-1929
▁mávss	-1930
▁oasis	-1931
▁oassi	-1932
▁ovdan	-1933
▁ruhta	-1934
▁sabeh	-1935
▁ustib	-1936
▁viell	-1937
▁viežž	-1938
▁vuoit	-1939
▁Áhčči	-1940
▁álgit	-1941
▁čilge	-1942
▁čuoig	-1943
▁čuožž	-1944
▁čállá	-1945
▁čáppa	-1946
aintern	-1947
beahtti	-1948
eaddjis	-1949
eddjiid	-1950
ibehtet	-1951
odagain	-1952
vuođaid	-1953
áddejum	-1954
▁Hearrá	-1955
▁Olbmot	-1956
▁Stállu	-1957
▁badjel	-1958
▁bargan	-1959
▁bargui	-1960
▁bivdit	-1961
▁buoret	-1962
▁dadjat	-1963
▁duohta	-1964
▁dálvvi	-1965
▁filmma	-1966
▁gaskal	-1967
▁gaskan	-1968
▁gillen	-1969
▁hárrái	-1970
▁juoidá	-1971
▁juolgg	-1972
▁livčče	-1973
▁maŋŋil	-1974
▁náital	-1975
▁oinnii	-1976
▁riekta	-1977
▁riikka	-1978
▁seammá	-1979
▁ságast	-1980
▁veahki	-1981
▁veahkk	-1982
▁váldán	-1983
▁vállje	-1984
▁čállán	-1985
▁šaddet	-1986
aldagaid	-1987
amearkan	-1988
ošeavtta	-1989
▁barggus	-1990
▁boastut	-1991
▁divrras	-1992
▁duođašt	-1993
▁gelbbol	-1994
▁konvenš	-1995
▁mielkki	-1996
▁nieidda	-1997
▁njuolga	-1998
▁oktasaš	-1999
▁pedagog	-2000
▁ruoktot	-2001
▁stuorát	-2002
▁álbmoga	-2003
▁čeahpit	-2004
igatvuođa	-2005
uvvojedje	-2006
▁deattuha	-2007
▁girjjiid	-2008
▁goassege	-2009
▁joatkkas	-2010
▁journála	-2011
▁makkárge	-2012
▁meahccái	-2013
▁muitalan	-2014
▁riikkaid	-2015
▁sidjiide	-2016
▁váhnemat	-2017
lávdegoddi	-2018
▁Divššohas	-2019
▁adnojuvvo	-2020
▁biktasiid	-2021
▁báikkálaš	-2022
▁dakkaviđe	-2023
▁doaimmaid	-2024
▁jienastus	-2025
▁váikkuhit	-2026
▁bearjadaga	-2027
▁dárbbašlaš	-2028
▁eamiálbmog	-2029
▁geavahedje	-2030
ápmelaččaide	-2031
▁Departemean	-2032
▁geavahanvuo	-2033
▁internáhtta	-2034
▁oassálastit	-2035
vuoigatvuohta	-2036
▁Oahpaheaddji	-2037
▁boazodoallol	-2038
▁sihkkarastit	-2039
▁Guovdageainnu	-2040
▁organisašuvnn	-2041
zihanlávdegoddi	-2042
▁dilálašvuođaid	-2043
▁gelbbolašvuođa	-2044
▁njuolggadusaid	-2045
.0	-2046
CD	-2047
ap	-2048
bi	-2049
ki	-2050
li	-2051
vu	-2052
áz	-2053
đa	-2054
ŋa	-2055
▁W	-2056
00-	-2057
ame	-2058
and	-2059
asp	-2060
buo	-2061
dly	-2062
dno	-2063
dád	-2064
emi	-2065
ene	-2066
eng	-2067
enn	-2068
ent	-2069
err	-2070
etr	-2071
hku	-2072
ige	-2073
ikš	-2074
ild	-2075
ilj	-2076
ils	-2077
ilu	-2078
ins	-2079
ism	-2080
isu	-2081
kil	-2082
lan	-2083
lii	-2084
máš	-2085
nii	-2086
nne	-2087
obi	-2088
ogr	-2089
ohc	-2090
ond	-2091
oss	-2092
otn	-2093
ott	-2094
pot	-2095
rer	-2096
sea	-2097
ska	-2098
sta	-2099
uld	-2100
uri	-2101
usi	-2102
utt	-2103
vdn	-2104
vva	-2105
áda	-2106
ágo	-2107
ása	-2108
čie	-2109
đet	-2110
đoh	-2111
žat	-2112
▁17	-2113
▁Gu	-2114
▁Is	-2115
▁Jo	-2116
▁Mi	-2117
▁Nj	-2118
▁Su	-2119
▁ar	-2120
▁cu	-2121
▁im	-2122
▁kr	-2123
▁os	-2124
▁ođ	-2125
▁ču	-2126
adil	-2127
adál	-2128
aguo	-2129
ahii	-2130
alai	-2131
alat	-2132
alii	-2133
anda	-2134
apor	-2135
arry	-2136
asit	-2137
asta	-2138
atti	-2139
bmii	-2140
bott	-2141
ddar	-2142
dden	-2143
ddut	-2144
ddán	-2145
eabb	-2146
ebut	-2147
edis	-2148
ejit	-2149
esid	-2150
ggus	-2151
hkka	-2152
hkku	-2153
igŋa	-2154
iimm	-2155
ilea	-2156
imuš	-2157
iras	-2158
ivss	-2159
jjit	-2160
laga	-2161
laht	-2162
llem	-2163
olbm	-2164
ttat	-2165
uhtt	-2166
upmi	-2167
ursa	-2168
usge	-2169
áhtu	-2170
ámma	-2171
ánát	-2172
ápmu	-2173
árin	-2174
▁Dáb	-2175
▁Ear	-2176
▁Gon	-2177
▁Ieš	-2178
▁Jus	-2179
▁Mis	-2180
▁Ohc	-2181
▁Rie	-2182
▁Sea	-2183
▁Sin	-2184
▁dis	-2185
▁ful	-2186
▁guv	-2187
▁gál	-2188
▁lag	-2189
▁las	-2190
▁mie	-2191
▁oam	-2192
▁oas	-2193
▁olu	-2194
▁opp	-2195
▁saj	-2196
▁sil	-2197
▁vah	-2198
▁ver	-2199
▁vul	-2200
▁vuđ	-2201
▁čea	-2202
▁čuv	-2203
▁čál	-2204
adusa	-2205
agiel	-2206
agiid	-2207
ahttu	-2208
ahusa	-2209
alanj	-2210
aluin	-2211
ddáža	-2212
eaivv	-2213
eamen	-2214
eamit	-2215
eamos	-2216
eanus	-2217
gilvv	-2218
htáid	-2219
idiin	-2220
ienat	-2221
iesus	-2222
iggun	-2223
iguov	-2224
iljus	-2225
istan	-2226
istit	-2227
kkást	-2228
oahpp	-2229
oavtt	-2230
odáht	-2231
ohkan	-2232
onsen	-2233
ooroh	-2234
oster	-2235
otter	-2236
plána	-2237
polit	-2238
ppiid	-2239
ttain	-2240
uinna	-2241
uital	-2242
uorgg	-2243
ussii	-2244
uvssa	-2245
vuodj	-2246
vuona	-2247
áhusa	-2248
áigea	-2249
ámena	-2250
▁Boaz	-2251
▁Busi	-2252
▁Dieđ	-2253
▁Ikte	-2254
▁Jáhk	-2255
▁Lene	-2256
▁Nils	-2257
▁Odne	-2258
▁Oslo	-2259
▁Turi	-2260
▁beav	-2261
▁botn	-2262
▁báik	-2263
▁ceal	-2264
▁dain	-2265
▁dikš	-2266
▁eaba	-2267
▁gall	-2268
▁giev	-2269
▁gili	-2270
▁giđđ	-2271
▁goar	-2272
▁goit	-2273
▁govd	-2274
▁heiv	-2275
▁iige	-2276
▁lađđ	-2277
▁ligg	-2278
▁lobi	-2279
▁lága	-2280
▁láhk	-2281
▁lávv	-2282
▁masa	-2283
▁miht	-2284
▁nama	-2285
▁nisu	-2286
▁njun	-2287
▁oahp	-2288
▁priv	-2289
▁radi	-2290
▁rádj	-2291
▁sadj	-2292
▁unna	-2293
▁váib	-2294
▁Áilu	-2295
▁Ánne	-2296
▁čáhc	-2297
adedje	-2298
agođii	-2299
almmát	-2300
aččaid	-2301
aččain	-2302
djalan	-2303
eaivve	-2304
eallái	-2305
ejedje	-2306
hcciid	-2307
heasta	-2308
istrer	-2309
jagiid	-2310
joavkk	-2311
oahtit	-2312
pmánat	-2313
presid	-2314
riekti	-2315
uohken	-2316
vissui	-2317
vuonas	-2318
áhtten	-2319
árkana	-2320
▁Beass	-2321
▁Biera	-2322
▁Danin	-2323
▁Deanu	-2324
▁Dušše	-2325
▁Harry	-2326
▁Ledje	-2327
▁Lárin	-2328
▁Maŋŋá	-2329
▁Ovdal	-2330
▁Ruoŧa	-2331
▁Smier	-2332
▁bajás	-2333
▁beaiv	-2334
▁beasa	-2335
▁beatn	-2336
▁boald	-2337
▁buvtt	-2338
▁básár	-2339
▁dahke	-2340
▁dasgo	-2341
▁dološ	-2342
▁dovde	-2343
▁eanas	-2344
▁fanas	-2345
▁givss	-2346
▁goarr	-2347
▁guokt	-2348
▁guoss	-2349
▁gáhku	-2350
▁hárve	-2351
▁jáhkk	-2352
▁jávoh	-2353
▁liiko	-2354
▁manne	-2355
▁meara	-2356
▁muđui	-2357
▁nalde	-2358
▁orrot	-2359
▁ovdán	-2360
▁prins	-2361
▁rievd	-2362
▁sakka	-2363
▁seamm	-2364
▁siste	-2365
▁soahp	-2366
▁sárdn	-2367
▁vahkk	-2368
▁varas	-2369
▁veall	-2370
▁vearr	-2371
▁viesu	-2372
▁visot	-2373
▁vuođu	-2374
▁áhčis	-2375
abargit	-2376
alassii	-2377
allamii	-2378
avaččat	-2379
eahttun	-2380
eanttat	-2381
eeatnam	-2382
iduvvon	-2383
obealde	-2384
odagaid	-2385
ojuvvot	-2386
osterud	-2387
skuvlla	-2388
uolggad	-2389
áhusain	-2390
ásaččat	-2391
ávuođas	-2392
▁Boahtá	-2393
▁Gávpot	-2394
▁Heasta	-2395
▁Skuvla	-2396
▁Stáhta	-2397
▁Vaikko	-2398
▁almmuh	-2399
▁beassá	-2400
▁besset	-2401
▁boares	-2402
▁borasp	-2403
▁buktet	-2404
▁buorid	-2405
▁dihtii	-2406
▁diibmu	-2407
▁doalai	-2408
▁dutkan	-2409
▁dálvet	-2410
▁eahket	-2411
▁eallán	-2412
▁earret	-2413
▁easkka	-2414
▁elliid	-2415
▁gaskka	-2416
▁guhkes	-2417
▁guhkki	-2418
▁guhkás	-2419
▁guliid	-2420
▁gávdno	-2421
▁ihttin	-2422
▁jagiid	-2423
▁juollu	-2424
▁jurdag	-2425
▁lassin	-2426
▁leigga	-2427
▁lohkat	-2428
▁luohtt	-2429
▁láhkai	-2430
▁measta	-2431
▁muorra	-2432
▁nieida	-2433
▁nieidd	-2434
▁nuorra	-2435
▁oaččui	-2436
▁oidnen	-2437
▁smávva	-2438
▁spáppa	-2439
▁stuorr	-2440
▁uhccán	-2441
▁ulbmil	-2442
▁viessu	-2443
▁vugiin	-2444
▁vuhtii	-2445
▁vuoiŋŋ	-2446
▁vuorru	-2447
▁vázzit	-2448
▁Áiggun	-2449
▁áibbas	-2450
▁ásahan	-2451
▁áššiin	-2452
allamiid	-2453
vvuiguin	-2454
čoahkkin	-2455
▁Bargiid	-2456
▁Niillas	-2457
▁Norggas	-2458
▁Romssas	-2459
▁Vuoigŋa	-2460
▁barggai	-2461
▁bihtáid	-2462
▁buohkat	-2463
▁bártnit	-2464
▁dearvan	-2465
▁divššoh	-2466
▁doarvái	-2467
▁duohken	-2468
▁ealáhus	-2469
▁geasset	-2470
▁guolást	-2471
▁gávdnat	-2472
▁juovlab	-2473
▁leimmet	-2474
▁lávlaga	-2475
▁muittán	-2476
▁oahppat	-2477
▁olbmuin	-2478
▁smiehtt	-2479
▁suohtas	-2480
▁sáhttit	-2481
▁ustibat	-2482
▁viežžat	-2483
▁vuollái	-2484
▁válddii	-2485
▁ávkkást	-2486
▁čuovgga	-2487
▁čájehii	-2488
▁Guovddáš	-2489
▁Nieiddat	-2490
▁Ráđđehus	-2491
▁almmolaš	-2492
▁beaivváž	-2493
▁biillain	-2494
▁boahtiba	-2495
▁dattetge	-2496
▁dieđusge	-2497
▁doaimmat	-2498
▁eatnamis	-2499
▁eksámena	-2500
▁gearddis	-2501
▁gávpogis	-2502
▁háliidan	-2503
▁háliidii	-2504
▁iešmearr	-2505
▁jahkásaš	-2506
▁midjiide	-2507
▁muitalit	-2508
▁náitalan	-2509
▁suohkana	-2510
▁vielljan	-2511
aláštallan	-2512
eeatnamiid	-2513
igatvuođat	-2514
▁Trosterud	-2515
▁boazooroh	-2516
▁doaimmain	-2517
▁eaktodáht	-2518
▁eatnamiid	-2519
▁historjjá	-2520
▁lullisámi	-2521
▁luopmánat	-2522
▁mánáiguin	-2523
▁oktavuođa	-2524
▁veahkehit	-2525
iggodagaide	-2526
ápmelaččaid	-2527
▁beroštumit	-2528
▁divššohasa	-2529
▁dáhpáhuvai	-2530
▁gáibiduvvo	-2531
▁klássalanj	-2532
▁ovttasbarg	-2533
▁sosiálalaš	-2534
▁sámegielat	-2535
iversitehtas	-2536
▁Sámedikkiin	-2537
▁duhtavaččat	-2538
▁erenoamážit	-2539
▁jahkásaččat	-2540
▁mearrádusat	-2541
▁ovdamearkan	-2542
▁ovttasbargo	-2543
▁politihkkar	-2544
▁Dearvvašvuođ	-2545
▁beroškeahttá	-2546
▁jienastuslog	-2547
▁mearrádusaid	-2548
▁Vuoigatvuohta	-2549
▁oahpaheaddjit	-2550
▁ovddasvástádus	-2551
▁geatnegasvuohta	-2552
▁internáhttadoai	-2553
2:	-2554
50	-2555
9:	-2556
ck	-2557
ip	-2558
ka	-2559
kš	-2560
ld	-2561
lu	-2562
nu	-2563
oj	-2564
pe	-2565
sy	-2566
vo	-2567
ŋu	-2568
▁4	-2569
▁Š	-2570
000	-2571
Man	-2572
ado	-2573
aha	-2574
ahč	-2575
akč	-2576
ang	-2577
anh	-2578
ard	-2579
bmi	-2580
bmá	-2581
dán	-2582
eaŋ	-2583
eaš	-2584
ele	-2585
enu	-2586
esk	-2587
eth	-2588
feg	-2589
fer	-2590
fit	-2591
gis	-2592
hki	-2593
htu	-2594
iev	-2595
ika	-2596
ime	-2597
ing	-2598
jai	-2599
du	-2600
šá	-2601
jat	-2602
jet	-2603
jin	-2604
jji	-2605
jui	-2606
jut	-2607
kas	-2608
kea	-2609
kes	-2610
kit	-2611
lgi	-2612
lin	-2613
lui	-2614
mea	-2615
nna	-2616
orm	-2617
orr	-2618
ppá	-2619
ram	-2620
ráf	-2621
ráđ	-2622
sii	-2623
sse	-2624
tan	-2625
udd	-2626
ume	-2627
uol	-2628
urs	-2629
vde	-2630
vit	-2631
vut	-2632
ána	-2633
čáz	-2634
čče	-2635
đeh	-2636
đđi	-2637
ŋgo	-2638
ŋgá	-2639
žit	-2640
žže	-2641
▁10	-2642
▁Bo	-2643
▁IL	-2644
▁Lu	-2645
▁Ol	-2646
▁Ov	-2647
▁Pr	-2648
▁Un	-2649
▁Vá	-2650
▁il	-2651
▁iđ	-2652
▁se	-2653
▁tr	-2654
▁Ái	-2655
▁Ár	-2656
Elle	-2657
abbá	-2658
agii	-2659
agis	-2660
ahpa	-2661
anii	-2662
arao	-2663
argo	-2664
asas	-2665
asgi	-2666
aska	-2667
avea	-2668
ašat	-2669
bbái	-2670
buot	-2671
ddeš	-2672
ddon	-2673
ddái	-2674
dlys	-2675
eadn	-2676
egáv	-2677
ehta	-2678
eháš	-2679
ejog	-2680
elis	-2681
elkk	-2682
elot	-2683
engt	-2684
erre	-2685
ffar	-2686
gask	-2687
ggat	-2688
ggut	-2689
ggái	-2690
hkat	-2691
hppe	-2692
htes	-2693
httá	-2694
ider	-2695
idne	-2696
idnu	-2697
igga	-2698
ihit	-2699
iime	-2700
ikan	-2701
irpm	-2702
ista	-2703
itán	-2704
joga	-2705
kcag	-2706
kkat	-2707
kkel	-2708
ksen	-2709
ktor	-2710
ktár	-2711
lleg	-2712
menn	-2713
mmah	-2714
márf	-2715
ndel	-2716
nnas	-2717
oeal	-2718
ogas	-2719
ogea	-2720
ohko	-2721
onuh	-2722
osis	-2723
osit	-2724
oášš	-2725
ppis	-2726
rron	-2727
ttut	-2728
uhán	-2729
uige	-2730
umát	-2731
undd	-2732
uoht	-2733
uoll	-2734
vvoh	-2735
váld	-2736
vázz	-2737
ábba	-2738
ábbá	-2739
áigi	-2740
ámas	-2741
ámmá	-2742
áris	-2743
ásat	-2744
ásii	-2745
ášii	-2746
ŋgga	-2747
ŋggu	-2748
ŋgii	-2749
ŋgir	-2750
žiin	-2751
▁186	-2752
▁198	-2753
▁Ann	-2754
▁Ant	-2755
▁Ber	-2756
▁Dor	-2757
▁Duo	-2758
▁Ger	-2759
▁Gos	-2760
▁Gár	-2761
▁Hav	-2762
▁Hea	-2763
▁Hál	-2764
▁Hám	-2765
▁Jea	-2766
▁Joh	-2767
▁Luo	-2768
▁Láv	-2769
▁Mat	-2770
▁Mon	-2771
▁Sil	-2772
▁Sis	-2773
▁Var	-2774
▁bas	-2775
▁bel	-2776
▁buš	-2777
▁báz	-2778
▁dal	-2779
▁dar	-2780
▁fal	-2781
▁fit	-2782
▁geh	-2783
▁ger	-2784
▁han	-2785
▁jođ	-2786
▁osk	-2787
▁ruđ	-2788
▁siv	-2789
▁soa	-2790
▁sál	-2791
▁tur	-2792
▁uhc	-2793
▁vil	-2794
▁vir	-2795
▁vuv	-2796
▁vál	-2797
▁čiŋ	-2798
▁čuj	-2799
▁čáj	-2800
▁čáz	-2801
abell	-2802
adigg	-2803
agidd	-2804
ahall	-2805
aidda	-2806
aidis	-2807
aimet	-2808
amain	-2809
amánn	-2810
asaid	-2811
astte	-2812
asttu	-2813
astán	-2814
bearr	-2815
dduin	-2816
dádit	-2817
ealde	-2818
eanta	-2819
earve	-2820
ehter	-2821
eigga	-2822
emišš	-2823
emánu	-2824
entár	-2825
enupp	-2826
ggasa	-2827
ggiin	-2828
hččan	-2829
ierru	-2830
ihkas	-2831
ihtan	-2832
iiddu	-2833
iidis	-2834
iijas	-2835
imiin	-2836
ittus	-2837
ivdui	-2838
ivrra	-2839
jođih	-2840
lanja	-2841
lluid	-2842
lohku	-2843
oames	-2844
oađas	-2845
ohter	-2846
otnab	-2847
progr	-2848
sttaš	-2849
ttuin	-2850
uhkol	-2851
uidis	-2852
ágiin	-2853
áhtán	-2854
áikin	-2855
ártni	-2856
ásiid	-2857
ážiid	-2858
øndel	-2859
ŋggus	-2860
▁1970	-2861
▁1971	-2862
▁2005	-2863
▁Beas	-2864
▁Daid	-2865
▁Mana	-2866
▁Mánn	-2867
▁Trom	-2868
▁Váld	-2869
▁bahá	-2870
▁beas	-2871
▁bist	-2872
▁buss	-2873
▁ceav	-2874
▁daga	-2875
▁dass	-2876
▁dađi	-2877
▁dien	-2878
▁dili	-2879
▁dola	-2880
▁doll	-2881
▁duon	-2882
▁eana	-2883
▁fidn	-2884
▁form	-2885
▁giet	-2886
▁giks	-2887
▁gitt	-2888
▁goađ	-2889
▁godd	-2890
▁heas	-2891
▁idja	-2892
▁jorg	-2893
▁juhk	-2894
▁juks	-2895
▁laht	-2896
▁leai	-2897
▁loav	-2898
▁láhč	-2899
▁mana	-2900
▁medi	-2901
▁mies	-2902
▁moar	-2903
▁muor	-2904
▁máll	-2905
▁nala	-2906
▁neal	-2907
▁nieg	-2908
▁njál	-2909
▁nágg	-2910
▁ohcá	-2911
▁pros	-2912
▁rehk	-2913
▁riik	-2914
▁siid	-2915
▁stud	-2916
▁sáhp	-2917
▁uksa	-2918
▁vahk	-2919
▁veah	-2920
▁veal	-2921
▁višš	-2922
▁Álgo	-2923
▁áhči	-2924
▁áigi	-2925
▁ávdn	-2926
▁čakč	-2927
▁čier	-2928
▁čovd	-2929
Jienat	-2930
Potter	-2931
aboaht	-2932
adeami	-2933
ahalai	-2934
ahttin	-2935
ahttán	-2936
anguov	-2937
ardaga	-2938
eahkki	-2939
eahtta	-2940
eappos	-2941
earvás	-2942
ejogas	-2943
elkkii	-2944
ideami	-2945
ivviid	-2946
kantuv	-2947
láhkai	-2948
oahppu	-2949
oahpus	-2950
oahtán	-2951
ojuohk	-2952
oplána	-2953
rrasit	-2954
sáŋggu	-2955
uorran	-2956
vuođat	-2957
vutnii	-2958
áhtaid	-2959
šiljus	-2960
▁Addet	-2961
▁Bargo	-2962
▁Bargu	-2963
▁Beana	-2964
▁Bengt	-2965
▁Danne	-2966
▁Dasto	-2967
▁Dáppe	-2968
▁Dávjá	-2969
▁Eŋgel	-2970
▁Guoss	-2971
▁Juhán	-2972
▁Lábbá	-2973
▁Manin	-2974
▁Máhtt	-2975
▁Mánás	-2976
▁Oahpa	-2977
▁Oahpp	-2978
▁Oslos	-2979
▁Poršá	-2980
▁Rapor	-2981
▁Stuor	-2982
▁Sáhtt	-2983
▁aktii	-2984
▁attán	-2985
▁bajil	-2986
▁bargá	-2987
▁beaht	-2988
▁bilea	-2989
▁bukte	-2990
▁buktá	-2991
▁buoll	-2992
▁buorr	-2993
▁buđeh	-2994
▁báhkk	-2995
▁cealk	-2996
▁deanu	-2997
▁deavd	-2998
▁dieđe	-2999
▁diimm	-3000
▁dilli	-3001
▁dohkk	-3002
▁dorsk	-3003
▁dovdd	-3004
▁duopm	-3005
▁dáhtu	-3006
▁dámmá	-3007
▁dásis	-3008
▁eaige	-3009
▁eamit	-3010
▁earát	-3011
▁easka	-3012
▁eŋgel	-3013
▁farao	-3014
▁filbm	-3015
▁fuođđ	-3016
▁fápmu	-3017
▁galbm	-3018
▁garra	-3019
▁goall	-3020
▁goapp	-3021
▁gohčč	-3022
▁gullá	-3023
▁gákti	-3024
▁gávnn	-3025
▁heitt	-3026
▁iešgu	-3027
▁iežat	-3028
▁jiena	-3029
▁jorba	-3030
▁juste	-3031
▁kommi	-3032
▁lohkk	-3033
▁lundd	-3034
▁lávii	-3035
▁meass	-3036
▁miell	-3037
▁mihkk	-3038
▁munno	-3039
▁máhtt	-3040
▁máidn	-3041
▁mánná	-3042
▁mánus	-3043
▁oaččo	-3044
▁ohcet	-3045
▁olbmá	-3046
▁orgán	-3047
▁orron	-3048
▁orrun	-3049
▁ođasm	-3050
▁riekt	-3051
▁sihkk	-3052
▁silbb	-3053
▁sisdo	-3054
▁siskk	-3055
▁soađi	-3056
▁suokk	-3057
▁sámes	-3058
▁uvssa	-3059
▁velgg	-3060
▁viehk	-3061
▁vissa	-3062
▁vižže	-3063
▁vujii	-3064
▁váimm	-3065
▁váldi	-3066
▁váldá	-3067
▁várre	-3068
▁várás	-3069
▁vázze	-3070
▁Áhkku	-3071
▁áhčči	-3072
▁áigut	-3073
▁álgen	-3074
▁álget	-3075
▁árrat	-3076
▁čáhci	-3077
abehtet	-3078
abirras	-3079
abálval	-3080
adoavtt	-3081
ahallan	-3082
ahuvvon	-3083
allamis	-3084
anassii	-3085
bottena	-3086
eddjiin	-3087
eviessu	-3088
hkkelis	-3089
iduvvui	-3090
iikkaid	-3091
išgođii	-3092
vuođain	-3093
áhusaid	-3094
áneapmi	-3095
▁Boađán	-3096
▁Buolbm	-3097
▁Dainna	-3098
▁Davvir	-3099
▁Deanus	-3100
▁Filbma	-3101
▁Guokte	-3102
▁Guovtt	-3103
▁Leatgo	-3104
▁Luondd	-3105
▁Muhtun	-3106
▁Muital	-3107
▁Olmmoš	-3108
▁Olmmái	-3109
▁Ovddeš	-3110
▁Seamma	-3111
▁Spider	-3112
▁Stivra	-3113
▁Ulbmil	-3114
▁almenn	-3115
▁biilla	-3116
▁boazos	-3117
▁boađus	-3118
▁borrat	-3119
▁buolaš	-3120
▁buorit	-3121
▁buriid	-3122
▁báhcán	-3123
▁bárdni	-3124
▁bártni	-3125
▁dievás	-3126
▁dieđih	-3127
▁doarjj	-3128
▁dáidda	-3129
▁dárkil	-3130
▁fargga	-3131
▁fuomáš	-3132
▁galgga	-3133
▁geahpp	-3134
▁geavat	-3135
▁geađgi	-3136
▁gielda	-3137
▁giella	-3138
▁govdat	-3139
▁gullan	-3140
▁gullet	-3141
▁guoskk	-3142
▁guođoh	-3143
▁guvlui	-3144
▁gáddái	-3145
▁heajut	-3146
▁hukset	-3147
▁hábmet	-3148
▁jávkat	-3149
▁lanjat	-3150
▁leagis	-3151
▁leamen	-3152
▁luohká	-3153
▁lágaid	-3154
▁láibut	-3155
▁lákcag	-3156
▁mannet	-3157
▁moatti	-3158
▁máhtte	-3159
▁máŋgga	-3160
▁oainne	-3161
▁oamast	-3162
▁oađđit	-3163
▁ovddab	-3164
▁riekte	-3165
▁rohkad	-3166
▁ráddje	-3167
▁rádjái	-3168
▁seavdn	-3169
▁soames	-3170
▁sotnab	-3171
▁stivrr	-3172
▁stállu	-3173
▁sullas	-3174
▁sápmel	-3175
▁sávtta	-3176
▁verdde	-3177
▁viesus	-3178
▁viidás	-3179
▁vissui	-3180
▁vuoitt	-3181
▁vuoitá	-3182
▁vuolgá	-3183
▁vuovtt	-3184
▁váccán	-3185
▁Álbmot	-3186
▁álggos	-3187
▁álggus	-3188
▁ásahus	-3189
▁áviisa	-3190
▁čilget	-3191
▁čuovga	-3192
▁čuvges	-3193
▁čállen	-3194
▁šaddat	-3195
▁šuhkol	-3196
abargiid	-3197
asgillii	-3198
dojuvvon	-3199
eanttain	-3200
gaskasaš	-3201
iideaset	-3202
ohcamiid	-3203
skuvllas	-3204
áddejumi	-3205
ásašlaht	-3206
▁Hámmárf	-3207
▁Isabell	-3208
▁Muittán	-3209
▁Stuorra	-3210
▁barggan	-3211
▁beassat	-3212
▁bierggu	-3213
▁buhtism	-3214
▁buvttii	-3215
▁celkkii	-3216
▁diehtán	-3217
▁diekkár	-3218
▁doaktár	-3219
▁duoddar	-3220
▁dutkama	-3221
▁eallima	-3222
▁eanebut	-3223
▁galggat	-3224
▁geahčai	-3225
▁geahččá	-3226
▁geargan	-3227
▁geađggi	-3228
▁gieldda	-3229
▁guovtti	-3230
▁gávpoga	-3231
▁hearvás	-3232
▁jienaid	-3233
▁jođihii	-3234
▁juolggi	-3235
▁juollud	-3236
▁lanjain	-3237
▁lieggan	-3238
▁lohkaba	-3239
▁loktema	-3240
▁luohkás	-3241
▁lágidit	-3242
▁láhttái	-3243
▁lávejit	-3244
▁matemat	-3245
▁maŋimus	-3246
▁maŋimuš	-3247
▁meahcci	-3248
▁meahcis	-3249
▁muitala	-3250
▁muoraid	-3251
▁mánáide	-3252
▁mánáidg	-3253
▁márkana	-3254
▁máŋggas	-3255
▁nuppiin	-3256
▁oahpaha	-3257
▁oainnán	-3258
▁ohppiid	-3259
▁ollusat	-3260
▁ođđasit	-3261
▁prinsih	-3262
▁skohter	-3263
▁sosiála	-3264
▁stuoris	-3265
▁stáhtas	-3266
▁vuostái	-3267
▁čađahit	-3268
▁čearuid	-3269
▁čuovvut	-3270
Finnmárkk	-3271
ahallamii	-3272
amušaidis	-3273
enuppelot	-3274
evašvuođa	-3275
ojuvvojit	-3276
registrer	-3277
áigodagas	-3278
▁Antonsen	-3279
▁Sámemišš	-3280
▁Vuosttaš	-3281
▁berrejit	-3282
▁bileahta	-3283
▁bissovaš	-3284
▁bohccuid	-3285
▁buhcciid	-3286
▁dearvvas	-3287
▁deaŧalaš	-3288
▁dárbbaša	-3289
▁eahkedis	-3290
▁fuolahit	-3291
▁fálaldat	-3292
▁garrasit	-3293
▁gažaldag	-3294
▁geahččal	-3295
▁goalmmát	-3296
▁gustojit	-3297
▁gáibidit	-3298
▁gávpogii	-3299
▁heajaide	-3300
▁hearggit	-3301
▁hálddaša	-3302
▁hávdádit	-3303
▁johtilit	-3304
▁juogadit	-3305
▁luonddur	-3306
▁meahcást	-3307
▁mihkkege	-3308
▁muhtumat	-3309
▁muhtumin	-3310
▁muitalii	-3311
▁nissonat	-3312
▁njealját	-3313
▁oahpahus	-3314
▁olbmuide	-3315
▁priváhta	-3316
▁riggodag	-3317
▁servodat	-3318
▁sosiálaf	-3319
▁sávzzaid	-3320
▁veahkkin	-3321
▁vuohččan	-3322
▁vácciiga	-3323
▁váilevaš	-3324
▁čuovggas	-3325
bearráigea	-3326
departemen	-3327
joavkkuide	-3328
▁Ohcejogas	-3329
▁Porsáŋggu	-3330
▁Raporttas	-3331
▁addojuvvo	-3332
▁bálkestii	-3333
▁dárbbašan	-3334
▁dárogiela	-3335
▁eatnamiin	-3336
▁galggašii	-3337
▁gielddaid	-3338
▁gáibádusa	-3339
▁mearridan	-3340
▁mearrádus	-3341
▁oaiviliid	-3342
▁oktiibuot	-3343
▁ovttaskas	-3344
▁prošeavtt	-3345
▁skuvllain	-3346
▁smiehttan	-3347
▁suodjalan	-3348
▁suohkanst	-3349
▁sámepolit	-3350
▁vuosttald	-3351
▁vuovttaid	-3352
abargiiguin	-3353
ainternáhta	-3354
presideanta	-3355
▁Beassážiid	-3356
▁Dábálaččat	-3357
▁Poršáŋggus	-3358
▁Prošeavtta	-3359
▁Sámedikkis	-3360
▁departemen	-3361
▁dáhpáhuvvá	-3362
▁dárogillii	-3363
▁eamiálbmot	-3364
▁fylkkagiel	-3365
▁gáibidedje	-3366
▁historjjás	-3367
▁kommišuvnn	-3368
▁miellagidd	-3369
▁muitaledje	-3370
▁namalassii	-3371
▁oahpaheddj	-3372
▁oktavuohta	-3373
▁ruovttumát	-3374
▁sámegiella	-3375
▁sámegillii	-3376
▁vuđolaččat	-3377
▁čoahkkimis	-3378
▁šuhkoládag	-3379
▁Bargiidbell	-3380
▁badjeolbmot	-3381
▁bargojoavku	-3382
▁diehtojuohk	-3383
▁duođalaččat	-3384
▁eiseválddit	-3385
▁guorahallat	-3386
▁internáhtat	-3387
▁jođiheaddji	-3388
▁mearriduvvo	-3389
▁oahppoplána	-3390
▁olggobealde	-3391
▁ráhkaduvvon	-3392
▁valáštallan	-3393
▁eiseválddiid	-3394
▁filbmejuvvon	-3395
▁internáhtain	-3396
▁maŋŋeleappos	-3397
▁nuppástuvvan	-3398
▁ovttasbargat	-3399
▁ovttasbarggu	-3400
▁riegádahttán	-3401
▁ráddjejuvvon	-3402
▁sadjásašlaht	-3403
▁dahkamušaidis	-3404
▁eamiálbmogiid	-3405
▁oahpaheaddjin	-3406
▁ruovttusiiddu	-3407
▁vuoigatvuođat	-3408
▁álgoálbmogiid	-3409
anvuoigatvuohta	-3410
▁Departemeantta	-3411
▁boazoorohagaid	-3412
▁dearvvašvuođaf	-3413
▁guoktenuppelot	-3414
▁kulturáddejumi	-3415
▁politihkkariin	-3416
▁universitehtas	-3417
anvuoigatvuođaid	-3418
▁ovddasvástádusa	-3419
ži	-3420
▁8	-3421
.01	-3422
.03	-3423
80-	-3424
ajá	-3425
bbu	-3426
dat	-3427
eše	-3428
ija	-3429
lun	-3430
odd	-3431
ske	-3432
ukt	-3433
vej	-3434
vug	-3435
▁2.	-3436
▁35	-3437
▁Ie	-3438
▁ag	-3439
.000	-3440
_000	-3441
abar	-3442
abij	-3443
aduo	-3444
afil	-3445
amma	-3446
arro	-3447
baji	-3448
ders	-3449
doar	-3450
eavs	-3451
ehaš	-3452
ehei	-3453
ehis	-3454
elef	-3455
ggis	-3456
iidn	-3457
iála	-3458
jaga	-3459
jiŋŋ	-3460
joht	-3461
lanj	-3462
latn	-3463
lbmi	-3464
mmat	-3465
mánn	-3466
mánu	-3467
obii	-3468
ofág	-3469
poga	-3470
stad	-3471
ttih	-3472
vdii	-3473
vies	-3474
vtti	-3475
zzán	-3476
ádin	-3477
águo	-3478
áibb	-3479
áige	-3480
ámus	-3481
ánit	-3482
ánss	-3483
ásse	-3484
ážii	-3485
đege	-3486
ŋgal	-3487
▁189	-3488
▁195	-3489
▁Art	-3490
▁Att	-3491
▁Dás	-3492
▁Eli	-3493
▁Eri	-3494
▁Hei	-3495
▁Hel	-3496
▁Opp	-3497
▁Per	-3498
▁Ruđ	-3499
au	-3500
dor	-3501
ihá	-3502
ned	-3503
oba	-3504
oma	-3505
ŋga	-3506
▁Ab	-3507
alot	-3508
asmm	-3509
eame	-3510
erat	-3511
htta	-3512
istu	-3513
omer	-3514
riik	-3515
vier	-3516
vvil	-3517
đist	-3518
▁Dut	-3519
▁Han	-3520
▁Kon	-3521
▁Soa	-3522
▁Val	-3523
▁del	-3524
▁fri	-3525
▁jna	-3526
▁ore	-3527
▁psy	-3528
▁rom	-3529
▁rát	-3530
▁ráđ	-3531
▁ská	-3532
▁str	-3533
▁sái	-3534
▁tem	-3535
▁tál	-3536
▁uks	-3537
▁unn	-3538
▁Ádj	-3539
▁Ávd	-3540
▁áhk	-3541
▁áss	-3542
▁Čál	-3543
▁Šuo	-3544
▁šib	-3545
abeth	-3546
abier	-3547
abivd	-3548
abodd	-3549
adieđ	-3550
adjem	-3551
agiin	-3552
agráf	-3553
ahala	-3554
aiddá	-3555
alehk	-3556
alges	-3557
ameaš	-3558
amiin	-3559
amučč	-3560
arrow	-3561
attai	-3562
bevie	-3563
birge	-3564
ccaid	-3565
eadnu	-3566
eapme	-3567
edikš	-3568
eoroh	-3569
erren	-3570
erroš	-3571
estit	-3572
gasit	-3573
girji	-3574
gotti	-3575
gođii	-3576
hkkii	-3577
idjet	-3578
iessu	-3579
iidui	-3580
iinna	-3581
ilmas	-3582
irgeh	-3583
iseal	-3584
ittih	-3585
ittii	-3586
ivvun	-3587
jadin	-3588
julgg	-3589
jánit	-3590
kkust	-3591
lggat	-3592
lggot	-3593
oabbi	-3594
oahpu	-3595
oahti	-3596
ofeht	-3597
ogeađ	-3598
olbmo	-3599
5:	-3600
lá	-3601
▁7	-3602
▁;	-3603
eha	-3604
pat	-3605
▁16	-3606
▁70	-3607
▁et	-3608
adet	-3609
bukt	-3610
eagi	-3611
ehii	-3612
ejin	-3613
esta	-3614
tein	-3615
umuš	-3616
ágat	-3617
áldu	-3618
ásta	-3619
▁Far	-3620
▁Vea	-3621
▁Vál	-3622
▁bol	-3623
▁dig	-3624
▁dok	-3625
▁kil	-3626
▁oba	-3627
▁rád	-3628
adans	-3629
alusa	-3630
ehusa	-3631
hkkán	-3632
italo	-3633
leagi	-3634
ondon	-3635
orgán	-3636
osaji	-3637
urohp	-3638
ustáv	-3639
uttos	-3640
uvnna	-3641
uččat	-3642
valit	-3643
vačáz	-3644
áhtor	-3645
áidda	-3646
áigái	-3647
álast	-3648
áldas	-3649
ánske	-3650
ánuid	-3651
árdái	-3652
ására	-3653
átned	-3654
ávrri	-3655
ávvet	-3656
čalmm	-3657
čiekč	-3658
▁Almm	-3659
▁Arvá	-3660
▁Bija	-3661
▁Dasa	-3662
▁Dáhp	-3663
▁Dálá	-3664
▁Eará	-3665
▁Eatn	-3666
▁Evtt	-3667
▁Guhk	-3668
▁Gárd	-3669
▁Iŋgá	-3670
▁Jack	-3671
▁Joht	-3672
▁Kesk	-3673
▁Liik	-3674
▁Movt	-3675
▁Nord	-3676
▁Sara	-3677
▁Stál	-3678
▁Suov	-3679
▁Vást	-3680
▁aidd	-3681
▁alit	-3682
▁arvá	-3683
▁atná	-3684
▁badj	-3685
▁bell	-3686
▁biso	-3687
▁bora	-3688
▁báht	-3689
▁cukc	-3690
▁dahe	-3691
▁deas	-3692
▁diet	-3693
▁dáža	-3694
▁eadn	-3695
▁eanu	-3696
▁ekon	-3697
▁fága	-3698
▁fáhc	-3699
áf	-3700
dju	-3701
dna	-3702
eda	-3703
esi	-3704
hci	-3705
joh	-3706
žil	-3707
žžá	-3708
▁Er	-3709
▁Án	-3710
agot	-3711
argŋ	-3712
dáht	-3713
igan	-3714
inna	-3715
lleš	-3716
ohpp	-3717
ohus	-3718
ráhk	-3719
stit	-3720
stob	-3721
vvui	-3722
áhki	-3723
▁Bov	-3724
▁Oll	-3725
▁duj	-3726
▁Ášš	-3727
▁áir	-3728
addan	-3729
ahttá	-3730
astat	-3731
astin	-3732
dedje	-3733
edieđ	-3734
innaš	-3735
orašt	-3736
uvttá	-3737
áhkan	-3738
áhkku	-3739
ásaid	-3740
▁davv	-3741
▁dugo	-3742
▁ganj	-3743
▁geaf	-3744
▁guht	-3745
▁guld	-3746
▁gusa	-3747
▁gáld	-3748
▁heađ	-3749
▁hámi	-3750
▁imaš	-3751
▁isid	-3752
▁isit	-3753
▁jitn	-3754
▁jáhk	-3755
▁jávk	-3756
▁jávr	-3757
▁konk	-3758
▁latn	-3759
▁liht	-3760
▁loga	-3761
▁logi	-3762
▁lubm	-3763
▁mahk	-3764
▁mihá	-3765
▁mill	-3766
▁muit	-3767
▁nana	-3768
▁njul	-3769
▁oapm	-3770
▁oasi	-3771
▁olgo	-3772
▁olis	-3773
▁ordn	-3774
▁orun	-3775
▁oste	-3776
▁ovda	-3777
▁petr	-3778
▁rahp	-3779
▁rahč	-3780
▁riev	-3781
▁sala	-3782
▁sird	-3783
▁sohk	-3784
▁stip	-3785
▁sudn	-3786
▁uvss	-3787
▁varr	-3788
▁velá	-3789
▁viel	-3790
▁vier	-3791
▁vikk	-3792
▁viđa	-3793
▁áige	-3794
▁álgá	-3795
▁ánss	-3796
▁čázi	-3797
Norgga	-3798
abeali	-3799
ann	-3800
din	-3801
ilh	-3802
lak	-3803
oal	-3804
ŋge	-3805
▁ru	-3806
anea	-3807
bbai	-3808
elas	-3809
emii	-3810
emán	-3811
gáib	-3812
irin	-3813
isot	-3814
kkod	-3815
oaiv	-3816
oria	-3817
ovdd	-3818
slak	-3819
ttit	-3820
uvve	-3821
vvut	-3822
álla	-3823
▁Kan	-3824
▁Lem	-3825
▁Vái	-3826
▁bir	-3827
astan	-3828
emiid	-3829
htast	-3830
iimet	-3831
uinis	-3832
uvrra	-3833
uvtte	-3834
vvuid	-3835
▁Eliz	-3836
▁Gask	-3837
▁duor	-3838
▁dási	-3839
▁gova	-3840
▁oskk	-3841
▁suor	-3842
▁ulbm	-3843
▁čuor	-3844
adilis	-3845
adoall	-3846
ahttet	-3847
alahtu	-3848
alddon	-3849
aliser	-3850
amušat	-3851
amánus	-3852
anhurs	-3853
askudd	-3854
asmmoh	-3855
asttan	-3856
asvást	-3857
birgej	-3858
ddalaš	-3859
doaimm	-3860
eabbon	-3861
eahtas	-3862
eaivvi	-3863
eallat	-3864
earrin	-3865
ferean	-3866
girjji	-3867
hkásaš	-3868
iettis	-3869
ihkkag	-3870
ihttos	-3871
iimmat	-3872
isttat	-3873
ivrras	-3874
járgga	-3875
oaffar	-3876
odoall	-3877
ovddat	-3878
ovuogi	-3879
rrasat	-3880
ttirin	-3881
uhttit	-3882
uhuvvo	-3883
ulbmil	-3884
umánát	-3885
uovdag	-3886
usaide	-3887
ussiid	-3888
viesut	-3889
vugiid	-3890
vuhtii	-3891
vázzin	-3892
áhtain	-3893
áhuvvá	-3894
áikkuh	-3895
álbmot	-3896
ártnui	-3897
ŋgasat	-3898
ŋggaid	-3899
6:	-3900
žá	-3901
gut	-3902
iha	-3903
ire	-3904
mag	-3905
mus	-3906
ros	-3907
rut	-3908
ten	-3909
zen	-3910
šša	-3911
▁Be	-3912
▁Ná	-3913
▁Sk	-3914
atge	-3915
ašun	-3916
hkos	-3917
iepm	-3918
jain	-3919
keap	-3920
kkán	-3921
llet	-3922
llos	-3923
llus	-3924
miin	-3925
osat	-3926
otea	-3927
rren	-3928
uimm	-3929
árde	-3930
▁Bii	-3931
▁Iss	-3932
▁oss	-3933
▁otn	-3934
▁res	-3935
ddain	-3936
estob	-3937
hkkái	-3938
ihiid	-3939
jjiid	-3940
keapä	-3941
kkain	-3942
lluin	-3943
áigge	-3944
▁Boai	-3945
▁Dovd	-3946
▁Lága	-3947
▁dálu	-3948
▁ealu	-3949
▁fiev	-3950
▁gale	-3951
▁hilb	-3952
▁vuod	-3953
adiimm	-3954
ddaide	-3955
ddašan	-3956
iellan	-3957
irpmás	-3958
jehkos	-3959
keapää	-3960
ohagas	-3961
ohkkan	-3962
omalaš	-3963
váldit	-3964
ŋggáin	-3965
▁1700-	-3966
▁1970-	-3967
▁1995:	-3968
▁Allet	-3969
▁Aslak	-3970
▁Bures	-3971
▁Dilli	-3972
▁Dohko	-3973
▁Dárbb	-3974
▁Dárog	-3975
▁Earát	-3976
▁Ehpet	-3977
▁Ellii	-3978
▁Gonag	-3979
▁Hearv	-3980
▁Issát	-3981
▁Juste	-3982
▁Lulli	-3983
▁Láhka	-3984
▁Muđui	-3985
▁Máhte	-3986
▁Márjj	-3987
▁Máŋga	-3988
▁Njiŋŋ	-3989
▁Nuppe	-3990
▁Nuppi	-3991
▁Oktii	-3992
▁Olles	-3993
▁Ruoná	-3994
▁Stálu	-3995
▁Suoma	-3996
▁Sámeg	-3997
▁Vearr	-3998
▁Visot	-3999
iđ	-4000
ko	-4001
aht	-4002
ere	-4003
gii	-4004
kui	-4005
ola	-4006
ugo	-4007
▁CD	-4008
▁TV	-4009
▁či	-4010
agul	-4011
ilis	-4012
llat	-4013
nnuh	-4014
ohit	-4015
vuov	-4016
áldi	-4017
ávčč	-4018
▁Aar	-4019
▁ala	-4020
▁bag	-4021
▁jog	-4022
▁joŋ	-4023
▁noa	-4024
▁nor	-4025
▁náv	-4026
▁rea	-4027
▁roa	-4028
▁siđ	-4029
aguov	-4030
aladd	-4031
eassa	-4032
ehiin	-4033
httet	-4034
kkiin	-4035
nejit	-4036
▁Duos	-4037
▁feas	-4038
▁fáll	-4039
▁girj	-4040
▁haga	-4041
▁ráfi	-4042
▁vear	-4043
arámma	-4044
bivdui	-4045
igođii	-4046
nnuhat	-4047
ráđiid	-4048
ttisdo	-4049
▁Havii	-4050
▁Lásse	-4051
▁Vuoll	-4052
▁aiddo	-4053
▁asttu	-4054
▁atnán	-4055
▁bagad	-4056
▁bahkk	-4057
▁bahás	-4058
▁bassi	-4059
▁beana	-4060
▁biras	-4061
▁birge	-4062
▁bistt	-4063
▁boles	-4064
▁borad	-4065
▁bovde	-4066
▁buori	-4067
▁buođđ	-4068
▁báljo	-4069
▁dagai	-4070
▁deadd	-4071
▁deaja	-4072
▁deleg	-4073
▁dieđu	-4074
▁divod	-4075
▁diŋgo	-4076
▁dubme	-4077
▁dudno	-4078
▁dábuh	-4079
▁dáhki	-4080
▁dáidá	-4081
▁dáláš	-4082
▁dárkk	-4083
▁dássi	-4084
▁fitná	-4085
▁fuobm	-4086
▁fámut	-4087
▁fárre	-4088
▁fásta	-4089
▁geaid	-4090
▁geasi	-4091
▁geavv	-4092
▁gille	-4093
▁girdi	-4094
▁golbm	-4095
▁gorut	-4096
▁guđii	-4097
▁gáhtt	-4098
▁gánda	-4099
7:	-4100
8:	-4101
ni	-4102
ade	-4103
aša	-4104
kán	-4105
ára	-4106
čča	-4107
▁Or	-4108
ahat	-4109
hpan	-4110
iehk	-4111
ierr	-4112
isti	-4113
kkal	-4114
kkan	-4115
olat	-4116
ošii	-4117
ttan	-4118
ttar	-4119
áiki	-4120
▁Dea	-4121
▁Eam	-4122
▁Goa	-4123
▁Jud	-4124
▁Mor	-4125
▁dáv	-4126
▁fáv	-4127
▁her	-4128
▁jea	-4129
▁kin	-4130
▁mov	-4131
▁nov	-4132
▁árv	-4133
anbar	-4134
ealit	-4135
kolog	-4136
sajit	-4137
umiin	-4138
uođut	-4139
uvvat	-4140
▁dáin	-4141
▁fákt	-4142
▁mátk	-4143
▁okto	-4144
▁oroh	-4145
adigge	-4146
alanja	-4147
dagaid	-4148
jávrri	-4149
lggaid	-4150
áhusat	-4151
▁1982:	-4152
▁botta	-4153
▁dálon	-4154
▁goddá	-4155
▁gátti	-4156
▁gávpe	-4157
▁heive	-4158
▁hupmá	-4159
▁háleš	-4160
▁hálii	-4161
▁hálit	-4162
▁imašt	-4163
▁ipmir	-4164
▁jagis	-4165
▁jagáš	-4166
▁jearr	-4167
▁jerre	-4168
▁journ	-4169
▁jođus	-4170
▁julgg	-4171
▁justa	-4172
▁jávrr	-4173
▁konkr	-4174
▁leage	-4175
▁letne	-4176
▁liema	-4177
▁logai	-4178
▁lonuh	-4179
▁luosa	-4180
▁luođi	-4181
▁lágid	-4182
▁lágán	-4183
▁láhpp	-4184
▁láibb	-4185
▁láigo	-4186
▁manat	-4187
▁moars	-4188
▁muitt	-4189
▁muvrr	-4190
▁máksá	-4191
▁nagot	-4192
▁njuos	-4193
▁oabbá	-4194
▁oahpu	-4195
▁oappá	-4196
▁oastá	-4197
▁ohcan	-4198
▁ohcat	-4199
4:	-4200
TV	-4201
ør	-4202
anl	-4203
asb	-4204
duo	-4205
enr	-4206
nai	-4207
ušš	-4208
vis	-4209
ván	-4210
žas	-4211
▁43	-4212
▁50	-4213
▁ju	-4214
▁sn	-4215
▁Ás	-4216
adat	-4217
ačča	-4218
ggát	-4219
hkit	-4220
inat	-4221
kama	-4222
oavd	-4223
osii	-4224
álas	-4225
álle	-4226
ššeb	-4227
▁Dus	-4228
▁Isa	-4229
▁Rán	-4230
▁ján	-4231
▁oal	-4232
▁oan	-4233
▁riv	-4234
▁ruš	-4235
▁šie	-4236
istui	-4237
kkaid	-4238
vuovd	-4239
▁Geav	-4240
▁Vuov	-4241
▁alla	-4242
▁bala	-4243
▁gáff	-4244
▁sieđ	-4245
▁čohk	-4246
agráfa	-4247
allame	-4248
▁bivde	-4249
▁dajai	-4250
▁dokum	-4251
▁gođđi	-4252
▁jámas	-4253
▁luoit	-4254
▁ohppe	-4255
▁oidne	-4256
▁oidno	-4257
▁ollen	-4258
▁orode	-4259
▁orrut	-4260
▁oskui	-4261
▁rastá	-4262
▁rihkk	-4263
▁rohkk	-4264
▁ráfis	-4265
▁rávde	-4266
▁sierr	-4267
▁sivas	-4268
▁skeaŋ	-4269
▁skábm	-4270
▁soahk	-4271
▁sogas	-4272
▁spesi	-4273
▁stivr	-4274
▁suige	-4275
▁suova	-4276
▁sádde	-4277
▁sáhka	-4278
▁sánit	-4279
▁tuoll	-4280
▁uhcit	-4281
▁ustit	-4282
▁veháš	-4283
▁vulos	-4284
▁vuord	-4285
▁vuvde	-4286
▁várri	-4287
▁vázzá	-4288
▁Ádjás	-4289
▁Álttá	-4290
▁Ándde	-4291
▁áidna	-4292
▁árgab	-4293
▁ártet	-4294
▁áŋgir	-4295
▁čađat	-4296
▁čiekč	-4297
▁čoask	-4298
▁čuočč	-4299
oi	-4300
▁9	-4301
ira	-4302
nes	-4303
rii	-4304
uva	-4305
ári	-4306
▁It	-4307
▁Sw	-4308
▁va	-4309
aluo	-4310
emin	-4311
áhpp	-4312
ánii	-4313
▁alu	-4314
▁rái	-4315
▁čiv	-4316
eaddi	-4317
illaš	-4318
omear	-4319
▁Arne	-4320
▁Dáht	-4321
▁main	-4322
▁rivv	-4323
ddážis	-4324
eainnu	-4325
▁dasto	-4326
▁guimm	-4327
▁gurut	-4328
▁hálid	-4329
▁oaidn	-4330
▁sajis	-4331
▁čoavd	-4332
▁Šuošš	-4333
Nordlys	-4334
Norggas	-4335
adeapmi	-4336
adeigga	-4337
aduvvon	-4338
adáluin	-4339
afilbma	-4340
agoahtá	-4341
aguliid	-4342
aguolli	-4343
ahahtti	-4344
aheapmi	-4345
ahttima	-4346
ahusaid	-4347
alažžan	-4348
allamin	-4349
aluvvon	-4350
amánáid	-4351
anáhkis	-4352
asttain	-4353
aččaide	-4354
ašunála	-4355
ašuvdna	-4356
beaivve	-4357
bmebaji	-4358
ddážiid	-4359
doaluin	-4360
eaddjái	-4361
eainnut	-4362
eallima	-4363
eavstta	-4364
egávpog	-4365
eheapme	-4366
eivviid	-4367
emuital	-4368
enamain	-4369
enastin	-4370
enoamáš	-4371
eriijas	-4372
estuvvo	-4373
evaččat	-4374
eviesus	-4375
gevuodj	-4376
gilvvus	-4377
ilbeall	-4378
ingeahp	-4379
issonat	-4380
isvuođa	-4381
ivuođas	-4382
iálbmog	-4383
išgohte	-4384
járggas	-4385
meahcit	-4386
obártni	-4387
ojuvvui	-4388
ondonis	-4389
onáhkis	-4390
plánain	-4391
rrasiin	-4392
stobuin	-4393
umušaid	-4394
uovttus	-4395
ureserv	-4396
uvnnain	-4397
vačázis	-4398
vttolaš	-4399
vvildit	-4400
ádagaid	-4401
ádagain	-4402
ádusaid	-4403
álaldat	-4404
álvalus	-4405
đistaga	-4406
▁Alimus	-4407
▁Anders	-4408
▁Annika	-4409
▁Badjem	-4410
▁Bidjet	-4411
▁Boađát	-4412
▁Buvtte	-4413
▁Dakkár	-4414
▁Dieđut	-4415
▁Duommá	-4416
▁Eurohp	-4417
▁Geafit	-4418
▁Gerget	-4419
▁Girkon	-4420
▁Iešjoh	-4421
▁Ledjen	-4422
▁Lehpet	-4423
▁Lárina	-4424
▁Lávvom	-4425
▁Makkár	-4426
▁Mikkel	-4427
▁Molleš	-4428
▁Mánáid	-4429
▁Mánáin	-4430
▁Nieidd	-4431
▁Suomas	-4432
▁Sáhttá	-4433
▁Sámiid	-4434
▁Vihtta	-4435
▁Vuolgg	-4436
▁Vuolgi	-4437
▁Váldde	-4438
▁alddis	-4439
▁bajásš	-4440
▁bargen	-4441
▁barget	-4442
▁bargit	-4443
▁bassat	-4444
▁beaivi	-4445
▁beales	-4446
▁bealis	-4447
▁beasai	-4448
▁bidjan	-4449
▁biehtt	-4450
▁biergu	-4451
▁boaldá	-4452
▁boanda	-4453
▁boađán	-4454
▁borran	-4455
▁bovdii	-4456
▁buorem	-4457
▁bustáv	-4458
▁báhtar	-4459
▁daidda	-4460
▁darfeg	-4461
▁davvir	-4462
▁deattu	-4463
▁dievas	-4464
▁dievva	-4465
▁diibmá	-4466
▁diimmu	-4467
▁diliid	-4468
▁doalut	-4469
▁doavtt	-4470
▁dollii	-4471
▁dovdda	-4472
▁dovdet	-4473
▁duinna	-4474
▁dujiin	-4475
▁duođai	-4476
▁dáhpin	-4477
▁dáhttu	-4478
▁dárbbu	-4479
▁eahpit	-4480
▁eaktud	-4481
▁eallin	-4482
▁eallit	-4483
▁eaŋgal	-4484
▁fertet	-4485
▁fidnet	-4486
▁fitnan	-4487
▁fitnat	-4488
▁friddj	-4489
▁fulkke	-4490
▁fárreh	-4491
▁fárrii	-4492
▁fárrui	-4493
▁galbmo	-4494
▁galgab	-4495
▁galgat	-4496
▁gaskam	-4497
▁geafes	-4498
▁geahča	-4499
▁geainn	-4500
▁geažil	-4501
▁gehčče	-4502
▁girjái	-4503
▁goargŋ	-4504
▁goađis	-4505
▁gollem	-4506
▁guhtet	-4507
▁guhtta	-4508
▁gullat	-4509
▁guolit	-4510
▁guolli	-4511
▁guoras	-4512
▁guoská	-4513
▁guossi	-4514
▁guovžž	-4515
▁gávdná	-4516
▁headju	-4517
▁heajos	-4518
▁heiveh	-4519
▁hupmen	-4520
▁hálešt	-4521
▁háliit	-4522
▁hállat	-4523
▁hállen	-4524
▁hárjeh	-4525
▁instit	-4526
▁ipmird	-4527
▁ipmárd	-4528
▁jalges	-4529
▁jearai	-4530
▁jerren	-4531
▁johtti	-4532
▁joŋaid	-4533
▁jurdda	-4534
▁kurssa	-4535
▁kánske	-4536
▁lasiha	-4537
▁leatge	-4538
▁leažžá	-4539
▁liegga	-4540
▁liikon	-4541
▁liikui	-4542
▁logald	-4543
▁lokten	-4544
▁loktet	-4545
▁luotta	-4546
▁láhkái	-4547
▁láigoh	-4548
▁lávvor	-4549
▁mahkáš	-4550
▁maiddá	-4551
▁mearas	-4552
▁mehter	-4553
▁miella	-4554
▁moarsi	-4555
▁mollii	-4556
▁morašt	-4557
▁máhtán	-4558
▁máilmm	-4559
▁máksán	-4560
▁mánáin	-4561
▁nannet	-4562
▁niehku	-4563
▁nohkan	-4564
▁nubbái	-4565
▁nuvttá	-4566
▁nákkis	-4567
▁oahppi	-4568
▁oidnet	-4569
▁olbmos	-4570
▁olbmui	-4571
▁olmmái	-4572
▁orgána	-4573
▁ortneg	-4574
▁ovddeš	-4575
▁ovddit	-4576
▁petrom	-4577
▁rektor	-4578
▁riekti	-4579
▁riikar	-4580
▁rikkis	-4581
▁riŋgii	-4582
▁ruvnnu	-4583
▁ráhkis	-4584
▁rásiid	-4585
▁searve	-4586
▁searvi	-4587
▁servet	-4588
▁sihtan	-4589
▁siidii	-4590
▁soahti	-4591
▁sohkan	-4592
▁spábba	-4593
▁suddje	-4594
▁suhkat	-4595
▁suomag	-4596
▁suorgg	-4597
▁surgat	-4598
▁sáddet	-4599
▁sálbma	-4600
▁sániid	-4601
▁sániin	-4602
▁vahkus	-4603
▁veallá	-4604
▁viehká	-4605
▁vilges	-4606
▁vuogas	-4607
▁vuolde	-4608
▁vuolit	-4609
▁vuovdi	-4610
▁váccii	-4611
▁váldet	-4612
▁váldog	-4613
▁Álttás	-4614
▁áhkkán	-4615
▁áiggis	-4616
▁ásahit	-4617
▁čađaha	-4618
▁čiehká	-4619
▁čielgg	-4620
▁čohkká	-4621
▁čuollu	-4622
▁čuovui	-4623
▁čuožžu	-4624
▁čuvvon	-4625
▁čájeha	-4626
▁čállin	-4627
abeahtti	-4628
agiiguin	-4629
aideaset	-4630
anmiella	-4631
asiiguin	-4632
asmuital	-4633
astallan	-4634
ašvuođas	-4635
bevierru	-4636
eallimii	-4637
eanttaid	-4638
ggiiguin	-4639
gojuvvon	-4640
guovddáš	-4641
ibeahtti	-4642
idettiin	-4643
igoahtit	-4644
isheasta	-4645
journála	-4646
olaččaid	-4647
olašvuođ	-4648
ostuvvan	-4649
prográmm	-4650
ugáhtten	-4651
šuvnnaid	-4652
▁Bovnnas	-4653
▁Divttas	-4654
▁Dovddat	-4655
▁Eriksen	-4656
▁Eŋgelis	-4657
▁Finnmár	-4658
▁Gieldda	-4659
▁Gonagas	-4660
▁Guovtti	-4661
▁Gárdima	-4662
▁Gávpoga	-4663
▁Jeakkis	-4664
▁Jáhkoba	-4665
▁Konvenš	-4666
▁Leahppi	-4667
▁Máhttáj	-4668
▁Máŋggas	-4669
▁Oahppit	-4670
▁Olbmuin	-4671
▁Oslolaš	-4672
▁Sirpmás	-4673
▁Smierru	-4674
▁Sparrow	-4675
▁Stivrra	-4676
▁Tromssa	-4677
▁Trøndel	-4678
▁aktiivv	-4679
▁balddon	-4680
▁beakkán	-4681
▁beallái	-4682
▁beassáž	-4683
▁beavddi	-4684
▁biddjon	-4685
▁bisttii	-4686
▁boaldin	-4687
▁bohccot	-4688
▁bottuin	-4689
▁buollit	-4690
▁buorrin	-4691
▁dagahit	-4692
▁daiguin	-4693
▁dasságo	-4694
▁deavdit	-4695
▁diehtit	-4696
▁doaibma	-4697
▁doallan	-4698
▁dovddus	-4699
▁duddjot	-4700
▁duljiid	-4701
▁eanemus	-4702
▁eatnanm	-4703
▁fatnasa	-4704
▁ferteba	-4705
▁fylkkas	-4706
▁fáhcaid	-4707
▁galmmas	-4708
▁geaidnu	-4709
▁geardde	-4710
▁geargat	-4711
▁goarrut	-4712
▁golggot	-4713
▁golmmas	-4714
▁guoddit	-4715
▁guollái	-4716
▁guovttá	-4717
▁gussiid	-4718
▁gánddat	-4719
▁gárvvis	-4720
▁heaggan	-4721
▁heaitán	-4722
▁heakkas	-4723
▁hoahpus	-4724
▁hálddus	-4725
▁hálidan	-4726
▁iešdáht	-4727
▁isidiin	-4728
▁joatkit	-4729
▁jápmima	-4730
▁kurssas	-4731
▁lahtuid	-4732
▁lasihan	-4733
▁lađđasa	-4734
▁leahppi	-4735
▁liekkas	-4736
▁listtas	-4737
▁lottiid	-4738
▁luonddu	-4739
▁lágidii	-4740
▁láhttis	-4741
▁manaime	-4742
▁miehtan	-4743
▁mieskan	-4744
▁máinnaš	-4745
▁mávssii	-4746
▁nissona	-4747
▁njealji	-4748
▁nohkkan	-4749
▁oainnut	-4750
▁oainnát	-4751
▁olgguld	-4752
▁opmodat	-4753
▁oppalaš	-4754
▁ovdalis	-4755
▁ođđasat	-4756
▁plánaid	-4757
▁profeht	-4758
▁ruohttá	-4759
▁sabehat	-4760
▁seammás	-4761
▁sehkkii	-4762
▁sihkkun	-4763
▁skoađas	-4764
▁stivrra	-4765
▁stuorit	-4766
▁sártnui	-4767
▁sávzzat	-4768
▁vanhurs	-4769
▁viimmat	-4770
▁vuolgán	-4771
▁vuolleg	-4772
▁vuordit	-4773
▁vuovdit	-4774
▁váibaba	-4775
▁válljen	-4776
▁válmmas	-4777
▁váramat	-4778
▁vásihit	-4779
▁áddejum	-4780
▁áiggiid	-4781
▁áigumin	-4782
▁čeahppi	-4783
▁čierast	-4784
▁čoaggit	-4785
▁čoakkal	-4786
▁čohkked	-4787
▁čohkkát	-4788
▁čuoigan	-4789
▁čuoigga	-4790
▁čuovvul	-4791
▁čájehan	-4792
▁šattuid	-4793
abirrasis	-4794
aboddosaš	-4795
adoavttir	-4796
amuččaide	-4797
askuvllas	-4798
ddejuvvon	-4799
guovlluid	-4800
kologiija	-4801
ossodagas	-4802
vuodjimis	-4803
vuovdimii	-4804
ásahusaid	-4805
▁Boahtágo	-4806
▁Dattetge	-4807
▁Duosttan	-4808
▁Evttohus	-4809
▁Gielddat	-4810
▁Gonagasa	-4811
▁Isabellá	-4812
▁Journála	-4813
▁Londonis	-4814
▁Muhtumat	-4815
▁Máŋgasat	-4816
▁Nissonat	-4817
▁Ruovttus	-4818
▁Sámedigg	-4819
▁bargamin	-4820
▁beaivváš	-4821
▁bistevaš	-4822
▁bivdduin	-4823
▁boahtime	-4824
▁boraspir	-4825
▁buđehiid	-4826
▁bušeahtt	-4827
▁báikkiid	-4828
▁báikkiin	-4829
▁ceavzzán	-4830
▁dadjamuš	-4831
▁diŋggaid	-4832
▁doaibmav	-4833
▁doaimmai	-4834
▁doaimmas	-4835
▁doarjaga	-4836
▁dárkilet	-4837
▁dássážii	-4838
▁eatnamat	-4839
▁eavttuid	-4840
▁fuolkkit	-4841
▁galggaše	-4842
▁gaskasaš	-4843
▁gažaldat	-4844
▁geahppas	-4845
▁geavahan	-4846
▁gielddas	-4847
▁gietkama	-4848
▁gievkkan	-4849
▁gievrras	-4850
▁gittanea	-4851
▁gohčodan	-4852
▁gohčodit	-4853
▁gullevaš	-4854
▁guoskkai	-4855
▁guovllut	-4856
▁guovttis	-4857
▁gápmagat	-4858
▁heaittih	-4859
▁iešguđet	-4860
▁jitnosit	-4861
▁julggiid	-4862
▁jurdagat	-4863
▁jávohaga	-4864
▁kuráhtor	-4865
▁lahkosis	-4866
▁lieggasa	-4867
▁listtaid	-4868
▁loavdaga	-4869
▁luonddus	-4870
▁luottaid	-4871
▁manahusa	-4872
▁maŋŋelis	-4873
▁mielddus	-4874
▁movttiid	-4875
▁muvrraid	-4876
▁mállásii	-4877
▁nammadan	-4878
▁nannejit	-4879
▁njealjeh	-4880
▁oahpahan	-4881
▁oahpahit	-4882
▁oaivilat	-4883
▁oađđimin	-4884
▁ohppiide	-4885
▁oidnojit	-4886
▁prinsihp	-4887
▁rahpasii	-4888
▁riegádii	-4889
▁rievttes	-4890
▁rievttis	-4891
▁riikkain	-4892
▁roasmmoh	-4893
▁ruovttub	-4894
▁rušppiid	-4895
▁sabehiid	-4896
▁silbbaid	-4897
▁stivrras	-4898
▁stuorrát	-4899
▁sullasaš	-4900
▁suohtast	-4901
▁suokkard	-4902
▁surggiin	-4903
▁sáhpánat	-4904
▁sáhtiime	-4905
▁sáhtášii	-4906
▁	-4907
a	-4908
i	-4909
e	-4910
t	-4911
o	-4912
l	-4913
d	-4914
u	-4915
á	-4916
s	-4917
n	-4918
g	-4919
v	-4920
r	-4921
h	-4922
m	-4923
k	-4924
j	-4925
b	-4926
.	-4927
š	-4928
p	-4929
č	-4930
đ	-4931
,	-4932
D	-4933
S	-4934
M	-4935
f	-4936
ž	-4937
c	-4938
ŋ	-4939
G	-4940
?	-4941
L	-4942
B	-4943
z	-4944
J	-4945
-	-4946
O	-4947
I	-4948
N	-4949
0	-4950
E	-4951
V	-4952
Á	-4953
!	-4954
1	-4955
R	-4956
F	-4957
K	-4958
A	-4959
_	-4960
H	-4961
9	-4962
:	-4963
T	-4964
3	-4965
4	-4966
P	-4967
y	-4968
2	-4969
8	-4970
;	-4971
#	-4972
&	-4973
7	-4974
5	-4975
Č	-4976
ŧ	-4977
(	-4978
)	-4979
U	-4980
6	-4981
ø	-4982
–	-4983
C	-4984
W	-4985
w	-4986
ä	-4987
Š	-4988
/	-4989
å	-4990
§	-4991
¶	-4992
»	-4993
Ø	-4994
æ	-4995
—	-4996
