{
    "[PAD]": 0,
    "v": 1,
    "‘": 2,
    "y": 3,
    "^": 4,
    "ό": 5,
    "`": 6,
    "п": 7,
    "ч": 8,
    "ט": 9,
    "?": 10,
    "b": 11,
    "T": 12,
    ".": 13,
    "»": 14,
    "p": 15,
    "😁": 16,
    "α": 17,
    "閣": 18,
    "г": 19,
    "ǎ": 20,
    "Ա": 21,
    "آ": 22,
    "í": 23,
    "諸": 24,
    "Ä": 25,
    "À": 26,
    "=": 27,
    "G": 28,
    "😭": 29,
    "å": 30,
    "Å": 31,
    "ნ": 32,
    "ր": 33,
    "ά": 34,
    "О": 35,
    "🌴": 36,
    "R": 37,
    "տ": 38,
    "’": 39,
    "ت": 40,
    "ń": 41,
    "[": 42,
    "o": 43,
    "Z": 44,
    "U": 45,
    "x": 46,
    "e": 47,
    "P": 48,
    "(": 49,
    "ς": 50,
    "9": 51,
    "ö": 52,
    "f": 53,
    "Á": 54,
    "ω": 55,
    "d": 56,
    "ε": 57,
    "O": 58,
    "ы": 59,
    "~": 60,
    "Н": 61,
    "魏": 62,
    ":": 63,
    "у": 64,
    "ё": 65,
    "&": 66,
    ")": 67,
    "Î": 68,
    "б": 69,
    "č": 70,
    "´": 71,
    "_": 72,
    "\"": 73,
    "💜": 74,
    ">": 75,
    "ò": 76,
    "ὐ": 77,
    "i": 78,
    "t": 79,
    "л": 80,
    "Ε": 81,
    "θ": 82,
    "е": 83,
    ",": 84,
    "ņ": 85,
    "—": 86,
    "-": 87,
    "6": 88,
    "C": 89,
    "ō": 90,
    "$": 91,
    "±": 92,
    "“": 93,
    "Ś": 94,
    "ḥ": 95,
    "L": 96,
    "5": 97,
    ";": 98,
    "*": 99,
    "ს": 100,
    "Ö": 101,
    "τ": 102,
    "°": 103,
    "о": 104,
    "Ž": 105,
    "Q": 106,
    "ი": 107,
    "з": 108,
    "c": 109,
    "ა": 110,
    "Õ": 111,
    "K": 112,
    "ъ": 113,
    "8": 114,
    "0": 115,
    "õ": 116,
    "Μ": 117,
    "η": 118,
    "€": 119,
    "群": 120,
    "S": 121,
    "Б": 122,
    "+": 123,
    "р": 124,
    "ż": 125,
    "🙂": 126,
    "m": 127,
    "ł": 128,
    "\\": 129,
    "Δ": 130,
    "ā": 131,
    "²": 132,
    "−": 133,
    "ū": 134,
    "ر": 135,
    "ш": 136,
    "ù": 137,
    "J": 138,
    "s": 139,
    "A": 140,
    "z": 141,
    "ო": 142,
    "δ": 143,
    "ó": 144,
    "ć": 145,
    "h": 146,
    "X": 147,
    "]": 148,
    "π": 149,
    "х": 150,
    "ר": 151,
    "ä": 152,
    "ხ": 153,
    "ν": 154,
    "🍹": 155,
    "a": 156,
    "…": 157,
    "с": 158,
    "D": 159,
    "|": 160,
    "«": 161,
    "釣": 162,
    "ú": 163,
    "B": 164,
    "w": 165,
    "r": 166,
    "島": 167,
    "á": 168,
    "а": 169,
    "ვ": 170,
    "🤔": 171,
    "ř": 172,
    "”": 173,
    "É": 174,
    "ρ": 175,
    "%": 176,
    "g": 177,
    "×": 178,
    "א": 179,
    "è": 180,
    "u": 181,
    "V": 182,
    "ç": 183,
    "Ü": 184,
    "ا": 185,
    "э": 186,
    "н": 187,
    "E": 188,
    "k": 189,
    "H": 190,
    "j": 191,
    "Λ": 192,
    "А": 193,
    "ð": 194,
    "•": 195,
    "/": 196,
    "ц": 197,
    "😀": 198,
    "έ": 199,
    "台": 200,
    "!": 201,
    "υ": 202,
    "N": 203,
    "ž": 204,
    "F": 205,
    "ī": 206,
    "„": 207,
    "l": 208,
    "ë": 209,
    "т": 210,
    "Š": 211,
    "2": 212,
    "́": 213,
    "@": 214,
    "š": 215,
    "ο": 216,
    "M": 217,
    "σ": 218,
    "ф": 219,
    "ι": 220,
    "к": 221,
    "ğ": 222,
    "®": 223,
    "м": 224,
    "#": 225,
    "I": 226,
    "й": 227,
    "é": 228,
    "в": 229,
    "κ": 230,
    "Y": 231,
    "W": 232,
    "ü": 233,
    "尖": 234,
    "–": 235,
    "ı": 236,
    "რ": 237,
    "4": 238,
    "ա": 239,
    "ş": 240,
    "я": 241,
    "μ": 242,
    "ж": 243,
    "щ": 244,
    "1": 245,
    "и": 246,
    "7": 247,
    "д": 248,
    "q": 249,
    "à": 250,
    "ã": 251,
    "3": 252,
    "½": 253,
    "С": 254,
    "'": 255,
    "ь": 256,
    "ю": 257,
    "魚": 258,
    "<": 259,
    "n": 260,
    "/</w>": 261,
    "ς</w>": 262,
    "ë</w>": 263,
    "%</w>": 264,
    "ā</w>": 265,
    "1</w>": 266,
    "ъ</w>": 267,
    "–</w>": 268,
    "L</w>": 269,
    "s</w>": 270,
    "э</w>": 271,
    "N</w>": 272,
    "🙂</w>": 273,
    "-</w>": 274,
    "ო</w>": 275,
    "<</w>": 276,
    "9</w>": 277,
    ")</w>": 278,
    "½</w>": 279,
    "ä</w>": 280,
    "a</w>": 281,
    "|</w>": 282,
    "ت</w>": 283,
    "ט</w>": 284,
    "ο</w>": 285,
    "島</w>": 286,
    "ь</w>": 287,
    "P</w>": 288,
    "m</w>": 289,
    "À</w>": 290,
    "f</w>": 291,
    "\\</w>": 292,
    "ვ</w>": 293,
    "T</w>": 294,
    "d</w>": 295,
    "e</w>": 296,
    "”</w>": 297,
    "p</w>": 298,
    "®</w>": 299,
    "“</w>": 300,
    "3</w>": 301,
    "F</w>": 302,
    "H</w>": 303,
    "6</w>": 304,
    "I</w>": 305,
    "c</w>": 306,
    "Ä</w>": 307,
    "🍹</w>": 308,
    "О</w>": 309,
    "„</w>": 310,
    "#</w>": 311,
    "×</w>": 312,
    "w</w>": 313,
    "@</w>": 314,
    "ρ</w>": 315,
    "Q</w>": 316,
    "M</w>": 317,
    "💜</w>": 318,
    "K</w>": 319,
    ",</w>": 320,
    "~</w>": 321,
    "Z</w>": 322,
    "🤔</w>": 323,
    "»</w>": 324,
    "7</w>": 325,
    "8</w>": 326,
    "魏</w>": 327,
    "y</w>": 328,
    "q</w>": 329,
    "Б</w>": 330,
    "$</w>": 331,
    "R</w>": 332,
    "−</w>": 333,
    "2</w>": 334,
    ":</w>": 335,
    "А</w>": 336,
    ".</w>": 337,
    "E</w>": 338,
    "š</w>": 339,
    "😁</w>": 340,
    "а</w>": 341,
    "U</w>": 342,
    "A</w>": 343,
    "\"</w>": 344,
    "é</w>": 345,
    "o</w>": 346,
    "*</w>": 347,
    "’</w>": 348,
    "]</w>": 349,
    "😭</w>": 350,
    "😀</w>": 351,
    "5</w>": 352,
    "°</w>": 353,
    "à</w>": 354,
    "€</w>": 355,
    "V</w>": 356,
    "ć</w>": 357,
    "ё</w>": 358,
    "0</w>": 359,
    "n</w>": 360,
    "«</w>": 361,
    "j</w>": 362,
    "C</w>": 363,
    "ī</w>": 364,
    "`</w>": 365,
    "x</w>": 366,
    "台</w>": 367,
    "ō</w>": 368,
    "></w>": 369,
    "…</w>": 370,
    "k</w>": 371,
    "+</w>": 372,
    "_</w>": 373,
    "(</w>": 374,
    "[</w>": 375,
    "Y</w>": 376,
    "i</w>": 377,
    "&</w>": 378,
    "•</w>": 379,
    "D</w>": 380,
    "—</w>": 381,
    "ი</w>": 382,
    "r</w>": 383,
    "ü</w>": 384,
    "'</w>": 385,
    "‘</w>": 386,
    "t</w>": 387,
    "🌴</w>": 388,
    "S</w>": 389,
    ";</w>": 390,
    "X</w>": 391,
    "G</w>": 392,
    "u</w>": 393,
    "v</w>": 394,
    "g</w>": 395,
    "?</w>": 396,
    "ö</w>": 397,
    "!</w>": 398,
    "z</w>": 399,
    "տ</w>": 400,
    "±</w>": 401,
    "4</w>": 402,
    "b</w>": 403,
    "²</w>": 404,
    "W</w>": 405,
    "l</w>": 406,
    "=</w>": 407,
    "о</w>": 408,
    "O</w>": 409,
    "с</w>": 410,
    "´</w>": 411,
    "^</w>": 412,
    "J</w>": 413,
    "ı</w>": 414,
    "Ü</w>": 415,
    "B</w>": 416,
    "ю</w>": 417,
    "h</w>": 418,
    "å</w>": 419,
    "is": 420,
    "ta": 421,
    "in": 422,
    "al": 423,
    "te": 424,
    "se": 425,
    "va": 426,
    "ol": 427,
    "tu": 428,
    "ka": 429,
    "si": 430,
    "ku": 431,
    "ja</w>": 432,
    "ma": 433,
    "el": 434,
    "on</w>": 435,
    "ta</w>": 436,
    "en": 437,
    "ko": 438,
    "il": 439,
    "es": 440,
    "en</w>": 441,
    "as": 442,
    "it": 443,
    "in</w>": 444,
    "an": 445,
    "us": 446,
    "ik": 447,
    "sa": 448,
    "er": 449,
    "ar": 450,
    "id": 451,
    "im": 452,
    "le": 453,
    "uu": 454,
    "to": 455,
    "an</w>": 456,
    "sa</w>": 457,
    "ti</w>": 458,
    "ke": 459,
    "ll": 460,
    "ti": 461,
    "vä": 462,
    "et</w>": 463,
    "vi": 464,
    "ra": 465,
    "tä": 466,
    "on": 467,
    "ja": 468,
    "mu": 469,
    "la": 470,
    "ki": 471,
    "ka</w>": 472,
    "ks": 473,
    "li": 474,
    "ei</w>": 475,
    "ää": 476,
    "na": 477,
    "ga</w>": 478,
    "ne": 479,
    "ma</w>": 480,
    "mis": 481,
    "val": 482,
    "su": 483,
    "is</w>": 484,
    "he": 485,
    "os": 486,
    "ul": 487,
    "nu": 488,
    "ri": 489,
    "min": 490,
    "ks</w>": 491,
    "le</w>": 492,
    "da</w>": 493,
    "pu": 494,
    "pa": 495,
    "et": 496,
    "ro": 497,
    "jo": 498,
    "la</w>": 499,
    "ni": 500,
    "är": 501,
    "na</w>": 502,
    "re": 503,
    "gi</w>": 504,
    "ju": 505,
    "tä</w>": 506,
    "id</w>": 507,
    "oli</w>": 508,
    "pe": 509,
    "ha": 510,
    "or": 511,
    "me": 512,
    "vu": 513,
    "lu": 514,
    "kä": 515,
    "se</w>": 516,
    "lis": 517,
    "lo": 518,
    "lä": 519,
    "ty": 520,
    "nä": 521,
    "mi": 522,
    "te</w>": 523,
    "od": 524,
    "pal": 525,
    "ir": 526,
    "võ": 527,
    "ot": 528,
    "saa": 529,
    "ole": 530,
    "hu": 531,
    "ole</w>": 532,
    "ki</w>": 533,
    "pi": 534,
    "mm": 535,
    "de": 536,
    "vas": 537,
    "ise": 538,
    "da": 539,
    "ho": 540,
    "än</w>": 541,
    "po": 542,
    "pä": 543,
    "au": 544,
    "nn": 545,
    "sin</w>": 546,
    "ig": 547,
    "sä</w>": 548,
    "kse": 549,
    "ala": 550,
    "kui</w>": 551,
    "ve": 552,
    "vat</w>": 553,
    "siis</w>": 554,
    "ksi</w>": 555,
    "jä": 556,
    "00": 557,
    "tu</w>": 558,
    "si</w>": 559,
    "tö": 560,
    "see</w>": 561,
    "so": 562,
    "us</w>": 563,
    "lle</w>": 564,
    "esti</w>": 565,
    "ida": 566,
    "suu": 567,
    "inen</w>": 568,
    "sel": 569,
    "ed": 570,
    "vad</w>": 571,
    "mas": 572,
    "ia</w>": 573,
    "muu": 574,
    "ne</w>": 575,
    "kau": 576,
    "vo": 577,
    "kor": 578,
    "Ku": 579,
    "va</w>": 580,
    "tus": 581,
    "ista</w>": 582,
    "pan": 583,
    "kan": 584,
    "kir": 585,
    "tta</w>": 586,
    "kuu": 587,
    "ru": 588,
    "ite": 589,
    "yö": 590,
    "es</w>": 591,
    "hd": 592,
    "kas": 593,
    "aa": 594,
    "maa": 595,
    "no": 596,
    "est</w>": 597,
    "per": 598,
    "ai": 599,
    "par": 600,
    "ga": 601,
    "use": 602,
    "ge": 603,
    "las": 604,
    "mal": 605,
    "mit": 606,
    "ih": 607,
    "ur": 608,
    "ina</w>": 609,
    "st</w>": 610,
    "ksi": 611,
    "hä": 612,
    "usta": 613,
    "aga</w>": 614,
    "nud</w>": 615,
    "tte": 616,
    "ht": 617,
    "ha</w>": 618,
    "tule": 619,
    "tar": 620,
    "issa</w>": 621,
    "ud</w>": 622,
    "iste": 623,
    "sin": 624,
    "kõ": 625,
    "kin</w>": 626,
    "kka": 627,
    "tun": 628,
    "li</w>": 629,
    "19": 630,
    "olla</w>": 631,
    "ju</w>": 632,
    "ine</w>": 633,
    "mõ": 634,
    "gu</w>": 635,
    "tud</w>": 636,
    "ida</w>": 637,
    "me</w>": 638,
    "to</w>": 639,
    "koh": 640,
    "mil": 641,
    "kes": 642,
    "Ka": 643,
    "jär": 644,
    "mä": 645,
    "iku": 646,
    "til": 647,
    "eh": 648,
    "de</w>": 649,
    "taa</w>": 650,
    "asi</w>": 651,
    "kin": 652,
    "ist</w>": 653,
    "200": 654,
    "pää": 655,
    "mo": 656,
    "sell": 657,
    "tiin</w>": 658,
    "mis</w>": 659,
    "nin": 660,
    "ky": 661,
    "itse": 662,
    "ku</w>": 663,
    "ikka</w>": 664,
    "kü": 665,
    "yh": 666,
    "om": 667,
    "väl": 668,
    "ni</w>": 669,
    "el</w>": 670,
    "kel": 671,
    "di": 672,
    "Sa": 673,
    "op": 674,
    "taan</w>": 675,
    "üü": 676,
    "gi": 677,
    "ust</w>": 678,
    "jal": 679,
    "he</w>": 680,
    "ulu": 681,
    "hal": 682,
    "ään</w>": 683,
    "oli": 684,
    "assa</w>": 685,
    "du": 686,
    "ed</w>": 687,
    "tus</w>": 688,
    "oma": 689,
    "ita</w>": 690,
    "asta</w>": 691,
    "ist": 692,
    "ter": 693,
    "ker": 694,
    "nii</w>": 695,
    "ain": 696,
    "pro": 697,
    "ik</w>": 698,
    "esi": 699,
    "nim": 700,
    "lin": 701,
    "kon": 702,
    "seda</w>": 703,
    "ast</w>": 704,
    "at": 705,
    "em": 706,
    "myö": 707,
    "pp": 708,
    "kil": 709,
    "pea": 710,
    "alt</w>": 711,
    "toim": 712,
    "hi": 713,
    "sis": 714,
    "isi</w>": 715,
    "hen": 716,
    "ran": 717,
    "aja": 718,
    "kaan</w>": 719,
    "asta": 720,
    "yt": 721,
    "ys": 722,
    "ista": 723,
    "mer": 724,
    "pole</w>": 725,
    "isel": 726,
    "ike": 727,
    "oma</w>": 728,
    "isen</w>": 729,
    "gu": 730,
    "mb": 731,
    "oo": 732,
    "men": 733,
    "Su": 734,
    "del": 735,
    "llä</w>": 736,
    "var": 737,
    "saa</w>": 738,
    "ken": 739,
    "ri</w>": 740,
    "istu": 741,
    "ny": 742,
    "kas</w>": 743,
    "lan": 744,
    "tee": 745,
    "ise</w>": 746,
    "kol": 747,
    "ver": 748,
    "või</w>": 749,
    "lähe": 750,
    "sed</w>": 751,
    "alla</w>": 752,
    "ega</w>": 753,
    "lä</w>": 754,
    "vaa": 755,
    "ssa</w>": 756,
    "as</w>": 757,
    "ke</w>": 758,
    "Se": 759,
    "että</w>": 760,
    "nut</w>": 761,
    "00</w>": 762,
    "tta": 763,
    "inim": 764,
    "essa</w>": 765,
    "sõ": 766,
    "jää": 767,
    "hel": 768,
    "tea": 769,
    "teh": 770,
    "van</w>": 771,
    "tan": 772,
    "al</w>": 773,
    "ten</w>": 774,
    "gel": 775,
    "eel": 776,
    "lla</w>": 777,
    "hin": 778,
    "pel": 779,
    "ale</w>": 780,
    "myös</w>": 781,
    "iks</w>": 782,
    "mp": 783,
    "van": 784,
    "asu": 785,
    "ima": 786,
    "Tä": 787,
    "aj": 788,
    "ita": 789,
    "iv": 790,
    "ksen</w>": 791,
    "aal": 792,
    "oh": 793,
    "ba": 794,
    "rit": 795,
    "kus": 796,
    "kal": 797,
    "auto": 798,
    "jul": 799,
    "hän</w>": 800,
    "ba</w>": 801,
    "it</w>": 802,
    "kse</w>": 803,
    "htu": 804,
    "iden</w>": 805,
    "ene": 806,
    "sy": 807,
    "ud": 808,
    "vät</w>": 809,
    "kül": 810,
    "maan</w>": 811,
    "ide": 812,
    "tõ": 813,
    "kul": 814,
    "kuuta</w>": 815,
    "ttu</w>": 816,
    "kes</w>": 817,
    "mine</w>": 818,
    "kku": 819,
    "itä</w>": 820,
    "ge</w>": 821,
    "osta</w>": 822,
    "isi": 823,
    "ek": 824,
    "mise": 825,
    "man</w>": 826,
    "töö": 827,
    "juu": 828,
    "ille</w>": 829,
    "olen</w>": 830,
    "puu": 831,
    "har": 832,
    "mas</w>": 833,
    "jan": 834,
    "mi</w>": 835,
    "sen</w>": 836,
    "kat": 837,
    "ko</w>": 838,
    "sid</w>": 839,
    "kus</w>": 840,
    "use</w>": 841,
    "hte": 842,
    "illa</w>": 843,
    "uro": 844,
    "idagi</w>": 845,
    "ase": 846,
    "kä</w>": 847,
    "pun": 848,
    "nyt</w>": 849,
    "tel": 850,
    "jäl": 851,
    "onna</w>": 852,
    "enn": 853,
    "sil": 854,
    "osa": 855,
    "eri": 856,
    "tada</w>": 857,
    "puol": 858,
    "ossa</w>": 859,
    "oleks</w>": 860,
    "pär": 861,
    "selt</w>": 862,
    "ssä</w>": 863,
    "maail": 864,
    "Ko": 865,
    "ina": 866,
    "tes</w>": 867,
    "di</w>": 868,
    "tää</w>": 869,
    "põ": 870,
    "isin</w>": 871,
    "ras": 872,
    "des</w>": 873,
    "vi</w>": 874,
    "Ma": 875,
    "sest</w>": 876,
    "jon": 877,
    "Te": 878,
    "ära</w>": 879,
    "Ja</w>": 880,
    "mutta</w>": 881,
    "suur": 882,
    "met": 883,
    "utu": 884,
    "les</w>": 885,
    "ttu": 886,
    "usi</w>": 887,
    "hta": 888,
    "ttiin</w>": 889,
    "itta": 890,
    "Si": 891,
    "bi": 892,
    "alu": 893,
    "pit": 894,
    "mme</w>": 895,
    "Mu": 896,
    "ika</w>": 897,
    "veel</w>": 898,
    "päe": 899,
    "pil": 900,
    "öö": 901,
    "10</w>": 902,
    "uste": 903,
    "iksi</w>": 904,
    "hy": 905,
    "os</w>": 906,
    "ut": 907,
    "tul": 908,
    "tai</w>": 909,
    "juba</w>": 910,
    "mitte</w>": 911,
    "vasta": 912,
    "ine": 913,
    "un": 914,
    "esta</w>": 915,
    "jen</w>": 916,
    "istä</w>": 917,
    "mar": 918,
    "itsi": 919,
    "san": 920,
    "Vi": 921,
    "aa</w>": 922,
    "itu": 923,
    "kar": 924,
    "maa</w>": 925,
    "bu": 926,
    "midagi</w>": 927,
    "kos": 928,
    "pr": 929,
    "mat": 930,
    "teen</w>": 931,
    "ksu": 932,
    "uud": 933,
    "vuonna</w>": 934,
    "selle</w>": 935,
    "il</w>": 936,
    "essä</w>": 937,
    "Ne": 938,
    "Ta": 939,
    "ika": 940,
    "ovat</w>": 941,
    "nel": 942,
    "man": 943,
    "at</w>": 944,
    "ena": 945,
    "kuulu": 946,
    "ime": 947,
    "tab</w>": 948,
    "kõik</w>": 949,
    "mida</w>": 950,
    "Kui</w>": 951,
    "ut</w>": 952,
    "st": 953,
    "liht": 954,
    "tor": 955,
    "stä</w>": 956,
    "issä</w>": 957,
    "nagu</w>": 958,
    "raa": 959,
    "erit": 960,
    "ikka": 961,
    "sä": 962,
    "ib</w>": 963,
    "rä": 964,
    "usta</w>": 965,
    "vel": 966,
    "kur": 967,
    "pid": 968,
    "yy": 969,
    "vuo": 970,
    "aasta": 971,
    "len": 972,
    "tele": 973,
    "mukaan</w>": 974,
    "välja</w>": 975,
    "por": 976,
    "han": 977,
    "maal": 978,
    "Ar": 979,
    "nad</w>": 980,
    "inn": 981,
    "ven": 982,
    "idu": 983,
    "ensi": 984,
    "sai</w>": 985,
    "inud</w>": 986,
    "küll</w>": 987,
    "iset</w>": 988,
    "käy": 989,
    "neid</w>": 990,
    "väga</w>": 991,
    "iga</w>": 992,
    "asi": 993,
    "ak": 994,
    "20</w>": 995,
    "un</w>": 996,
    "aan</w>": 997,
    "takse</w>": 998,
    "kun": 999,
    "hti</w>": 1000,
    "ül": 1001,
    "mä</w>": 1002,
    "lõ": 1003,
    "saab</w>": 1004,
    "egi</w>": 1005,
    "ide</w>": 1006,
    "sti</w>": 1007,
    "ult</w>": 1008,
    "mon": 1009,
    "sta</w>": 1010,
    "kun</w>": 1011,
    "saan": 1012,
    "tan</w>": 1013,
    "vir": 1014,
    "joka</w>": 1015,
    "taval": 1016,
    "mus</w>": 1017,
    "tsi": 1018,
    "saan</w>": 1019,
    "vaid</w>": 1020,
    "ää</w>": 1021,
    "jä</w>": 1022,
    "ele</w>": 1023,
    "tr": 1024,
    "ad": 1025,
    "ussa</w>": 1026,
    "tur": 1027,
    "lut</w>": 1028,
    "tään</w>": 1029,
    "gin</w>": 1030,
    "tuli</w>": 1031,
    "kanssa</w>": 1032,
    "tama</w>": 1033,
    "sekä</w>": 1034,
    "seal</w>": 1035,
    "vähe": 1036,
    "Tu": 1037,
    "isesti</w>": 1038,
    "je": 1039,
    "ile</w>": 1040,
    "tin</w>": 1041,
    "mat</w>": 1042,
    "hti": 1043,
    "siin</w>": 1044,
    "sü": 1045,
    "tle": 1046,
    "len</w>": 1047,
    "kasva": 1048,
    "ie</w>": 1049,
    "Suom": 1050,
    "salt</w>": 1051,
    "tti</w>": 1052,
    "keen</w>": 1053,
    "nen</w>": 1054,
    "rää": 1055,
    "saar": 1056,
    "am": 1057,
    "aika": 1058,
    "een</w>": 1059,
    "ning</w>": 1060,
    "üüd</w>": 1061,
    "allis": 1062,
    "need</w>": 1063,
    "vuod": 1064,
    "tuleb</w>": 1065,
    "sen": 1066,
    "voi</w>": 1067,
    "asti</w>": 1068,
    "mingi</w>": 1069,
    "kaik": 1070,
    "imal": 1071,
    "tal": 1072,
    "ppu": 1073,
    "teki": 1074,
    "viir": 1075,
    "peale</w>": 1076,
    "palju</w>": 1077,
    "tag": 1078,
    "kki": 1079,
    "teis": 1080,
    "rin": 1081,
    "jõ": 1082,
    "Ju": 1083,
    "Ni": 1084,
    "000</w>": 1085,
    "tti": 1086,
    "vil": 1087,
    "den": 1088,
    "käyt": 1089,
    "työ": 1090,
    "het": 1091,
    "vasti</w>": 1092,
    "kki</w>": 1093,
    "ava": 1094,
    "eri</w>": 1095,
    "elt</w>": 1096,
    "lt</w>": 1097,
    "mmä": 1098,
    "kuin</w>": 1099,
    "ihin</w>": 1100,
    "nä</w>": 1101,
    "Aga</w>": 1102,
    "ime</w>": 1103,
    "lihtsalt</w>": 1104,
    "mist</w>": 1105,
    "este": 1106,
    "keegi</w>": 1107,
    "mise</w>": 1108,
    "lev": 1109,
    "To": 1110,
    "selle": 1111,
    "tunn": 1112,
    "pin": 1113,
    "kr": 1114,
    "See</w>": 1115,
    "jälkeen</w>": 1116,
    "niin</w>": 1117,
    "ab": 1118,
    "Min": 1119,
    "pol": 1120,
    "mää": 1121,
    "estä</w>": 1122,
    "mmin</w>": 1123,
    "Re": 1124,
    "vita": 1125,
    "ais": 1126,
    "ad</w>": 1127,
    "ige</w>": 1128,
    "ainult</w>": 1129,
    "ike</w>": 1130,
    "Mit": 1131,
    "2009</w>": 1132,
    "oon": 1133,
    "ised</w>": 1134,
    "elle</w>": 1135,
    "hakka": 1136,
    "roh": 1137,
    "ette": 1138,
    "mes": 1139,
    "Ro": 1140,
    "hr": 1141,
    "Mar": 1142,
    "ot</w>": 1143,
    "and": 1144,
    "Ei</w>": 1145,
    "män</w>": 1146,
    "mad</w>": 1147,
    "isa": 1148,
    "vin</w>": 1149,
    "sitte": 1150,
    "nüüd</w>": 1151,
    "kunn": 1152,
    "Ma</w>": 1153,
    "liig": 1154,
    "er</w>": 1155,
    "ost": 1156,
    "ali": 1157,
    "ua</w>": 1158,
    "An": 1159,
    "tapa": 1160,
    "ini</w>": 1161,
    "ae": 1162,
    "osa</w>": 1163,
    "sur": 1164,
    "arv": 1165,
    "nen": 1166,
    "iselt</w>": 1167,
    "oike": 1168,
    "sama</w>": 1169,
    "rae": 1170,
    "kasu": 1171,
    "arva": 1172,
    "võib</w>": 1173,
    "uroop": 1174,
    "est": 1175,
    "oll": 1176,
    "ustu": 1177,
    "piir": 1178,
    "kö": 1179,
    "nnö": 1180,
    "isä": 1181,
    "valta": 1182,
    "yty": 1183,
    "Le": 1184,
    "ksa": 1185,
    "Hän</w>": 1186,
    "soo": 1187,
    "Pa": 1188,
    "itse</w>": 1189,
    "do": 1190,
    "tt": 1191,
    "pärast</w>": 1192,
    "hul</w>": 1193,
    "ittä": 1194,
    "tegel": 1195,
    "ani</w>": 1196,
    "mel": 1197,
    "saada</w>": 1198,
    "laa": 1199,
    "mal</w>": 1200,
    "nkin</w>": 1201,
    "tagasi</w>": 1202,
    "teha</w>": 1203,
    "kim": 1204,
    "ht</w>": 1205,
    "itti</w>": 1206,
    "iku</w>": 1207,
    "merk": 1208,
    "kap": 1209,
    "rohke": 1210,
    "sel</w>": 1211,
    "Nä": 1212,
    "ollut</w>": 1213,
    "yhd": 1214,
    "män": 1215,
    "ee": 1216,
    "ään": 1217,
    "ena</w>": 1218,
    "kuul": 1219,
    "guse": 1220,
    "ttä": 1221,
    "massa</w>": 1222,
    "ollis": 1223,
    "suo": 1224,
    "päi": 1225,
    "kaa": 1226,
    "den</w>": 1227,
    "valmis": 1228,
    "ra</w>": 1229,
    "eni</w>": 1230,
    "isten</w>": 1231,
    "üks</w>": 1232,
    "vii": 1233,
    "199": 1234,
    "mmen": 1235,
    "her": 1236,
    "eli</w>": 1237,
    "Kas</w>": 1238,
    "ikku": 1239,
    "liit": 1240,
    "tik": 1241,
    "ots": 1242,
    "isu": 1243,
    "uus</w>": 1244,
    "kut": 1245,
    "ck</w>": 1246,
    "enam</w>": 1247,
    "ic": 1248,
    "jan</w>": 1249,
    "rah": 1250,
    "kan</w>": 1251,
    "aasta</w>": 1252,
    "tell": 1253,
    "valit": 1254,
    "järj": 1255,
    "kaupun": 1256,
    "tori": 1257,
    "hil": 1258,
    "Va": 1259,
    "kah": 1260,
    "lö": 1261,
    "meel": 1262,
    "jo</w>": 1263,
    "end": 1264,
    "ikult</w>": 1265,
    "test</w>": 1266,
    "sitten</w>": 1267,
    "kunin": 1268,
    "del</w>": 1269,
    "sija": 1270,
    "Ra": 1271,
    "tin": 1272,
    "Ja": 1273,
    "kka</w>": 1274,
    "ien</w>": 1275,
    "illä</w>": 1276,
    "leen</w>": 1277,
    "rohkem</w>": 1278,
    "Lo": 1279,
    "tiiv": 1280,
    "En": 1281,
    "tava": 1282,
    "tü": 1283,
    "tall": 1284,
    "üld": 1285,
    "isia</w>": 1286,
    "jou": 1287,
    "pi</w>": 1288,
    "lau": 1289,
    "tunne": 1290,
    "vä</w>": 1291,
    "pii": 1292,
    "jah</w>": 1293,
    "üle</w>": 1294,
    "50</w>": 1295,
    "Hi": 1296,
    "astu": 1297,
    "pre": 1298,
    "osta": 1299,
    "oon</w>": 1300,
    "ksia</w>": 1301,
    "malt</w>": 1302,
    "ima</w>": 1303,
    "No": 1304,
    "ori": 1305,
    "pare": 1306,
    "mia</w>": 1307,
    "johta": 1308,
    "ensimmä": 1309,
    "kiel": 1310,
    "lap": 1311,
    "ili": 1312,
    "lit": 1313,
    "kaa</w>": 1314,
    "ukse": 1315,
    "ale": 1316,
    "mina</w>": 1317,
    "just</w>": 1318,
    "kiir": 1319,
    "198": 1320,
    "kku</w>": 1321,
    "võimal": 1322,
    "vuoden</w>": 1323,
    "kuid</w>": 1324,
    "haig": 1325,
    "tyi</w>": 1326,
    "idas</w>": 1327,
    "esti": 1328,
    "hoi": 1329,
    "sta": 1330,
    "ene</w>": 1331,
    "kis": 1332,
    "ris": 1333,
    "ener": 1334,
    "sää": 1335,
    "suure": 1336,
    "jad</w>": 1337,
    "kõr": 1338,
    "alainen</w>": 1339,
    "kuite": 1340,
    "jel": 1341,
    "olema</w>": 1342,
    "paa": 1343,
    "alle</w>": 1344,
    "be": 1345,
    "iva": 1346,
    "bi</w>": 1347,
    "enne</w>": 1348,
    "ore": 1349,
    "tege": 1350,
    "peaks</w>": 1351,
    "ella</w>": 1352,
    "dus</w>": 1353,
    "valt</w>": 1354,
    "suhte": 1355,
    "ell": 1356,
    "su</w>": 1357,
    "kko": 1358,
    "auto</w>": 1359,
    "ete": 1360,
    "jat</w>": 1361,
    "omi": 1362,
    "musta": 1363,
    "ivat</w>": 1364,
    "mul</w>": 1365,
    "välis": 1366,
    "19</w>": 1367,
    "ve</w>": 1368,
    "malla</w>": 1369,
    "vaja</w>": 1370,
    "teks": 1371,
    "keh": 1372,
    "mmi": 1373,
    "jne</w>": 1374,
    "ksin</w>": 1375,
    "päivä": 1376,
    "jonka</w>": 1377,
    "otta": 1378,
    "mik": 1379,
    "juh": 1380,
    "rin</w>": 1381,
    "ses</w>": 1382,
    "Na": 1383,
    "oliit": 1384,
    "ivät</w>": 1385,
    "aru</w>": 1386,
    "minen</w>": 1387,
    "isegi</w>": 1388,
    "ent": 1389,
    "pa</w>": 1390,
    "20": 1391,
    "Me": 1392,
    "vär": 1393,
    "In": 1394,
    "enä": 1395,
    "tut": 1396,
    "minu</w>": 1397,
    "sillä</w>": 1398,
    "noin</w>": 1399,
    "kind": 1400,
    "rit</w>": 1401,
    "kanna": 1402,
    "gra": 1403,
    "ing": 1404,
    "Hel": 1405,
    "La": 1406,
    "kohta</w>": 1407,
    "mään</w>": 1408,
    "öel": 1409,
    "tead": 1410,
    "Vä": 1411,
    "mur": 1412,
    "Tar": 1413,
    "nan</w>": 1414,
    "tel</w>": 1415,
    "odan</w>": 1416,
    "ten": 1417,
    "Euroop": 1418,
    "paik": 1419,
    "100</w>": 1420,
    "vah": 1421,
    "toa</w>": 1422,
    "vaa</w>": 1423,
    "elo": 1424,
    "põh": 1425,
    "prae": 1426,
    "neet</w>": 1427,
    "ehd": 1428,
    "sitä</w>": 1429,
    "meie</w>": 1430,
    "Kau": 1431,
    "teen": 1432,
    "luu": 1433,
    "oni</w>": 1434,
    "euro": 1435,
    "lei": 1436,
    "mista</w>": 1437,
    "suom": 1438,
    "miseks</w>": 1439,
    "alais": 1440,
    "olnud</w>": 1441,
    "15</w>": 1442,
    "hea</w>": 1443,
    "palj": 1444,
    "He": 1445,
    "nõ": 1446,
    "kseen</w>": 1447,
    "ellä</w>": 1448,
    "mieh": 1449,
    "inimes": 1450,
    "elä": 1451,
    "ata</w>": 1452,
    "ral": 1453,
    "12</w>": 1454,
    "hes</w>": 1455,
    "mär": 1456,
    "idugi</w>": 1457,
    "vain</w>": 1458,
    "ihmis": 1459,
    "Suomen</w>": 1460,
    "ihan</w>": 1461,
    "miel": 1462,
    "sellest</w>": 1463,
    "vastu": 1464,
    "inf": 1465,
    "taja</w>": 1466,
    "oloo": 1467,
    "Mithr": 1468,
    "Mithrida": 1469,
    "mata</w>": 1470,
    "müü": 1471,
    "pul": 1472,
    "Val": 1473,
    "Al": 1474,
    "maan": 1475,
    "läh": 1476,
    "iko": 1477,
    "koo": 1478,
    "sar": 1479,
    "raken": 1480,
    "kirju": 1481,
    "jossa</w>": 1482,
    "kuna</w>": 1483,
    "hänen</w>": 1484,
    "dega</w>": 1485,
    "kesk": 1486,
    "vaan</w>": 1487,
    "üldse</w>": 1488,
    "ittaa</w>": 1489,
    "ajal</w>": 1490,
    "ota</w>": 1491,
    "set</w>": 1492,
    "ust": 1493,
    "tele</w>": 1494,
    "Hä": 1495,
    "tea</w>": 1496,
    "18": 1497,
    "lj": 1498,
    "val</w>": 1499,
    "tega</w>": 1500,
    "ble": 1501,
    "On</w>": 1502,
    "ustus": 1503,
    "tyy": 1504,
    "dab</w>": 1505,
    "ttaa</w>": 1506,
    "kirjo": 1507,
    "olivat</w>": 1508,
    "kirja": 1509,
    "hi</w>": 1510,
    "mm</w>": 1511,
    "tia</w>": 1512,
    "ette</w>": 1513,
    "eril": 1514,
    "usti</w>": 1515,
    "ssi": 1516,
    "pla": 1517,
    "vat": 1518,
    "yt</w>": 1519,
    "juur": 1520,
    "ela": 1521,
    "seu": 1522,
    "vahe": 1523,
    "mselt</w>": 1524,
    "Vu": 1525,
    "maks</w>": 1526,
    "enä</w>": 1527,
    "ua": 1528,
    "nne": 1529,
    "vis": 1530,
    "poh": 1531,
    "odi</w>": 1532,
    "ms</w>": 1533,
    "ari</w>": 1534,
    "kär": 1535,
    "ib": 1536,
    "ppa": 1537,
    "jana</w>": 1538,
    "vin": 1539,
    "du</w>": 1540,
    "anta": 1541,
    "kohe</w>": 1542,
    "kuidas</w>": 1543,
    "Võ": 1544,
    "oled</w>": 1545,
    "kord</w>": 1546,
    "kuitenkin</w>": 1547,
    "tapahtu": 1548,
    "miks</w>": 1549,
    "Se</w>": 1550,
    "yttä": 1551,
    "yn</w>": 1552,
    "sain</w>": 1553,
    "Mik": 1554,
    "yle": 1555,
    "sor": 1556,
    "gin": 1557,
    "kulu": 1558,
    "Ki": 1559,
    "loo": 1560,
    "Lu": 1561,
    "Kan": 1562,
    "olu": 1563,
    "tie": 1564,
    "roon": 1565,
    "yrit": 1566,
    "yksi": 1567,
    "sisä": 1568,
    "inä</w>": 1569,
    "ön</w>": 1570,
    "ste": 1571,
    "ming": 1572,
    "res": 1573,
    "ari": 1574,
    "lai": 1575,
    "Jo": 1576,
    "tettiin</w>": 1577,
    "uuden</w>": 1578,
    "küsi": 1579,
    "krist": 1580,
    "Olen</w>": 1581,
    "30</w>": 1582,
    "käsi": 1583,
    "eks": 1584,
    "ton": 1585,
    "rau": 1586,
    "epä": 1587,
    "kaksi</w>": 1588,
    "bo": 1589,
    "hyvä": 1590,
    "nsä</w>": 1591,
    "siir": 1592,
    "yhti": 1593,
    "anud</w>": 1594,
    "aastat</w>": 1595,
    "arvu": 1596,
    "iteks</w>": 1597,
    "talo": 1598,
    "kel</w>": 1599,
    "luo": 1600,
    "taha": 1601,
    "pos": 1602,
    "Ita": 1603,
    "hir": 1604,
    "io": 1605,
    "18</w>": 1606,
    "vit": 1607,
    "mini</w>": 1608,
    "seen</w>": 1609,
    "pool": 1610,
    "maha</w>": 1611,
    "üle": 1612,
    "proble": 1613,
    "idu</w>": 1614,
    "jot": 1615,
    "ber": 1616,
    "liik": 1617,
    "um</w>": 1618,
    "tuu": 1619,
    "yl": 1620,
    "kult</w>": 1621,
    "ainen</w>": 1622,
    "jat": 1623,
    "elä</w>": 1624,
    "olisi</w>": 1625,
    "neen</w>": 1626,
    "yhty": 1627,
    "inime": 1628,
    "nor": 1629,
    "Li": 1630,
    "sama": 1631,
    "pur": 1632,
    "No</w>": 1633,
    "Mo": 1634,
    "Ho": 1635,
    "Pi": 1636,
    "all</w>": 1637,
    "iga": 1638,
    "Mi": 1639,
    "vara": 1640,
    "kappal": 1641,
    "nende</w>": 1642,
    "tied": 1643,
    "eest</w>": 1644,
    "tavad</w>": 1645,
    "läheb</w>": 1646,
    "Saar": 1647,
    "läbi</w>": 1648,
    "päev</w>": 1649,
    "kea</w>": 1650,
    "korra": 1651,
    "muidugi</w>": 1652,
    "pes": 1653,
    "itä": 1654,
    "uri</w>": 1655,
    "ana</w>": 1656,
    "Po": 1657,
    "Lä": 1658,
    "Tal": 1659,
    "his": 1660,
    "kutsu": 1661,
    "ire": 1662,
    "kais": 1663,
    "ostu": 1664,
    "peab</w>": 1665,
    "nagi</w>": 1666,
    "võiks</w>": 1667,
    "tatud</w>": 1668,
    "dest</w>": 1669,
    "masta</w>": 1670,
    "della</w>": 1671,
    "väär": 1672,
    "ch": 1673,
    "Mil": 1674,
    "naka": 1675,
    "enda": 1676,
    "pide": 1677,
    "gia</w>": 1678,
    "nimi</w>": 1679,
    "tal</w>": 1680,
    "tas</w>": 1681,
    "ron": 1682,
    "kri": 1683,
    "11</w>": 1684,
    "umb": 1685,
    "tee</w>": 1686,
    "luvu": 1687,
    "tty": 1688,
    "lik</w>": 1689,
    "ütle": 1690,
    "olid</w>": 1691,
    "henkil": 1692,
    "õig": 1693,
    "via</w>": 1694,
    "jotka</w>": 1695,
    "ilmselt</w>": 1696,
    "päris</w>": 1697,
    "loin</w>": 1698,
    "sega</w>": 1699,
    "Sel": 1700,
    "sul": 1701,
    "itus": 1702,
    "lää": 1703,
    "40</w>": 1704,
    "vaim": 1705,
    "ppe": 1706,
    "tän": 1707,
    "levi": 1708,
    "nas</w>": 1709,
    "tio": 1710,
    "misel</w>": 1711,
    "joo": 1712,
    "kah</w>": 1713,
    "aega</w>": 1714,
    "saanud</w>": 1715,
    "pitä": 1716,
    "ksid</w>": 1717,
    "vielä</w>": 1718,
    "ema</w>": 1719,
    "igi</w>": 1720,
    "kõige</w>": 1721,
    "lisä": 1722,
    "tek": 1723,
    "kell": 1724,
    "Il": 1725,
    "pea</w>": 1726,
    "no</w>": 1727,
    "13</w>": 1728,
    "oks</w>": 1729,
    "co": 1730,
    "usu": 1731,
    "emi</w>": 1732,
    "lood": 1733,
    "197": 1734,
    "Tur": 1735,
    "kuussa</w>": 1736,
    "loppu": 1737,
    "üt": 1738,
    "aikana</w>": 1739,
    "kset</w>": 1740,
    "ensä</w>": 1741,
    "isiin</w>": 1742,
    "kiin": 1743,
    "ehk</w>": 1744,
    "mõtle": 1745,
    "etta</w>": 1746,
    "vähemalt</w>": 1747,
    "Co": 1748,
    "mu</w>": 1749,
    "juure": 1750,
    "Ru": 1751,
    "Ke": 1752,
    "isim": 1753,
    "tis": 1754,
    "kut</w>": 1755,
    "kla": 1756,
    "ty</w>": 1757,
    "ajan</w>": 1758,
    "ruu": 1759,
    "ing</w>": 1760,
    "2008</w>": 1761,
    "Pe": 1762,
    "vastu</w>": 1763,
    "praegu</w>": 1764,
    "vuot": 1765,
    "selline</w>": 1766,
    "päeva</w>": 1767,
    "liku": 1768,
    "tär": 1769,
    "ilu": 1770,
    "mille</w>": 1771,
    "aval": 1772,
    "han</w>": 1773,
    "min</w>": 1774,
    "sii": 1775,
    "näy": 1776,
    "inimene</w>": 1777,
    "iseksi</w>": 1778,
    "my": 1779,
    "mitä</w>": 1780,
    "sano": 1781,
    "vist</w>": 1782,
    "yd": 1783,
    "toimin": 1784,
    "kaup": 1785,
    "Pu": 1786,
    "joon": 1787,
    "alo": 1788,
    "lan</w>": 1789,
    "siden": 1790,
    "194": 1791,
    "rak": 1792,
    "90</w>": 1793,
    "saada": 1794,
    "eb</w>": 1795,
    "hoo": 1796,
    "ttö": 1797,
    "iso": 1798,
    "gas</w>": 1799,
    "kohta": 1800,
    "ele": 1801,
    "laske": 1802,
    "seks</w>": 1803,
    "hyvin</w>": 1804,
    "tt</w>": 1805,
    "Helsin": 1806,
    "isännö": 1807,
    "laan</w>": 1808,
    "eriti</w>": 1809,
    "minna</w>": 1810,
    "gem</w>": 1811,
    "eme</w>": 1812,
    "siitä</w>": 1813,
    "õpe": 1814,
    "mistä</w>": 1815,
    "koko": 1816,
    "dub</w>": 1817,
    "gen": 1818,
    "jar": 1819,
    "iski</w>": 1820,
    "all": 1821,
    "lik": 1822,
    "re</w>": 1823,
    "tasa": 1824,
    "minu": 1825,
    "tulla</w>": 1826,
    "yn": 1827,
    "ah": 1828,
    "pet": 1829,
    "taja": 1830,
    "ppi</w>": 1831,
    "run": 1832,
    "ce</w>": 1833,
    "lus": 1834,
    "enne": 1835,
    "uni": 1836,
    "kre": 1837,
    "ides</w>": 1838,
    "vale</w>": 1839,
    "aeg</w>": 1840,
    "täp": 1841,
    "koha": 1842,
    "tarko": 1843,
    "iin</w>": 1844,
    "vast</w>": 1845,
    "jän</w>": 1846,
    "vuotta</w>": 1847,
    "tol": 1848,
    "sika": 1849,
    "Jär": 1850,
    "vai": 1851,
    "üh": 1852,
    "vana</w>": 1853,
    "ban": 1854,
    "ttä</w>": 1855,
    "koroon": 1856,
    "palju": 1857,
    "iseen</w>": 1858,
    "järjes": 1859,
    "koko</w>": 1860,
    "ans": 1861,
    "teke": 1862,
    "korda</w>": 1863,
    "näiteks</w>": 1864,
    "henkilö": 1865,
    "telu": 1866,
    "kunagi</w>": 1867,
    "likult</w>": 1868,
    "luge": 1869,
    "ennen</w>": 1870,
    "suosi": 1871,
    "merkiksi</w>": 1872,
    "jos</w>": 1873,
    "Hu": 1874,
    "jas": 1875,
    "sol": 1876,
    "pia</w>": 1877,
    "pim": 1878,
    "idi</w>": 1879,
    "tori</w>": 1880,
    "2007</w>": 1881,
    "kool": 1882,
    "ser": 1883,
    "vis</w>": 1884,
    "Kes": 1885,
    "ito": 1886,
    "em</w>": 1887,
    "suht</w>": 1888,
    "teema</w>": 1889,
    "Pal": 1890,
    "kommen": 1891,
    "lla": 1892,
    "ori</w>": 1893,
    "git</w>": 1894,
    "järg": 1895,
    "muun</w>": 1896,
    "peal</w>": 1897,
    "misen</w>": 1898,
    "õl": 1899,
    "ttua</w>": 1900,
    "pys": 1901,
    "tema</w>": 1902,
    "miseen</w>": 1903,
    "puolu": 1904,
    "möö": 1905,
    "koska</w>": 1906,
    "tyy</w>": 1907,
    "isiä</w>": 1908,
    "tust</w>": 1909,
    "dud</w>": 1910,
    "ansa</w>": 1911,
    "ryh": 1912,
    "korral": 1913,
    "rik": 1914,
    "Kuu": 1915,
    "ala</w>": 1916,
    "nes</w>": 1917,
    "fo": 1918,
    "im</w>": 1919,
    "gas": 1920,
    "otil": 1921,
    "hul": 1922,
    "ian</w>": 1923,
    "VA": 1924,
    "Suu": 1925,
    "vih": 1926,
    "myy": 1927,
    "ts</w>": 1928,
    "raha</w>": 1929,
    "haka": 1930,
    "isto": 1931,
    "syn": 1932,
    "kia</w>": 1933,
    "Esi": 1934,
    "musta</w>": 1935,
    "kk": 1936,
    "aina</w>": 1937,
    "gan": 1938,
    "rat": 1939,
    "tuke</w>": 1940,
    "Poh": 1941,
    "uun</w>": 1942,
    "tty</w>": 1943,
    "aiko": 1944,
    "juurde</w>": 1945,
    "muassa</w>": 1946,
    "täi": 1947,
    "vuoti": 1948,
    "Mis</w>": 1949,
    "lasti</w>": 1950,
    "teine</w>": 1951,
    "onn": 1952,
    "lisa": 1953,
    "kesä": 1954,
    "kautta</w>": 1955,
    "erine": 1956,
    "kod": 1957,
    "gil": 1958,
    "yr": 1959,
    "poliit": 1960,
    "ro</w>": 1961,
    "pen": 1962,
    "lasta</w>": 1963,
    "Var": 1964,
    "Ba": 1965,
    "hän": 1966,
    "klas": 1967,
    "rid</w>": 1968,
    "presiden": 1969,
    "matu": 1970,
    "Ve": 1971,
    "koulu": 1972,
    "uksen</w>": 1973,
    "joulu": 1974,
    "proo": 1975,
    "idän</w>": 1976,
    "Kir": 1977,
    "mahd": 1978,
    "tämän</w>": 1979,
    "kogu</w>": 1980,
    "vuos": 1981,
    "tehd": 1982,
    "esse</w>": 1983,
    "võr": 1984,
    "huvita": 1985,
    "usk": 1986,
    "jaoks</w>": 1987,
    "saavu": 1988,
    "fes": 1989,
    "60</w>": 1990,
    "mmu": 1991,
    "16</w>": 1992,
    "panna</w>": 1993,
    "II</w>": 1994,
    "ie": 1995,
    "era": 1996,
    "koti": 1997,
    "kaks</w>": 1998,
    "usu</w>": 1999,
    "kana</w>": 2000,
    "määrä": 2001,
    "must</w>": 2002,
    "viima": 2003,
    "öelda</w>": 2004,
    "yll": 2005,
    "iä</w>": 2006,
    "joukku": 2007,
    "valg": 2008,
    "uutta</w>": 2009,
    "kokku</w>": 2010,
    "tävä": 2011,
    "jol": 2012,
    "panin</w>": 2013,
    "jaa</w>": 2014,
    "komp": 2015,
    "fil": 2016,
    "eng": 2017,
    "25</w>": 2018,
    "tor</w>": 2019,
    "Por": 2020,
    "Man": 2021,
    "jälle</w>": 2022,
    "lus</w>": 2023,
    "erin</w>": 2024,
    "vasta</w>": 2025,
    "Mä": 2026,
    "ere": 2027,
    "sal": 2028,
    "normaal": 2029,
    "eb": 2030,
    "viä</w>": 2031,
    "tusta</w>": 2032,
    "sele</w>": 2033,
    "nyky": 2034,
    "tõesti</w>": 2035,
    "mulle</w>": 2036,
    "inimesed</w>": 2037,
    "alati</w>": 2038,
    "Mithridates</w>": 2039,
    "eella</w>": 2040,
    "Mõ": 2041,
    "teada</w>": 2042,
    "toja</w>": 2043,
    "erida</w>": 2044,
    "toi</w>": 2045,
    "saaks</w>": 2046,
    "sellist</w>": 2047,
    "eloku": 2048,
    "ulko": 2049,
    "kooli</w>": 2050,
    "ria</w>": 2051,
    "mate": 2052,
    "tte</w>": 2053,
    "liiku": 2054,
    "Kar": 2055,
    "uk": 2056,
    "kiire": 2057,
    "liiga</w>": 2058,
    "Har": 2059,
    "Ter": 2060,
    "nime": 2061,
    "otsi": 2062,
    "nd": 2063,
    "ase</w>": 2064,
    "ag": 2065,
    "joutu": 2066,
    "kõig": 2067,
    "näh": 2068,
    "asja</w>": 2069,
    "estis</w>": 2070,
    "hemmin</w>": 2071,
    "dala": 2072,
    "Yhd": 2073,
    "natuke</w>": 2074,
    "vaih": 2075,
    "ran</w>": 2076,
    "tui</w>": 2077,
    "enda</w>": 2078,
    "olemas</w>": 2079,
    "suur</w>": 2080,
    "ohjel": 2081,
    "edasi</w>": 2082,
    "kään</w>": 2083,
    "kaikki</w>": 2084,
    "soovi": 2085,
    "vastaan</w>": 2086,
    "ee</w>": 2087,
    "vu</w>": 2088,
    "oste": 2089,
    "MI": 2090,
    "tuli": 2091,
    "10": 2092,
    "80</w>": 2093,
    "ili</w>": 2094,
    "eur": 2095,
    "raal": 2096,
    "lin</w>": 2097,
    "iste</w>": 2098,
    "toon</w>": 2099,
    "seis": 2100,
    "osi": 2101,
    "eksi</w>": 2102,
    "uh": 2103,
    "mill": 2104,
    "ellis": 2105,
    "ilma": 2106,
    "tule</w>": 2107,
    "Kä": 2108,
    "uut": 2109,
    "SA": 2110,
    "jaa": 2111,
    "main": 2112,
    "kaal": 2113,
    "kasvu": 2114,
    "kat</w>": 2115,
    "Pär": 2116,
    "iit": 2117,
    "hää": 2118,
    "itus</w>": 2119,
    "Is": 2120,
    "hu</w>": 2121,
    "koos</w>": 2122,
    "syö": 2123,
    "lõpu": 2124,
    "mahdollis": 2125,
    "kuun</w>": 2126,
    "õige</w>": 2127,
    "kunnan</w>": 2128,
    "tub</w>": 2129,
    "vaiku": 2130,
    "idega</w>": 2131,
    "Mul</w>": 2132,
    "Eesti</w>": 2133,
    "üks": 2134,
    "dada</w>": 2135,
    "Suomessa</w>": 2136,
    "kier": 2137,
    "yli": 2138,
    "tis</w>": 2139,
    "tön</w>": 2140,
    "2006</w>": 2141,
    "tegelikult</w>": 2142,
    "nni": 2143,
    "ff": 2144,
    "oi</w>": 2145,
    "masti</w>": 2146,
    "ese</w>": 2147,
    "uko": 2148,
    "14</w>": 2149,
    "Saku</w>": 2150,
    "elu</w>": 2151,
    "palvel": 2152,
    "eik": 2153,
    "punk": 2154,
    "rans": 2155,
    "para": 2156,
    "duse": 2157,
    "Tämä</w>": 2158,
    "tamine</w>": 2159,
    "vaikka</w>": 2160,
    "käyttä": 2161,
    "johtaja</w>": 2162,
    "pien": 2163,
    "selles</w>": 2164,
    "meil</w>": 2165,
    "mõne": 2166,
    "lol": 2167,
    "täna": 2168,
    "ongi</w>": 2169,
    "kindlasti</w>": 2170,
    "mõtte": 2171,
    "siiski</w>": 2172,
    "itte": 2173,
    "kassa</w>": 2174,
    "mpi</w>": 2175,
    "iti": 2176,
    "head</w>": 2177,
    "21</w>": 2178,
    "Es": 2179,
    "lit</w>": 2180,
    "ril": 2181,
    "rel": 2182,
    "nta": 2183,
    "Ky": 2184,
    "artik": 2185,
    "Ca": 2186,
    "mus": 2187,
    "ood": 2188,
    "ani": 2189,
    "lane": 2190,
    "estu": 2191,
    "sill": 2192,
    "kke": 2193,
    "naut": 2194,
    "oso": 2195,
    "The</w>": 2196,
    "kauden</w>": 2197,
    "hall": 2198,
    "esimerkiksi</w>": 2199,
    "perä": 2200,
    "muod": 2201,
    "kida</w>": 2202,
    "tois": 2203,
    "edusta": 2204,
    "ksesta</w>": 2205,
    "ilma</w>": 2206,
    "maksa": 2207,
    "järgi</w>": 2208,
    "ota": 2209,
    "viime": 2210,
    "usein</w>": 2211,
    "mber</w>": 2212,
    "tsioon": 2213,
    "mmän</w>": 2214,
    "füü": 2215,
    "viik": 2216,
    "tood": 2217,
    "hästi</w>": 2218,
    "ühe</w>": 2219,
    "itu</w>": 2220,
    "muuta</w>": 2221,
    "qu": 2222,
    "28</w>": 2223,
    "imi</w>": 2224,
    "for": 2225,
    "isti</w>": 2226,
    "ite</w>": 2227,
    "jäi</w>": 2228,
    "ant": 2229,
    "cm</w>": 2230,
    "amm": 2231,
    "maks": 2232,
    "vik": 2233,
    "ia": 2234,
    "kra": 2235,
    "Eh": 2236,
    "autot</w>": 2237,
    "yhte": 2238,
    "lahti</w>": 2239,
    "kuni</w>": 2240,
    "hie": 2241,
    "27</w>": 2242,
    "mies</w>": 2243,
    "uv": 2244,
    "joh": 2245,
    "lamel": 2246,
    "mööda</w>": 2247,
    "tuksen</w>": 2248,
    "võimalik</w>": 2249,
    "pida": 2250,
    "Mina</w>": 2251,
    "Sen</w>": 2252,
    "nakatu": 2253,
    "kko</w>": 2254,
    "yksi</w>": 2255,
    "ysvalta": 2256,
    "tused</w>": 2257,
    "mü": 2258,
    "Venä": 2259,
    "eks</w>": 2260,
    "täy": 2261,
    "ystä</w>": 2262,
    "anne": 2263,
    "dal</w>": 2264,
    "oska": 2265,
    "tunne</w>": 2266,
    "17</w>": 2267,
    "kit": 2268,
    "erim": 2269,
    "paha</w>": 2270,
    "oska</w>": 2271,
    "ara": 2272,
    "naa": 2273,
    "puhu": 2274,
    "säil": 2275,
    "maksu": 2276,
    "pö": 2277,
    "vaja": 2278,
    "tap": 2279,
    "jö": 2280,
    "tit</w>": 2281,
    "pain": 2282,
    "sealt</w>": 2283,
    "albu": 2284,
    "aika</w>": 2285,
    "Kun</w>": 2286,
    "Euroopan</w>": 2287,
    "seid</w>": 2288,
    "ol</w>": 2289,
    "iston</w>": 2290,
    "tojen</w>": 2291,
    "paljon</w>": 2292,
    "ehdo": 2293,
    "juhul</w>": 2294,
    "hden</w>": 2295,
    "gid</w>": 2296,
    "misest</w>": 2297,
    "hyö": 2298,
    "joten</w>": 2299,
    "lainen</w>": 2300,
    "eivät</w>": 2301,
    "idest</w>": 2302,
    "poole</w>": 2303,
    "ub</w>": 2304,
    "alta</w>": 2305,
    "eksa": 2306,
    "ivad</w>": 2307,
    "ees": 2308,
    "one": 2309,
    "än": 2310,
    "sala": 2311,
    "ii</w>": 2312,
    "terve": 2313,
    "udu": 2314,
    "oru": 2315,
    "olo": 2316,
    "hull": 2317,
    "keskus": 2318,
    "vas</w>": 2319,
    "Enn": 2320,
    "inimesi</w>": 2321,
    "meid</w>": 2322,
    "kans": 2323,
    "kilpa": 2324,
    "alaisen</w>": 2325,
    "tynyt</w>": 2326,
    "pidi</w>": 2327,
    "Au": 2328,
    "asju</w>": 2329,
    "Myö": 2330,
    "ruo": 2331,
    "asja": 2332,
    "kust</w>": 2333,
    "üli": 2334,
    "sus</w>": 2335,
    "koi</w>": 2336,
    "mingit</w>": 2337,
    "esiin": 2338,
    "ittanut</w>": 2339,
    "alku": 2340,
    "maailman": 2341,
    "voima": 2342,
    "Uni": 2343,
    "huoma": 2344,
    "võtta</w>": 2345,
    "lased</w>": 2346,
    "umbes</w>": 2347,
    "ikud</w>": 2348,
    "sse</w>": 2349,
    "ibolla</w>": 2350,
    "tuo": 2351,
    "tehtä": 2352,
    "Pohjo": 2353,
    "kiin</w>": 2354,
    "vet": 2355,
    "rahul</w>": 2356,
    "aihe": 2357,
    "äär": 2358,
    "US": 2359,
    "ill": 2360,
    "alg": 2361,
    "versu": 2362,
    "uste</w>": 2363,
    "evi": 2364,
    "nni</w>": 2365,
    "eg": 2366,
    "itsi</w>": 2367,
    "etu": 2368,
    "too</w>": 2369,
    "elan</w>": 2370,
    "vus": 2371,
    "puna": 2372,
    "Ed": 2373,
    "kuva": 2374,
    "määr": 2375,
    "peen": 2376,
    "kaas": 2377,
    "profes": 2378,
    "Ha": 2379,
    "be</w>": 2380,
    "sele": 2381,
    "tavasti</w>": 2382,
    "nis": 2383,
    "29</w>": 2384,
    "ssi</w>": 2385,
    "ministe": 2386,
    "linn": 2387,
    "taa": 2388,
    "fir": 2389,
    "mos": 2390,
    "one</w>": 2391,
    "onne": 2392,
    "pallo": 2393,
    "paar</w>": 2394,
    "riä</w>": 2395,
    "kon</w>": 2396,
    "imme</w>": 2397,
    "teed</w>": 2398,
    "Lisä": 2399,
    "tien</w>": 2400,
    "jutt</w>": 2401,
    "pü": 2402,
    "jal</w>": 2403,
    "mille": 2404,
    "muti</w>": 2405,
    "kuidagi</w>": 2406,
    "eikä</w>": 2407,
    "ilmo": 2408,
    "isel</w>": 2409,
    "sure": 2410,
    "ikkagi</w>": 2411,
    "seur": 2412,
    "koge": 2413,
    "mpi": 2414,
    "üles</w>": 2415,
    "Jumal</w>": 2416,
    "Seda</w>": 2417,
    "lid</w>": 2418,
    "miljoon": 2419,
    "räägi": 2420,
    "koke": 2421,
    "talle</w>": 2422,
    "sina</w>": 2423,
    "nais": 2424,
    "versi": 2425,
    "jus</w>": 2426,
    "17": 2427,
    "matta</w>": 2428,
    "Par": 2429,
    "kit</w>": 2430,
    "istus</w>": 2431,
    "omal": 2432,
    "esi</w>": 2433,
    "lah": 2434,
    "Kr": 2435,
    "22</w>": 2436,
    "pis": 2437,
    "PI": 2438,
    "km</w>": 2439,
    "vid</w>": 2440,
    "pas": 2441,
    "Bo": 2442,
    "too": 2443,
    "ura": 2444,
    "Ri": 2445,
    "kesku": 2446,
    "dan</w>": 2447,
    "mul": 2448,
    "hetkel</w>": 2449,
    "vuoksi</w>": 2450,
    "jota</w>": 2451,
    "viirus</w>": 2452,
    "loka": 2453,
    "juhtu": 2454,
    "päiv": 2455,
    "isyy": 2456,
    "DP</w>": 2457,
    "end</w>": 2458,
    "kien</w>": 2459,
    "alaiset</w>": 2460,
    "vien</w>": 2461,
    "onnistu": 2462,
    "ule</w>": 2463,
    "SDP</w>": 2464,
    "mast</w>": 2465,
    "söö": 2466,
    "juks</w>": 2467,
    "karan": 2468,
    "Kai": 2469,
    "viroloo": 2470,
    "ys</w>": 2471,
    "äkki</w>": 2472,
    "Siis</w>": 2473,
    "julkais": 2474,
    "läks</w>": 2475,
    "onin</w>": 2476,
    "mind</w>": 2477,
    "sinna</w>": 2478,
    "tuse</w>": 2479,
    "vapa": 2480,
    "toinen</w>": 2481,
    "sõb": 2482,
    "matto": 2483,
    "toimi</w>": 2484,
    "muud</w>": 2485,
    "mõt": 2486,
    "isännöitsi": 2487,
    "selleks</w>": 2488,
    "puhul</w>": 2489,
    "teeb</w>": 2490,
    "ottaa</w>": 2491,
    "kuten</w>": 2492,
    "Car": 2493,
    "kontr": 2494,
    "16": 2495,
    "dio": 2496,
    "kolme</w>": 2497,
    "halli": 2498,
    "hat</w>": 2499,
    "Sin": 2500,
    "paran": 2501,
    "seo": 2502,
    "miljar": 2503,
    "vide": 2504,
    "cor": 2505,
    "isik": 2506,
    "him": 2507,
    "juus": 2508,
    "nii": 2509,
    "sia</w>": 2510,
    "reh": 2511,
    "pikku": 2512,
    "sc": 2513,
    "elan": 2514,
    "ry</w>": 2515,
    "metall": 2516,
    "200</w>": 2517,
    "ltä</w>": 2518,
    "mel</w>": 2519,
    "tundub</w>": 2520,
    "myöhemmin</w>": 2521,
    "ilta</w>": 2522,
    "kelle": 2523,
    "ajas</w>": 2524,
    "lisää</w>": 2525,
    "tärke": 2526,
    "täpselt</w>": 2527,
    "Kaija": 2528,
    "asjad</w>": 2529,
    "muka": 2530,
    "vms</w>": 2531,
    "erity": 2532,
    "jäänud</w>": 2533,
    "olle": 2534,
    "vaale": 2535,
    "Ber": 2536,
    "korke": 2537,
    "rian": 2538,
    "puolella</w>": 2539,
    "mien</w>": 2540,
    "vähän</w>": 2541,
    "kolman": 2542,
    "elta</w>": 2543,
    "nt</w>": 2544,
    "juures</w>": 2545,
    "nädala": 2546,
    "Kõ": 2547,
    "ttia</w>": 2548,
    "mees</w>": 2549,
    "kinni</w>": 2550,
    "Nii</w>": 2551,
    "hoop": 2552,
    "näha</w>": 2553,
    "pitää</w>": 2554,
    "tulee</w>": 2555,
    "silta</w>": 2556,
    "vallan</w>": 2557,
    "Vuonna</w>": 2558,
    "vaada": 2559,
    "Lisäksi</w>": 2560,
    "esty": 2561,
    "jolloin</w>": 2562,
    "ast": 2563,
    "IS": 2564,
    "gar": 2565,
    "ikan</w>": 2566,
    "ck": 2567,
    "hinna": 2568,
    "kis</w>": 2569,
    "tse": 2570,
    "EK": 2571,
    "15": 2572,
    "una</w>": 2573,
    "iti</w>": 2574,
    "Uu": 2575,
    "cu": 2576,
    "tra": 2577,
    "pane": 2578,
    "oa</w>": 2579,
    "tasin</w>": 2580,
    "pääs": 2581,
    "een": 2582,
    "jek": 2583,
    "ssa": 2584,
    "valla</w>": 2585,
    "piis": 2586,
    "bus": 2587,
    "uden</w>": 2588,
    "alles</w>": 2589,
    "seura": 2590,
    "lisäksi</w>": 2591,
    "ütles</w>": 2592,
    "seem": 2593,
    "taht": 2594,
    "võt": 2595,
    "Jos</w>": 2596,
    "üri": 2597,
    "niitä</w>": 2598,
    "moot": 2599,
    "telef": 2600,
    "ikin</w>": 2601,
    "masina": 2602,
    "idaan</w>": 2603,
    "Pohjois</w>": 2604,
    "vassa</w>": 2605,
    "tanud</w>": 2606,
    "tehdä</w>": 2607,
    "taha</w>": 2608,
    "sõit": 2609,
    "vän</w>": 2610,
    "viiruse": 2611,
    "lise</w>": 2612,
    "isty": 2613,
    "mid</w>": 2614,
    "sinu</w>": 2615,
    "ringi</w>": 2616,
    "pyö": 2617,
    "olin</w>": 2618,
    "Kah": 2619,
    "Le</w>": 2620,
    "aktiiv": 2621,
    "Pro": 2622,
    "Kor": 2623,
    "ren": 2624,
    "jää</w>": 2625,
    "keel": 2626,
    "lehe": 2627,
    "lis</w>": 2628,
    "olle</w>": 2629,
    "paan": 2630,
    "tun</w>": 2631,
    "anna": 2632,
    "or</w>": 2633,
    "mene</w>": 2634,
    "ex": 2635,
    "emi": 2636,
    "uusi</w>": 2637,
    "rad</w>": 2638,
    "vähen": 2639,
    "plane": 2640,
    "viisi</w>": 2641,
    "tai": 2642,
    "pala": 2643,
    "sas": 2644,
    "Ole": 2645,
    "asti": 2646,
    "Saa": 2647,
    "yli</w>": 2648,
    "tuomi": 2649,
    "neist</w>": 2650,
    "endale</w>": 2651,
    "omis": 2652,
    "lane</w>": 2653,
    "mõel": 2654,
    "ammat": 2655,
    "vate</w>": 2656,
    "akin</w>": 2657,
    "lokakuuta</w>": 2658,
    "sellele</w>": 2659,
    "touko": 2660,
    "jas</w>": 2661,
    "johd": 2662,
    "hele</w>": 2663,
    "hieman</w>": 2664,
    "kysy": 2665,
    "ennast</w>": 2666,
    "kaitse": 2667,
    "täyty": 2668,
    "ete</w>": 2669,
    "vahel</w>": 2670,
    "tull": 2671,
    "lähti": 2672,
    "nda": 2673,
    "reaal": 2674,
    "jien</w>": 2675,
    "tulnud</w>": 2676,
    "195": 2677,
    "näytte": 2678,
    "sijo": 2679,
    "misega</w>": 2680,
    "kuskil": 2681,
    "kyllä</w>": 2682,
    "pealt</w>": 2683,
    "isse</w>": 2684,
    "ettei</w>": 2685,
    "mõte": 2686,
    "ppa</w>": 2687,
    "sun": 2688,
    "ger</w>": 2689,
    "mmi</w>": 2690,
    "euroop": 2691,
    "ome": 2692,
    "Pre": 2693,
    "Jä": 2694,
    "2000</w>": 2695,
    "ino</w>": 2696,
    "kraa": 2697,
    "usku": 2698,
    "jät": 2699,
    "Rau": 2700,
    "avo": 2701,
    "toidu": 2702,
    "teki</w>": 2703,
    "kp": 2704,
    "kpl</w>": 2705,
    "Ka</w>": 2706,
    "sika</w>": 2707,
    "Vene": 2708,
    "her</w>": 2709,
    "ill</w>": 2710,
    "taas</w>": 2711,
    "ris</w>": 2712,
    "pik": 2713,
    "nus</w>": 2714,
    "piiri": 2715,
    "men</w>": 2716,
    "24</w>": 2717,
    "peruste": 2718,
    "kk</w>": 2719,
    "puhe": 2720,
    "voidaan</w>": 2721,
    "eaa</w>": 2722,
    "naan</w>": 2723,
    "jos": 2724,
    "aivan</w>": 2725,
    "vahen": 2726,
    "yhteis": 2727,
    "liselt</w>": 2728,
    "kiiremini</w>": 2729,
    "mmis": 2730,
    "pigem</w>": 2731,
    "isid</w>": 2732,
    "Mikkel": 2733,
    "tyä</w>": 2734,
    "tahaks</w>": 2735,
    "2005</w>": 2736,
    "voitti</w>": 2737,
    "koroona": 2738,
    "ane</w>": 2739,
    "töön</w>": 2740,
    "vuosina</w>": 2741,
    "kad</w>": 2742,
    "ksessa</w>": 2743,
    "tetaan</w>": 2744,
    "vähe</w>": 2745,
    "õpp": 2746,
    "poolt</w>": 2747,
    "seega</w>": 2748,
    "savu": 2749,
    "yllä": 2750,
    "isenä</w>": 2751,
    "kone": 2752,
    "arvan</w>": 2753,
    "Eestis</w>": 2754,
    "jota": 2755,
    "õh": 2756,
    "iseks</w>": 2757,
    "vaali": 2758,
    "sien</w>": 2759,
    "deid</w>": 2760,
    "musi</w>": 2761,
    "Hänen</w>": 2762,
    "hallitsi": 2763,
    "hoopis</w>": 2764,
    "halu": 2765,
    "oh</w>": 2766,
    "süü": 2767,
    "prü": 2768,
    "sodan</w>": 2769,
    "art": 2770,
    "tion</w>": 2771,
    "inka</w>": 2772,
    "aus": 2773,
    "tore": 2774,
    "Tor": 2775,
    "nik": 2776,
    "häir": 2777,
    "pinn": 2778,
    "valla": 2779,
    "ille": 2780,
    "koos": 2781,
    "kuu</w>": 2782,
    "taim": 2783,
    "vanke": 2784,
    "lopu": 2785,
    "vää</w>": 2786,
    "numer": 2787,
    "illis": 2788,
    "vare": 2789,
    "sai": 2790,
    "poli": 2791,
    "tid</w>": 2792,
    "nu</w>": 2793,
    "rek": 2794,
    "linna</w>": 2795,
    "imis": 2796,
    "bin</w>": 2797,
    "of</w>": 2798,
    "les": 2799,
    "lim": 2800,
    "TT": 2801,
    "tes": 2802,
    "hö": 2803,
    "Vir": 2804,
    "ohu": 2805,
    "blo": 2806,
    "rull": 2807,
    "kasutada</w>": 2808,
    "saattaa</w>": 2809,
    "kunta</w>": 2810,
    "gamb": 2811,
    "yliop": 2812,
    "kkä": 2813,
    "kogu": 2814,
    "sisäl": 2815,
    "muuto": 2816,
    "yhtiön</w>": 2817,
    "läinud</w>": 2818,
    "näita": 2819,
    "sõita</w>": 2820,
    "lahen": 2821,
    "täit": 2822,
    "taks</w>": 2823,
    "marras": 2824,
    "ettiin</w>": 2825,
    "sul</w>": 2826,
    "teab</w>": 2827,
    "Muri</w>": 2828,
    "vane": 2829,
    "gil</w>": 2830,
    "nime</w>": 2831,
    "tammi": 2832,
    "käyte": 2833,
    "päeval</w>": 2834,
    "ity": 2835,
    "tulevi": 2836,
    "löyty": 2837,
    "mässä</w>": 2838,
    "hakkab</w>": 2839,
    "tämä</w>": 2840,
    "laaj": 2841,
    "estä": 2842,
    "luvulla</w>": 2843,
    "moodi</w>": 2844,
    "enemmän</w>": 2845,
    "sisse</w>": 2846,
    "omet": 2847,
    "Kuid</w>": 2848,
    "näin</w>": 2849,
    "lann": 2850,
    "inti": 2851,
    "kansa</w>": 2852,
    "kesäkuuta</w>": 2853,
    "Sa</w>": 2854,
    "inä": 2855,
    "jem</w>": 2856,
    "täna</w>": 2857,
    "ehkä</w>": 2858,
    "lähes</w>": 2859,
    "muidu</w>": 2860,
    "viroloog</w>": 2861,
    "emmin</w>": 2862,
    "ongel": 2863,
    "rääkida</w>": 2864,
    "matu</w>": 2865,
    "naat": 2866,
    "ajal": 2867,
    "surma": 2868,
    "26</w>": 2869,
    "elu": 2870,
    "the</w>": 2871,
    "Sil": 2872,
    "oda": 2873,
    "osti</w>": 2874,
    "uur": 2875,
    "eli": 2876,
    "gal": 2877,
    "Maa": 2878,
    "tas": 2879,
    "Nor": 2880,
    "El": 2881,
    "rip": 2882,
    "imo</w>": 2883,
    "imä": 2884,
    "Per": 2885,
    "ksuaal": 2886,
    "musi": 2887,
    "lais": 2888,
    "syy": 2889,
    "eta": 2890,
    "iri": 2891,
    "ras</w>": 2892,
    "tut</w>": 2893,
    "nat</w>": 2894,
    "Lar": 2895,
    "rs": 2896,
    "olevan</w>": 2897,
    "tegelt</w>": 2898,
    "kuju": 2899,
    "Kaik": 2900,
    "tult</w>": 2901,
    "viiruse</w>": 2902,
    "parem</w>": 2903,
    "pool</w>": 2904,
    "oman</w>": 2905,
    "ikk": 2906,
    "lähtien</w>": 2907,
    "insaar": 2908,
    "estaan</w>": 2909,
    "minä</w>": 2910,
    "Mikkelinsaar": 2911,
    "eba": 2912,
    "hallit": 2913,
    "sees</w>": 2914,
    "pin</w>": 2915,
    "ksista</w>": 2916,
    "taga": 2917,
    "Miks</w>": 2918,
    "tetta": 2919,
    "kilomet": 2920,
    "joissa</w>": 2921,
    "olegi</w>": 2922,
    "tund": 2923,
    "muo": 2924,
    "puudu": 2925,
    "ihen</w>": 2926,
    "samas</w>": 2927,
    "toukokuuta</w>": 2928,
    "isele</w>": 2929,
    "En</w>": 2930,
    "Oba": 2931,
    "asse</w>": 2932,
    "täiesti</w>": 2933,
    "luku": 2934,
    "tännö": 2935,
    "luvun</w>": 2936,
    "probleem</w>": 2937,
    "paa</w>": 2938,
    "kud</w>": 2939,
    "arvo": 2940,
    "linen</w>": 2941,
    "jama</w>": 2942,
    "Kaijasilta</w>": 2943,
    "uuteen</w>": 2944,
    "kertaa</w>": 2945,
    "yttää</w>": 2946,
    "iselle</w>": 2947,
    "Või</w>": 2948,
    "jassa</w>": 2949,
    "mitään</w>": 2950,
    "inaMuri</w>": 2951,
    "arvi": 2952,
    "alguse": 2953,
    "PS</w>": 2954,
    "elek": 2955,
    "23</w>": 2956,
    "eva": 2957,
    "osu": 2958,
    "este</w>": 2959,
    "Bur": 2960,
    "puu</w>": 2961,
    "Ori": 2962,
    "sula": 2963,
    "tava</w>": 2964,
    "dista": 2965,
    "taal": 2966,
    "med": 2967,
    "lasi</w>": 2968,
    "by</w>": 2969,
    "sis</w>": 2970,
    "das</w>": 2971,
    "seksuaal": 2972,
    "vel</w>": 2973,
    "onto": 2974,
    "193": 2975,
    "enta": 2976,
    "kast": 2977,
    "ret": 2978,
    "isa</w>": 2979,
    "Lin": 2980,
    "12": 2981,
    "ilusti</w>": 2982,
    "Di": 2983,
    "KU": 2984,
    "70</w>": 2985,
    "vanhe": 2986,
    "gune</w>": 2987,
    "istaan</w>": 2988,
    "hos": 2989,
    "KT": 2990,
    "tööd</w>": 2991,
    "miin</w>": 2992,
    "Rans": 2993,
    "alkoi</w>": 2994,
    "lal</w>": 2995,
    "proov": 2996,
    "itsee</w>": 2997,
    "kid</w>": 2998,
    "mõju": 2999,
    "koolis</w>": 3000,
    "jalla</w>": 3001,
    "mingid</w>": 3002,
    "otte": 3003,
    "riko": 3004,
    "parha": 3005,
    "suol": 3006,
    "ees</w>": 3007,
    "huhti": 3008,
    "tad</w>": 3009,
    "siinä</w>": 3010,
    "jooksu": 3011,
    "huvitav</w>": 3012,
    "kuigi</w>": 3013,
    "käytö": 3014,
    "piisa": 3015,
    "ittää</w>": 3016,
    "kevä": 3017,
    "hakata</w>": 3018,
    "jale</w>": 3019,
    "Myös</w>": 3020,
    "useita</w>": 3021,
    "koa</w>": 3022,
    "sind</w>": 3023,
    "põhj": 3024,
    "uksessa</w>": 3025,
    "laste</w>": 3026,
    "aiemmin</w>": 3027,
    "kil</w>": 3028,
    "tehtud</w>": 3029,
    "alueella</w>": 3030,
    "maalis": 3031,
    "sioon": 3032,
    "jõua": 3033,
    "hin</w>": 3034,
    "piste": 3035,
    "dis</w>": 3036,
    "julka": 3037,
    "välja": 3038,
    "kuningas</w>": 3039,
    "kaht": 3040,
    "ViinaMuri</w>": 3041,
    "Bri": 3042,
    "pelaa": 3043,
    "aikaan</w>": 3044,
    "tegema</w>": 3045,
    "ksy": 3046,
    "sellega</w>": 3047,
    "sotil": 3048,
    "eltä</w>": 3049,
    "deks": 3050,
    "maid</w>": 3051,
    "jooksul</w>": 3052,
    "vim": 3053,
    "hor": 3054,
    "tuna</w>": 3055,
    "Minu": 3056,
    "dri": 3057,
    "edia</w>": 3058,
    "aine": 3059,
    "kyl": 3060,
    "Mon": 3061,
    "Muu": 3062,
    "Tra": 3063,
    "kirjan": 3064,
    "Kol": 3065,
    "katse": 3066,
    "Sar": 3067,
    "ero": 3068,
    "raha": 3069,
    "esta": 3070,
    "ara</w>": 3071,
    "alla": 3072,
    "fa": 3073,
    "tuhan": 3074,
    "idio": 3075,
    "And": 3076,
    "are": 3077,
    "py": 3078,
    "Ris": 3079,
    "posti": 3080,
    "sken": 3081,
    "ikä": 3082,
    "huvi": 3083,
    "Soo": 3084,
    "keis": 3085,
    "Yor": 3086,
    "jopa</w>": 3087,
    "suku": 3088,
    "ile": 3089,
    "taiste": 3090,
    "käyttää</w>": 3091,
    "tilais": 3092,
    "västi</w>": 3093,
    "kaupunki</w>": 3094,
    "hänet</w>": 3095,
    "dust</w>": 3096,
    "osaa</w>": 3097,
    "hallitsi</w>": 3098,
    "heti</w>": 3099,
    "eritud</w>": 3100,
    "dki</w>": 3101,
    "euroa</w>": 3102,
    "jms</w>": 3103,
    "yhden</w>": 3104,
    "muuta": 3105,
    "suor": 3106,
    "usko": 3107,
    "dyn": 3108,
    "aitab</w>": 3109,
    "hyvä</w>": 3110,
    "yhtye</w>": 3111,
    "näky": 3112,
    "teise</w>": 3113,
    "Turu": 3114,
    "osallis": 3115,
    "Mithridateen</w>": 3116,
    "linnas</w>": 3117,
    "perusta": 3118,
    "jäsen": 3119,
    "sain": 3120,
    "mestar": 3121,
    "pitkä": 3122,
    "tuge": 3123,
    "Coq</w>": 3124,
    "Neeme</w>": 3125,
    "terv": 3126,
    "liitty": 3127,
    "õnn": 3128,
    "päeva": 3129,
    "võibolla</w>": 3130,
    "tähen": 3131,
    "Kõik</w>": 3132,
    "teised</w>": 3133,
    "likud</w>": 3134,
    "male</w>": 3135,
    "ven</w>": 3136,
    "Helsingin</w>": 3137,
    "tua</w>": 3138,
    "Need</w>": 3139,
    "tuleks</w>": 3140,
    "kiri</w>": 3141,
    "saanut</w>": 3142,
    "itettiin</w>": 3143,
    "vuor": 3144,
    "Ega</w>": 3145,
    "saad</w>": 3146,
    "naisen</w>": 3147,
    "jia</w>": 3148,
    "gad</w>": 3149,
    "visi": 3150,
    "ainakin</w>": 3151,
    "jalka": 3152,
    "elokuuta</w>": 3153,
    "vallo": 3154,
    "dat</w>": 3155,
    "klo": 3156,
    "jala": 3157,
    "500</w>": 3158,
    "alle": 3159,
    "tim": 3160,
    "For": 3161,
    "07</w>": 3162,
    "vol": 3163,
    "naa</w>": 3164,
    "ER": 3165,
    "nt": 3166,
    "tuken": 3167,
    "Van": 3168,
    "ket</w>": 3169,
    "San": 3170,
    "IM": 3171,
    "ila": 3172,
    "alan</w>": 3173,
    "lise": 3174,
    "zz": 3175,
    "LA": 3176,
    "viin</w>": 3177,
    "kelle</w>": 3178,
    "tean</w>": 3179,
    "kontrol": 3180,
    "hool": 3181,
    "Bel": 3182,
    "2004</w>": 3183,
    "So": 3184,
    "valmi": 3185,
    "ksa</w>": 3186,
    "roo": 3187,
    "kirja</w>": 3188,
    "juuri</w>": 3189,
    "mala</w>": 3190,
    "universu": 3191,
    "hing": 3192,
    "fi": 3193,
    "sir": 3194,
    "alli": 3195,
    "95</w>": 3196,
    "huu": 3197,
    "der</w>": 3198,
    "ali</w>": 3199,
    "je</w>": 3200,
    "sattu": 3201,
    "ar</w>": 3202,
    "jaan</w>": 3203,
    "av": 3204,
    "hh</w>": 3205,
    "puh": 3206,
    "sise": 3207,
    "alka": 3208,
    "miljon": 3209,
    "när": 3210,
    "toista</w>": 3211,
    "yleensä</w>": 3212,
    "kee</w>": 3213,
    "gravita": 3214,
    "vähem</w>": 3215,
    "tetty</w>": 3216,
    "päivän</w>": 3217,
    "töö</w>": 3218,
    "pulta</w>": 3219,
    "neljä": 3220,
    "von</w>": 3221,
    "med</w>": 3222,
    "oita</w>": 3223,
    "perhe": 3224,
    "ymp": 3225,
    "ikkaa</w>": 3226,
    "ivo": 3227,
    "huhtikuuta</w>": 3228,
    "riig": 3229,
    "Nyt</w>": 3230,
    "otti</w>": 3231,
    "aastal</w>": 3232,
    "aikaa</w>": 3233,
    "kuula": 3234,
    "mõned</w>": 3235,
    "alueen</w>": 3236,
    "teks</w>": 3237,
    "ümber</w>": 3238,
    "olul": 3239,
    "julk": 3240,
    "hiljem</w>": 3241,
    "eest": 3242,
    "mmat</w>": 3243,
    "karanti": 3244,
    "käitu": 3245,
    "viime</w>": 3246,
    "vana": 3247,
    "kerran</w>": 3248,
    "voit": 3249,
    "datud</w>": 3250,
    "ttuja</w>": 3251,
    "histori": 3252,
    "Berlus": 3253,
    "näinud</w>": 3254,
    "siia</w>": 3255,
    "allinen</w>": 3256,
    "voitta": 3257,
    "kätte</w>": 3258,
    "keski": 3259,
    "tuses</w>": 3260,
    "ttää</w>": 3261,
    "samuti</w>": 3262,
    "kõike</w>": 3263,
    "sopi": 3264,
    "tullut</w>": 3265,
    "utui</w>": 3266,
    "viga</w>": 3267,
    "laus": 3268,
    "teha": 3269,
    "inkin</w>": 3270,
    "yhtiö": 3271,
    "vuotias</w>": 3272,
    "enää</w>": 3273,
    "eru": 3274,
    "tahes</w>": 3275,
    "Itali": 3276,
    "oin</w>": 3277,
    "kappale": 3278,
    "KTM</w>": 3279,
    "heessa</w>": 3280,
    "isto</w>": 3281,
    "ranga": 3282,
    "sopim": 3283,
    "sijaitsee</w>": 3284,
    "hakkas</w>": 3285,
    "lento": 3286,
    "dele</w>": 3287,
    "kide</w>": 3288,
    "väik": 3289,
    "tto": 3290,
    "rullno": 3291,
    "kuskilt</w>": 3292,
    "kkö": 3293,
    "maasika": 3294,
    "uksia</w>": 3295,
    "suuda</w>": 3296,
    "minema</w>": 3297,
    "Berlusc": 3298,
    "tio</w>": 3299,
    "Kore": 3300,
    "ydo": 3301,
    "pani</w>": 3302,
    "pih": 3303,
    "vul": 3304,
    "Ale": 3305,
    "ela</w>": 3306,
    "Ing": 3307,
    "kuiva": 3308,
    "ona</w>": 3309,
    "2003</w>": 3310,
    "ca</w>": 3311,
    "alia</w>": 3312,
    "seni</w>": 3313,
    "kasta</w>": 3314,
    "De": 3315,
    "Ara": 3316,
    "tehn": 3317,
    "kome": 3318,
    "olevat</w>": 3319,
    "mit</w>": 3320,
    "tutta": 3321,
    "viin": 3322,
    "Rat": 3323,
    "ksena</w>": 3324,
    "vastus": 3325,
    "dit</w>": 3326,
    "väli": 3327,
    "Gor": 3328,
    "Ti": 3329,
    "nia</w>": 3330,
    "vaal": 3331,
    "sas</w>": 3332,
    "koja</w>": 3333,
    "tre": 3334,
    "uus": 3335,
    "edes</w>": 3336,
    "Im": 3337,
    "raho": 3338,
    "Samas</w>": 3339,
    "alue": 3340,
    "kul</w>": 3341,
    "din</w>": 3342,
    "inan</w>": 3343,
    "punkti</w>": 3344,
    "katso": 3345,
    "inimest</w>": 3346,
    "Tapa": 3347,
    "jõud": 3348,
    "kiiruse": 3349,
    "tsioon</w>": 3350,
    "valke": 3351,
    "liku</w>": 3352,
    "lähte": 3353,
    "perin</w>": 3354,
    "kymmen": 3355,
    "essaan</w>": 3356,
    "kiinn": 3357,
    "sukka": 3358,
    "Vasu": 3359,
    "idele</w>": 3360,
    "196": 3361,
    "neile</w>": 3362,
    "hob": 3363,
    "kõik": 3364,
    "neuv": 3365,
    "tulevad</w>": 3366,
    "aju</w>": 3367,
    "istab</w>": 3368,
    "paljud</w>": 3369,
    "polnud</w>": 3370,
    "ensimmäinen</w>": 3371,
    "lopulta</w>": 3372,
    "jate</w>": 3373,
    "noh</w>": 3374,
    "tavalla</w>": 3375,
    "tegu</w>": 3376,
    "sijaitse": 3377,
    "Albu": 3378,
    "õr": 3379,
    "muutub</w>": 3380,
    "käytännö": 3381,
    "kaasa</w>": 3382,
    "võe": 3383,
    "astaan</w>": 3384,
    "näkö": 3385,
    "ustada</w>": 3386,
    "sellise</w>": 3387,
    "jõu": 3388,
    "tettu</w>": 3389,
    "Jah</w>": 3390,
    "fooru": 3391,
    "vaadata</w>": 3392,
    "hoia": 3393,
    "dades</w>": 3394,
    "Ehk</w>": 3395,
    "tulo": 3396,
    "its": 3397,
    "Tun": 3398,
    "korras</w>": 3399,
    "dad</w>": 3400,
    "tammikuuta</w>": 3401,
    "aju": 3402,
    "Selle</w>": 3403,
    "samalla</w>": 3404,
    "enud</w>": 3405,
    "marraskuuta</w>": 3406,
    "gelt</w>": 3407,
    "did</w>": 3408,
    "keva": 3409,
    "tänyt</w>": 3410,
    "seuraa": 3411,
    "1000</w>": 3412,
    "vuoteen</w>": 3413,
    "julge</w>": 3414,
    "jaksi</w>": 3415,
    "misesta</w>": 3416,
    "ilmes": 3417,
    "kindel</w>": 3418,
    "hed</w>": 3419,
    "Ny": 3420,
    "nope": 3421,
    "lihtsa": 3422,
    "käest</w>": 3423,
    "siihen</w>": 3424,
    "ksiin</w>": 3425,
    "nuid</w>": 3426,
    "tällä</w>": 3427,
    "heidän</w>": 3428,
    "josta</w>": 3429,
    "pois</w>": 3430,
    "son</w>": 3431,
    "perin": 3432,
    "son": 3433,
    "ved": 3434,
    "maitse": 3435,
    "inimese</w>": 3436,
    "ensimmäisen</w>": 3437,
    "inimeste": 3438,
    "immä": 3439,
    "nsa</w>": 3440,
    "dagi</w>": 3441,
    "sead": 3442,
    "ottelu": 3443,
    "üs": 3444,
    "hosro": 3445,
    "mure": 3446,
    "aine</w>": 3447,
    "TA": 3448,
    "teksti</w>": 3449,
    "ros": 3450,
    "sep": 3451,
    "laul": 3452,
    "dia</w>": 3453,
    "aste</w>": 3454,
    "700</w>": 3455,
    "uden": 3456,
    "esu": 3457,
    "isla": 3458,
    "ts": 3459,
    "Mat": 3460,
    "kum": 3461,
    "kadu": 3462,
    "osake": 3463,
    "Un": 3464,
    "Mer": 3465,
    "Me</w>": 3466,
    "lähi": 3467,
    "tika": 3468,
    "täh": 3469,
    "ang": 3470,
    "Bla": 3471,
    "ppu</w>": 3472,
    "ustus</w>": 3473,
    "aus</w>": 3474,
    "seer": 3475,
    "Oma</w>": 3476,
    "vaat": 3477,
    "nal": 3478,
    "vene</w>": 3479,
    "ps</w>": 3480,
    "kana": 3481,
    "hoita": 3482,
    "Aja": 3483,
    "kann": 3484,
    "tar</w>": 3485,
    "Nu": 3486,
    "Pää": 3487,
    "emme</w>": 3488,
    "otto": 3489,
    "sivat</w>": 3490,
    "nn</w>": 3491,
    "beri": 3492,
    "Wil": 3493,
    "tion": 3494,
    "Tartu</w>": 3495,
    "valmista": 3496,
    "New</w>": 3497,
    "antud</w>": 3498,
    "Vuod": 3499,
    "kuulnud</w>": 3500,
    "tusi</w>": 3501,
    "olleet</w>": 3502,
    "käyttöön</w>": 3503,
    "tasu": 3504,
    "toimitus": 3505,
    "hien": 3506,
    "järvi</w>": 3507,
    "kaudella</w>": 3508,
    "ksissa</w>": 3509,
    "määrä</w>": 3510,
    "taga</w>": 3511,
    "sellised</w>": 3512,
    "Kunin": 3513,
    "tilan": 3514,
    "nainen</w>": 3515,
    "isella</w>": 3516,
    "suomalainen</w>": 3517,
    "Kes</w>": 3518,
    "Hiin": 3519,
    "jääb</w>": 3520,
    "kian</w>": 3521,
    "ton</w>": 3522,
    "biviroloog</w>": 3523,
    "päästä</w>": 3524,
    "aad": 3525,
    "tästä</w>": 3526,
    "kaudu</w>": 3527,
    "täis</w>": 3528,
    "toisen</w>": 3529,
    "kuskil</w>": 3530,
    "liigub</w>": 3531,
    "tivat</w>": 3532,
    "vak": 3533,
    "üles": 3534,
    "Ennist</w>": 3535,
    "tuua</w>": 3536,
    "Pärtel</w>": 3537,
    "tila</w>": 3538,
    "nomad</w>": 3539,
    "valmen": 3540,
    "tunte": 3541,
    "uuesti</w>": 3542,
    "teda</w>": 3543,
    "ttanut</w>": 3544,
    "lihtne</w>": 3545,
    "ineen</w>": 3546,
    "mõtet</w>": 3547,
    "miseksi</w>": 3548,
    "lema</w>": 3549,
    "muita</w>": 3550,
    "ilen</w>": 3551,
    "ppuun</w>": 3552,
    "rakenne": 3553,
    "ölj": 3554,
    "linnan</w>": 3555,
    "ottel": 3556,
    "tüü": 3557,
    "lõpuks</w>": 3558,
    "oissa</w>": 3559,
    "asiassa</w>": 3560,
    "varem</w>": 3561,
    "talous": 3562,
    "Ise</w>": 3563,
    "suunn": 3564,
    "maal</w>": 3565,
    "kodus</w>": 3566,
    "palun</w>": 3567,
    "õppe": 3568,
    "osan</w>": 3569,
    "jumal</w>": 3570,
    "vaiheessa</w>": 3571,
    "imen</w>": 3572,
    "Kahjuks</w>": 3573,
    "juttu</w>": 3574,
    "ede</w>": 3575,
    "oista</w>": 3576,
    "maailmas</w>": 3577,
    "rou": 3578,
    "telefon": 3579,
    "kkaa</w>": 3580,
    "päivä</w>": 3581,
    "ilija</w>": 3582,
    "pohjo": 3583,
    "ilman</w>": 3584,
    "veeb": 3585,
    "valguse": 3586,
    "vaike": 3587,
    "tav</w>": 3588,
    "ällä</w>": 3589,
    "kerta": 3590,
    "johon</w>": 3591,
    "alkaa</w>": 3592,
    "nkaan</w>": 3593,
    "Hobiviroloog</w>": 3594,
    "Tš": 3595,
    "poja</w>": 3596,
    "pau": 3597,
    "häiri": 3598,
    "rii": 3599,
    "alun</w>": 3600,
    "dar": 3601,
    "mikro": 3602,
    "ong</w>": 3603,
    "demo": 3604,
    "and</w>": 3605,
    "35</w>": 3606,
    "Til": 3607,
    "Vaa": 3608,
    "trans": 3609,
    "mper": 3610,
    "sing": 3611,
    "valite": 3612,
    "rk": 3613,
    "otsin</w>": 3614,
    "istan</w>": 3615,
    "organ": 3616,
    "tah": 3617,
    "vara</w>": 3618,
    "VI": 3619,
    "ken</w>": 3620,
    "mina": 3621,
    "aste": 3622,
    "Kaa": 3623,
    "angu": 3624,
    "55</w>": 3625,
    "seen": 3626,
    "ppal": 3627,
    "ksu</w>": 3628,
    "inas": 3629,
    "85</w>": 3630,
    "th": 3631,
    "stu": 3632,
    "lu</w>": 3633,
    "Saksa": 3634,
    "psi": 3635,
    "Pä": 3636,
    "bli": 3637,
    "nian</w>": 3638,
    "velj": 3639,
    "parem": 3640,
    "Ste": 3641,
    "hoid": 3642,
    "yks": 3643,
    "see": 3644,
    "usun</w>": 3645,
    "tosi</w>": 3646,
    "säh": 3647,
    "nd</w>": 3648,
    "mate</w>": 3649,
    "gri": 3650,
    "vanu": 3651,
    "oleme</w>": 3652,
    "tussu</w>": 3653,
    "missa</w>": 3654,
    "poika": 3655,
    "ajast</w>": 3656,
    "jotain</w>": 3657,
    "löyd": 3658,
    "suurem</w>": 3659,
    "rajo": 3660,
    "harjo": 3661,
    "õlu</w>": 3662,
    "Ardu": 3663,
    "iseid</w>": 3664,
    "mällä</w>": 3665,
    "prosen": 3666,
    "inta</w>": 3667,
    "külva": 3668,
    "joukko": 3669,
    "senaat": 3670,
    "toot": 3671,
    "merkittä": 3672,
    "raske</w>": 3673,
    "yä</w>": 3674,
    "suurim": 3675,
    "hyvää</w>": 3676,
    "pandud</w>": 3677,
    "pp</w>": 3678,
    "lähevad</w>": 3679,
    "käib</w>": 3680,
    "erityisesti</w>": 3681,
    "puolestaan</w>": 3682,
    "muut</w>": 3683,
    "politi": 3684,
    "vajal": 3685,
    "ises</w>": 3686,
    "päivää</w>": 3687,
    "osassa</w>": 3688,
    "prin": 3689,
    "joista</w>": 3690,
    "lisesti</w>": 3691,
    "enkin</w>": 3692,
    "eesti</w>": 3693,
    "meeldi": 3694,
    "yhdysvalta": 3695,
    "mused</w>": 3696,
    "salaat": 3697,
    "Vasur</w>": 3698,
    "sureb</w>": 3699,
    "annab</w>": 3700,
    "Üks</w>": 3701,
    "toimitta": 3702,
    "Ruots": 3703,
    "pyr": 3704,
    "kylä": 3705,
    "kao": 3706,
    "yksity": 3707,
    "keha</w>": 3708,
    "koht</w>": 3709,
    "aisia</w>": 3710,
    "orgi": 3711,
    "nda</w>": 3712,
    "Isä": 3713,
    "olta</w>": 3714,
    "hele": 3715,
    "igal</w>": 3716,
    "kunnassa</w>": 3717,
    "kuninkaan</w>": 3718,
    "egu</w>": 3719,
    "ympär": 3720,
    "kond</w>": 3721,
    "Nyky": 3722,
    "tunut</w>": 3723,
    "tutkin": 3724,
    "saavad</w>": 3725,
    "kood": 3726,
    "Äkki</w>": 3727,
    "uks</w>": 3728,
    "neil</w>": 3729,
    "naine</w>": 3730,
    "teinud</w>": 3731,
    "kuitenkaan</w>": 3732,
    "ttuna</w>": 3733,
    "työsken": 3734,
    "miehen</w>": 3735,
    "vaks</w>": 3736,
    "Kuidas</w>": 3737,
    "perustu": 3738,
    "luba": 3739,
    "yhdeks": 3740,
    "lennu": 3741,
    "Minu</w>": 3742,
    "presidentin</w>": 3743,
    "kasuta": 3744,
    "süste": 3745,
    "Ta</w>": 3746,
    "dil</w>": 3747,
    "sipel": 3748,
    "täitsa</w>": 3749,
    "paanika": 3750,
    "naga</w>": 3751,
    "Sell": 3752,
    "1990</w>": 3753,
    "line</w>": 3754,
    "mielen": 3755,
    "Espan": 3756,
    "ess</w>": 3757,
    "lat</w>": 3758,
    "gan</w>": 3759,
    "ler</w>": 3760,
    "alist": 3761,
    "osi</w>": 3762,
    "Kur": 3763,
    "ull": 3764,
    "ennu": 3765,
    "wa": 3766,
    "ius</w>": 3767,
    "kesi</w>": 3768,
    "per</w>": 3769,
    "korja": 3770,
    "anna</w>": 3771,
    "imu": 3772,
    "oke": 3773,
    "tš": 3774,
    "66</w>": 3775,
    "XX": 3776,
    "Hol": 3777,
    "koe": 3778,
    "klaa": 3779,
    "81</w>": 3780,
    "sti": 3781,
    "port": 3782,
    "Oli</w>": 3783,
    "AT": 3784,
    "radi": 3785,
    "maja": 3786,
    "täht": 3787,
    "rate</w>": 3788,
    "pas</w>": 3789,
    "oto</w>": 3790,
    "siiv": 3791,
    "suuri</w>": 3792,
    "kään": 3793,
    "Ain": 3794,
    "näe</w>": 3795,
    "Kon": 3796,
    "pere": 3797,
    "Tule": 3798,
    "imo": 3799,
    "tarv": 3800,
    "lee</w>": 3801,
    "varu": 3802,
    "ikassa</w>": 3803,
    "tomaa": 3804,
    "pra": 3805,
    "lek": 3806,
    "maailma</w>": 3807,
    "uri": 3808,
    "nti</w>": 3809,
    "san</w>": 3810,
    "Et</w>": 3811,
    "1985</w>": 3812,
    "rg": 3813,
    "Rock</w>": 3814,
    "Gu": 3815,
    "stru": 3816,
    "inv": 3817,
    "albumi</w>": 3818,
    "välillä</w>": 3819,
    "Ensi": 3820,
    "heinä": 3821,
    "vier": 3822,
    "süs": 3823,
    "mets": 3824,
    "ttyä</w>": 3825,
    "tarkoittaa</w>": 3826,
    "jotta</w>": 3827,
    "kahd": 3828,
    "yhtyeen</w>": 3829,
    "kahe</w>": 3830,
    "ässä</w>": 3831,
    "veidi</w>": 3832,
    "mitu</w>": 3833,
    "rite</w>": 3834,
    "Mida</w>": 3835,
    "nousi</w>": 3836,
    "arin</w>": 3837,
    "takia</w>": 3838,
    "päin</w>": 3839,
    "antaina</w>": 3840,
    "hava": 3841,
    "pakko</w>": 3842,
    "lia</w>": 3843,
    "riik": 3844,
    "minua</w>": 3845,
    "tegu": 3846,
    "ät</w>": 3847,
    "kiinteis": 3848,
    "masin</w>": 3849,
    "mättä</w>": 3850,
    "kehittä": 3851,
    "epäil": 3852,
    "ksella</w>": 3853,
    "gissä</w>": 3854,
    "lausa</w>": 3855,
    "mõni</w>": 3856,
    "Nüüd</w>": 3857,
    "inglise</w>": 3858,
    "Kül": 3859,
    "taka": 3860,
    "jaid</w>": 3861,
    "kansan": 3862,
    "dus": 3863,
    "tiet": 3864,
    "mosle": 3865,
    "tutkim": 3866,
    "ammatti": 3867,
    "muutu": 3868,
    "ttis</w>": 3869,
    "koju</w>": 3870,
    "vaksi</w>": 3871,
    "mine": 3872,
    "Prae": 3873,
    "d2": 3874,
    "Ete": 3875,
    "kulttu": 3876,
    "tuu</w>": 3877,
    "imel": 3878,
    "vaba": 3879,
    "juo": 3880,
    "kiinni</w>": 3881,
    "dellis": 3882,
    "Iberi": 3883,
    "hallin": 3884,
    "hoon": 3885,
    "esiinty": 3886,
    "iskel": 3887,
    "Imre</w>": 3888,
    "enese": 3889,
    "Rf": 3890,
    "tote": 3891,
    "valta</w>": 3892,
    "ksiä</w>": 3893,
    "vae": 3894,
    "uttaa</w>": 3895,
    "vy": 3896,
    "televisi": 3897,
    "pä</w>": 3898,
    "sijaan</w>": 3899,
    "suure</w>": 3900,
    "ühe": 3901,
    "kerro": 3902,
    "iten</w>": 3903,
    "peal": 3904,
    "mikä</w>": 3905,
    "aamu": 3906,
    "aaegu</w>": 3907,
    "Yhdysvalta": 3908,
    "tö</w>": 3909,
    "ensa</w>": 3910,
    "laula": 3911,
    "inimeste</w>": 3912,
    "aksi</w>": 3913,
    "poleks</w>": 3914,
    "ütleb</w>": 3915,
    "jälleen</w>": 3916,
    "järjeste": 3917,
    "süstee": 3918,
    "tänään</w>": 3919,
    "teoo": 3920,
    "võtte": 3921,
    "kansallis": 3922,
    "ainu": 3923,
    "xz</w>": 3924,
    "kö</w>": 3925,
    "isemmin</w>": 3926,
    "jolla</w>": 3927,
    "tässä</w>": 3928,
    "kierro": 3929,
    "pitäisi</w>": 3930,
    "dä</w>": 3931,
    "isest</w>": 3932,
    "vuodesta</w>": 3933,
    "asemel</w>": 3934,
    "joita</w>": 3935,
    "vyy": 3936,
    "kasu</w>": 3937,
    "kodan": 3938,
    "viirust</w>": 3939,
    "tuhat</w>": 3940,
    "nnu": 3941,
    "sori</w>": 3942,
    "ky</w>": 3943,
    "sho": 3944,
    "kirjal": 3945,
    "pu</w>": 3946,
    "tulen</w>": 3947,
    "minut</w>": 3948,
    "Ol": 3949,
    "idan</w>": 3950,
    "37</w>": 3951,
    "saks": 3952,
    "Be": 3953,
    "sö": 3954,
    "ilo": 3955,
    "saata": 3956,
    "Fin": 3957,
    "Yo": 3958,
    "puhta": 3959,
    "aka": 3960,
    "alda": 3961,
    "01</w>": 3962,
    "83</w>": 3963,
    "piira": 3964,
    "teo": 3965,
    "bal": 3966,
    "300</w>": 3967,
    "Teh": 3968,
    "fan": 3969,
    "ath</w>": 3970,
    "og": 3971,
    "fi</w>": 3972,
    "Kul": 3973,
    "ap": 3974,
    "teta</w>": 3975,
    "reis": 3976,
    "ola</w>": 3977,
    "Ost": 3978,
    "tii": 3979,
    "mes</w>": 3980,
    "Te</w>": 3981,
    "raan</w>": 3982,
    "teet</w>": 3983,
    "mma": 3984,
    "tw": 3985,
    "Kre": 3986,
    "kohti</w>": 3987,
    "riar": 3988,
    "rus": 3989,
    "Musta": 3990,
    "ilu</w>": 3991,
    "lase": 3992,
    "tse</w>": 3993,
    "uta": 3994,
    "Vii": 3995,
    "des": 3996,
    "muu</w>": 3997,
    "Lau": 3998,
    "simu": 3999,
    "don": 4000,
    "vene": 4001,
    "etil": 4002,
    "ore</w>": 4003,
    "net</w>": 4004,
    "uun": 4005,
    "komen": 4006,
    "ds</w>": 4007,
    "dee": 4008,
    "III</w>": 4009,
    "anin</w>": 4010,
    "vo</w>": 4011,
    "vaar": 4012,
    "meet": 4013,
    "aato": 4014,
    "Joh": 4015,
    "hus</w>": 4016,
    "õpeta": 4017,
    "puolelle</w>": 4018,
    "ov</w>": 4019,
    "sust</w>": 4020,
    "sõna</w>": 4021,
    "maaliskuuta</w>": 4022,
    "mised</w>": 4023,
    "kiiresti</w>": 4024,
    "ritsi": 4025,
    "tähele": 4026,
    "teiste": 4027,
    "sainvälis": 4028,
    "Kü": 4029,
    "duse</w>": 4030,
    "muiden</w>": 4031,
    "tuste</w>": 4032,
    "kunta": 4033,
    "yhdisty": 4034,
    "mõne</w>": 4035,
    "numb": 4036,
    "nael": 4037,
    "Obama</w>": 4038,
    "sivät</w>": 4039,
    "siellä</w>": 4040,
    "käytettiin</w>": 4041,
    "Ge": 4042,
    "Saare": 4043,
    "llö": 4044,
    "kõrvale</w>": 4045,
    "myön": 4046,
    "ensin</w>": 4047,
    "sellel</w>": 4048,
    "neb</w>": 4049,
    "edel": 4050,
    "eelmine</w>": 4051,
    "minge": 4052,
    "geks</w>": 4053,
    "vähin": 4054,
    "valitsus</w>": 4055,
    "kosmo": 4056,
    "63</w>": 4057,
    "Tapahtu": 4058,
    "joukkue": 4059,
    "Åke": 4060,
    "ksien</w>": 4061,
    "vaktsi": 4062,
    "maailman</w>": 4063,
    "Vo": 4064,
    "ytti</w>": 4065,
    "aadres": 4066,
    "miski</w>": 4067,
    "ampu": 4068,
    "võimalus</w>": 4069,
    "kuoli</w>": 4070,
    "jaks": 4071,
    "räägib</w>": 4072,
    "julkaistiin</w>": 4073,
    "alkuperä": 4074,
    "eriko": 4075,
    "perus": 4076,
    "d2xz</w>": 4077,
    "used</w>": 4078,
    "kõl": 4079,
    "pyy": 4080,
    "Britan": 4081,
    "alguses</w>": 4082,
    "voin</w>": 4083,
    "Maan</w>": 4084,
    "2001</w>": 4085,
    "peaaegu</w>": 4086,
    "mmär": 4087,
    "varsin": 4088,
    "kohale</w>": 4089,
    "nõu": 4090,
    "võit": 4091,
    "õitse": 4092,
    "erä": 4093,
    "hto</w>": 4094,
    "vase": 4095,
    "Iran": 4096,
    "Iga": 4097,
    "tundus</w>": 4098,
    "kiek": 4099,
    "kuningas": 4100,
    "täis": 4101,
    "vus</w>": 4102,
    "kokku": 4103,
    "uudel": 4104,
    "näytteli": 4105,
    "kkin": 4106,
    "kirjoitta": 4107,
    "lisaks</w>": 4108,
    "parim</w>": 4109,
    "voimakka": 4110,
    "sivu": 4111,
    "YL": 4112,
    "Arabi": 4113,
    "äänesty": 4114,
    "kaikkien</w>": 4115,
    "MW</w>": 4116,
    "meidän</w>": 4117,
    "Isännö": 4118,
    "hänel": 4119,
    "Ranskan</w>": 4120,
    "hakkama</w>": 4121,
    "sille</w>": 4122,
    "jast</w>": 4123,
    "Tämän</w>": 4124,
    "hty</w>": 4125,
    "paikallis": 4126,
    "lähen</w>": 4127,
    "syys": 4128,
    "kuinka</w>": 4129,
    "tuomit": 4130,
    "otus": 4131,
    "poliitt": 4132,
    "ilta": 4133,
    "entinen</w>": 4134,
    "hü": 4135,
    "vissa</w>": 4136,
    "ammu</w>": 4137,
    "Ensimmä": 4138,
    "joiden</w>": 4139,
    "dynasti": 4140,
    "Risper": 4141,
    "danud</w>": 4142,
    "puheen": 4143,
    "neljä</w>": 4144,
    "antaa</w>": 4145,
    "pelasi</w>": 4146,
    "millest</w>": 4147,
    "ikese": 4148,
    "isega</w>": 4149,
    "Selle": 4150,
    "kkien</w>": 4151,
    "sota": 4152,
    "eksper": 4153,
    "töä</w>": 4154,
    "davad</w>": 4155,
    "anda</w>": 4156,
    "sosi": 4157,
    "aja</w>": 4158,
    "vab": 4159,
    "Venäjän</w>": 4160,
    "huon": 4161,
    "etelä": 4162,
    "piisavalt</w>": 4163,
    "insa</w>": 4164,
    "ymmär": 4165,
    "bas": 4166,
    "iha": 4167,
    "tunnista": 4168,
    "ltu": 4169,
    "lam": 4170,
    "Chr": 4171,
    "Je": 4172,
    "iu": 4173,
    "eter</w>": 4174,
    "organis": 4175,
    "Do": 4176,
    "tik</w>": 4177,
    "suru": 4178,
    "mod": 4179,
    "lii": 4180,
    "gener": 4181,
    "ava</w>": 4182,
    "väh": 4183,
    "Vil": 4184,
    "katse</w>": 4185,
    "aita</w>": 4186,
    "ginaal": 4187,
    "gatiiv": 4188,
    "Sama</w>": 4189,
    "terna": 4190,
    "ES</w>": 4191,
    "Za": 4192,
    "mo</w>": 4193,
    "kotil": 4194,
    "kumm": 4195,
    "stan": 4196,
    "tihe": 4197,
    "sun</w>": 4198,
    "pse": 4199,
    "Taval": 4200,
    "Mic": 4201,
    "olen": 4202,
    "SE": 4203,
    "osin</w>": 4204,
    "oleva</w>": 4205,
    "sto": 4206,
    "PIK": 4207,
    "ant</w>": 4208,
    "75</w>": 4209,
    "negatiiv": 4210,
    "htt": 4211,
    "Han": 4212,
    "Loo": 4213,
    "ly": 4214,
    "dim": 4215,
    "gne": 4216,
    "isti": 4217,
    "Osa</w>": 4218,
    "vali": 4219,
    "death</w>": 4220,
    "Tul": 4221,
    "th</w>": 4222,
    "sek": 4223,
    "56</w>": 4224,
    "ter</w>": 4225,
    "raja": 4226,
    "yri": 4227,
    "ür": 4228,
    "kommu": 4229,
    "nis</w>": 4230,
    "pon": 4231,
    "bil": 4232,
    "ph": 4233,
    "viis": 4234,
    "USA</w>": 4235,
    "valmistu": 4236,
    "mma</w>": 4237,
    "hävi": 4238,
    "HL</w>": 4239,
    "posi": 4240,
    "Hil": 4241,
    "tro": 4242,
    "Hen": 4243,
    "aino": 4244,
    "ylim": 4245,
    "ned</w>": 4246,
    "kommenta": 4247,
    "dia": 4248,
    "kosta</w>": 4249,
    "aren": 4250,
    "hommi": 4251,
    "ttava</w>": 4252,
    "ice</w>": 4253,
    "villa</w>": 4254,
    "Mc": 4255,
    "kkil": 4256,
    "sään</w>": 4257,
    "Yhdys": 4258,
    "keutu": 4259,
    "todella</w>": 4260,
    "puolue": 4261,
    "Tamm": 4262,
    "rohel": 4263,
    "häpe": 4264,
    "teeksi</w>": 4265,
    "bki</w>": 4266,
    "tehni": 4267,
    "peagi</w>": 4268,
    "liian</w>": 4269,
    "ikki": 4270,
    "loll</w>": 4271,
    "Mies</w>": 4272,
    "laista</w>": 4273,
    "alaisten</w>": 4274,
    "ilme": 4275,
    "liike": 4276,
    "ukan</w>": 4277,
    "ab</w>": 4278,
    "ppä": 4279,
    "kiä</w>": 4280,
    "osas</w>": 4281,
    "kaupan</w>": 4282,
    "kump": 4283,
    "mman</w>": 4284,
    "valiku": 4285,
    "tiete": 4286,
    "löy": 4287,
    "niiden</w>": 4288,
    "tulemus</w>": 4289,
    "kodu": 4290,
    "teho": 4291,
    "jõuab</w>": 4292,
    "tõttu</w>": 4293,
    "ottelussa</w>": 4294,
    "meni</w>": 4295,
    "Miksi</w>": 4296,
    "kahju</w>": 4297,
    "leida</w>": 4298,
    "valo": 4299,
    "nuor": 4300,
    "vam</w>": 4301,
    "joku</w>": 4302,
    "syntyi</w>": 4303,
    "leid": 4304,
    "autosid</w>": 4305,
    "pidevalt</w>": 4306,
    "dama</w>": 4307,
    "syyskuuta</w>": 4308,
    "avu": 4309,
    "lad</w>": 4310,
    "ystävä": 4311,
    "sähkö": 4312,
    "oht": 4313,
    "peavad</w>": 4314,
    "jalle</w>": 4315,
    "elämä": 4316,
    "isestä</w>": 4317,
    "pyörä": 4318,
    "ame": 4319,
    "isivat</w>": 4320,
    "vansa</w>": 4321,
    "Ise": 4322,
    "venä": 4323,
    "Mää": 4324,
    "lannin</w>": 4325,
    "voim": 4326,
    "yksiä</w>": 4327,
    "elus</w>": 4328,
    "rõ": 4329,
    "joutui</w>": 4330,
    "oikeus": 4331,
    "infot</w>": 4332,
    "kiinteistö": 4333,
    "ilt</w>": 4334,
    "nagu": 4335,
    "ottanut</w>": 4336,
    "mala": 4337,
    "sassan": 4338,
    "niisa": 4339,
    "palo": 4340,
    "ilus": 4341,
    "lähd": 4342,
    "Työ": 4343,
    "kast</w>": 4344,
    "sor</w>": 4345,
    "valtio": 4346,
    "psy": 4347,
    "Vim": 4348,
    "400</w>": 4349,
    "pulit</w>": 4350,
    "kylj": 4351,
    "õigesti</w>": 4352,
    "palkin": 4353,
    "ostoliit": 4354,
    "kellegi</w>": 4355,
    "niisama</w>": 4356,
    "polegi</w>": 4357,
    "vähintään</w>": 4358,
    "tehty</w>": 4359,
    "isessä</w>": 4360,
    "muse</w>": 4361,
    "kedagi</w>": 4362,
    "hoida</w>": 4363,
    "uuksia</w>": 4364,
    "siirtyi</w>": 4365,
    "kertoo</w>": 4366,
    "oodata</w>": 4367,
    "mättö": 4368,
    "kossa</w>": 4369,
    "ustest</w>": 4370,
    "telee</w>": 4371,
    "ulos</w>": 4372,
    "saman": 4373,
    "teore": 4374,
    "eseen</w>": 4375,
    "tiedos": 4376,
    "deksi</w>": 4377,
    "karantiini</w>": 4378,
    "ttavasti</w>": 4379,
    "päätty": 4380,
    "ppado": 4381,
    "rääki": 4382,
    "uue</w>": 4383,
    "Meil</w>": 4384,
    "arvamus</w>": 4385,
    "saakka</w>": 4386,
    "paremini</w>": 4387,
    "kone</w>": 4388,
    "oskab</w>": 4389,
    "pakku": 4390,
    "Siin</w>": 4391,
    "investe": 4392,
    "Neuv": 4393,
    "homme</w>": 4394,
    "teist</w>": 4395,
    "juht": 4396,
    "ttain</w>": 4397,
    "ostaa</w>": 4398,
    "ksessä</w>": 4399,
    "küsimus</w>": 4400,
    "stään</w>": 4401,
    "f4</w>": 4402,
    "valguse</w>": 4403,
    "sõidu": 4404,
    "viimasel</w>": 4405,
    "etti</w>": 4406,
    "ehdollis": 4407,
    "Kappado": 4408,
    "aat": 4409,
    "Poli": 4410,
    "füüsi": 4411,
    "yhteyd": 4412,
    "oiden</w>": 4413,
    "miä</w>": 4414,
    "desse</w>": 4415,
    "lähe</w>": 4416,
    "mingeid</w>": 4417,
    "kohd": 4418,
    "pöö": 4419,
    "Keski</w>": 4420,
    "allisesti</w>": 4421,
    "omaan</w>": 4422,
    "Vaikka</w>": 4423,
    "sõnu": 4424,
    "tella</w>": 4425,
    "järje": 4426,
    "istä": 4427,
    "mäle": 4428,
    "kasvuhoon": 4429,
    "üsna</w>": 4430,
    "vend</w>": 4431,
    "nagunii</w>": 4432,
    "bel": 4433,
    "yo": 4434,
    "roc": 4435,
    "nur": 4436,
    "2002</w>": 4437,
    "sammu": 4438,
    "mei": 4439,
    "kompon": 4440,
    "tena</w>": 4441,
    "anal": 4442,
    "ight": 4443,
    "99</w>": 4444,
    "viit": 4445,
    "vala": 4446,
    "ple": 4447,
    "EU</w>": 4448,
    "84</w>": 4449,
    "bla": 4450,
    "ger": 4451,
    "Euro": 4452,
    "äs": 4453,
    "tot</w>": 4454,
    "hetke": 4455,
    "rock</w>": 4456,
    "ider</w>": 4457,
    "ija</w>": 4458,
    "Del": 4459,
    "der": 4460,
    "rist": 4461,
    "kolm": 4462,
    "bit": 4463,
    "inter": 4464,
    "Vas": 4465,
    "jään</w>": 4466,
    "All": 4467,
    "Da": 4468,
    "tii</w>": 4469,
    "ostan</w>": 4470,
    "itan</w>": 4471,
    "mö": 4472,
    "klassi": 4473,
    "viid": 4474,
    "automaa": 4475,
    "lyh": 4476,
    "tillis": 4477,
    "keske": 4478,
    "tama": 4479,
    "nus": 4480,
    "sena</w>": 4481,
    "energi": 4482,
    "mari": 4483,
    "oni": 4484,
    "tulis": 4485,
    "iki": 4486,
    "iani</w>": 4487,
    "popu": 4488,
    "tri": 4489,
    "äh": 4490,
    "IMO</w>": 4491,
    "sey</w>": 4492,
    "rö": 4493,
    "lat": 4494,
    "seitse": 4495,
    "tuke": 4496,
    "OO": 4497,
    "valmis</w>": 4498,
    "Inter": 4499,
    "aida": 4500,
    "lähin": 4501,
    "energia</w>": 4502,
    "Mol": 4503,
    "Belgi": 4504,
    "aeda</w>": 4505,
    "maailmansodan</w>": 4506,
    "meelest</w>": 4507,
    "1970</w>": 4508,
    "kkia</w>": 4509,
    "andus": 4510,
    "konna</w>": 4511,
    "sõida": 4512,
    "miljoonaa</w>": 4513,
    "kua</w>": 4514,
    "pead</w>": 4515,
    "eneb</w>": 4516,
    "bert</w>": 4517,
    "kista</w>": 4518,
    "õppejõ": 4519,
    "milles</w>": 4520,
    "johdosta</w>": 4521,
    "Tegel": 4522,
    "igasu": 4523,
    "püü": 4524,
    "Tho": 4525,
    "erittä": 4526,
    "itto</w>": 4527,
    "isessa</w>": 4528,
    "venälä": 4529,
    "omaa</w>": 4530,
    "Khosro": 4531,
    "paig": 4532,
    "jät</w>": 4533,
    "nädalat</w>": 4534,
    "Küll</w>": 4535,
    "misestä</w>": 4536,
    "mõist": 4537,
    "tona</w>": 4538,
    "gambi": 4539,
    "lol</w>": 4540,
    "erittäin</w>": 4541,
    "endada</w>": 4542,
    "Mutta</w>": 4543,
    "maksi</w>": 4544,
    "süga": 4545,
    "kiaan</w>": 4546,
    "gim": 4547,
    "kehte": 4548,
    "yksityis": 4549,
    "musest</w>": 4550,
    "teeseen</w>": 4551,
    "küm": 4552,
    "arvamust</w>": 4553,
    "vuotia": 4554,
    "õnnestu": 4555,
    "gambiitti</w>": 4556,
    "yp": 4557,
    "ihan": 4558,
    "yttä</w>": 4559,
    "ilun</w>": 4560,
    "pua</w>": 4561,
    "tilä": 4562,
    "sijoit": 4563,
    "tahab</w>": 4564,
    "kevadel</w>": 4565,
    "mauste": 4566,
    "zu": 4567,
    "ikogu</w>": 4568,
    "nämä</w>": 4569,
    "alueel": 4570,
    "annut</w>": 4571,
    "MT": 4572,
    "maansa</w>": 4573,
    "viikon": 4574,
    "Hiina</w>": 4575,
    "oikeasti</w>": 4576,
    "valgusest</w>": 4577,
    "teevad</w>": 4578,
    "voimakkaasti</w>": 4579,
    "kirkon</w>": 4580,
    "jõulu": 4581,
    "halua": 4582,
    "Lc": 4583,
    "taime</w>": 4584,
    "mustan</w>": 4585,
    "hiukan</w>": 4586,
    "ajo": 4587,
    "kooli": 4588,
    "aeg": 4589,
    "terve</w>": 4590,
    "tekib</w>": 4591,
    "ulussa</w>": 4592,
    "po</w>": 4593,
    "teiste</w>": 4594,
    "õnne": 4595,
    "dy": 4596,
    "Pole</w>": 4597,
    "ustatud</w>": 4598,
    "tila": 4599,
    "laulu": 4600,
    "Wor": 4601,
    "poi": 4602,
    "tase": 4603,
    "tööle</w>": 4604,
    "silti</w>": 4605,
    "julkis": 4606,
    "dynastian</w>": 4607,
    "Elä": 4608,
    "kuvia</w>": 4609,
    "pron": 4610,
    "kamer": 4611,
    "ütle</w>": 4612,
    "hakka</w>": 4613,
    "kaupungin": 4614,
    "tatakse</w>": 4615,
    "käytännössä</w>": 4616,
    "tehnyt</w>": 4617,
    "tehakse</w>": 4618,
    "yhdysvaltalainen</w>": 4619,
    "uuri": 4620,
    "maga</w>": 4621,
    "yhdessä</w>": 4622,
    "odava": 4623,
    "muret": 4624,
    "toivo": 4625,
    "Sitä</w>": 4626,
    "pysty": 4627,
    "erib</w>": 4628,
    "mujal</w>": 4629,
    "paikalla</w>": 4630,
    "Kaar": 4631,
    "olukord</w>": 4632,
    "mahta": 4633,
    "tulemust</w>": 4634,
    "janta": 4635,
    "pronssi": 4636,
    "uransa</w>": 4637,
    "pensi": 4638,
    "Helsingissä</w>": 4639,
    "päivänä</w>": 4640,
    "amet": 4641,
    "paku": 4642,
    "ühte": 4643,
    "mingisu": 4644,
    "onsa</w>": 4645,
    "ded</w>": 4646,
    "Iberian</w>": 4647,
    "ülesan": 4648,
    "lait": 4649,
    "tonsa</w>": 4650,
    "onia</w>": 4651,
    "tekijä": 4652,
    "BMW</w>": 4653,
    "joen</w>": 4654,
    "llöin</w>": 4655,
    "pike": 4656,
    "yhteydessä</w>": 4657,
    "Kiinan</w>": 4658,
    "arust</w>": 4659,
    "Pil": 4660,
    "eestis</w>": 4661,
    "palau": 4662,
    "Põh": 4663,
    "pannu": 4664,
    "Yhdysvaltain</w>": 4665,
    "toimii</w>": 4666,
    "eeseen</w>": 4667,
    "pippu": 4668,
    "ss</w>": 4669,
    "evad</w>": 4670,
    "kuhu</w>": 4671,
    "ysten</w>": 4672,
    "meile</w>": 4673,
    "pidet": 4674,
    "abi</w>": 4675,
    "Yle": 4676,
    "tunnetaan</w>": 4677,
    "käytetään</w>": 4678,
    "vista</w>": 4679,
    "tieto": 4680,
    "mõnda</w>": 4681,
    "tegemist</w>": 4682,
    "sivus": 4683,
    "tys": 4684,
    "võrrel": 4685,
    "näyttä": 4686,
    "mõtlesin</w>": 4687,
    "mõle": 4688,
    "päikese": 4689,
    "Keegi</w>": 4690,
    "vuodelta</w>": 4691,
    "õlle": 4692,
    "konnas</w>": 4693,
    "elikult</w>": 4694,
    "ron</w>": 4695,
    "sulle</w>": 4696,
    "johtajana</w>": 4697,
    "põl": 4698,
    "kilometriä</w>": 4699,
    "uudelleen</w>": 4700,
    "guse</w>": 4701,
    "vuosi": 4702,
    "tma</w>": 4703,
    "tavalt</w>": 4704,
    "nou": 4705,
    "võivad</w>": 4706,
    "Milja</w>": 4707,
    "õu": 4708,
    "pääll": 4709,
    "saku</w>": 4710,
    "kura": 4711,
    "äli</w>": 4712,
    "rive": 4713,
    "edi</w>": 4714,
    "Las": 4715,
    "mme": 4716,
    "projek": 4717,
    "det": 4718,
    "Blu": 4719,
    "lause": 4720,
    "03</w>": 4721,
    "poiste": 4722,
    "hoo</w>": 4723,
    "pais": 4724,
    "KA": 4725,
    "32</w>": 4726,
    "co</w>": 4727,
    "iske": 4728,
    "katu": 4729,
    "ii": 4730,
    "paken": 4731,
    "hard</w>": 4732,
    "pääst": 4733,
    "ate": 4734,
    "my</w>": 4735,
    "tavat</w>": 4736,
    "tsu": 4737,
    "p2": 4738,
    "ight</w>": 4739,
    "paras</w>": 4740,
    "SU": 4741,
    "kolma": 4742,
    "chine</w>": 4743,
    "rav": 4744,
    "aru": 4745,
    "ente": 4746,
    "Kal": 4747,
    "88</w>": 4748,
    "Paa": 4749,
    "Sain</w>": 4750,
    "oton</w>": 4751,
    "Viir": 4752,
    "teer": 4753,
    "Oli": 4754,
    "isin": 4755,
    "elle": 4756,
    "Ras": 4757,
    "fri": 4758,
    "tausta": 4759,
    "usul": 4760,
    "risti</w>": 4761,
    "kyll": 4762,
    "120</w>": 4763,
    "ska": 4764,
    "gala": 4765,
    "kasti</w>": 4766,
    "doll": 4767,
    "65</w>": 4768,
    "valv": 4769,
    "seko": 4770,
    "fin": 4771,
    "toe": 4772,
    "kala</w>": 4773,
    "II": 4774,
    "patal": 4775,
    "lenn": 4776,
    "kaan": 4777,
    "toimi": 4778,
    "jun": 4779,
    "Ven": 4780,
    "lamen": 4781,
    "arat</w>": 4782,
    "Pol": 4783,
    "avi": 4784,
    "ent</w>": 4785,
    "ksuja</w>": 4786,
    "nna": 4787,
    "39</w>": 4788,
    "Ai": 4789,
    "piti</w>": 4790,
    "parlamen": 4791,
    "joon</w>": 4792,
    "data": 4793,
    "joa</w>": 4794,
    "biil": 4795,
    "varian": 4796,
    "brit": 4797,
    "konkre": 4798,
    "Tele": 4799,
    "Ad": 4800,
    "ww": 4801,
    "hau": 4802,
    "gust</w>": 4803,
    "tür": 4804,
    "Sen": 4805,
    "put": 4806,
    "dite": 4807,
    "remon": 4808,
    "hol": 4809,
    "Vol": 4810,
    "ikku</w>": 4811,
    "esin</w>": 4812,
    "rais": 4813,
    "has</w>": 4814,
    "prog": 4815,
    "KUVA": 4816,
    "kraat": 4817,
    "toh": 4818,
    "konkreet": 4819,
    "www</w>": 4820,
    "võrd": 4821,
    "telt</w>": 4822,
    "löytyy</w>": 4823,
    "kerto": 4824,
    "päätö": 4825,
    "dru": 4826,
    "mium</w>": 4827,
    "nään</w>": 4828,
    "e5</w>": 4829,
    "mik</w>": 4830,
    "Tegelikult</w>": 4831,
    "kord": 4832,
    "süsteem</w>": 4833,
    "ollinen</w>": 4834,
    "saapu": 4835,
    "vajab</w>": 4836,
    "Ponto": 4837,
    "Põ": 4838,
    "oikein</w>": 4839,
    "Ya": 4840,
    "Ice</w>": 4841,
    "jau": 4842,
    "tävä</w>": 4843,
    "tark</w>": 4844,
    "uksesta</w>": 4845,
    "aliso": 4846,
    "ukseen</w>": 4847,
    "ylä": 4848,
    "likku</w>": 4849,
    "luotta": 4850,
    "asian</w>": 4851,
    "lõpe": 4852,
    "loodud</w>": 4853,
    "kotiin</w>": 4854,
    "nykyisin</w>": 4855,
    "Turun</w>": 4856,
    "olu</w>": 4857,
    "nimellä</w>": 4858,
    "tile</w>": 4859,
    "vissä</w>": 4860,
    "pitänyt</w>": 4861,
    "tensa</w>": 4862,
    "Åkeby</w>": 4863,
    "mood": 4864,
    "tarpe": 4865,
    "perinte": 4866,
    "pistettä</w>": 4867,
    "Itä</w>": 4868,
    "uudessa</w>": 4869,
    "mät</w>": 4870,
    "sellepärast</w>": 4871,
    "isellä</w>": 4872,
    "tore</w>": 4873,
    "etakse</w>": 4874,
    "itsenä": 4875,
    "puolueen</w>": 4876,
    "kuuluu</w>": 4877,
    "tekee</w>": 4878,
    "prügi": 4879,
    "kaua</w>": 4880,
    "tavaliselt</w>": 4881,
    "työn": 4882,
    "kvan": 4883,
    "Iranin</w>": 4884,
    "pako": 4885,
    "mõista</w>": 4886,
    "veebru": 4887,
    "toimub</w>": 4888,
    "kuulda</w>": 4889,
    "maske</w>": 4890,
    "elgi</w>": 4891,
    "hirmu": 4892,
    "1994</w>": 4893,
    "erinevaid</w>": 4894,
    "kindl": 4895,
    "voisi</w>": 4896,
    "süsteemi</w>": 4897,
    "Hy": 4898,
    "kusta</w>": 4899,
    "duvalt</w>": 4900,
    "joka": 4901,
    "imoodi</w>": 4902,
    "deemia</w>": 4903,
    "mõni": 4904,
    "gul": 4905,
    "yhtiö</w>": 4906,
    "ituksen</w>": 4907,
    "samasu": 4908,
    "korra</w>": 4909,
    "lee": 4910,
    "süda": 4911,
    "sarjan</w>": 4912,
    "tasid</w>": 4913,
    "poika</w>": 4914,
    "Risperid": 4915,
    "test": 4916,
    "võid</w>": 4917,
    "toidu</w>": 4918,
    "lange": 4919,
    "nit</w>": 4920,
    "Hiinas</w>": 4921,
    "kaamer": 4922,
    "kaupung": 4923,
    "meditsi": 4924,
    "itselle": 4925,
    "Char": 4926,
    "valko": 4927,
    "kot</w>": 4928,
    "asun": 4929,
    "saivat</w>": 4930,
    "innin</w>": 4931,
    "tegin</w>": 4932,
    "kalta": 4933,
    "ulkoma": 4934,
    "said</w>": 4935,
    "kski</w>": 4936,
    "Määttä": 4937,
    "kerge</w>": 4938,
    "Silloin</w>": 4939,
    "elin": 4940,
    "odassa</w>": 4941,
    "gis</w>": 4942,
    "tenkin</w>": 4943,
    "nakku": 4944,
    "jalt</w>": 4945,
    "toimu": 4946,
    "Mäkel": 4947,
    "tau": 4948,
    "surnud</w>": 4949,
    "ohja": 4950,
    "keer": 4951,
    "kkaan</w>": 4952,
    "las</w>": 4953,
    "kuole": 4954,
    "suolaa</w>": 4955,
    "käinud</w>": 4956,
    "jalkapallo": 4957,
    "suomalais": 4958,
    "perusteella</w>": 4959,
    "katki</w>": 4960,
    "kae": 4961,
    "loppuun</w>": 4962,
    "tätä</w>": 4963,
    "oloogia</w>": 4964,
    "gel</w>": 4965,
    "kuuden</w>": 4966,
    "tuo</w>": 4967,
    "rü": 4968,
    "näida": 4969,
    "häid</w>": 4970,
    "näide</w>": 4971,
    "toden": 4972,
    "näge": 4973,
    "elämän": 4974,
    "proovida</w>": 4975,
    "valgus": 4976,
    "gambiit": 4977,
    "ühtegi</w>": 4978,
    "pritsi": 4979,
    "d5</w>": 4980,
    "idel</w>": 4981,
    "esimene</w>": 4982,
    "h4</w>": 4983,
    "ann": 4984,
    "kellä</w>": 4985,
    "lo</w>": 4986,
    "Elo": 4987,
    "Mitro</w>": 4988,
    "füüsika": 4989,
    "sissa</w>": 4990,
    "Teine</w>": 4991,
    "lugeda</w>": 4992,
    "lehd": 4993,
    "usal": 4994,
    "YLEn</w>": 4995,
    "mies": 4996,
    "päälle</w>": 4997,
    "idien</w>": 4998,
    "mõte</w>": 4999,
    "missä</w>": 5000
}